{"version":"1.0","truncation":null,"padding":null,"added_tokens":[{"id":0,"special":true,"content":"[UNK]","single_word":false,"lstrip":false,"rstrip":false,"normalized":false},{"id":1,"special":true,"content":"[CLS]","single_word":false,"lstrip":false,"rstrip":false,"normalized":false},{"id":2,"special":true,"content":"[SEP]","single_word":false,"lstrip":false,"rstrip":false,"normalized":false},{"id":3,"special":true,"content":"[PAD]","single_word":false,"lstrip":false,"rstrip":false,"normalized":false},{"id":4,"special":true,"content":"[MASK]","single_word":false,"lstrip":false,"rstrip":false,"normalized":false}],"normalizer":{"type":"Sequence","normalizers":[{"type":"NFD"},{"type":"Lowercase"},{"type":"StripAccents"}]},"pre_tokenizer":{"type":"Whitespace"},"post_processor":{"type":"TemplateProcessing","single":[{"SpecialToken":{"id":"[CLS]","type_id":0}},{"Sequence":{"id":"A","type_id":0}},{"SpecialToken":{"id":"[SEP]","type_id":0}}],"pair":[{"SpecialToken":{"id":"[CLS]","type_id":0}},{"Sequence":{"id":"A","type_id":0}},{"SpecialToken":{"id":"[SEP]","type_id":0}},{"Sequence":{"id":"B","type_id":1}},{"SpecialToken":{"id":"[SEP]","type_id":1}}],"special_tokens":{"[CLS]":{"id":"[CLS]","ids":[1],"tokens":["[CLS]"]},"[SEP]":{"id":"[SEP]","ids":[2],"tokens":["[SEP]"]}}},"decoder":null,"model":{"type":"WordPiece","unk_token":"[UNK]","continuing_subword_prefix":"##","max_input_chars_per_word":100,"vocab":{"[UNK]":0,"[CLS]":1,"[SEP]":2,"[PAD]":3,"[MASK]":4,"!":5,"\"":6,"#":7,"$":8,"%":9,"&":10,"'":11,"(":12,")":13,"*":14,"+":15,",":16,"-":17,".":18,"/":19,"0":20,"1":21,"2":22,"3":23,"4":24,"5":25,"6":26,"7":27,"8":28,"9":29,":":30,";":31,"<":32,"=":33,">":34,"?":35,"@":36,"[":37,"\\":38,"]":39,"^":40,"_":41,"`":42,"a":43,"b":44,"c":45,"d":46,"e":47,"f":48,"g":49,"h":50,"i":51,"j":52,"k":53,"l":54,"m":55,"n":56,"o":57,"p":58,"q":59,"r":60,"s":61,"t":62,"u":63,"v":64,"w":65,"x":66,"y":67,"z":68,"{":69,"|":70,"}":71,"~":72,"":73,"":74,"":75,"":76,"¡":77,"¢":78,"£":79,"¥":80,"§":81,"©":82,"«":83,"­":84,"®":85,"¯":86,"°":87,"±":88,"²":89,"³":90,"´":91,"µ":92,"¶":93,"·":94,"¹":95,"º":96,"»":97,"¼":98,"½":99,"¾":100,"¿":101,"×":102,"ß":103,"æ":104,"ð":105,"÷":106,"ø":107,"þ":108,"đ":109,"ħ":110,"ı":111,"ł":112,"ŋ":113,"œ":114,"ƒ":115,"ǂ":116,"ɐ":117,"ɑ":118,"ɒ":119,"ɓ":120,"ɔ":121,"ɕ":122,"ɖ":123,"ɗ":124,"ə":125,"ɛ":126,"ɟ":127,"ɡ":128,"ɢ":129,"ɣ":130,"ɦ":131,"ɧ":132,"ɨ":133,"ɪ":134,"ɬ":135,"ɯ":136,"ɲ":137,"ɴ":138,"ɵ":139,"ɸ":140,"ɻ":141,"ɾ":142,"ʀ":143,"ʁ":144,"ʂ":145,"ʃ":146,"ʇ":147,"ʈ":148,"ʊ":149,"ʋ":150,"ʌ":151,"ʍ":152,"ʎ":153,"ʒ":154,"ʔ":155,"ʕ":156,"ʘ":157,"ʝ":158,"ʟ":159,"ʰ":160,"ʲ":161,"ʷ":162,"ʻ":163,"ʼ":164,"ʾ":165,"ʿ":166,"ˀ":167,"ˁ":168,"ˈ":169,"ˌ":170,"ː":171,"˔":172,"˘":173,"˚":174,"˞":175,"ˠ":176,"ˤ":177,"˥":178,"˦":179,"˧":180,"˨":181,"˩":182,"α":183,"β":184,"γ":185,"δ":186,"ε":187,"ζ":188,"η":189,"θ":190,"ι":191,"κ":192,"λ":193,"μ":194,"ν":195,"ξ":196,"ο":197,"π":198,"ρ":199,"ς":200,"σ":201,"τ":202,"υ":203,"φ":204,"χ":205,"ψ":206,"ω":207,"ϕ":208,"а":209,"б":210,"в":211,"г":212,"д":213,"е":214,"ж":215,"з":216,"и":217,"к":218,"л":219,"м":220,"н":221,"о":222,"п":223,"р":224,"с":225,"т":226,"у":227,"х":228,"ц":229,"ч":230,"ш":231,"ъ":232,"ы":233,"ь":234,"э":235,"ю":236,"я":237,"і":238,"ј":239,"љ":240,"ա":241,"բ":242,"ե":243,"թ":244,"ի":245,"կ":246,"հ":247,"ղ":248,"մ":249,"յ":250,"ն":251,"շ":252,"ո":253,"պ":254,"ս":255,"վ":256,"տ":257,"ր":258,"ց":259,"ւ":260,"ք":261,"א":262,"ב":263,"ג":264,"ד":265,"ו":266,"ח":267,"י":268,"כ":269,"ל":270,"ם":271,"מ":272,"ן":273,"נ":274,"ס":275,"ע":276,"צ":277,"ר":278,"ש":279,"ת":280,"،":281,"ء":282,"ا":283,"ب":284,"ة":285,"ت":286,"ث":287,"ج":288,"ح":289,"خ":290,"د":291,"ر":292,"ز":293,"س":294,"ش":295,"ص":296,"ط":297,"ع":298,"غ":299,"ف":300,"ق":301,"ك":302,"ل":303,"م":304,"ن":305,"ه":306,"و":307,"ي":308,"ی":309,"अ":310,"आ":311,"उ":312,"क":313,"ग":314,"ट":315,"ड":316,"त":317,"द":318,"न":319,"प":320,"ब":321,"भ":322,"म":323,"य":324,"र":325,"ल":326,"श":327,"ष":328,"स":329,"ह":330,"।":331,"॥":332,"ক":333,"ত":334,"ন":335,"ব":336,"ম":337,"ল":338,"க":339,"ன":340,"ள":341,"ก":342,"ข":343,"ง":344,"จ":345,"ช":346,"ฐ":347,"ณ":348,"ต":349,"ท":350,"น":351,"ป":352,"พ":353,"ม":354,"ย":355,"ร":356,"ล":357,"ว":358,"ะ":359,"า":360,"฿":361,"เ":362,"แ":363,"་":364,"།":365,"င":366,"ဆ":367,"န":368,"ရ":369,"გ":370,"დ":371,"ვ":372,"ზ":373,"ი":374,"კ":375,"ო":376,"რ":377,"ს":378,"უ":379,"ც":380,"ძ":381,"წ":382,"ხ":383,"ჯ":384,"჻":385,"ᄀ":386,"ᄅ":387,"ᄆ":388,"ᄉ":389,"ᄋ":390,"ᄌ":391,"ᄐ":392,"ᄒ":393,"ᅡ":394,"ᅥ":395,"ᅮ":396,"ᅵ":397,"ᆨ":398,"ᆫ":399,"ᆯ":400,"ᆺ":401,"፡":402,"ᛃ":403,"ᛋ":404,"ᛟ":405,"ត":406,"ន":407,"ព":408,"ម":409,"រ":410,"ស":411,"ហ":412,"​":413,"‌":414,"‍":415,"‐":416,"‑":417,"‒":418,"–":419,"—":420,"―":421,"‘":422,"’":423,"‚":424,"“":425,"”":426,"„":427,"†":428,"‡":429,"•":430,"…":431,"‰":432,"′":433,"″":434,"※":435,"‼":436,"‿":437,"⁄":438,"⁊":439,"⁡":440,"⁺":441,"₁":442,"₂":443,"₃":444,"₡":445,"₣":446,"₤":447,"₦":448,"₨":449,"₩":450,"₫":451,"€":452,"₱":453,"₹":454,"℃":455,"ℓ":456,"№":457,"™":458,"⅓":459,"⅔":460,"⅛":461,"⅜":462,"⅝":463,"⅞":464,"←":465,"↑":466,"→":467,"↓":468,"↔":469,"↗":470,"↦":471,"↪":472,"⇄":473,"⇌":474,"∀":475,"∂":476,"∆":477,"∈":478,"∑":479,"−":480,"∕":481,"∖":482,"∗":483,"∘":484,"√":485,"∝":486,"∞":487,"∩":488,"∪":489,"∴":490,"∼":491,"≈":492,"≡":493,"≤":494,"≥":495,"≪":496,"⊂":497,"⊕":498,"⊗":499,"⊙":500,"⊥":501,"⋅":502,"⋯":503,"⌊":504,"⌋":505,"①":506,"②":507,"④":508,"█":509,"▲":510,"★":511,"☆":512,"☉":513,"♀":514,"♠":515,"♣":516,"♥":517,"♦":518,"♩":519,"♪":520,"♭":521,"♮":522,"♯":523,"⟦":524,"⟧":525,"⟨":526,"⟩":527,"⩽":528,"ⴷ":529,"、":530,"。":531,"〈":532,"〉":533,"「":534,"」":535,"『":536,"』":537,"〜":538,"あ":539,"い":540,"ぅ":541,"う":542,"お":543,"か":544,"き":545,"く":546,"こ":547,"さ":548,"し":549,"す":550,"せ":551,"た":552,"ち":553,"つ":554,"て":555,"と":556,"な":557,"の":558,"は":559,"ふ":560,"へ":561,"ほ":562,"ま":563,"み":564,"め":565,"よ":566,"ら":567,"り":568,"る":569,"ん":570,"ァ":571,"ア":572,"ィ":573,"イ":574,"ウ":575,"ェ":576,"エ":577,"ォ":578,"オ":579,"カ":580,"キ":581,"ク":582,"ケ":583,"コ":584,"サ":585,"シ":586,"ス":587,"セ":588,"ソ":589,"タ":590,"チ":591,"ッ":592,"ツ":593,"テ":594,"ト":595,"ナ":596,"ニ":597,"ノ":598,"ハ":599,"ヒ":600,"フ":601,"ヘ":602,"ホ":603,"マ":604,"ミ":605,"ム":606,"メ":607,"モ":608,"ャ":609,"ヤ":610,"ュ":611,"ユ":612,"ョ":613,"ラ":614,"リ":615,"ル":616,"レ":617,"ロ":618,"ワ":619,"ン":620,"・":621,"ー":622,"一":623,"三":624,"上":625,"下":626,"不":627,"丑":628,"世":629,"个":630,"久":631,"之":632,"乙":633,"二":634,"五":635,"亦":636,"京":637,"人":638,"介":639,"仙":640,"令":641,"伝":642,"住":643,"佛":644,"作":645,"併":646,"侠":647,"個":648,"催":649,"像":650,"光":651,"内":652,"写":653,"冴":654,"净":655,"凪":656,"分":657,"列":658,"刘":659,"初":660,"判":661,"別":662,"前":663,"剛":664,"剣":665,"劇":666,"動":667,"勝":668,"北":669,"匹":670,"千":671,"卒":672,"南":673,"博":674,"厘":675,"双":676,"台":677,"号":678,"同":679,"名":680,"君":681,"呼":682,"哈":683,"四":684,"回":685,"国":686,"國":687,"土":688,"坂":689,"場":690,"境":691,"士":692,"外":693,"大":694,"天":695,"太":696,"女":697,"姉":698,"婷":699,"子":700,"字":701,"季":702,"孩":703,"守":704,"宋":705,"宗":706,"寔":707,"寺":708,"小":709,"少":710,"尾":711,"巨":712,"廷":713,"式":714,"弘":715,"张":716,"張":717,"彼":718,"後":719,"心":720,"思":721,"愛":722,"憲":723,"戦":724,"房":725,"所":726,"撃":727,"攻":728,"新":729,"方":730,"日":731,"旦":732,"早":733,"星":734,"春":735,"時":736,"書":737,"月":738,"朝":739,"木":740,"本":741,"李":742,"杜":743,"束":744,"条":745,"東":746,"松":747,"枚":748,"條":749,"植":750,"椎":751,"楽":752,"様":753,"機":754,"正":755,"武":756,"歩":757,"死":758,"殻":759,"氏":760,"民":761,"気":762,"氣":763,"水":764,"氷":765,"氾":766,"法":767,"活":768,"流":769,"浅":770,"海":771,"溜":772,"瀬":773,"火":774,"無":775,"版":776,"特":777,"王":778,"瓦":779,"生":780,"用":781,"田":782,"町":783,"界":784,"畫":785,"皮":786,"真":787,"礮":788,"神":789,"秋":790,"積":791,"空":792,"章":793,"箇":794,"節":795,"米":796,"約":797,"紋":798,"綾":799,"緑":800,"編":801,"群":802,"羽":803,"耕":804,"聖":805,"肖":806,"膺":807,"芝":808,"花":809,"草":810,"莊":811,"蛍":812,"街":813,"裁":814,"装":815,"西":816,"見":817,"語":818,"説":819,"議":820,"词":821,"谷":822,"路":823,"軍":824,"転":825,"輝":826,"逆":827,"進":828,"道":829,"遠":830,"邪":831,"部":832,"野":833,"量":834,"金":835,"銀":836,"銖":837,"錬":838,"隊":839,"隴":840,"隻":841,"雄":842,"集":843,"雪":844,"零":845,"靈":846,"青":847,"韓":848,"風":849,"鬼":850,"魂":851,"魄":852,"魔":853,"鼓":854,"ﬁ":855,"﻿":856,"！":857,"＆":858,"（":859,"）":860,"，":861,"－":862,"：":863,"＝":864,"？":865,"～":866,"｢":867,"･":868,"￥":869,"##u":870,"##n":871,"##d":872,"##o":873,"##l":874,"##f":875,"##e":876,"##t":877,"##a":878,"##c":879,"##h":880,"##r":881,"##m":882,"##i":883,"##s":884,"##k":885,"##y":886,"##w":887,"##z":888,"##v":889,"##p":890,"##g":891,"##b":892,"##x":893,"##j":894,"##9":895,"##7":896,"##2":897,"##q":898,"##8":899,"##0":900,"##ε":901,"##φ":902,"##α":903,"##λ":904,"##ι":905,"##5":906,"##4":907,"##3":908,"##æ":909,"##1":910,"##6":911,"##ウ":912,"##ン":913,"##ト":914,"##ラ":915,"##ッ":916,"##ク":917,"##ن":918,"##ø":919,"##ʻ":920,"##つ":921,"##は":922,"##ð":923,"##ʰ":924,"##神":925,"##転":926,"##生":927,"##編":928,"##ß":929,"##-":930,"##@":931,"##ı":932,"##œ":933,"##キ":934,"##カ":935,"##τ":936,"##ο":937,"##υ":938,"##ω":939,"##ν":940,"##द":941,"##र":942,"##リ":943,"##シ":944,"##ナ":945,"##ル":946,"##サ":947,"##β":948,"##ス":949,"##タ":950,"##ー":951,"##º":952,"##ł":953,"##đ":954,"##с":955,"##р":956,"##و":957,"##.":958,"##κ":959,"##ρ":960,"##δ":961,"##ς":962,"##ল":963,"##ক":964,"##ত":965,"##芝":966,"##谷":967,"##活":968,"##心":969,"##流":970,"##س":971,"##ج":972,"##د":973,"##μ":974,"##天":975,"##守":976,"##и":977,"##г":978,"##尾":979,"##ط":980,"##ا":981,"##ر":982,"##ニ":983,"##ʊ":984,"##ˈ":985,"##ɛ":986,"##ə":987,"##ล":988,"##ย":989,"##า":990,"##ณ":991,"##ม":992,"##ต":993,"##ร":994,"##ξ":995,"##η":996,"##θ":997,"##а":998,"##н":999,"##ы":1000,"##χ":1001,"##ب":1002,"##ز":1003,"##木":1004,"##ア":1005,"##ヘ":1006,"##チ":1007,"##ャ":1008,"##ա":1009,"##ր":1010,"##պ":1011,"##ե":1012,"##տ":1013,"##ו":1014,"##о":1015,"##в":1016,"##ч":1017,"##д":1018,"##म":1019,"##レ":1020,"##ː":1021,"##រ":1022,"##ត":1023,"##剛":1024,"##コ":1025,"##ホ":1026,"##е":1027,"##м":1028,"##ム":1029,"##σ":1030,"##別":1031,"##`":1032,"##語":1033,"##ل":1034,"##م":1035,"##ك":1036,"##場":1037,"##の":1038,"##ァ":1039,"##ュ":1040,"##ي":1041,"##ʀ":1042,"##魂":1043,"##ɪ":1044,"##溜":1045,"##り":1046,"##街":1047,"##銖":1048,"##ロ":1049,"##ר":1050,"##ן":1051,"##т":1052,"##п":1053,"##ц":1054,"##þ":1055,"##く":1056,"##ぅ":1057,"##ម":1058,"##ก":1059,"##ะ":1060,"##ป":1061,"##љ":1062,"##憲":1063,"##ʷ":1064,"##佛":1065,"##女":1066,"##孩":1067,"##刘":1068,"##亦":1069,"##婷":1070,"##メ":1071,"##ه":1072,"##ء":1073,"##坂":1074,"##し":1075,"##め":1076,"##一":1077,"##歩":1078,"##ψ":1079,"##у":1080,"##ж":1081,"##э":1082,"##б":1083,"##л":1084,"##і":1085,"##к":1086,"##イ":1087,"##フ":1088,"##π":1089,"##韓":1090,"##邪":1091,"##ϕ":1092,"##յ":1093,"##կ":1094,"##ն":1095,"##西":1096,"##李":1097,"##氏":1098,"##ग":1099,"##ल":1100,"##ʲ":1101,"##ʿ":1102,"##ᅵ":1103,"##ᆫ":1104,"##ᄉ":1105,"##ᅡ":1106,"##ɔ":1107,"##ʁ":1108,"##ʒ":1109,"##ɑ":1110,"##ղ":1111,"##ց":1112,"##ի":1113,"##न":1114,"##礮":1115,"##ј":1116,"##ք":1117,"##'":1118,"##ミ":1119,"##ソ":1120,"##エ":1121,"##い":1122,"##る":1123,"##町":1124,"##я":1125,"##勝":1126,"##之":1127,"##書":1128,"##ь":1129,"##ю":1130,"##з":1131,"##ェ":1132,"##ヒ":1133,"##个":1134,"##人":1135,"##ح":1136,"##ث":1137,"##ノ":1138,"##国":1139,"##ɨ":1140,"##野":1141,"##法":1142,"##少":1143,"##ま":1144,"##と":1145,"##か":1146,"##ص":1147,"##姉":1148,"##さ":1149,"##テ":1150,"##ィ":1151,"##ユ":1152,"##マ":1153,"##遠":1154,"##क":1155,"##ォ":1156,"##ɡ":1157,"##ъ":1158,"##γ":1159,"##թ":1160,"##ո":1161,"##त":1162,"##ハ":1163,"##ش":1164,"##ی":1165,"##ɬ":1166,"##セ":1167,"##ʾ":1168,"##շ":1169,"##ケ":1170,"##モ":1171,"##ম":1172,"##ন":1173,"##装":1174,"##錬":1175,"##金":1176,"##จ":1177,"##た":1178,"##群":1179,"##紋":1180,"##章":1181,"##鼓":1182,"##京":1183,"##ʃ":1184,"##ᄌ":1185,"##ᄆ":1186,"##ᆨ":1187,"##名":1188,"##殻":1189,"##機":1190,"##動":1191,"##隊":1192,"##瓦":1193,"##す":1194,"##ん":1195,"##大":1196,"##王":1197,"##ת":1198,"##ᄅ":1199,"##ᅮ":1200,"##ᄒ":1201,"##ள":1202,"##耕":1203,"##見":1204,"##ة":1205,"##ع":1206,"##נ":1207,"##ג":1208,"##剣":1209,"##伝":1210,"##説":1211,"##季":1212,"##節":1213,"##へ":1214,"##零":1215,"##式":1216,"##ह":1217,"##ツ":1218,"##卒":1219,"##י":1220,"##台":1221,"##ち":1222,"##肖":1223,"##像":1224,"##ˀ":1225,"##様":1226,"##み":1227,"##て":1228,"##ᅥ":1229,"##ᆺ":1230,"##ᆯ":1231,"##併":1232,"##用":1233,"##太":1234,"##秋":1235,"##ら":1236,"##き":1237,"##こ":1238,"##せ":1239,"##瀬":1240,"##ˠ":1241,"##ζ":1242,"##版":1243,"##词":1244,"##草":1245,"##寺":1246,"##境":1247,"##内":1248,"##空":1249,"##प":1250,"##ष":1251,"##列":1252,"##海":1253,"##弘":1254,"##雄":1255,"##ف":1256,"##撃":1257,"##巨":1258,"##積":1259,"##回":1260,"##路":1261,"##ワ":1262,"##な":1263,"##世":1264,"##界":1265,"##င":1266,"##ח":1267,"##ם":1268,"##子":1269,"##本":1270,"##ʌ":1271,"##ל":1272,"##議":1273,"##ʼ":1274,"##ŋ":1275,"##住":1276,"##ហ":1277,"##ន":1278,"##春":1279,"##ս":1280,"##寔":1281,"##士":1282,"##ᄐ":1283,"##軍":1284,"##ت":1285,"##方":1286,"##武":1287,"##侠":1288,"##写":1289,"##真":1290,"##束":1291,"##所":1292,"##แ":1293,"##ท":1294,"##火":1295,"##杜":1296,"##房":1297,"##皮":1298,"##,":1299,"##膺":1300,"##國":1301,"##無":1302,"##双":1303,"##स":1304,"##բ":1305,"##ˁ":1306,"##န":1307,"##ˤ":1308,"##ほ":1309,"##号":1310,"##作":1311,"##戦":1312,"##オ":1313,"##ш":1314,"##民":1315,"##月":1316,"##令":1317,"##כ":1318,"##ב":1319,"##ข":1320,"##พ":1321,"##ช":1322,"##ฐ":1323,"##น":1324,"##死":1325,"##ヤ":1326,"##朝":1327,"##ש":1328,"##א":1329,"##վ":1330,"##հ":1331,"##צ":1332,"##ע":1333,"##ق":1334,"##ɲ":1335,"##裁":1336,"##判":1337,"##ョ":1338,"##不":1339,"##思":1340,"##外":1341,"##ւ":1342,"##ふ":1343,"##彼":1344,"th":1345,"the":1346,"##er":1347,"##in":1348,"##ed":1349,"##on":1350,"##nd":1351,"##or":1352,"##es":1353,"##at":1354,"##en":1355,"##ar":1356,"in":1357,"of":1358,"##an":1359,"##al":1360,"##ing":1361,"##it":1362,"##as":1363,"and":1364,"##is":1365,"to":1366,"##ic":1367,"##ou":1368,"##ion":1369,"##re":1370,"##om":1371,"##el":1372,"##il":1373,"##ec":1374,"##ent":1375,"##st":1376,"##th":1377,"##am":1378,"##ro":1379,"on":1380,"was":1381,"##ac":1382,"##ad":1383,"##le":1384,"##ur":1385,"st":1386,"##et":1387,"for":1388,"##ly":1389,"##ol":1390,"##ir":1391,"wh":1392,"as":1393,"@-":1394,"@-@":1395,"##ter":1396,"##id":1397,"##iv":1398,"##ig":1399,"re":1400,"un":1401,"##ith":1402,"##im":1403,"##ow":1404,"##ay":1405,"be":1406,"al":1407,"##ch":1408,"##ut":1409,"with":1410,"##ation":1411,"that":1412,"##ers":1413,"##ot":1414,"it":1415,"##em":1416,"con":1417,"by":1418,"an":1419,"at":1420,"fr":1421,"is":1422,"he":1423,"##us":1424,"##ce":1425,"##ver":1426,"ch":1427,"sh":1428,"##ul":1429,"##est":1430,"##and":1431,"##ain":1432,"19":1433,"##os":1434,"his":1435,"##av":1436,"##ag":1437,"com":1438,"##um":1439,"##ere":1440,"unk":1441,"##ct":1442,"se":1443,"from":1444,"su":1445,"pro":1446,"##ess":1447,"##od":1448,"de":1449,"##ri":1450,"20":1451,"##ap":1452,"##ist":1453,"##ect":1454,"ne":1455,"##igh":1456,"##un":1457,"##op":1458,"##ill":1459,"##ies":1460,"##ich":1461,"##ber":1462,"##ard":1463,"##if":1464,"or":1465,"##art":1466,"##ld":1467,"ar":1468,"were":1469,"ex":1470,"pl":1471,"##ate":1472,"##all":1473,"##oc":1474,"##ak":1475,"pr":1476,"##ab":1477,"le":1478,"##pp":1479,"##ant":1480,"sp":1481,"##ther":1482,"##ud":1483,"##gh":1484,"##ort":1485,"##ong":1486,"##ated":1487,"##se":1488,"tr":1489,"##ity":1490,"##ive":1491,"##ie":1492,"en":1493,"##ame":1494,"had":1495,"##ore":1496,"##ish":1497,"##ge":1498,"##ack":1499,"##ear":1500,"##our":1501,"##ip":1502,"##ast":1503,"which":1504,"##ough":1505,"are":1506,"##ell":1507,"##ov":1508,"##ment":1509,"af":1510,"not":1511,"##ian":1512,"##ound":1513,"##ial":1514,"##ost":1515,"##pt":1516,"rec":1517,"##ight":1518,"cl":1519,"##qu":1520,"##ia":1521,"wor":1522,"##ust":1523,"##ary":1524,"##ine":1525,"br":1526,"##oun":1527,"##cc":1528,"ad":1529,"##ical":1530,"##ave":1531,"fir":1532,"comp":1533,"her":1534,"but":1535,"##te":1536,"##ord":1537,"this":1538,"200":1539,"bo":1540,"##ould":1541,"sc":1542,"inc":1543,"tw":1544,"after":1545,"##ous":1546,"ab":1547,"first":1548,"cont":1549,"gr":1550,"##ions":1551,"##so":1552,"res":1553,"its":1554,"new":1555,"##ach":1556,"##ome":1557,"their":1558,"##ure":1559,"all":1560,"am":1561,"ro":1562,"one":1563,"man":1564,"##ue":1565,"int":1566,"##per":1567,"per":1568,"##ign":1569,"##ass":1570,"also":1571,"mar":1572,"us":1573,"rel":1574,"##ub":1575,"##out":1576,"##ater":1577,"##ok":1578,"##oll":1579,"tim":1580,"##00":1581,"##age":1582,"##ide":1583,"##ond":1584,"they":1585,"##og":1586,"ser":1587,"##orm":1588,"##ire":1589,"##ath":1590,"two":1591,"##ru":1592,"part":1593,"ag":1594,"who":1595,"comm":1596,"fe":1597,"##ry":1598,"des":1599,"##rit":1600,"have":1601,"##du":1602,"##ans":1603,"bec":1604,"go":1605,"##ally":1606,"##ence":1607,"##ff":1608,"she":1609,"app":1610,"dis":1611,"##ree":1612,"18":1613,"@.":1614,"@.@":1615,"##ance":1616,"##ile":1617,"we":1618,"##ition":1619,"##pl":1620,"year":1621,"##ra":1622,"##own":1623,"off":1624,"play":1625,"has":1626,"##uring":1627,"##ted":1628,"been":1629,"##iz":1630,"##ely":1631,"201":1632,"@,":1633,"@,@":1634,"over":1635,"im":1636,"car":1637,"##lud":1638,"co":1639,"##ory":1640,"##ice":1641,"out":1642,"##ations":1643,"##ember":1644,"up":1645,"##act":1646,"##ke":1647,"inter":1648,"ev":1649,"##ace":1650,"me":1651,"dec":1652,"fin":1653,"##wn":1654,"te":1655,"when":1656,"##land":1657,"pre":1658,"##ens":1659,"##ade":1660,"##ult":1661,"time":1662,"##pr":1663,"other":1664,"during":1665,"nor":1666,"##ib":1667,"##ail":1668,"can":1669,"##urn":1670,"includ":1671,"##ced":1672,"ind":1673,"fl":1674,"would":1675,"sec":1676,"##ric":1677,"fil":1678,"##one":1679,"##ks":1680,"##ward":1681,"into":1682,"##we":1683,"##nder":1684,"##man":1685,"him":1686,"act":1687,"att":1688,"##ang":1689,"bl":1690,"##ount":1691,"##ite":1692,"ear":1693,"war":1694,"##ates":1695,"jo":1696,"##ied":1697,"##able":1698,"##eas":1699,"##ph":1700,"more":1701,"char":1702,"high":1703,"##ited":1704,"##ose":1705,"cent":1706,"form":1707,"film":1708,"bet":1709,"##amp":1710,"##ents":1711,"##way":1712,"par":1713,"acc":1714,"##ces":1715,"sou":1716,"##les":1717,"##ors":1718,"##old":1719,"el":1720,"##ason":1721,"##form":1722,"cons":1723,"while":1724,"##ings":1725,"##aw":1726,"no":1727,"##vel":1728,"mus":1729,"most":1730,"some":1731,"game":1732,"##ild":1733,"there":1734,"thr":1735,"##port":1736,"kn":1737,"rem":1738,"po":1739,"##ts":1740,"gen":1741,"ass":1742,"##ind":1743,"##fer":1744,"##ious":1745,"##gr":1746,"##ake":1747,"how":1748,"##ick":1749,"so":1750,"##aus":1751,"later":1752,"qu":1753,"em":1754,"song":1755,"produ":1756,"bu":1757,"again":1758,"##iss":1759,"only":1760,"reg":1761,"##ft":1762,"##gan":1763,"##ved":1764,"##rib":1765,"under":1766,"pe":1767,"##att":1768,"work":1769,"##ction":1770,"##reat":1771,"them":1772,"may":1773,"than":1774,"##eld":1775,"##ood":1776,"sy":1777,"ret":1778,"##pe":1779,"##ered":1780,"three":1781,"about":1782,"##ve":1783,"##ubl":1784,"##als":1785,"199":1786,"sch":1787,"##ween":1788,"##ix":1789,"between":1790,"##ollow":1791,"day":1792,"air":1793,"##ons":1794,"north":1795,"col":1796,"through":1797,"bro":1798,"ph":1799,"record":1800,"follow":1801,"##hip":1802,"mon":1803,"min":1804,"eng":1805,"##ational":1806,"second":1807,"bas":1808,"##ock":1809,"##fore":1810,"ma":1811,"end":1812,"##eric":1813,"releas":1814,"li":1815,"##ict":1816,"num":1817,"##ters":1818,"pres":1819,"ac":1820,"sub":1821,"dr":1822,"##hn":1823,"##iew":1824,"sa":1825,"##orn":1826,"season":1827,"alb":1828,"four":1829,"def":1830,"##ton":1831,"au":1832,"ep":1833,"##ey":1834,"pos":1835,"americ":1836,"world":1837,"do":1838,"where":1839,"cap":1840,"before":1841,"team":1842,"mov":1843,"south":1844,"spec":1845,"##ral":1846,"##ular":1847,"##ames":1848,"##ating":1849,"writ":1850,"arm":1851,"made":1852,"lar":1853,"sm":1854,"##ision":1855,"gu":1856,"##ived":1857,"will":1858,"such":1859,"sur":1860,"pol":1861,"sing":1862,"000":1863,"album":1864,"publ":1865,"rev":1866,"##atch":1867,"##ished":1868,"sever":1869,"##ever":1870,"##son":1871,"years":1872,"##ained":1873,"##io":1874,"##ode":1875,"supp":1876,"loc":1877,"call":1878,"##ics":1879,"##red":1880,"10":1881,"##ros":1882,"##ery":1883,"show":1884,"back":1885,"add":1886,"str":1887,"gener":1888,"inv":1889,"both":1890,"count":1891,"##ected":1892,"##tern":1893,"then":1894,"however":1895,"##ual":1896,"epis":1897,"##ily":1898,"used":1899,"rece":1900,"##ning":1901,"mill":1902,"being":1903,"##ific":1904,"these":1905,"well":1906,"##ection":1907,"stud":1908,"series":1909,"##ury":1910,"against":1911,"batt":1912,"ed":1913,"set":1914,"##ale":1915,"charac":1916,"##air":1917,"##ten":1918,"inst":1919,"##velop":1920,"##oup":1921,"bel":1922,"##au":1923,"found":1924,"number":1925,"##ank":1926,"##ife":1927,"lead":1928,"many":1929,"##ement":1930,"music":1931,"17":1932,"perform":1933,"ste":1934,"sim":1935,"##led":1936,"main":1937,"long":1938,"city":1939,"pop":1940,"ter":1941,"op":1942,"##ause":1943,"brit":1944,"##ince":1945,"develop":1946,"##ool":1947,"##ane":1948,"became":1949,"##int":1950,"##other":1951,"united":1952,"several":1953,"dire":1954,"including":1955,"hist":1956,"met":1957,"##oy":1958,"##igin":1959,"##fl":1960,"art":1961,"##ron":1962,"##az":1963,"state":1964,"cre":1965,"early":1966,"mil":1967,"sl":1968,"origin":1969,"##ower":1970,"div":1971,"##vern":1972,"##ise":1973,"198":1974,"##ised":1975,"ob":1976,"15":1977,"12":1978,"did":1979,"trans":1980,"appear":1981,"##ier":1982,"##ures":1983,"dist":1984,"##ork":1985,"##ather":1986,"##its":1987,"194":1988,"nov":1989,"##ines":1990,"ship":1991,"##til":1992,"govern":1993,"contin":1994,"##are":1995,"pers":1996,"##ities":1997,"conc":1998,"win":1999,"##rop":2000,"##elf":2001,"episode":2002,"prov":2003,"states":2004,"##ross":2005,"est":2006,"crit":2007,"##olog":2008,"said":2009,"##iet":2010,"john":2011,"following":2012,"##ird":2013,"ann":2014,"##ley":2015,"##ful":2016,"const":2017,"design":2018,"group":2019,"##uch":2020,"could":2021,"##ield":2022,"dif":2023,"oper":2024,"return":2025,"##ative":2026,"american":2027,"med":2028,"run":2029,"16":2030,"cr":2031,"desc":2032,"##ouse":2033,"alth":2034,"exp":2035,"known":2036,"##eng":2037,"##tend":2038,"although":2039,"comple":2040,"ger":2041,"near":2042,"direct":2043,"##der":2044,"aust":2045,"any":2046,"##ivers":2047,"west":2048,"bar":2049,"##anc":2050,"sign":2051,"serv":2052,"197":2053,"##tain":2054,"king":2055,"##ann":2056,"jun":2057,"mod":2058,"##emb":2059,"pass":2060,"down":2061,"196":2062,"##ually":2063,"##ase":2064,"har":2065,"11":2066,"##uc":2067,"land":2068,"##sp":2069,"##ident":2070,"##ting":2071,"fam":2072,"##ought":2073,"##ty":2074,"disc":2075,"began":2076,"##iver":2077,"##ued":2078,"like":2079,"##iam":2080,"red":2081,"gre":2082,"offic":2083,"until":2084,"lo":2085,"##ined":2086,"eff":2087,"feat":2088,"##ople":2089,"##ject":2090,"##row":2091,"##0s":2092,"##ange":2093,"##aking":2094,"along":2095,"because":2096,"own":2097,"##ern":2098,"school":2099,"##ah":2100,"##ided":2101,"released":2102,"##ele":2103,"open":2104,"##ccess":2105,"port":2106,"resp":2107,"##enn":2108,"called":2109,"##ism":2110,"national":2111,"prev":2112,"##ized":2113,"##gin":2114,"maj":2115,"star":2116,"wee":2117,"people":2118,"##els":2119,"ju":2120,"##ured":2121,"##stem":2122,"you":2123,"imp":2124,"##ially":2125,"##ists":2126,"##aph":2127,"##ution":2128,"class":2129,"##ys":2130,"adv":2131,"bre":2132,"million":2133,"##osed":2134,"just":2135,"##gg":2136,"system":2137,"cour":2138,"dep":2139,"british":2140,"##rol":2141,"ever":2142,"id":2143,"##ull":2144,"since":2145,"head":2146,"six":2147,"##ession":2148,"13":2149,"best":2150,"around":2151,"aug":2152,"major":2153,"award":2154,"##ium":2155,"ge":2156,"life":2157,"if":2158,"cor":2159,"##cept":2160,"var":2161,"each":2162,"success":2163,"attack":2164,"##end":2165,"sept":2166,"compan":2167,"##ently":2168,"la":2169,"##ments":2170,"character":2171,"##ene":2172,"##up":2173,"use":2174,"##xt":2175,"av":2176,"coll":2177,"september":2178,"describ":2179,"arr":2180,"start":2181,"august":2182,"##oot":2183,"##amed":2184,"same":2185,"##ash":2186,"##ets":2187,"##ible":2188,"##ark":2189,"road":2190,"tri":2191,"east":2192,"##aced":2193,"final":2194,"occ":2195,"support":2196,"another":2197,"five":2198,"oct":2199,"public":2200,"hel":2201,"dem":2202,"km":2203,"14":2204,"##ired":2205,"build":2206,"great":2207,"##ains":2208,"prom":2209,"old":2210,"ty":2211,"sw":2212,"austral":2213,"lit":2214,"##aving":2215,"##ont":2216,"195":2217,"camp":2218,"took":2219,"ext":2220,"det":2221,"german":2222,"##ues":2223,"band":2224,"##ruct":2225,"line":2226,"book":2227,"my":2228,"area":2229,"rep":2230,"house":2231,"small":2232,"mid":2233,"gl":2234,"march":2235,"report":2236,"ra":2237,"sk":2238,"##cl":2239,"193":2240,"consid":2241,"century":2242,"##ove":2243,"##ober":2244,"turn":2245,"received":2246,"##urch":2247,"##ep":2248,"##ner":2249,"october":2250,"stre":2251,"chr":2252,"##uss":2253,"univers":2254,"##ble":2255,"##ants":2256,"##ives":2257,"191":2258,"##ob":2259,"##und":2260,"##thern":2261,"what":2262,"games":2263,"due":2264,"##ically":2265,"partic":2266,"short":2267,"last":2268,"government":2269,"##ison":2270,"vers":2271,"##ead":2272,"hal":2273,"##ately":2274,"##ger":2275,"rest":2276,"##app":2277,"command":2278,"##aining":2279,"##ik":2280,"match":2281,"person":2282,"ent":2283,"##ored":2284,"##ility":2285,"june":2286,"way":2287,"home":2288,"eu":2289,"leg":2290,"jan":2291,"ke":2292,"##tle":2293,"##ins":2294,"single":2295,"third":2296,"mark":2297,"general":2298,"mag":2299,"##oss":2300,"##ians":2301,"##ink":2302,"del":2303,"july":2304,"prot":2305,"child":2306,"##ission":2307,"squ":2308,"##ina":2309,"##iving":2310,"tit":2311,"november":2312,"track":2313,"men":2314,"##inc":2315,"apr":2316,"death":2317,"care":2318,"review":2319,"much":2320,"event":2321,"island":2322,"fur":2323,"york":2324,"reach":2325,"##lish":2326,"##ute":2327,"april":2328,"differ":2329,"large":2330,"##uary":2331,"##raft":2332,"dam":2333,"accord":2334,"power":2335,"top":2336,"even":2337,"left":2338,"town":2339,"soc":2340,"intern":2341,"##ogr":2342,"vide":2343,"##ural":2344,"gun":2345,"allow":2346,"cast":2347,"##res":2348,"##ert":2349,"conv":2350,"##ively":2351,"##ench":2352,"month":2353,"30":2354,"story":2355,"kill":2356,"appro":2357,"##ilt":2358,"##aim":2359,"progr":2360,"based":2361,"##idge":2362,"family":2363,"##ague":2364,"##ling":2365,"vis":2366,"place":2367,"##sc":2368,"now":2369,"vict":2370,"incre":2371,"cur":2372,"park":2373,"spe":2374,"expl":2375,"right":2376,"result":2377,"##ified":2378,"company":2379,"black":2380,"army":2381,"##ats":2382,"##ales":2383,"law":2384,"##over":2385,"##bo":2386,"##empt":2387,"enter":2388,"##avy":2389,"cal":2390,"##ms":2391,"december":2392,"history":2393,"conf":2394,"ele":2395,"club":2396,"played":2397,"addition":2398,"25":2399,"according":2400,"included":2401,"storm":2402,"river":2403,"name":2404,"##..":2405,"##enc":2406,"battle":2407,"january":2408,"led":2409,"post":2410,"##rote":2411,"192":2412,"far":2413,"water":2414,"##ention":2415,"##ient":2416,"##by":2417,"##aged":2418,"##ps":2419,"hand":2420,"##erg":2421,"wind":2422,"##bert":2423,"##apan":2424,"##side":2425,"##ime":2426,"wom":2427,"wrote":2428,"##ball":2429,"##ograph":2430,"won":2431,"ii":2432,"ang":2433,"##ared":2434,"japan":2435,"hum":2436,"times":2437,"##ven":2438,"##ages":2439,"...":2440,"organ":2441,"##min":2442,"opp":2443,"##ony":2444,"previous":2445,"##ience":2446,"requ":2447,"val":2448,"pat":2449,"within":2450,"rou":2451,"ant":2452,"make":2453,"described":2454,"init":2455,"deb":2456,"##ody":2457,"those":2458,"euro":2459,"##ital":2460,"still":2461,"control":2462,"video":2463,"##med":2464,"champ":2465,"##ll":2466,"bill":2467,"rad":2468,"next":2469,"late":2470,"memb":2471,"named":2472,"stand":2473,"##ption":2474,"belie":2475,"##erv":2476,"##omin":2477,"among":2478,"original":2479,"release":2480,"bus":2481,"further":2482,"attempt":2483,"##ides":2484,"##ott":2485,"repl":2486,"list":2487,"league":2488,"##iven":2489,"##ister":2490,"force":2491,"##por":2492,"very":2493,"effect":2494,"##ilar":2495,"##ature":2496,"though":2497,"dest":2498,"##aff":2499,"poss":2500,"view":2501,"foot":2502,"iss":2503,"route":2504,"##ested":2505,"##bru":2506,"##itions":2507,"real":2508,"##iod":2509,"production":2510,"commun":2511,"100":2512,"species":2513,"exper":2514,"##ior":2515,"members":2516,"##sh":2517,"##ech":2518,"sound":2519,"polit":2520,"##ival":2521,"infl":2522,"former":2523,"inf":2524,"milit":2525,"auth":2526,"##ret":2527,"christ":2528,"ref":2529,"febru":2530,"february":2531,"cy":2532,"##mer":2533,"tour":2534,"similar":2535,"##atter":2536,"##ren":2537,"##na":2538,"##pend":2539,"mich":2540,"white":2541,"tak":2542,"##ances":2543,"sold":2544,"division":2545,"fle":2546,"elect":2547,"period":2548,"tele":2549,"repr":2550,"days":2551,"built":2552,"##br":2553,"roy":2554,"##ences":2555,"side":2556,"sol":2557,"held":2558,"tem":2559,"plan":2560,"europe":2561,"youn":2562,"coun":2563,"##augh":2564,"university":2565,"arch":2566,"french":2567,"##thing":2568,"super":2569,"##ented":2570,"point":2571,"good":2572,"beh":2573,"rock":2574,"service":2575,"church":2576,"light":2577,"president":2578,"cle":2579,"say":2580,"role":2581,"local":2582,"estab":2583,"##ne":2584,"desp":2585,"help":2586,"2010":2587,"##wards":2588,"##ness":2589,"##tended":2590,"##ler":2591,"order":2592,"equ":2593,"##ney":2594,"pa":2595,"eas":2596,"##ropical":2597,"came":2598,"fre":2599,"every":2600,"21":2601,"caus":2602,"tot":2603,"having":2604,"never":2605,"##itch":2606,"william":2607,"week":2608,"cross":2609,"##ying":2610,"##oci":2611,"##ense":2612,"begin":2613,"##eter":2614,"few":2615,"##ulation":2616,"sum":2617,"##uted":2618,"associ":2619,"##ipp":2620,"player":2621,"##line":2622,"##ford":2623,"chart":2624,"prop":2625,"prof":2626,"2008":2627,"often":2628,"see":2629,"common":2630,"mor":2631,"take":2632,"half":2633,"2009":2634,"career":2635,"##ices":2636,"##par":2637,"continued":2638,"hur":2639,"##ards":2640,"24":2641,"geor":2642,"je":2643,"##ax":2644,"low":2645,"##ened":2646,"##atic":2647,"claim":2648,"##ength":2649,"##ese":2650,"sty":2651,"histor":2652,"pri":2653,"2011":2654,"level":2655,"sent":2656,"press":2657,"different":2658,"##ruction":2659,"without":2660,"fire":2661,"mo":2662,"##thers":2663,"##estern":2664,"despite":2665,"fun":2666,"##ator":2667,"cover":2668,"england":2669,"less":2670,"rom":2671,"##erc":2672,"court":2673,"##bs":2674,"contr":2675,"considered":2676,"##ots":2677,"##ests":2678,"##read":2679,"stat":2680,"party":2681,"##ology":2682,"22":2683,"##ried":2684,"development":2685,"dav":2686,"fact":2687,"ten":2688,"field":2689,"2007":2690,"repres":2691,"##omet":2692,"##iend":2693,"##ves":2694,"##ars":2695,"increas":2696,"don":2697,"country":2698,"county":2699,"##ops":2700,"night":2701,"influ":2702,"comb":2703,"champions":2704,"royal":2705,"songs":2706,"##af":2707,"friend":2708,"tre":2709,"tro":2710,"version":2711,"colle":2712,"english":2713,"##ck":2714,"military":2715,"moved":2716,"highway":2717,"##con":2718,"written":2719,"position":2720,"want":2721,"##essed":2722,"trad":2723,"##aster":2724,"strong":2725,"##ones":2726,"##ring":2727,"##vision":2728,"2012":2729,"program":2730,"##ush":2731,"##rodu":2732,"become":2733,"forces":2734,"little":2735,"vol":2736,"chang":2737,"anim":2738,"lost":2739,"defe":2740,"lim":2741,"international":2742,"lond":2743,"ve":2744,"building":2745,"mi":2746,"tropical":2747,"given":2748,"london":2749,"23":2750,"miss":2751,"son":2752,"total":2753,"sugg":2754,"invol":2755,"##ham":2756,"author":2757,"##ches":2758,"##ize":2759,"##alk":2760,"refer":2761,"bur":2762,"ord":2763,"##craft":2764,"announ":2765,"hy":2766,"##elt":2767,"190":2768,"vir":2769,"phil":2770,"hour":2771,"##eder":2772,"##let":2773,"street":2774,"import":2775,"read":2776,"project":2777,"free":2778,"young":2779,"##iety":2780,"lab":2781,"pur":2782,"canad":2783,"ru":2784,"eight":2785,"sel":2786,"##ising":2787,"##sequ":2788,"aff":2789,"performance":2790,"rail":2791,"##omb":2792,"get":2793,"gave":2794,"station":2795,"earl":2796,"gold":2797,"went":2798,"##ald":2799,"sit":2800,"find":2801,"##irc":2802,"returned":2803,"vi":2804,"ly":2805,"using":2806,"##ailed":2807,"cop":2808,"need":2809,"published":2810,"broad":2811,"jack":2812,"produced":2813,"coast":2814,"##que":2815,"hit":2816,"western":2817,"compet":2818,"conn":2819,"sal":2820,"capt":2821,"reported":2822,"arg":2823,"popular":2824,"trav":2825,"##xim":2826,"particular":2827,"recorded":2828,"mass":2829,"children":2830,"let":2831,"hun":2832,"television":2833,"cult":2834,"2006":2835,"larg":2836,"##self":2837,"stated":2838,"##ably":2839,"aircraft":2840,"##ef":2841,"special":2842,"##aign":2843,"##ories":2844,"ships":2845,"##ensive":2846,"father":2847,"##ai":2848,"ins":2849,"campaign":2850,"ground":2851,"##ency":2852,"should":2853,"du":2854,"include":2855,"live":2856,"##ged":2857,"circ":2858,"too":2859,"making":2860,"##echn":2861,"rich":2862,"critic":2863,"dev":2864,"##cer":2865,"age":2866,"love":2867,"##ple":2868,"women":2869,"front":2870,"##ington":2871,"hurric":2872,"destro":2873,"##ief":2874,"##ama":2875,"central":2876,"throughout":2877,"dou":2878,"27":2879,"hom":2880,"vo":2881,"##day":2882,"upon":2883,"##used":2884,"mount":2885,"##ints":2886,"region":2887,"once":2888,"28":2889,"prim":2890,"##ploy":2891,"##iment":2892,"50":2893,"##me":2894,"suff":2895,"sen":2896,"test":2897,"cer":2898,"himself":2899,"official":2900,"australia":2901,"2013":2902,"inde":2903,"cas":2904,"##iness":2905,"championship":2906,"depart":2907,"##get":2908,"techn":2909,"##cess":2910,"##oph":2911,"characters":2912,"##mit":2913,"aud":2914,"wall":2915,"mot":2916,"##co":2917,"##ned":2918,"##alth":2919,"vill":2920,"sea":2921,"wr":2922,"fav":2923,"present":2924,"ball":2925,"##play":2926,"players":2927,"squad":2928,"relations":2929,"##uck":2930,"##rew":2931,"ft":2932,"##itive":2933,"26":2934,"instead":2935,"##yl":2936,"southern":2937,"commit":2938,"fall":2939,"title":2940,"obs":2941,"writing":2942,"james":2943,"base":2944,"40":2945,"seven":2946,"##vers":2947,"away":2948,"189":2949,"##ges":2950,"mad":2951,"##akes":2952,"##ae":2953,"cost":2954,"##raw":2955,"tur":2956,"across":2957,"fac":2958,"introdu":2959,"center":2960,"remained":2961,"died":2962,"fem":2963,"##acy":2964,"months":2965,"hor":2966,"developed":2967,"signific":2968,"hall":2969,"promot":2970,"##ape":2971,"political":2972,"full":2973,"fort":2974,"look":2975,"grand":2976,"enc":2977,"cond":2978,"cam":2979,"##unch":2980,"various":2981,"occur":2982,"manag":2983,"modern":2984,"fif":2985,"ir":2986,"##ument":2987,"hurricane":2988,"hot":2989,"##utes":2990,"##wh":2991,"##gether":2992,"##ither":2993,"hill":2994,"wood":2995,"aver":2996,"race":2997,"put":2998,"fight":2999,"##fic":3000,"san":3001,"decl":3002,"hon":3003,"##ration":3004,"office":3005,"pra":3006,"##lo":3007,"##isted":3008,"ill":3009,"##inted":3010,"##ering":3011,"big":3012,"ap":3013,"##ael":3014,"america":3015,"works":3016,"bow":3017,"##ries":3018,"ham":3019,"felt":3020,"areas":3021,"pal":3022,"noted":3023,"hard":3024,"indust":3025,"eventually":3026,"style":3027,"##ett":3028,"##field":3029,"announced":3030,"russ":3031,"born":3032,"created":3033,"college":3034,"miles":3035,"reached":3036,"destroy":3037,"sil":3038,"hop":3039,"construction":3040,"japanese":3041,"engine":3042,"##ked":3043,"##dom":3044,"stri":3045,"successful":3046,"##eal":3047,"northern":3048,"hold":3049,"cro":3050,"mal":3051,"2005":3052,"bri":3053,"##most":3054,"seen":3055,"heavy":3056,"body":3057,"pain":3058,"struct":3059,"sun":3060,"mer":3061,"nat":3062,"followed":3063,"agre":3064,"range":3065,"29":3066,"##ille":3067,"together":3068,"meet":3069,"performed":3070,"non":3071,"##ements":3072,"served":3073,"mem":3074,"sym":3075,"brown":3076,"civ":3077,"##iting":3078,"member":3079,"activ":3080,"##ress":3081,"2014":3082,"bridge":3083,"know":3084,"george":3085,"cut":3086,"##ality":3087,"##orts":3088,"##elling":3089,"football":3090,"mix":3091,"##ee":3092,"curr":3093,"##work":3094,"killed":3095,"hen":3096,"##iction":3097,"significant":3098,"ho":3099,"mc":3100,"##enth":3101,"##idence":3102,"round":3103,"able":3104,"taken":3105,"##ization":3106,"mur":3107,"god":3108,"##olution":3109,"que":3110,"saw":3111,"ident":3112,"mm":3113,"impro":3114,"tor":3115,"becom":3116,"##lished":3117,"action":3118,"esc":3119,"hol":3120,"rh":3121,"points":3122,"##cent":3123,"los":3124,"human":3125,"reb":3126,"mean":3127,"does":3128,"thought":3129,"wash":3130,"##ecut":3131,"established":3132,"originally":3133,"sat":3134,"australian":3135,"thom":3136,"subsequ":3137,"grow":3138,"others":3139,"pi":3140,"##ship":3141,"entire":3142,"insp":3143,"##enced":3144,"##ug":3145,"appeared":3146,"david":3147,"##ana":3148,"##aval":3149,"located":3150,"director":3151,"##irl":3152,"features":3153,"surv":3154,"##rict":3155,"gar":3156,"voc":3157,"process":3158,"crew":3159,"sn":3160,"stage":3161,"commission":3162,"##ground":3163,"business":3164,"started":3165,"playing":3166,"afric":3167,"caused":3168,"expr":3169,"decided":3170,"##aves":3171,"critics":3172,"civil":3173,"##ects":3174,"kingdom":3175,"##odes":3176,"feet":3177,"word":3178,"##oon":3179,"rather":3180,"pot":3181,"den":3182,"rank":3183,"fourth":3184,"##ray":3185,"##anch":3186,"mater":3187,"##ript":3188,"fell":3189,"econ":3190,"edu":3191,"whe":3192,"econom":3193,"inform":3194,"##ament":3195,"behind":3196,"independ":3197,"##ming":3198,"##ators":3199,"formed":3200,"site":3201,"discover":3202,"represent":3203,"added":3204,"magaz":3205,"resear":3206,"fleet":3207,"##cil":3208,"ital":3209,"important":3210,"##ells":3211,"research":3212,"invest":3213,"soon":3214,"##arch":3215,"##gar":3216,"188":3217,"ur":3218,"##ox":3219,"##ample":3220,"##ogn":3221,"##bur":3222,"##emy":3223,"comment":3224,"##reek":3225,"##ateg":3226,"##ivid":3227,"pred":3228,"##be":3229,"31":3230,"eastern":3231,"jud":3232,"damage":3233,"completed":3234,"population":3235,"educ":3236,"guns":3237,"almost":3238,"mart":3239,"peak":3240,"##ids":3241,"inj":3242,"##iers":3243,"sex":3244,"close":3245,"green":3246,"##ius":3247,"##ades":3248,"interv":3249,"##aces":3250,"pen":3251,"##dle":3252,"neg":3253,"indian":3254,"initially":3255,"jour":3256,"##ination":3257,"awards":3258,"##erm":3259,"cup":3260,"key":3261,"##wood":3262,"loss":3263,"sam":3264,"treat":3265,"tom":3266,"mother":3267,"princ":3268,"lang":3269,"##yn":3270,"2004":3271,"##den":3272,"mult":3273,"opened":3274,"lack":3275,"case":3276,"creat":3277,"##aps":3278,"social":3279,"##ways":3280,"scre":3281,"##oney":3282,"host":3283,"michael":3284,"##itar":3285,"pract":3286,"proble":3287,"bi":3288,"typ":3289,"relationship":3290,"girl":3291,"##oth":3292,"186":3293,"individ":3294,"##less":3295,"##ceed":3296,"fund":3297,"##aur":3298,"radio":3299,"leading":3300,"weeks":3301,"sour":3302,"tradition":3303,"2015":3304,"di":3305,"##ino":3306,"separ":3307,"working":3308,"##rick":3309,"clos":3310,"worked":3311,"##ara":3312,"##go":3313,"france":3314,"diffic":3315,"difficult":3316,"sus":3317,"recording":3318,"towards":3319,"bomb":3320,"##cast":3321,"secret":3322,"ul":3323,"prem":3324,"##omm":3325,"nar":3326,"##ani":3327,"bay":3328,"##ew":3329,"appo":3330,"##ped":3331,"net":3332,"##su":3333,"##medi":3334,"lou":3335,"approach":3336,"aut":3337,"scene":3338,"union":3339,"##oring":3340,"council":3341,"##ata":3342,"##to":3343,"##lin":3344,"##ows":3345,"##imes":3346,"republ":3347,"goal":3348,"##asion":3349,"rain":3350,"angel":3351,"henry":3352,"wid":3353,"room":3354,"reve":3355,"##igned":3356,"quick":3357,"##istic":3358,"robert":3359,"records":3360,"navy":3361,"material":3362,"break":3363,"norm":3364,"accept":3365,"training":3366,"vot":3367,"least":3368,"scored":3369,"##ula":3370,"provided":3371,"colon":3372,"earth":3373,"wanted":3374,"##ena":3375,"troops":3376,"must":3377,"brought":3378,"##umb":3379,"average":3380,"bal":3381,"fig":3382,"500":3383,"mel":3384,"##head":3385,"recogn":3386,"featured":3387,"##ster":3388,"ey":3389,"brig":3390,"dut":3391,"rob":3392,"either":3393,"##iding":3394,"foc":3395,"nomin":3396,"feder":3397,"interest":3398,"##osition":3399,"##board":3400,"allowed":3401,"proper":3402,"quar":3403,"187":3404,"redu":3405,"cru":3406,"ach":3407,"launch":3408,"estim":3409,"wife":3410,"##ological":3411,"victory":3412,"studio":3413,"respect":3414,"##ential":3415,"##ma":3416,"mac":3417,"placed":3418,"generally":3419,"past":3420,"fut":3421,"captain":3422,"avail":3423,"washington":3424,"er":3425,"rul":3426,"watch":3427,"rap":3428,"ale":3429,"inn":3430,"priv":3431,"runs":3432,"example":3433,"events":3434,"##ams":3435,"cho":3436,"magazine":3437,"battal":3438,"chief":3439,"##antic":3440,"tar":3441,"dark":3442,"republic":3443,"phys":3444,"exc":3445,"fa":3446,"board":3447,"summer":3448,"cred":3449,"##duct":3450,"##ica":3451,"grad":3452,"staff":3453,"2003":3454,"##ky":3455,"paul":3456,"particip":3457,"pet":3458,"joined":3459,"designed":3460,"squadron":3461,"stru":3462,"surf":3463,"hours":3464,"##osp":3465,"regular":3466,"##uel":3467,"employ":3468,"dro":3469,"operation":3470,"middle":3471,"##aper":3472,"wil":3473,"nine":3474,"##ico":3475,"shot":3476,"speed":3477,"##ki":3478,"opening":3479,"threat":3480,"believed":3481,"media":3482,"##ea":3483,"relig":3484,"mat":3485,"come":3486,"regard":3487,"35":3488,"length":3489,"esp":3490,"pan":3491,"##anks":3492,"##tim":3493,"##esh":3494,"##ving":3495,"flight":3496,"transport":3497,"replaced":3498,"mary":3499,"mph":3500,"winds":3501,"##ze":3502,"##mp":3503,"##erous":3504,"prior":3505,"scen":3506,"der":3507,"cycl":3508,"##iff":3509,"infant":3510,"bir":3511,"quest":3512,"involved":3513,"stone":3514,"police":3515,"sequ":3516,"##gn":3517,"european":3518,"stop":3519,"langu":3520,"minutes":3521,"pay":3522,"earlier":3523,"ox":3524,"##imin":3525,"fish":3526,"finished":3527,"##west":3528,"conduct":3529,"##ification":3530,"society":3531,"##aut":3532,"##fall":3533,"contrib":3534,"possible":3535,"##li":3536,"mcc":3537,"saying":3538,"news":3539,"##ville":3540,"indic":3541,"immedi":3542,"contract":3543,"##her":3544,"change":3545,"commerc":3546,"depr":3547,"association":3548,"keep":3549,"space":3550,"remov":3551,"largest":3552,"##ago":3553,"admin":3554,"highest":3555,"##ening":3556,"particularly":3557,"2000":3558,"trib":3559,"pil":3560,"beginning":3561,"films":3562,"scott":3563,"exist":3564,"lower":3565,"##etic":3566,"##erson":3567,"lu":3568,"##ecutive":3569,"available":3570,"boy":3571,"piec":3572,"virgin":3573,"adm":3574,"fly":3575,"##anish":3576,"percent":3577,"respons":3578,"uk":3579,"forced":3580,"section":3581,"roman":3582,"##ems":3583,"2001":3584,"assist":3585,"plat":3586,"better":3587,"##off":3588,"##icle":3589,"ny":3590,"bad":3591,"weak":3592,"##east":3593,"achie":3594,"deal":3595,"##for":3596,"outside":3597,"flor":3598,"taking":3599,"##anned":3600,"atl":3601,"lear":3602,"##omp":3603,"meas":3604,"novel":3605,"disp":3606,"charles":3607,"committe":3608,"##sel":3609,"grant":3610,"thomas":3611,"anti":3612,"heart":3613,"##ris":3614,"turned":3615,"increased":3616,"ended":3617,"##reg":3618,"units":3619,"reason":3620,"##ography":3621,"clear":3622,"es":3623,"##mar":3624,"##hib":3625,"feel":3626,"community":3627,"reviews":3628,"smith":3629,"calif":3630,"##eth":3631,"passed":3632,"praised":3633,"acad":3634,"somet":3635,"californ":3636,"move":3637,"nin":3638,"product":3639,"hous":3640,"going":3641,"ver":3642,"2002":3643,"above":3644,"additional":3645,"lik":3646,"future":3647,"appearance":3648,"beat":3649,"emp":3650,"tex":3651,"##iation":3652,"thus":3653,"guitar":3654,"tow":3655,"canada":3656,"bird":3657,"##key":3658,"daugh":3659,"enough":3660,"infantry":3661,"##ude":3662,"##aded":3663,"ordered":3664,"type":3665,"coach":3666,"ath":3667,"##itor":3668,"castle":3669,"lake":3670,"##ership":3671,"liter":3672,"previously":3673,"##bor":3674,"plot":3675,"##oke":3676,"brother":3677,"##action":3678,"phot":3679,"##gress":3680,"personal":3681,"signed":3682,"musical":3683,"minor":3684,"franc":3685,"##men":3686,"theat":3687,"territ":3688,"richard":3689,"##rison":3690,"market":3691,"##ocr":3692,"elements":3693,"##itz":3694,"##ios":3695,"rights":3696,"##tr":3697,"instit":3698,"##ka":3699,"##arily":3700,"alex":3701,"doc":3702,"california":3703,"##pped":3704,"positive":3705,"viol":3706,"##elled":3707,"##aled":3708,"critical":3709,"##ections":3710,"shar":3711,"##ference":3712,"prob":3713,"parts":3714,"our":3715,"##agon":3716,"##nal":3717,"background":3718,"food":3719,"##ecess":3720,"profession":3721,"give":3722,"dead":3723,"lord":3724,"lat":3725,"lines":3726,"##gen":3727,"dig":3728,"female":3729,"travel":3730,"corn":3731,"debut":3732,"abs":3733,"money":3734,"spent":3735,"##rated":3736,"overall":3737,"pac":3738,"impr":3739,"poor":3740,"told":3741,"##ased":3742,"##pper":3743,"ber":3744,"##of":3745,"##ilities":3746,"directed":3747,"scient":3748,"pow":3749,"victor":3750,"flood":3751,"committee":3752,"##nes":3753,"##uation":3754,"tax":3755,"failed":3756,"interview":3757,"wat":3758,"##usion":3759,"mach":3760,"deep":3761,"required":3762,"blue":3763,"groups":3764,"domin":3765,"##ida":3766,"cath":3767,"45":3768,"##uter":3769,"germany":3770,"roll":3771,"square":3772,"broadcast":3773,"chap":3774,"happ":3775,"##ension":3776,"##nel":3777,"district":3778,"term":3779,"##back":3780,"constit":3781,"itself":3782,"kil":3783,"india":3784,"health":3785,"battalion":3786,"peter":3787,"evidence":3788,"sometimes":3789,"env":3790,"anal":3791,"##ev":3792,"christian":3793,"ren":3794,"##bers":3795,"object":3796,"ps":3797,"frank":3798,"prison":3799,"##thod":3800,"appl":3801,"reception":3802,"occup":3803,"##ises":3804,"election":3805,"185":3806,"investig":3807,"asked":3808,"commercial":3809,"##ibility":3810,"bank":3811,"##ique":3812,"account":3813,"transfer":3814,"except":3815,"##ston":3816,"##isl":3817,"##ready":3818,"unc":3819,"defend":3820,"##erved":3821,"parl":3822,"mex":3823,"60":3824,"wal":3825,"strength":3826,"living":3827,"##ga":3828,"administ":3829,"##my":3830,"whose":3831,"##stand":3832,"##edy":3833,"sov":3834,"##ume":3835,"doct":3836,"##eign":3837,"study":3838,"##cing":3839,"already":3840,"complete":3841,"natural":3842,"claimed":3843,"governor":3844,"approxim":3845,"##airs":3846,"score":3847,"##onna":3848,"clim":3849,"##ays":3850,"##round":3851,"##ream":3852,"soviet":3853,"introduced":3854,"##apt":3855,"##aker":3856,"frequ":3857,"##onse":3858,"minister":3859,"whom":3860,"bey":3861,"usually":3862,"##berg":3863,"think":3864,"##ability":3865,"students":3866,"muse":3867,"woman":3868,"##enue":3869,"quickly":3870,"education":3871,"burn":3872,"idea":3873,"limited":3874,"##igan":3875,"##eck":3876,"##acted":3877,"##onst":3878,"entertain":3879,"fer":3880,"##ully":3881,"##bc":3882,"effects":3883,"wild":3884,"might":3885,"chic":3886,"movement":3887,"construct":3888,"concern":3889,"hu":3890,"32":3891,"stars":3892,"guard":3893,"response":3894,"issue":3895,"subject":3896,"bat":3897,"certain":3898,"bud":3899,"commander":3900,"centre":3901,"##ores":3902,"amb":3903,"slow":3904,"polic":3905,"queen":3906,"surface":3907,"your":3908,"department":3909,"ha":3910,"plant":3911,"fifth":3912,"arrived":3913,"espec":3914,"ol":3915,"##eless":3916,"britain":3917,"lay":3918,"anc":3919,"especially":3920,"pitch":3921,"hosp":3922,"lie":3923,"##aint":3924,"decision":3925,"ben":3926,"services":3927,"tun":3928,"##bour":3929,"face":3930,"lib":3931,"##atory":3932,"##ergy":3933,"operations":3934,"village":3935,"teams":3936,"parliam":3937,"voice":3938,"self":3939,"##ties":3940,"structure":3941,"syn":3942,"shows":3943,"pun":3944,"compl":3945,"museum":3946,"##anded":3947,"industry":3948,"box":3949,"larger":3950,"writer":3951,"walk":3952,"gard":3953,"ultim":3954,"lyric":3955,"science":3956,"remaining":3957,"becoming":3958,"estimated":3959,"latter":3960,"episodes":3961,"defeated":3962,"sand":3963,"remain":3964,"carried":3965,"fest":3966,"parliament":3967,"heav":3968,"access":3969,"establish":3970,"##ump":3971,"discuss":3972,"network":3973,"pressure":3974,"##oor":3975,"draw":3976,"ran":3977,"1999":3978,"surround":3979,"ot":3980,"scenes":3981,"multip":3982,"consider":3983,"brief":3984,"flag":3985,"leaving":3986,"got":3987,"##aries":3988,"##iron":3989,"blood":3990,"running":3991,"changes":3992,"virginia":3993,"##ective":3994,"gro":3995,"complet":3996,"cm":3997,"##wor":3998,"acqu":3999,"jew":4000,"bul":4001,"naval":4002,"##porary":4003,"suggested":4004,"entered":4005,"nearly":4006,"depression":4007,"##outh":4008,"cand":4009,"appointed":4010,"fail":4011,"36":4012,"winning":4013,"diss":4014,"influence":4015,"quarter":4016,"date":4017,"approximately":4018,"##ror":4019,"twent":4020,"##orial":4021,"chall":4022,"size":4023,"mas":4024,"subst":4025,"capital":4026,"language":4027,"leader":4028,"regiment":4029,"shortly":4030,"##ulted":4031,"##ulf":4032,"##ift":4033,"##ears":4034,"kh":4035,"islands":4036,"##erve":4037,"empire":4038,"federal":4039,"favor":4040,"##inct":4041,"course":4042,"script":4043,"finally":4044,"today":4045,"jackson":4046,"wide":4047,"##ining":4048,"princip":4049,"fant":4050,"screen":4051,"tracks":4052,"dom":4053,"upper":4054,"##change":4055,"mission":4056,"proposed":4057,"destroyed":4058,"louis":4059,"daughter":4060,"cann":4061,"sem":4062,"current":4063,"purch":4064,"##anced":4065,"oly":4066,"##ander":4067,"##ania":4068,"emb":4069,"producer":4070,"higher":4071,"manager":4072,"spanish":4073,"arrang":4074,"##ii":4075,"##ecting":4076,"olymp":4077,"corps":4078,"experience":4079,"##ulated":4080,"nature":4081,"##oms":4082,"##pre":4083,"wing":4084,"distrib":4085,"environ":4086,"##ites":4087,"subsequently":4088,"provide":4089,"75":4090,"brigade":4091,"##idents":4092,"horse":4093,"battles":4094,"railway":4095,"professional":4096,"300":4097,"##selves":4098,"compared":4099,"##mitted":4100,"breed":4101,"altern":4102,"aw":4103,"##abor":4104,"intended":4105,"complex":4106,"democr":4107,"immediately":4108,"lad":4109,"married":4110,"emerg":4111,"##ba":4112,"concept":4113,"iron":4114,"private":4115,"##inese":4116,"##ishing":4117,"spir":4118,"cele":4119,"fans":4120,"supported":4121,"journal":4122,"184":4123,"temper":4124,"liber":4125,"##iser":4126,"van":4127,"##ha":4128,"gi":4129,"agreed":4130,"pict":4131,"stay":4132,"impact":4133,"touch":4134,"shoot":4135,"intens":4136,"saf":4137,"archit":4138,"done":4139,"edward":4140,"feature":4141,"model":4142,"##alled":4143,"increasing":4144,"awarded":4145,"initial":4146,"display":4147,"weap":4148,"jose":4149,"##tained":4150,"fiction":4151,"chicago":4152,"whether":4153,"chinese":4154,"helped":4155,"bord":4156,"related":4157,"mr":4158,"planned":4159,"##icles":4160,"legisl":4161,"officer":4162,"card":4163,"##burg":4164,"##oid":4165,"1998":4166,"80":4167,"soldiers":4168,"books":4169,"mont":4170,"create":4171,"fair":4172,"##down":4173,"longer":4174,"bring":4175,"trade":4176,"##val":4177,"##king":4178,"imm":4179,"here":4180,"attr":4181,"##ria":4182,"##atively":4183,"plans":4184,"captured":4185,"cause":4186,"##ope":4187,"valley":4188,"buildings":4189,"penn":4190,"yet":4191,"color":4192,"pu":4193,"##oles":4194,"##teen":4195,"forward":4196,"unit":4197,"changed":4198,"conserv":4199,"conclud":4200,"withd":4201,"block":4202,"associated":4203,"friends":4204,"##chester":4205,"something":4206,"martin":4207,"sev":4208,"officers":4209,"winter":4210,"dance":4211,"kore":4212,"##ector":4213,"remains":4214,"mostly":4215,"##acing":4216,"instr":4217,"pacific":4218,"singles":4219,"billboard":4220,"mom":4221,"33":4222,"spring":4223,"themselves":4224,"johnson":4225,"standard":4226,"ash":4227,"##aring":4228,"countries":4229,"##rupt":4230,"lyrics":4231,"teach":4232,"mixed":4233,"probably":4234,"exam":4235,"ple":4236,"really":4237,"##riage":4238,"##abit":4239,"ut":4240,"hero":4241,"extended":4242,"method":4243,"moving":4244,"##ban":4245,"cat":4246,"numerous":4247,"gal":4248,"financ":4249,"attend":4250,"##ex":4251,"##gy":4252,"information":4253,"portray":4254,"##can":4255,"always":4256,"amount":4257,"copies":4258,"##umn":4259,"oce":4260,"location":4261,"ray":4262,"visit":4263,"contem":4264,"nation":4265,"##ta":4266,"goals":4267,"birth":4268,"individual":4269,"##isions":4270,"admir":4271,"scot":4272,"sir":4273,"sales":4274,"##uit":4275,"atlantic":4276,"issued":4277,"focus":4278,"1997":4279,"tas":4280,"status":4281,"##icted":4282,"rid":4283,"congress":4284,"leave":4285,"energy":4286,"includes":4287,"##asy":4288,"confl":4289,"##ken":4290,"artist":4291,"conference":4292,"##icated":4293,"##andon":4294,"suffered":4295,"kar":4296,"##ication":4297,"singer":4298,"edition":4299,"##mon":4300,"jim":4301,"cit":4302,"37":4303,"via":4304,"traff":4305,"hospital":4306,"##olic":4307,"male":4308,"veh":4309,"rat":4310,"florida":4311,"##rd":4312,"problems":4313,"counter":4314,"albums":4315,"mess":4316,"fit":4317,"meeting":4318,"##ands":4319,"termin":4320,"likely":4321,"maxim":4322,"ast":4323,"double":4324,"china":4325,"prec":4326,"increase":4327,"carry":4328,"bene":4329,"removed":4330,"revolution":4331,"assemb":4332,"independent":4333,"##hood":4334,"morn":4335,"celebr":4336,"70":4337,"movie":4338,"texas":4339,"inspired":4340,"bond":4341,"foreign":4342,"##ych":4343,"##well":4344,"gall":4345,"tal":4346,"terms":4347,"primary":4348,"creek":4349,"majority":4350,"master":4351,"rout":4352,"##atives":4353,"##ental":4354,"##ny":4355,"compos":4356,"offered":4357,"dog":4358,"##bed":4359,"##jected":4360,"rang":4361,"consist":4362,"minute":4363,"kind":4364,"qual":4365,"dv":4366,"tons":4367,"##vey":4368,"##bury":4369,"lin":4370,"refl":4371,"dail":4372,"inters":4373,"##ously":4374,"attacks":4375,"adop":4376,"ice":4377,"00":4378,"##ounted":4379,"stad":4380,"makes":4381,"entertainment":4382,"ens":4383,"confir":4384,"takes":4385,"drum":4386,"composed":4387,"damaged":4388,"raised":4389,"combat":4390,"fox":4391,"##ompan":4392,"canadian":4393,"ranked":4394,"183":4395,"environment":4396,"oil":4397,"africa":4398,"observ":4399,"##vin":4400,"cyclone":4401,"##ounds":4402,"concert":4403,"appears":4404,"daily":4405,"adult":4406,"carol":4407,"selected":4408,"fighting":4409,"intell":4410,"##lands":4411,"letter":4412,"mountain":4413,"revealed":4414,"##ili":4415,"categ":4416,"era":4417,"discovered":4418,"train":4419,"determ":4420,"russian":4421,"active":4422,"simp":4423,"wrest":4424,"log":4425,"conditions":4426,"inside":4427,"metal":4428,"architect":4429,"##iter":4430,"twenty":4431,"unable":4432,"launched":4433,"greater":4434,"##uries":4435,"ign":4436,"kent":4437,"morning":4438,"##he":4439,"accompan":4440,"angeles":4441,"respectively":4442,"##ify":4443,"##umed":4444,"wa":4445,"sched":4446,"1995":4447,"incor":4448,"whole":4449,"issues":4450,"##ails":4451,"numbers":4452,"od":4453,"needed":4454,"deg":4455,"smaller":4456,"sister":4457,"below":4458,"##ription":4459,"##ucle":4460,"lived":4461,"und":4462,"##light":4463,"contains":4464,"francis":4465,"attempted":4466,"attacked":4467,"slight":4468,"traditional":4469,"sar":4470,"yards":4471,"yard":4472,"shown":4473,"38":4474,"kr":4475,"tv":4476,"##com":4477,"occurred":4478,"schol":4479,"religious":4480,"newsp":4481,"culture":4482,"##gs":4483,"##uments":4484,"34":4485,"##aught":4486,"##era":4487,"ali":4488,"iii":4489,"ven":4490,"##rect":4491,"##uals":4492,"gas":4493,"ca":4494,"##ado":4495,"stra":4496,"nick":4497,"pick":4498,"defeat":4499,"sports":4500,"thir":4501,"##aging":4502,"iv":4503,"actor":4504,"##ortun":4505,"annual":4506,"silver":4507,"bor":4508,"bed":4509,"alle":4510,"elected":4511,"cart":4512,"experi":4513,"##joy":4514,"##urs":4515,"festival":4516,"tourn":4517,"dun":4518,"2016":4519,"constant":4520,"referred":4521,"peace":4522,"1996":4523,"##hl":4524,"rein":4525,"neigh":4526,"ring":4527,"##isc":4528,"dar":4529,"reform":4530,"##urity":4531,"theme":4532,"19th":4533,"audience":4534,"schools":4535,"cab":4536,"resulted":4537,"largely":4538,"ocean":4539,"assigned":4540,"mind":4541,"covered":4542,"express":4543,"##rial":4544,"prince":4545,"listed":4546,"##enant":4547,"variety":4548,"##rovers":4549,"##vert":4550,"link":4551,"collection":4552,"italian":4553,"##olk":4554,"bab":4555,"competition":4556,"1994":4557,"dra":4558,"##uated":4559,"asp":4560,"pair":4561,"purp":4562,"ris":4563,"##ole":4564,"coup":4565,"##lor":4566,"fast":4567,"mu":4568,"viet":4569,"##ette":4570,"names":4571,"##ya":4572,"earned":4573,"suggest":4574,"magn":4575,"stadium":4576,"controvers":4577,"expected":4578,"commented":4579,"recover":4580,"glob":4581,"sav":4582,"starting":4583,"##osph":4584,"##oo":4585,"attention":4586,"rapid":4587,"closed":4588,"##quar":4589,"performances":4590,"bon":4591,"cham":4592,"dvd":4593,"##itude":4594,"##aped":4595,"question":4596,"90":4597,"prevent":4598,"gam":4599,"airport":4600,"##izing":4601,"giving":4602,"imper":4603,"zeal":4604,"michigan":4605,"nucle":4606,"##zz":4607,"refused":4608,"mic":4609,"legal":4610,"##oud":4611,"extre":4612,"economic":4613,"figh":4614,"##ste":4615,"continu":4616,"haw":4617,"##ocks":4618,"greatest":4619,"che":4620,"waters":4621,"sett":4622,"eth":4623,"enjoy":4624,"repe":4625,"crow":4626,"cust":4627,"electric":4628,"tower":4629,"##tered":4630,"wales":4631,"ability":4632,"serious":4633,"spl":4634,"stories":4635,"notes":4636,"direction":4637,"native":4638,"os":4639,"disapp":4640,"declared":4641,"mun":4642,"promin":4643,"##fact":4644,"meant":4645,"##ipped":4646,"hund":4647,"rate":4648,"matches":4649,"forest":4650,"vocals":4651,"things":4652,"hundred":4653,"mention":4654,"steph":4655,"180":4656,"##use":4657,"##rian":4658,"##osaur":4659,"abandon":4660,"psych":4661,"poll":4662,"levels":4663,"pit":4664,"mir":4665,"words":4666,"stan":4667,"##ples":4668,"nearby":4669,"progress":4670,"##bridge":4671,"49":4672,"die":4673,"hus":4674,"marriage":4675,"search":4676,"produce":4677,"chann":4678,"defense":4679,"necess":4680,"swe":4681,"practice":4682,"text":4683,"constructed":4684,"ram":4685,"constitution":4686,"doctor":4687,"advance":4688,"mech":4689,"##iest":4690,"emper":4691,"fill":4692,"##ims":4693,"farm":4694,"occasion":4695,"source":4696,"kenn":4697,"##bre":4698,"fantasy":4699,"##odies":4700,"candid":4701,"1992":4702,"##asc":4703,"ros":4704,"beach":4705,"lot":4706,"separate":4707,"marsh":4708,"vocal":4709,"highly":4710,"##road":4711,"##hold":4712,"##yan":4713,"##wide":4714,"means":4715,"labor":4716,"1st":4717,"writers":4718,"##overs":4719,"mexico":4720,"medical":4721,"41":4722,"zealand":4723,"anth":4724,"executive":4725,"directly":4726,"ultimately":4727,"positions":4728,"spot":4729,"exhib":4730,"cry":4731,"##ishop":4732,"northwest":4733,"overs":4734,"susp":4735,"##itation":4736,"presented":4737,"continue":4738,"##aj":4739,"reduced":4740,"oh":4741,"effort":4742,"##ging":4743,"african":4744,"##ellow":4745,"##win":4746,"orch":4747,"admiral":4748,"multiple":4749,"flow":4750,"ess":4751,"400":4752,"bound":4753,"efforts":4754,"weather":4755,"animals":4756,"formation":4757,"chem":4758,"dism":4759,"houses":4760,"lieut":4761,"sle":4762,"strateg":4763,"les":4764,"settle":4765,"tried":4766,"cub":4767,"attended":4768,"##writ":4769,"##ibly":4770,"mechan":4771,"dyn":4772,"chris":4773,"memorial":4774,"accepted":4775,"studies":4776,"stating":4777,"batter":4778,"financial":4779,"##rical":4780,"theatre":4781,"hyd":4782,"##band":4783,"crick":4784,"rule":4785,"##ional":4786,"brad":4787,"##ogue":4788,"madonna":4789,"inch":4790,"libr":4791,"lif":4792,"talk":4793,"##vement":4794,"##ona":4795,"specific":4796,"rough":4797,"path":4798,"##uct":4799,"20th":4800,"1991":4801,"depend":4802,"##gian":4803,"1993":4804,"seem":4805,"##rey":4806,"favour":4807,"ending":4808,"begins":4809,"##ker":4810,"incorpor":4811,"##ault":4812,"thick":4813,"advent":4814,"symb":4815,"recomm":4816,"##oper":4817,"prepar":4818,"saint":4819,"organization":4820,"cerem":4821,"##rier":4822,"##mas":4823,"##track":4824,"speech":4825,"pilot":4826,"55":4827,"##kin":4828,"bob":4829,"179":4830,"enemy":4831,"cases":4832,"honor":4833,"prep":4834,"traffic":4835,"##yr":4836,"scotland":4837,"sides":4838,"kilomet":4839,"true":4840,"jones":4841,"##gu":4842,"drive":4843,"##illery":4844,"##ersey":4845,"chair":4846,"flying":4847,"extr":4848,"responsible":4849,"managed":4850,"forms":4851,"meaning":4852,"mob":4853,"wound":4854,"jer":4855,"uses":4856,"pack":4857,"scr":4858,"resulting":4859,"greek":4860,"tournament":4861,"kept":4862,"cold":4863,"lieutenant":4864,"dropped":4865,"academy":4866,"showed":4867,"soundtrack":4868,"arab":4869,"##rie":4870,"##ners":4871,"##utions":4872,"authority":4873,"policy":4874,"luc":4875,"##ari":4876,"39":4877,"quality":4878,"rose":4879,"##gl":4880,"exped":4881,"bost":4882,"strugg":4883,"diam":4884,"emperor":4885,"prime":4886,"182":4887,"##anes":4888,"##une":4889,"artillery":4890,"combined":4891,"bell":4892,"mos":4893,"acting":4894,"founded":4895,"tru":4896,"##ceeded":4897,"secretary":4898,"##isation":4899,"hors":4900,"continues":4901,"marked":4902,"trial":4903,"administration":4904,"boat":4905,"##ij":4906,"wick":4907,"passeng":4908,"edge":4909,"spirit":4910,"42":4911,"inches":4912,"row":4913,"property":4914,"da":4915,"williams":4916,"systems":4917,"encoun":4918,"subsequent":4919,"48":4920,"##house":4921,"propos":4922,"artists":4923,"contemporary":4924,"attempts":4925,"ded":4926,"##ero":4927,"181":4928,"dru":4929,"##cel":4930,"##cend":4931,"territory":4932,"##like":4933,"##olf":4934,"##essions":4935,"northeast":4936,"##nam":4937,"draft":4938,"chron":4939,"##ires":4940,"##gypt":4941,"companies":4942,"ll":4943,"rear":4944,"##thur":4945,"appar":4946,"steam":4947,"potential":4948,"presence":4949,"metres":4950,"##iated":4951,"viewers":4952,"suppl":4953,"allowing":4954,"thous":4955,"studios":4956,"sixth":4957,"wit":4958,"convention":4959,"recent":4960,"scale":4961,"conducted":4962,"egypt":4963,"officials":4964,"1942":4965,"target":4966,"##ulations":4967,"planet":4968,"##ican":4969,"##icip":4970,"perf":4971,"maintain":4972,"behav":4973,"respond":4974,"coal":4975,"distinct":4976,"filming":4977,"fear":4978,"digital":4979,"job":4980,"##enge":4981,"machine":4982,"headquar":4983,"contrast":4984,"transferred":4985,"parents":4986,"##standing":4987,"collabor":4988,"##ca":4989,"scoring":4990,"temple":4991,"latin":4992,"opportun":4993,"colour":4994,"maximum":4995,"lee":4996,"senior":4997,"fat":4998,"yellow":4999,"figure":5000,"##uff":5001,"coming":5002,"corpor":5003,"seg":5004,"allied":5005,"demonst":5006,"##ingu":5007,"##ications":5008,"joseph":5009,"rod":5010,"featuring":5011,"primarily":5012,"relatively":5013,"therefore":5014,"beaut":5015,"theory":5016,"owned":5017,"oxford":5018,"torped":5019,"peaked":5020,"##ils":5021,"becomes":5022,"##ols":5023,"diseas":5024,"piece":5025,"elev":5026,"##inem":5027,"titled":5028,"student":5029,"apart":5030,"torpedo":5031,"##ket":5032,"ni":5033,"actually":5034,"recommend":5035,"65":5036,"##rain":5037,"##osh":5038,"portion":5039,"distance":5040,"wear":5041,"battleship":5042,"concluded":5043,"push":5044,"opt":5045,"citiz":5046,"boston":5047,"cert":5048,"hers":5049,"manchester":5050,"##orter":5051,"mort":5052,"invasion":5053,"harrison":5054,"write":5055,"situation":5056,"mol":5057,"premi":5058,"broke":5059,"observed":5060,"stock":5061,"function":5062,"selling":5063,"jeff":5064,"resist":5065,"alongside":5066,"security":5067,"physical":5068,"transl":5069,"plays":5070,"results":5071,"47":5072,"personnel":5073,"merc":5074,"swed":5075,"bass":5076,"concent":5077,"divided":5078,"sources":5079,"share":5080,"seconds":5081,"calling":5082,"paid":5083,"ban":5084,"cities":5085,"rating":5086,"1944":5087,"##istics":5088,"slightly":5089,"returning":5090,"##ees":5091,"border":5092,"powerful":5093,"sac":5094,"##ada":5095,"doll":5096,"jersey":5097,"management":5098,"ton":5099,"imperial":5100,"historian":5101,"inh":5102,"##ips":5103,"historical":5104,"columb":5105,"tree":5106,"onto":5107,"##lement":5108,"arts":5109,"conver":5110,"##aga":5111,"sust":5112,"lov":5113,"actions":5114,"mile":5115,"else":5116,"46":5117,"52":5118,"vess":5119,"nothing":5120,"platform":5121,"influenced":5122,"minim":5123,"ott":5124,"crash":5125,"birds":5126,"##ls":5127,"activity":5128,"##uk":5129,"innings":5130,"freed":5131,"64":5132,"paris":5133,"##iced":5134,"trust":5135,"adj":5136,"kg":5137,"mut":5138,"residents":5139,"athlet":5140,"##ung":5141,"designated":5142,"comedy":5143,"promoted":5144,"nominated":5145,"43":5146,"ow":5147,"suc":5148,"passing":5149,"bbc":5150,"1990":5151,"cultural":5152,"poet":5153,"##ety":5154,"##iance":5155,"ire":5156,"cricket":5157,"completely":5158,"##edd":5159,"appeal":5160,"crown":5161,"croat":5162,"conflict":5163,"resc":5164,"guest":5165,"avenue":5166,"problem":5167,"mainly":5168,"lane":5169,"height":5170,"weight":5171,"struck":5172,"sexual":5173,"contact":5174,"charts":5175,"44":5176,"sought":5177,"arms":5178,"fan":5179,"encour":5180,"orchest":5181,"trail":5182,"##istry":5183,"charge":5184,"sense":5185,"1945":5186,"##anna":5187,"seasons":5188,"1941":5189,"hands":5190,"webs":5191,"##stein":5192,"ancient":5193,"content":5194,"equip":5195,"##ita":5196,"doub":5197,"##mond":5198,"##astic":5199,"image":5200,"reaching":5201,"feed":5202,"rot":5203,"vari":5204,"150":5205,"##apped":5206,"paper":5207,"eye":5208,"document":5209,"##while":5210,"fellow":5211,"branch":5212,"##iber":5213,"weapons":5214,"tend":5215,"italy":5216,"bit":5217,"electron":5218,"spect":5219,"graph":5220,"##olved":5221,"americans":5222,"widely":5223,"mis":5224,"##unt":5225,"medal":5226,"channel":5227,"cell":5228,"dang":5229,"##rate":5230,"appearances":5231,"baseball":5232,"instrument":5233,"alone":5234,"emot":5235,"##lers":5236,"##ills":5237,"confirmed":5238,"intellig":5239,"##cers":5240,"wars":5241,"habit":5242,"##rative":5243,"gained":5244,"et":5245,"hotel":5246,"2nd":5247,"beyond":5248,"choice":5249,"##ylv":5250,"brothers":5251,"ireland":5252,"pul":5253,"pian":5254,"compar":5255,"join":5256,"older":5257,"murder":5258,"reign":5259,"liver":5260,"gil":5261,"versions":5262,"deliv":5263,"proved":5264,"library":5265,"analys":5266,"##pass":5267,"element":5268,"headquarters":5269,"explained":5270,"##uled":5271,"defence":5272,"##oman":5273,"steel":5274,"says":5275,"offer":5276,"ahead":5277,"sr":5278,"##nown":5279,"floor":5280,"##adel":5281,"manu":5282,"##sen":5283,"##cle":5284,"##oration":5285,"expans":5286,"##po":5287,"entr":5288,"rainfall":5289,"serve":5290,"1989":5291,"##ider":5292,"negot":5293,"##ques":5294,"causing":5295,"comes":5296,"1943":5297,"victoria":5298,"##phy":5299,"##theless":5300,"sport":5301,"carl":5302,"send":5303,"##ighth":5304,"suit":5305,"require":5306,"compr":5307,"expressed":5308,"equipment":5309,"workers":5310,"charl":5311,"sens":5312,"dw":5313,"ec":5314,"article":5315,"catholic":5316,"##oe":5317,"split":5318,"reports":5319,"##ota":5320,"roads":5321,"growth":5322,"pattern":5323,"matter":5324,"offensive":5325,"prominent":5326,"##omy":5327,"##za":5328,"drama":5329,"advanced":5330,"surpr":5331,"51":5332,"sant":5333,"capture":5334,"identified":5335,"gross":5336,"officially":5337,"setting":5338,"husband":5339,"##bit":5340,"armed":5341,"worldwide":5342,"fal":5343,"##town":5344,"category":5345,"reserve":5346,"##icient":5347,"dutch":5348,"tells":5349,"manufact":5350,"heavily":5351,"##erse":5352,"justice":5353,"senate":5354,"##ancy":5355,"soft":5356,"represented":5357,"activities":5358,"dani":5359,"escape":5360,"pieces":5361,"stephen":5362,"spread":5363,"surre":5364,"places":5365,"computer":5366,"##ns":5367,"meanwhile":5368,"treatment":5369,"leaves":5370,"catch":5371,"rush":5372,"jul":5373,"extra":5374,"gh":5375,"##iring":5376,"bott":5377,"##mans":5378,"adapt":5379,"actress":5380,"trees":5381,"leaders":5382,"figures":5383,"snow":5384,"avoid":5385,"tay":5386,"believe":5387,"expedition":5388,"fired":5389,"injury":5390,"dur":5391,"ri":5392,"toward":5393,"1940":5394,"duke":5395,"agreement":5396,"##bon":5397,"##yer":5398,"1980s":5399,"##yth":5400,"##de":5401,"supply":5402,"why":5403,"unknown":5404,"none":5405,"lives":5406,"##where":5407,"doing":5408,"##ylvania":5409,"casual":5410,"pap":5411,"##abeth":5412,"unlike":5413,"data":5414,"albert":5415,"il":5416,"illust":5417,"laid":5418,"editor":5419,"crowd":5420,"debuted":5421,"##inn":5422,"strike":5423,"consisted":5424,"##ule":5425,"bol":5426,"golden":5427,"eliz":5428,"imag":5429,"##mark":5430,"##ini":5431,"unf":5432,"walls":5433,"##acity":5434,"##ube":5435,"exec":5436,"dream":5437,"##cy":5438,"##zy":5439,"##emic":5440,"aired":5441,"argued":5442,"##ece":5443,"opin":5444,"stations":5445,"typically":5446,"severe":5447,"opposition":5448,"shel":5449,"##tar":5450,"reference":5451,"couple":5452,"mounted":5453,"formula":5454,"twice":5455,"moment":5456,"##bi":5457,"polish":5458,"claims":5459,"homer":5460,"finish":5461,"1970s":5462,"georg":5463,"##pool":5464,"##ached":5465,"mig":5466,"affected":5467,"photograph":5468,"nations":5469,"actors":5470,"description":5471,"##osen":5472,"faced":5473,"din":5474,"industrial":5475,"clar":5476,"animal":5477,"motor":5478,"powers":5479,"jon":5480,"notable":5481,"challeng":5482,"maintained":5483,"accident":5484,"1960s":5485,"store":5486,"trying":5487,"emph":5488,"protection":5489,"technology":5490,"supre":5491,"600":5492,"value":5493,"##sw":5494,"##inson":5495,"visited":5496,"horses":5497,"orders":5498,"knight":5499,"##oul":5500,"##ura":5501,"criticized":5502,"landing":5503,"##cher":5504,"spin":5505,"convers":5506,"cra":5507,"delay":5508,"##osoph":5509,"fuel":5510,"##esis":5511,"carolina":5512,"##acement":5513,"broken":5514,"fully":5515,"resident":5516,"tech":5517,"growing":5518,"##icks":5519,"bart":5520,"##ifying":5521,"##ads":5522,"label":5523,"sail":5524,"chosen":5525,"holly":5526,"motion":5527,"##ockey":5528,"twel":5529,"spend":5530,"institute":5531,"hair":5532,"##don":5533,"pros":5534,"solo":5535,"1987":5536,"##iles":5537,"scottish":5538,"twelve":5539,"##bn":5540,"1988":5541,"barb":5542,"criticism":5543,"cooper":5544,"producers":5545,"frequently":5546,"table":5547,"clin":5548,"youth":5549,"seventh":5550,"##oty":5551,"abb":5552,"wounded":5553,"##lines":5554,"joint":5555,"condition":5556,"looking":5557,"lam":5558,"som":5559,"penns":5560,"philosoph":5561,"vice":5562,"newspaper":5563,"53":5564,"md":5565,"surrounding":5566,"oppos":5567,"billion":5568,"independence":5569,"degree":5570,"reinfor":5571,"operated":5572,"composition":5573,"register":5574,"##ano":5575,"republican":5576,"nuclear":5577,"##rich":5578,"assembly":5579,"##rael":5580,"champion":5581,"urban":5582,"##gers":5583,"serving":5584,"inte":5585,"lands":5586,"grew":5587,"comic":5588,"react":5589,"mul":5590,"creation":5591,"sky":5592,"southeast":5593,"simply":5594,"lew":5595,"##ordin":5596,"follows":5597,"incident":5598,"losing":5599,"famous":5600,"vote":5601,"expansion":5602,"rival":5603,"contained":5604,"risk":5605,"newly":5606,"##yle":5607,"chor":5608,"cinem":5609,"killing":5610,"christmas":5611,"passes":5612,"herself":5613,"oppon":5614,"##more":5615,"weekly":5616,"85":5617,"andrew":5618,"individuals":5619,"cool":5620,"honour":5621,"agric":5622,"math":5623,"moon":5624,"dry":5625,"ends":5626,"ce":5627,"caval":5628,"##ayer":5629,"experiment":5630,"##stone":5631,"sher":5632,"normal":5633,"ta":5634,"bc":5635,"##mission":5636,"heard":5637,"fresh":5638,"emphas":5639,"consecutive":5640,"attrib":5641,"perfect":5642,"homes":5643,"##wise":5644,"wilson":5645,"##ucky":5646,"##ocked":5647,"crossing":5648,"taylor":5649,"##ote":5650,"cannot":5651,"##ledge":5652,"website":5653,"##izes":5654,"##lam":5655,"supporting":5656,"tam":5657,"evac":5658,"measure":5659,"##urb":5660,"1986":5661,"chose":5662,"consequ":5663,"narrow":5664,"opposed":5665,"thing":5666,"##ivity":5667,"elizabeth":5668,"##isters":5669,"perman":5670,"parall":5671,"##ici":5672,"joe":5673,"sequence":5674,"alexander":5675,"volume":5676,"participated":5677,"themes":5678,"agricult":5679,"54":5680,"historic":5681,"##pton":5682,"leadership":5683,"rise":5684,"adopted":5685,"famil":5686,"rare":5687,"wave":5688,"jac":5689,"von":5690,"colonel":5691,"##aly":5692,"opera":5693,"##any":5694,"eyes":5695,"capacity":5696,"abandoned":5697,"disease":5698,"##fully":5699,"advant":5700,"standing":5701,"##resp":5702,"filmed":5703,"democratic":5704,"extend":5705,"skin":5706,"plants":5707,"95":5708,"defin":5709,"basis":5710,"##rid":5711,"##ancing":5712,"##agn":5713,"negative":5714,"visual":5715,"straight":5716,"pennsylvania":5717,"egg":5718,"budget":5719,"deploy":5720,"eld":5721,"nav":5722,"prompt":5723,"bowl":5724,"##jo":5725,"##iled":5726,"failure":5727,"##aling":5728,"56":5729,"aer":5730,"tall":5731,"try":5732,"creating":5733,"benef":5734,"##gend":5735,"gameplay":5736,"mike":5737,"regarded":5738,"possibly":5739,"177":5740,"trip":5741,"##greg":5742,"dan":5743,"max":5744,"treaty":5745,"column":5746,"harry":5747,"irish":5748,"bodies":5749,"drop":5750,"palace":5751,"distingu":5752,"tank":5753,"##har":5754,"pier":5755,"ba":5756,"##water":5757,"##hire":5758,"rac":5759,"rand":5760,"seat":5761,"girls":5762,"sund":5763,"foundation":5764,"##rane":5765,"##worth":5766,"interchange":5767,"spain":5768,"##born":5769,"worth":5770,"dub":5771,"canal":5772,"domest":5773,"ideas":5774,"zone":5775,"lady":5776,"retired":5777,"merch":5778,"dismiss":5779,"legend":5780,"excl":5781,"surrender":5782,"advert":5783,"extensive":5784,"97":5785,"kick":5786,"1990s":5787,"ridge":5788,"##kins":5789,"eag":5790,"whit":5791,"younger":5792,"arc":5793,"roles":5794,"##een":5795,"hockey":5796,"scholars":5797,"178":5798,"kid":5799,"aid":5800,"explos":5801,"##under":5802,"garden":5803,"##isers":5804,"franch":5805,"horn":5806,"tell":5807,"railroad":5808,"analysis":5809,"basket":5810,"atm":5811,"1939":5812,"mist":5813,"classic":5814,"bishop":5815,"profess":5816,"bru":5817,"##illy":5818,"lap":5819,"pin":5820,"76":5821,"repeated":5822,"improved":5823,"achieved":5824,"gri":5825,"economy":5826,"assault":5827,"effective":5828,"drew":5829,"dial":5830,"briefly":5831,"cd":5832,"patrol":5833,"note":5834,"lind":5835,"##set":5836,"##uses":5837,"nob":5838,"israel":5839,"piano":5840,"banks":5841,"dim":5842,"##anda":5843,"hope":5844,"aim":5845,"prote":5846,"currently":5847,"unsu":5848,"southwest":5849,"##orters":5850,"necessary":5851,"household":5852,"vehicles":5853,"chamber":5854,"core":5855,"granted":5856,"gate":5857,"##la":5858,"defensive":5859,"glass":5860,"arthur":5861,"purpose":5862,"braz":5863,"rejected":5864,"1985":5865,"turns":5866,"regional":5867,"fame":5868,"caught":5869,"speak":5870,"citizens":5871,"##gal":5872,"##ola":5873,"organized":5874,"soul":5875,"recently":5876,"trou":5877,"##arked":5878,"1968":5879,"sin":5880,"types":5881,"kilometres":5882,"genus":5883,"expanded":5884,"secondary":5885,"receive":5886,"province":5887,"sud":5888,"atmosph":5889,"authorities":5890,"flooding":5891,"sell":5892,"##lusion":5893,"marine":5894,"commissioned":5895,"##uls":5896,"lem":5897,"didn":5898,"1970":5899,"cavalry":5900,"online":5901,"66":5902,"calc":5903,"ohio":5904,"families":5905,"successfully":5906,"synth":5907,"roof":5908,"transform":5909,"performing":5910,"letters":5911,"##iments":5912,"61":5913,"determined":5914,"literature":5915,"##eman":5916,"freedom":5917,"describes":5918,"fought":5919,"assistant":5920,"hay":5921,"tel":5922,"agent":5923,"##oln":5924,"##azz":5925,"safety":5926,"##utation":5927,"picture":5928,"unus":5929,"upgr":5930,"1984":5931,"goes":5932,"singing":5933,"ori":5934,"dram":5935,"##adelph":5936,"poly":5937,"##ases":5938,"freeway":5939,"##ala":5940,"acquired":5941,"prefer":5942,"custom":5943,"##iday":5944,"##uate":5945,"titles":5946,"philadelph":5947,"ped":5948,"journey":5949,"suggests":5950,"commonly":5951,"gives":5952,"planning":5953,"##ato":5954,"800":5955,"gram":5956,"tail":5957,"centuries":5958,"supreme":5959,"##alty":5960,"deck":5961,"mentioned":5962,"##umber":5963,"distribution":5964,"georgia":5965,"##stream":5966,"controlled":5967,"cambridge":5968,"scheduled":5969,"bom":5970,"vac":5971,"##och":5972,"ble":5973,"lic":5974,"##oted":5975,"withdraw":5976,"alternative":5977,"contain":5978,"revol":5979,"##iate":5980,"philadelphia":5981,"flu":5982,"ron":5983,"##elle":5984,"##ifications":5985,"shooting":5986,"##ading":5987,"contest":5988,"trains":5989,"simple":5990,"sets":5991,"mouth":5992,"##tv":5993,"##haps":5994,"chance":5995,"unique":5996,"protect":5997,"reaction":5998,"principal":5999,"perhaps":6000,"regarding":6001,"120":6002,"##wall":6003,"crime":6004,"fro":6005,"decre":6006,"##rif":6007,"##attle":6008,"wrestling":6009,"cook":6010,"finds":6011,"1967":6012,"virt":6013,"witness":6014,"russia":6015,"fix":6016,"request":6017,"spr":6018,"myth":6019,"submar":6020,"estate":6021,"rules":6022,"save":6023,"facilities":6024,"web":6025,"specim":6026,"1980":6027,"arrival":6028,"extrem":6029,"demand":6030,"recru":6031,"reading":6032,"scientific":6033,"korean":6034,"##ias":6035,"kir":6036,"##umes":6037,"57":6038,"session":6039,"containing":6040,"exchange":6041,"publication":6042,"sie":6043,"accompanied":6044,"integr":6045,"rated":6046,"gain":6047,"scout":6048,"locations":6049,"fighter":6050,"touchdown":6051,"price":6052,"belong":6053,"nintend":6054,"ceremony":6055,"liverpool":6056,"tact":6057,"boats":6058,"quite":6059,"selection":6060,"linc":6061,"##ester":6062,"evening":6063,"nintendo":6064,"62":6065,"hits":6066,"deter":6067,"entirely":6068,"jenn":6069,"##iana":6070,"tag":6071,"asia":6072,"hydro":6073,"columbia":6074,"moder":6075,"existing":6076,"concer":6077,"##oma":6078,"##inger":6079,"lis":6080,"brid":6081,"dedicated":6082,"##pi":6083,"intensity":6084,"resistance":6085,"brook":6086,"contributed":6087,"firm":6088,"singap":6089,"rum":6090,"##unk":6091,"legacy":6092,"fash":6093,"##aver":6094,"jewish":6095,"##illa":6096,"provides":6097,"purchased":6098,"publish":6099,"casualties":6100,"remix":6101,"##once":6102,"##aven":6103,"kel":6104,"ss":6105,"cloud":6106,"dip":6107,"1983":6108,"windows":6109,"resemb":6110,"##mouth":6111,"brazil":6112,"page":6113,"##station":6114,"adap":6115,"campus":6116,"brand":6117,"battery":6118,"attract":6119,"throw":6120,"##str":6121,"advantage":6122,"##dy":6123,"##etts":6124,"kings":6125,"grey":6126,"occupied":6127,"sites":6128,"carey":6129,"thor":6130,"1969":6131,"francisco":6132,"singapore":6133,"eighth":6134,"basketball":6135,"boys":6136,"holding":6137,"##inity":6138,"1964":6139,"corresp":6140,"correspond":6141,"lincoln":6142,"##shire":6143,"##iences":6144,"promotion":6145,"structures":6146,"gulf":6147,"heads":6148,"protected":6149,"##room":6150,"##agan":6151,"drawn":6152,"58":6153,"##itan":6154,"elimin":6155,"regions":6156,"ok":6157,"rub":6158,"miller":6159,"1914":6160,"coastal":6161,"resour":6162,"receiving":6163,"hms":6164,"bright":6165,"closely":6166,"ax":6167,"##ables":6168,"playstation":6169,"conqu":6170,"##oses":6171,"74":6172,"disney":6173,"1918":6174,"##ulate":6175,"judge":6176,"code":6177,"opportunity":6178,"cars":6179,"turning":6180,"laws":6181,"##itled":6182,"##laim":6183,"1971":6184,"mand":6185,"az":6186,"gib":6187,"generation":6188,"1982":6189,"lewis":6190,"tenn":6191,"gay":6192,"bron":6193,"calls":6194,"roughly":6195,"consists":6196,"1972":6197,"1966":6198,"72":6199,"1979":6200,"steve":6201,"##amin":6202,"defined":6203,"acts":6204,"reserv":6205,"grade":6206,"corner":6207,"nap":6208,"anderson":6209,"gill":6210,"brian":6211,"ka":6212,"##eds":6213,"experienced":6214,"##fri":6215,"anything":6216,"byz":6217,"olympic":6218,"schem":6219,"losses":6220,"bush":6221,"rolling":6222,"symbol":6223,"fashion":6224,"ell":6225,"towns":6226,"jr":6227,"##garian":6228,"task":6229,"micro":6230,"##rons":6231,"protest":6232,"1965":6233,"##ocated":6234,"survey":6235,"##ja":6236,"focused":6237,"retire":6238,"viewed":6239,"engaged":6240,"byzant":6241,"##hol":6242,"religion":6243,"intelligence":6244,"providing":6245,"politics":6246,"##kn":6247,"##burgh":6248,"##iny":6249,"armour":6250,"developing":6251,"relief":6252,"nhl":6253,"3rd":6254,"##kes":6255,"1975":6256,"##fort":6257,"##ella":6258,"bands":6259,"rapidly":6260,"investigation":6261,"shared":6262,"hind":6263,"##aud":6264,"uncle":6265,"hired":6266,"##han":6267,"males":6268,"bottom":6269,"temperature":6270,"credits":6271,"##ko":6272,"highlight":6273,"walter":6274,"59":6275,"phase":6276,"instruct":6277,"germans":6278,"shall":6279,"semi":6280,"hip":6281,"introduction":6282,"hollywood":6283,"mountains":6284,"##rig":6285,"##ware":6286,"everything":6287,"missing":6288,"enl":6289,"recognized":6290,"faith":6291,"18th":6292,"junior":6293,"rene":6294,"##amm":6295,"oak":6296,"1974":6297,"solid":6298,"painting":6299,"davis":6300,"99":6301,"##ifically":6302,"belief":6303,"rome":6304,"guy":6305,"wond":6306,"1973":6307,"flat":6308,"appoint":6309,"getting":6310,"map":6311,"prepared":6312,"falls":6313,"substant":6314,"shape":6315,"isol":6316,"folk":6317,"##onic":6318,"lb":6319,"franchise":6320,"descend":6321,"jean":6322,"##aming":6323,"knew":6324,"typh":6325,"opinion":6326,"gord":6327,"##gest":6328,"##bound":6329,"amend":6330,"significantly":6331,"domestic":6332,"1976":6333,"##oster":6334,"exact":6335,"intersection":6336,"projects":6337,"approved":6338,"##ilton":6339,"step":6340,"serb":6341,"cens":6342,"literary":6343,"adding":6344,"cou":6345,"beyonce":6346,"vent":6347,"global":6348,"tick":6349,"63":6350,"hart":6351,"thin":6352,"penins":6353,"sort":6354,"confeder":6355,"reasons":6356,"knowledge":6357,"bes":6358,"##box":6359,"philipp":6360,"##eb":6361,"##friend":6362,"wings":6363,"unsuccess":6364,"ther":6365,"challenge":6366,"hung":6367,"hell":6368,"playoff":6369,"raid":6370,"77":6371,"73":6372,"poem":6373,"##gun":6374,"##iful":6375,"shaped":6376,"wheel":6377,"##erted":6378,"views":6379,"settlement":6380,"##eper":6381,"stages":6382,"##itt":6383,"musl":6384,"archae":6385,"cabin":6386,"escort":6387,"syd":6388,"operating":6389,"cris":6390,"storyline":6391,"250":6392,"evolution":6393,"##atures":6394,"exerc":6395,"##wart":6396,"rar":6397,"renamed":6398,"parallel":6399,"labour":6400,"##che":6401,"equal":6402,"naz":6403,"##unte":6404,"reputation":6405,"internal":6406,"jam":6407,"hyp":6408,"ward":6409,"thirty":6410,"watched":6411,"unl":6412,"shut":6413,"nevertheless":6414,"rebu":6415,"autom":6416,"employed":6417,"volunte":6418,"allies":6419,"popularity":6420,"proceed":6421,"##achus":6422,"injured":6423,"##break":6424,"fine":6425,"scul":6426,"##awa":6427,"hem":6428,"limit":6429,"vic":6430,"humans":6431,"professor":6432,"##asty":6433,"females":6434,"baby":6435,"cape":6436,"##rel":6437,"increasingly":6438,"cited":6439,"guide":6440,"kentucky":6441,"##usc":6442,"headed":6443,"paint":6444,"bull":6445,"neither":6446,"1946":6447,"models":6448,"declined":6449,"wealth":6450,"1981":6451,"##istan":6452,"neut":6453,"##sey":6454,"blues":6455,"##ologist":6456,"finding":6457,"connected":6458,"heat":6459,"consc":6460,"collected":6461,"details":6462,"violence":6463,"hills":6464,"##icts":6465,"existence":6466,"converted":6467,"matt":6468,"sculpt":6469,"depth":6470,"sustained":6471,"67":6472,"enjoyed":6473,"1950s":6474,"##lav":6475,"controversy":6476,"ross":6477,"bern":6478,"norway":6479,"learned":6480,"entry":6481,"##antly":6482,"bath":6483,"1917":6484,"torn":6485,"raf":6486,"han":6487,"sab":6488,"##ym":6489,"volcan":6490,"connect":6491,"##ador":6492,"massachus":6493,"canc":6494,"olympics":6495,"##eral":6496,"##pa":6497,"consum":6498,"applied":6499,"##ients":6500,"championships":6501,"massachusetts":6502,"outer":6503,"allows":6504,"camera":6505,"ari":6506,"premier":6507,"impl":6508,"triple":6509,"##ds":6510,"##ceived":6511,"tu":6512,"nas":6513,"##istol":6514,"crimin":6515,"grav":6516,"ways":6517,"68":6518,"cells":6519,"sed":6520,"approached":6521,"entrance":6522,"82":6523,"##ctions":6524,"swim":6525,"##onym":6526,"96":6527,"##inum":6528,"decade":6529,"##ping":6530,"carrying":6531,"clark":6532,"easily":6533,"designs":6534,"nest":6535,"tests":6536,"responded":6537,"arsen":6538,"scar":6539,"confron":6540,"extension":6541,"discovery":6542,"##ua":6543,"technical":6544,"downlo":6545,"1948":6546,"160":6547,"chairman":6548,"buried":6549,"duty":6550,"##isf":6551,"##ropri":6552,"loy":6553,"shr":6554,"convoy":6555,"##psons":6556,"gradually":6557,"succeeded":6558,"interp":6559,"uns":6560,"1960":6561,"##eg":6562,"sections":6563,"##hi":6564,"mayor":6565,"specifically":6566,"breeding":6567,"gray":6568,"acres":6569,"##zen":6570,"showing":6571,"programs":6572,"foss":6573,"ken":6574,"simpsons":6575,"##ignment":6576,"##mann":6577,"hull":6578,"stret":6579,"gang":6580,"##iger":6581,"items":6582,"address":6583,"700":6584,"hang":6585,"install":6586,"sons":6587,"prisoners":6588,"mode":6589,"door":6590,"prize":6591,"arranged":6592,"municip":6593,"1978":6594,"astron":6595,"credited":6596,"genre":6597,"gone":6598,"cad":6599,"similarly":6600,"##itors":6601,"vietnam":6602,"statement":6603,"exclus":6604,"weakened":6605,"seems":6606,"producing":6607,"winner":6608,"sax":6609,"purs":6610,"87":6611,"additionally":6612,"maria":6613,"improve":6614,"earliest":6615,"daniel":6616,"util":6617,"parties":6618,"raw":6619,"landfall":6620,"teen":6621,"pear":6622,"##otic":6623,"lev":6624,"shop":6625,"rural":6626,"presidential":6627,"warning":6628,"nich":6629,"sad":6630,"routes":6631,"##come":6632,"threatened":6633,"1915":6634,"divisions":6635,"candidate":6636,"engineer":6637,"fields":6638,"retained":6639,"bac":6640,"69":6641,"##rec":6642,"bear":6643,"leon":6644,"combination":6645,"78":6646,"ottoman":6647,"sydney":6648,"sounds":6649,"lasted":6650,"cryst":6651,"products":6652,"##entions":6653,"1977":6654,"mah":6655,"poland":6656,"##inary":6657,"inner":6658,"1950":6659,"mtv":6660,"##put":6661,"jay":6662,"moore":6663,"maryland":6664,"replace":6665,"spok":6666,"supplies":6667,"##issance":6668,"chemical":6669,"ones":6670,"adapted":6671,"##wich":6672,"hugh":6673,"brain":6674,"interior":6675,"evil":6676,"basic":6677,"animated":6678,"hear":6679,"##inking":6680,"91":6681,"dress":6682,"downtown":6683,"adam":6684,"afterwards":6685,"##rations":6686,"repair":6687,"engines":6688,"delivered":6689,"##una":6690,"speaking":6691,"peninsula":6692,"##iat":6693,"agency":6694,"grounds":6695,"##urt":6696,"1963":6697,"##iform":6698,"filled":6699,"inspir":6700,"message":6701,"lock":6702,"surviv":6703,"stopped":6704,"entitled":6705,"##osis":6706,"equival":6707,"rhodes":6708,"vel":6709,"frag":6710,"permanent":6711,"affairs":6712,"##inal":6713,"1916":6714,"clean":6715,"supporters":6716,"indicated":6717,"architecture":6718,"extremely":6719,"climate":6720,"wides":6721,"jes":6722,"##eleg":6723,"engineering":6724,"kim":6725,"##rence":6726,"##math":6727,"##rets":6728,"##ira":6729,"causes":6730,"94":6731,"##onia":6732,"magic":6733,"deaths":6734,"sha":6735,"diamond":6736,"secure":6737,"proposal":6738,"importance":6739,"##ava":6740,"returns":6741,"greg":6742,"alien":6743,"mulder":6744,"98":6745,"##apes":6746,"restaur":6747,"gordon":6748,"cul":6749,"mine":6750,"fruit":6751,"ga":6752,"ratings":6753,"typhoon":6754,"knots":6755,"spons":6756,"interact":6757,"composer":6758,"deleg":6759,"streets":6760,"1919":6761,"1962":6762,"##imet":6763,"eric":6764,"implement":6765,"ira":6766,"81":6767,"##emies":6768,"tanks":6769,"##izations":6770,"survived":6771,"##iversary":6772,"buff":6773,"acid":6774,"##rest":6775,"cow":6776,"harv":6777,"##rant":6778,"aftermath":6779,"classical":6780,"describing":6781,"references":6782,"##arm":6783,"compon":6784,"writes":6785,"convin":6786,"las":6787,"71":6788,"bought":6789,"classification":6790,"concerns":6791,"giant":6792,"images":6793,"songwrit":6794,"mans":6795,"switch":6796,"ruled":6797,"print":6798,"someone":6799,"holy":6800,"typical":6801,"1938":6802,"entering":6803,"alan":6804,"##cop":6805,"medie":6806,"environmental":6807,"##inois":6808,"remember":6809,"rivers":6810,"alt":6811,"armor":6812,"studied":6813,"arrested":6814,"portrayed":6815,"decline":6816,"sale":6817,"##nic":6818,"cruiser":6819,"voted":6820,"##time":6821,"##ropol":6822,"##entially":6823,"jane":6824,"reduce":6825,"preced":6826,"retreat":6827,"universe":6828,"##bourne":6829,"tra":6830,"recalled":6831,"##ati":6832,"flo":6833,"89":6834,"eleven":6835,"drug":6836,"pig":6837,"intention":6838,"purchase":6839,"corporation":6840,"##iro":6841,"ago":6842,"capable":6843,"siege":6844,"medieval":6845,"actual":6846,"##ansas":6847,"feeling":6848,"academic":6849,"alliance":6850,"alf":6851,"correct":6852,"vul":6853,"simon":6854,"owner":6855,"objects":6856,"nomination":6857,"##ela":6858,"sessions":6859,"colonial":6860,"recognition":6861,"driving":6862,"liberal":6863,"equipped":6864,"reh":6865,"chapter":6866,"thousands":6867,"##ima":6868,"tony":6869,"offers":6870,"identity":6871,"funds":6872,"noting":6873,"historians":6874,"passage":6875,"hunting":6876,"concerned":6877,"princess":6878,"anniversary":6879,"finals":6880,"meters":6881,"##book":6882,"connection":6883,"decades":6884,"##itage":6885,"##omic":6886,"1956":6887,"1930s":6888,"##ographic":6889,"debate":6890,"crossed":6891,"consisting":6892,"##tic":6893,"##aka":6894,"recommended":6895,"admitted":6896,"175":6897,"programme":6898,"interested":6899,"undert":6900,"invited":6901,"##elson":6902,"bang":6903,"##eline":6904,"decor":6905,"camer":6906,"installed":6907,"arsenal":6908,"kong":6909,"breaking":6910,"considerable":6911,"88":6912,"adams":6913,"79":6914,"##aine":6915,"starts":6916,"dougl":6917,"sight":6918,"flash":6919,"##icide":6920,"establishment":6921,"dates":6922,"colony":6923,"##bl":6924,"ts":6925,"courts":6926,"##ogen":6927,"rab":6928,"##ali":6929,"universal":6930,"pav":6931,"##kend":6932,"1936":6933,"hamilton":6934,"sequel":6935,"##ipping":6936,"thunder":6937,"enemies":6938,"##encies":6939,"pound":6940,"charged":6941,"styles":6942,"duties":6943,"remainder":6944,"margin":6945,"manner":6946,"##ranean":6947,"##ingly":6948,"##adow":6949,"bach":6950,"jord":6951,"monument":6952,"eat":6953,"##pread":6954,"warm":6955,"quant":6956,"veter":6957,"##oked":6958,"utc":6959,"bos":6960,"##eller":6961,"improv":6962,"widespread":6963,"truth":6964,"##right":6965,"##cement":6966,"##aken":6967,"ready":6968,"shield":6969,"negoti":6970,"dipl":6971,"##met":6972,"##oli":6973,"communist":6974,"promote":6975,"jur":6976,"##mes":6977,"130":6978,"1920":6979,"subs":6980,"##oir":6981,"sor":6982,"pictures":6983,"conservative":6984,"jump":6985,"##aked":6986,"1961":6987,"pip":6988,"##eston":6989,"continuing":6990,"slowly":6991,"indones":6992,"sharp":6993,"bure":6994,"departure":6995,"aspects":6996,"##ishes":6997,"##iel":6998,"occasionally":6999,"shear":7000,"##ugh":7001,"transition":7002,"classes":7003,"##ilation":7004,"shore":7005,"behavior":7006,"92":7007,"nba":7008,"##iques":7009,"thro":7010,"nether":7011,"animation":7012,"credit":7013,"wwe":7014,"1953":7015,"electronic":7016,"beautiful":7017,"romantic":7018,"resources":7019,"##acks":7020,"orchestra":7021,"argent":7022,"##aham":7023,"destruction":7024,"wearing":7025,"posted":7026,"emergency":7027,"happy":7028,"kennedy":7029,"##eton":7030,"hitler":7031,"transportation":7032,"sunday":7033,"acclaim":7034,"rhyth":7035,"assistance":7036,"disappo":7037,"diet":7038,"plate":7039,"howard":7040,"kat":7041,"matth":7042,"indiana":7043,"superior":7044,"treas":7045,"bid":7046,"senator":7047,"occurs":7048,"##heim":7049,"vessels":7050,"salt":7051,"93":7052,"ride":7053,"formal":7054,"certified":7055,"accur":7056,"dated":7057,"income":7058,"myst":7059,"1930":7060,"##oes":7061,"##iling":7062,"memory":7063,"norwe":7064,"populations":7065,"attached":7066,"scully":7067,"17th":7068,"marc":7069,"carbon":7070,"##apping":7071,"turk":7072,"pure":7073,"##ensions":7074,"##know":7075,"1947":7076,"answ":7077,"properties":7078,"wel":7079,"pleas":7080,"passengers":7081,"chorus":7082,"ancest":7083,"##regon":7084,"dean":7085,"##outs":7086,"demol":7087,"conservation":7088,"equivalent":7089,"##mus":7090,"shots":7091,"1958":7092,"84":7093,"hou":7094,"##uous":7095,"ryan":7096,"oldest":7097,"involving":7098,"terminus":7099,"chapel":7100,"portug":7101,"ech":7102,"heritage":7103,"tunnel":7104,"mathem":7105,"##icit":7106,"adventure":7107,"##va":7108,"##athan":7109,"1957":7110,"settled":7111,"acknow":7112,"##after":7113,"oregon":7114,"##icate":7115,"##oard":7116,"expand":7117,"obtained":7118,"##aware":7119,"reun":7120,"##veland":7121,"1937":7122,"rescue":7123,"junction":7124,"dynasty":7125,"accused":7126,"##akers":7127,"finishing":7128,"authors":7129,"##osaurus":7130,"##aki":7131,"derived":7132,"##uing":7133,"charges":7134,"wins":7135,"worst":7136,"cos":7137,"na":7138,"ninth":7139,"incorporated":7140,"bombard":7141,"sleep":7142,"favorite":7143,"reviewers":7144,"inher":7145,"##agues":7146,"replacement":7147,"pad":7148,"circuit":7149,"crisis":7150,"douglas":7151,"##ivals":7152,"##eastern":7153,"##orney":7154,"barr":7155,"mediter":7156,"cleveland":7157,"committed":7158,"hosted":7159,"pink":7160,"##err":7161,"medic":7162,"missions":7163,"illinois":7164,"circum":7165,"moves":7166,"prey":7167,"collect":7168,"4th":7169,"lenn":7170,"shell":7171,"bringing":7172,"belt":7173,"##etime":7174,"rebell":7175,"vehicle":7176,"segment":7177,"navig":7178,"##ooth":7179,"##wick":7180,"supposed":7181,"ak":7182,"andy":7183,"assumed":7184,"pope":7185,"denied":7186,"1959":7187,"audio":7188,"biograph":7189,"circulation":7190,"rooms":7191,"interpret":7192,"sword":7193,"stanley":7194,"clubs":7195,"representatives":7196,"weekend":7197,"##western":7198,"unusual":7199,"jordan":7200,"premiere":7201,"##ommod":7202,"rig":7203,"##ician":7204,"recre":7205,"grass":7206,"mediterranean":7207,"musicians":7208,"commanded":7209,"110":7210,"kevin":7211,"theater":7212,"strongly":7213,"roger":7214,"seeing":7215,"fictional":7216,"deem":7217,"beatles":7218,"outstanding":7219,"##agonist":7220,"86":7221,"dens":7222,"begun":7223,"##ruption":7224,"surviving":7225,"completion":7226,"intercept":7227,"characteristics":7228,"##hr":7229,"##wa":7230,"1955":7231,"mexican":7232,"##ships":7233,"materials":7234,"##suit":7235,"bruce":7236,"1954":7237,"reality":7238,"isbn":7239,"bristol":7240,"norwegian":7241,"alleged":7242,"neighbor":7243,"cathed":7244,"attorney":7245,"deput":7246,"costs":7247,"wickets":7248,"exception":7249,"##ione":7250,"monarch":7251,"possibility":7252,"persu":7253,"solar":7254,"desire":7255,"methods":7256,"sailed":7257,"##ched":7258,"tied":7259,"responsibility":7260,"conte":7261,"##ules":7262,"cant":7263,"ford":7264,"consp":7265,"gust":7266,"anton":7267,"everyone":7268,"passenger":7269,"praise":7270,"##uge":7271,"philip":7272,"lanc":7273,"vision":7274,"driven":7275,"reconst":7276,"cancer":7277,"##itable":7278,"opposite":7279,"differences":7280,"carrier":7281,"missed":7282,"##borne":7283,"representative":7284,"atmosphere":7285,"scheme":7286,"##zer":7287,"lisa":7288,"dor":7289,"habitat":7290,"buy":7291,"korea":7292,"thereafter":7293,"interst":7294,"recovered":7295,"otherwise":7296,"rif":7297,"vary":7298,"massive":7299,"cem":7300,"##erto":7301,"##erged":7302,"funding":7303,"throne":7304,"orange":7305,"platinum":7306,"strategy":7307,"attributed":7308,"ceas":7309,"warri":7310,"##ager":7311,"serves":7312,"stayed":7313,"##weight":7314,"wrong":7315,"emerged":7316,"retirement":7317,"voy":7318,"effectively":7319,"communities":7320,"cu":7321,"classified":7322,"##onto":7323,"shif":7324,"1952":7325,"outbreak":7326,"morris":7327,"ministry":7328,"adults":7329,"##ram":7330,"dragon":7331,"aboard":7332,"weapon":7333,"pret":7334,"punk":7335,"haz":7336,"##rus":7337,"phill":7338,"twin":7339,"regularly":7340,"accommod":7341,"mobile":7342,"crosses":7343,"##bar":7344,"robinson":7345,"obl":7346,"documentary":7347,"elections":7348,"accounts":7349,"sweet":7350,"partn":7351,"##ucks":7352,"##works":7353,"dissip":7354,"norman":7355,"nelson":7356,"##elsh":7357,"morgan":7358,"##lee":7359,"ko":7360,"nic":7361,"underground":7362,"circle":7363,"##organ":7364,"1933":7365,"falling":7366,"attracted":7367,"bou":7368,"angle":7369,"##riers":7370,"stead":7371,"enterpr":7372,"submarine":7373,"##iant":7374,"forming":7375,"trials":7376,"hawai":7377,"stood":7378,"inspiration":7379,"lies":7380,"expect":7381,"fu":7382,"##bell":7383,"176":7384,"ille":7385,"racing":7386,"factor":7387,"races":7388,"##ersed":7389,"crop":7390,"movements":7391,"parks":7392,"criminal":7393,"##pective":7394,"##alf":7395,"##rupted":7396,"battleships":7397,"renew":7398,"advis":7399,"injuries":7400,"votes":7401,"83":7402,"batting":7403,"##path":7404,"commem":7405,"immig":7406,"needs":7407,"raise":7408,"wre":7409,"##sole":7410,"##phone":7411,"1910":7412,"##ompl":7413,"wonder":7414,"##oslav":7415,"##abled":7416,"##burn":7417,"1935":7418,"separated":7419,"sweden":7420,"patrick":7421,"##apers":7422,"##enses":7423,"relative":7424,"##char":7425,"predecess":7426,"##aza":7427,"bot":7428,"garrison":7429,"sudden":7430,"##pping":7431,"1949":7432,"allen":7433,"1951":7434,"temporary":7435,"welsh":7436,"vert":7437,"lith":7438,"pull":7439,"##oking":7440,"remn":7441,"mck":7442,"flank":7443,"difficulty":7444,"plane":7445,"earn":7446,"symph":7447,"hat":7448,"chain":7449,"##idden":7450,"distinguished":7451,"partner":7452,"seemed":7453,"##uting":7454,"shark":7455,"requested":7456,"queens":7457,"delayed":7458,"facility":7459,"toronto":7460,"restored":7461,"##teenth":7462,"surrounded":7463,"soph":7464,"matthew":7465,"ports":7466,"depict":7467,"13th":7468,"standards":7469,"elder":7470,"gets":7471,"enth":7472,"byzantine":7473,"wedd":7474,"hoped":7475,"claiming":7476,"lyn":7477,"elsewhere":7478,"childhood":7479,"bridges":7480,"orb":7481,"netherlands":7482,"uss":7483,"penalty":7484,"16th":7485,"convection":7486,"reviewer":7487,"sid":7488,"##arian":7489,"temperatures":7490,"metropol":7491,"##imate":7492,"meets":7493,"##rett":7494,"murd":7495,"convinced":7496,"stands":7497,"examples":7498,"ages":7499,"greatly":7500,"internet":7501,"frame":7502,"##oyd":7503,"harm":7504,"##isms":7505,"iraq":7506,"summ":7507,"jews":7508,"moderate":7509,"cathedral":7510,"publishing":7511,"nom":7512,"divers":7513,"amaz":7514,"climb":7515,"dangerous":7516,"##anian":7517,"involvement":7518,"painted":7519,"appropri":7520,"cycle":7521,"kiss":7522,"obtain":7523,"easy":7524,"wooden":7525,"mete":7526,"##ogy":7527,"gor":7528,"accompl":7529,"mes":7530,"1900":7531,"hundreds":7532,"jacob":7533,"om":7534,"spoke":7535,"alco":7536,"##ek":7537,"immediate":7538,"adaptation":7539,"recordings":7540,"satell":7541,"eggs":7542,"dod":7543,"mars":7544,"wright":7545,"learn":7546,"molec":7547,"7th":7548,"jazz":7549,"desert":7550,"##real":7551,"tries":7552,"anyone":7553,"fled":7554,"techniques":7555,"##yard":7556,"assass":7557,"parish":7558,"tub":7559,"##omot":7560,"excell":7561,"appearing":7562,"thomp":7563,"learning":7564,"bureau":7565,"rick":7566,"##ovic":7567,"strip":7568,"##anth":7569,"encouraged":7570,"##urr":7571,"somewh":7572,"somewhat":7573,"bag":7574,"hut":7575,"anne":7576,"suffering":7577,"##ez":7578,"arn":7579,"insur":7580,"measures":7581,"##iley":7582,"lor":7583,"displ":7584,"##berts":7585,"poetry":7586,"graphics":7587,"croatian":7588,"toll":7589,"dal":7590,"prohib":7591,"coin":7592,"wolf":7593,"legislation":7594,"determine":7595,"5th":7596,"pir":7597,"shir":7598,"##agement":7599,"premiered":7600,"##ami":7601,"##abil":7602,"russell":7603,"journalist":7604,"dismissed":7605,"safe":7606,"kelly":7607,"bears":7608,"thompson":7609,"dating":7610,"##lets":7611,"ku":7612,"leaf":7613,"armen":7614,"interests":7615,"ensure":7616,"usa":7617,"facing":7618,"veget":7619,"rud":7620,"drag":7621,"whereas":7622,"attempting":7623,"horror":7624,"nickn":7625,"##rell":7626,"salv":7627,"##aug":7628,"fighters":7629,"##going":7630,"absor":7631,"fitted":7632,"islam":7633,"nfl":7634,"holds":7635,"carter":7636,"upd":7637,"thousand":7638,"ah":7639,"trophy":7640,"commonwe":7641,"puerto":7642,"starred":7643,"attacking":7644,"patri":7645,"hub":7646,"neck":7647,"bypass":7648,"hend":7649,"weigh":7650,"enfor":7651,"formerly":7652,"##ses":7653,"bats":7654,"visible":7655,"##agre":7656,"questions":7657,"extreme":7658,"commonwealth":7659,"closer":7660,"6th":7661,"##asing":7662,"theor":7663,"township":7664,"biggest":7665,"hud":7666,"option":7667,"conclusion":7668,"spears":7669,"depos":7670,"absence":7671,"##body":7672,"productions":7673,"hungarian":7674,"influences":7675,"##dh":7676,"modified":7677,"##itzer":7678,"deemed":7679,"pak":7680,"instruments":7681,"batman":7682,"##eness":7683,"hin":7684,"##rete":7685,"apparently":7686,"1913":7687,"buck":7688,"parker":7689,"mitch":7690,"reprodu":7691,"controversial":7692,"landed":7693,"laboratory":7694,"novels":7695,"landsc":7696,"gent":7697,"narrative":7698,"diplom":7699,"harris":7700,"lion":7701,"longest":7702,"##elsen":7703,"distributed":7704,"1927":7705,"territories":7706,"bronze":7707,"##iva":7708,"murray":7709,"##ighter":7710,"operate":7711,"##da":7712,"leads":7713,"1926":7714,"pel":7715,"wet":7716,"locomot":7717,"gallery":7718,"##eu":7719,"##ito":7720,"trained":7721,"##night":7722,"understand":7723,"victims":7724,"12th":7725,"restoration":7726,"##acent":7727,"scand":7728,"arrangement":7729,"files":7730,"kw":7731,"creative":7732,"acknowled":7733,"visitors":7734,"1934":7735,"1921":7736,"unsuccessful":7737,"rhythm":7738,"06":7739,"mainstream":7740,"refuge":7741,"alph":7742,"releases":7743,"discip":7744,"uniform":7745,"sees":7746,"##ji":7747,"enh":7748,"representing":7749,"substit":7750,"believes":7751,"depicted":7752,"influential":7753,"dna":7754,"owners":7755,"coins":7756,"exit":7757,"fred":7758,"excess":7759,"resolution":7760,"basin":7761,"900":7762,"##olph":7763,"looked":7764,"berlin":7765,"dominated":7766,"tone":7767,"stor":7768,"abbey":7769,"secured":7770,"raaf":7771,"churches":7772,"##ares":7773,"videos":7774,"joy":7775,"harbor":7776,"houston":7777,"wy":7778,"##asions":7779,"dynam":7780,"santa":7781,"notably":7782,"informed":7783,"##ixon":7784,"apple":7785,"casting":7786,"1912":7787,"comics":7788,"liqu":7789,"watching":7790,"legs":7791,"finn":7792,"##roit":7793,"giants":7794,"driver":7795,"##chang":7796,"mamm":7797,"##gets":7798,"indians":7799,"offices":7800,"##etery":7801,"cemetery":7802,"swedish":7803,"deployed":7804,"apparent":7805,"languages":7806,"yug":7807,"meteor":7808,"roberts":7809,"relationships":7810,"neighbour":7811,"imposs":7812,"guardian":7813,"##ultane":7814,"simultane":7815,"##ivan":7816,"aftern":7817,"##aska":7818,"terror":7819,"1932":7820,"housing":7821,"simpson":7822,"behavi":7823,"unp":7824,"deliver":7825,"testing":7826,"##ien":7827,"hearing":7828,"device":7829,"##apse":7830,"opponents":7831,"##eenth":7832,"##alo":7833,"dre":7834,"jesus":7835,"##certain":7836,"sull":7837,"##agu":7838,"skills":7839,"cabinet":7840,"diagn":7841,"achieve":7842,"dick":7843,"detail":7844,"pregn":7845,"operational":7846,"wag":7847,"generated":7848,"impressed":7849,"dies":7850,"intense":7851,"warner":7852,"##atically":7853,"jason":7854,"drums":7855,"reportedly":7856,"lod":7857,"factors":7858,"##coming":7859,"##illing":7860,"yan":7861,"freder":7862,"agents":7863,"happened":7864,"dialogue":7865,"clo":7866,"##tenance":7867,"maintenance":7868,"emotional":7869,"##hel":7870,"cov":7871,"##eler":7872,"##ructure":7873,"##ante":7874,"##osure":7875,"tie":7876,"successor":7877,"agricultural":7878,"##lan":7879,"download":7880,"wol":7881,"##vens":7882,"footage":7883,"employees":7884,"disappear":7885,"commemor":7886,"render":7887,"firing":7888,"format":7889,"surg":7890,"window":7891,"anthony":7892,"yugoslav":7893,"experiences":7894,"##ran":7895,"##illed":7896,"khan":7897,"##fare":7898,"nbc":7899,"##ternal":7900,"liz":7901,"bapt":7902,"somers":7903,"gaga":7904,"detroit":7905,"satur":7906,"##owa":7907,"croatia":7908,"rising":7909,"##amb":7910,"##lying":7911,"fishing":7912,"defended":7913,"negotiations":7914,"lowest":7915,"teeth":7916,"scientists":7917,"##aws":7918,"revolutionary":7919,"lose":7920,"1929":7921,"zero":7922,"##bro":7923,"executed":7924,"cloth":7925,"##mun":7926,"discussed":7927,"##ture":7928,"##otype":7929,"08":7930,"1911":7931,"gather":7932,"sure":7933,"medium":7934,"trek":7935,"tan":7936,"belg":7937,"normally":7938,"personality":7939,"treated":7940,"cock":7941,"stem":7942,"##hanna":7943,"##icial":7944,"gilbert":7945,"enters":7946,"feud":7947,"hans":7948,"##iously":7949,"140":7950,"##opes":7951,"tribute":7952,"portra":7953,"interstate":7954,"christoph":7955,"afternoon":7956,"asian":7957,"tenth":7958,"radar":7959,"sang":7960,"##aints":7961,"clay":7962,"drawing":7963,"1931":7964,"residential":7965,"abd":7966,"resign":7967,"sympt":7968,"clinton":7969,"storms":7970,"1922":7971,"melbourne":7972,"stewart":7973,"##achment":7974,"##vis":7975,"cob":7976,"difference":7977,"flew":7978,"vessel":7979,"resigned":7980,"fab":7981,"##dd":7982,"laur":7983,"detailed":7984,"arrest":7985,"tornado":7986,"##rad":7987,"ethnic":7988,"inhabit":7989,"carib":7990,"origins":7991,"duch":7992,"formally":7993,"fried":7994,"boil":7995,"pointed":7996,"advoc":7997,"goods":7998,"nielsen":7999,"partnership":8000,"cod":8001,"aged":8002,"technique":8003,"evans":8004,"prevented":8005,"##ois":8006,"reveals":8007,"innov":8008,"preferred":8009,"militia":8010,"##anny":8011,"09":8012,"pushed":8013,"cher":8014,"xbox":8015,"directors":8016,"keeping":8017,"##inces":8018,"arriving":8019,"huge":8020,"loop":8021,"##iliar":8022,"ark":8023,"exposed":8024,"##uts":8025,"lob":8026,"stable":8027,"isolated":8028,"organizations":8029,"rit":8030,"##gate":8031,"neighborhood":8032,"apprec":8033,"##ontin":8034,"substantial":8035,"3d":8036,"sisters":8037,"pale":8038,"partly":8039,"disturb":8040,"handed":8041,"satisf":8042,"erect":8043,"##oz":8044,"glac":8045,"sevent":8046,"moments":8047,"forty":8048,"manh":8049,"seas":8050,"prosp":8051,"breath":8052,"##arts":8053,"##war":8054,"institution":8055,"linked":8056,"marshall":8057,"muslim":8058,"synd":8059,"founder":8060,"samuel":8061,"tempor":8062,"federation":8063,"forb":8064,"turkish":8065,"departed":8066,"imprison":8067,"austria":8068,"##arn":8069,"forec":8070,"smooth":8071,"continental":8072,"factory":8073,"enthus":8074,"##oral":8075,"designer":8076,"##rees":8077,"sarah":8078,"herald":8079,"lennon":8080,"existed":8081,"trig":8082,"pione":8083,"avo":8084,"analy":8085,"colorado":8086,"suspend":8087,"assess":8088,"metro":8089,"greece":8090,"periods":8091,"fifteen":8092,"ranking":8093,"impossible":8094,"grace":8095,"dramatic":8096,"mud":8097,"proced":8098,"frequent":8099,"wedding":8100,"extent":8101,"occupation":8102,"concerts":8103,"##iph":8104,"participate":8105,"sic":8106,"insc":8107,"##using":8108,"recip":8109,"baltim":8110,"##orous":8111,"instance":8112,"atlant":8113,"baltimore":8114,"instrumental":8115,"##igen":8116,"load":8117,"infr":8118,"seeking":8119,"catal":8120,"initi":8121,"cruisers":8122,"armament":8123,"si":8124,"deputy":8125,"malays":8126,"##bean":8127,"scholar":8128,"specimens":8129,"##cr":8130,"anticip":8131,"taught":8132,"teamm":8133,"##rose":8134,"benn":8135,"170":8136,"cz":8137,"verse":8138,"moral":8139,"sullivan":8140,"##usted":8141,"finale":8142,"##oen":8143,"##ressed":8144,"##spec":8145,"alter":8146,"##arf":8147,"pam":8148,"seek":8149,"15th":8150,"rarely":8151,"aware":8152,"##ila":8153,"shock":8154,"hunt":8155,"amendment":8156,"newspapers":8157,"gates":8158,"mail":8159,"consult":8160,"friendly":8161,"creator":8162,"##asts":8163,"##ora":8164,"spending":8165,"diameter":8166,"05":8167,"dj":8168,"dave":8169,"goth":8170,"helic":8171,"upgraded":8172,"##otes":8173,"##mad":8174,"metropolitan":8175,"mack":8176,"doesn":8177,"withdrew":8178,"ghost":8179,"##esc":8180,"arena":8181,"mario":8182,"relie":8183,"##rating":8184,"precip":8185,"chase":8186,"uncertain":8187,"poison":8188,"1928":8189,"frederick":8190,"picked":8191,"encountered":8192,"covers":8193,"##tw":8194,"divor":8195,"##iami":8196,"permission":8197,"listen":8198,"exhibition":8199,"joining":8200,"##roll":8201,"ern":8202,"absol":8203,"pounds":8204,"procl":8205,"raj":8206,"eagle":8207,"mit":8208,"mathemat":8209,"alab":8210,"10th":8211,"affair":8212,"rug":8213,"turb":8214,"timber":8215,"difficulties":8216,"policies":8217,"##osing":8218,"collaps":8219,"changing":8220,"schedule":8221,"rates":8222,"somerset":8223,"refere":8224,"legislature":8225,"##music":8226,"lect":8227,"1925":8228,"mississ":8229,"chanc":8230,"skull":8231,"suicide":8232,"##eing":8233,"##oust":8234,"partially":8235,"oxy":8236,"andre":8237,"multi":8238,"##olas":8239,"turrets":8240,"inaug":8241,"##icians":8242,"boss":8243,"plus":8244,"ay":8245,"advice":8246,"restrict":8247,"anna":8248,"bombers":8249,"merchant":8250,"athletic":8251,"miami":8252,"jess":8253,"um":8254,"anglo":8255,"cous":8256,"##eted":8257,"amph":8258,"napole":8259,"lun":8260,"pilots":8261,"adjacent":8262,"phen":8263,"##ologists":8264,"traveled":8265,"aggress":8266,"restric":8267,"refers":8268,"##lyn":8269,"comments":8270,"disaster":8271,"loan":8272,"seattle":8273,"##inder":8274,"sector":8275,"trend":8276,"rebellion":8277,"##sk":8278,"1924":8279,"##anium":8280,"agree":8281,"benefit":8282,"inqu":8283,"anch":8284,"waves":8285,"##iner":8286,"seed":8287,"1920s":8288,"philosophy":8289,"teacher":8290,"9th":8291,"seats":8292,"##sea":8293,"signs":8294,"gardens":8295,"dir":8296,"unn":8297,"gap":8298,"fel":8299,"##amese":8300,"explo":8301,"pitched":8302,"mines":8303,"minimum":8304,"aqu":8305,"marry":8306,"criticised":8307,"iowa":8308,"##wan":8309,"plain":8310,"harbour":8311,"joh":8312,"mint":8313,"##obi":8314,"##lie":8315,"alabama":8316,"phr":8317,"bases":8318,"pref":8319,"australians":8320,"proport":8321,"soldier":8322,"destroyers":8323,"municipal":8324,"##gas":8325,"coordin":8326,"prompted":8327,"struggle":8328,"shakes":8329,"compete":8330,"remove":8331,"soil":8332,"surprise":8333,"ye":8334,"meat":8335,"indicate":8336,"sank":8337,"##umin":8338,"whil":8339,"collapse":8340,"##ux":8341,"swift":8342,"communication":8343,"tomb":8344,"helicop":8345,"##olis":8346,"km2":8347,"danc":8348,"overl":8349,"caribbean":8350,"##inction":8351,"medicine":8352,"charlie":8353,"forcing":8354,"manusc":8355,"manuscript":8356,"designation":8357,"##borough":8358,"neutral":8359,"armored":8360,"lawrence":8361,"grown":8362,"14th":8363,"indeed":8364,"potter":8365,"satellite":8366,"minnes":8367,"powered":8368,"enterprise":8369,"rav":8370,"1923":8371,"walker":8372,"margar":8373,"teaching":8374,"paintings":8375,"whilst":8376,"halo":8377,"sufficient":8378,"spiritual":8379,"citing":8380,"collaboration":8381,"bros":8382,"##attered":8383,"survivors":8384,"values":8385,"protagonist":8386,"restaurant":8387,"yanke":8388,"span":8389,"marketing":8390,"fifty":8391,"appointment":8392,"string":8393,"##attan":8394,"possession":8395,"covering":8396,"ian":8397,"nag":8398,"wreck":8399,"stream":8400,"describe":8401,"copy":8402,"blow":8403,"approval":8404,"rounds":8405,"myster":8406,"encounter":8407,"nazi":8408,"param":8409,"travelled":8410,"##power":8411,"candidates":8412,"##ascar":8413,"depending":8414,"holl":8415,"gab":8416,"##aire":8417,"understanding":8418,"provinc":8419,"pretty":8420,"poems":8421,"balance":8422,"multipl":8423,"fortress":8424,"dispute":8425,"hungary":8426,"reconna":8427,"charter":8428,"##isd":8429,"victories":8430,"##uv":8431,"dollars":8432,"listing":8433,"situated":8434,"orbit":8435,"displayed":8436,"bh":8437,"##athers":8438,"bowling":8439,"battalions":8440,"villages":8441,"oxygen":8442,"##nings":8443,"articles":8444,"recur":8445,"pine":8446,"yor":8447,"survive":8448,"minimal":8449,"##usal":8450,"brill":8451,"recon":8452,"violent":8453,"07":8454,"tip":8455,"belgium":8456,"rugby":8457,"##udes":8458,"legislative":8459,"hamp":8460,"check":8461,"##uster":8462,"benj":8463,"reconnaissance":8464,"earthqu":8465,"##wer":8466,"closing":8467,"alive":8468,"assisted":8469,"degrees":8470,"playoffs":8471,"femin":8472,"telling":8473,"serial":8474,"publications":8475,"forests":8476,"##encing":8477,"cyl":8478,"diego":8479,"software":8480,"cha":8481,"interpre":8482,"amongst":8483,"helping":8484,"dancing":8485,"cargo":8486,"funeral":8487,"wake":8488,"capit":8489,"symptoms":8490,"colonies":8491,"eliminated":8492,"marks":8493,"concrete":8494,"ecc":8495,"priest":8496,"gear":8497,"asks":8498,"acted":8499,"shakesp":8500,"##leman":8501,"benjamin":8502,"dock":8503,"riders":8504,"##col":8505,"shakespear":8506,"administrative":8507,"ski":8508,"purposes":8509,"##avery":8510,"christopher":8511,"##rates":8512,"##yd":8513,"guil":8514,"clock":8515,"drivers":8516,"alfred":8517,"behaviour":8518,"hypoth":8519,"##rum":8520,"##enh":8521,"sugar":8522,"repairs":8523,"1908":8524,"monster":8525,"compilation":8526,"occasions":8527,"1905":8528,"trouble":8529,"circumst":8530,"fatal":8531,"mississipp":8532,"##eland":8533,"##velt":8534,"##ras":8535,"##imeter":8536,"pc":8537,"##imb":8538,"mall":8539,"roose":8540,"jok":8541,"##sa":8542,"##ecraft":8543,"statue":8544,"1909":8545,"alcohol":8546,"minnesota":8547,"mason":8548,"prol":8549,"vietn":8550,"##aria":8551,"inland":8552,"vietnamese":8553,"11th":8554,"lists":8555,"##fted":8556,"kurt":8557,"attendance":8558,"##boy":8559,"preserved":8560,"sympath":8561,"##pan":8562,"preparation":8563,"quiet":8564,"simpl":8565,"publicly":8566,"##athered":8567,"console":8568,"21st":8569,"businesses":8570,"grammy":8571,"##rh":8572,"organisation":8573,"brun":8574,"horiz":8575,"jar":8576,"voiced":8577,"abilities":8578,"communications":8579,"cot":8580,"mental":8581,"cannon":8582,"blind":8583,"stevens":8584,"manhattan":8585,"pron":8586,"defeating":8587,"concurr":8588,"##ding":8589,"highways":8590,"illness":8591,"sib":8592,"##hed":8593,"anime":8594,"nam":8595,"pars":8596,"##aya":8597,"hong":8598,"wider":8599,"franklin":8600,"##inals":8601,"touring":8602,"##ello":8603,"argument":8604,"export":8605,"ammun":8606,"roosevelt":8607,"##ouri":8608,"pool":8609,"resumed":8610,"sick":8611,"residence":8612,"elabor":8613,"kansas":8614,"signal":8615,"believing":8616,"competed":8617,"intensified":8618,"##ounced":8619,"sole":8620,"##mi":8621,"105":8622,"1907":8623,"##atherine":8624,"ammunition":8625,"alignment":8626,"125":8627,"crews":8628,"thinking":8629,"surge":8630,"##ivated":8631,"counties":8632,"backing":8633,"archb":8634,"airborne":8635,"flights":8636,"opponent":8637,"nad":8638,"164":8639,"documents":8640,"dollar":8641,"hipp":8642,"signing":8643,"fallen":8644,"subjects":8645,"montreal":8646,"strategic":8647,"excav":8648,"portland":8649,"fung":8650,"assists":8651,"##lev":8652,"deliber":8653,"walking":8654,"kit":8655,"audiences":8656,"bran":8657,"amate":8658,"alternate":8659,"nash":8660,"usual":8661,"philippines":8662,"willing":8663,"suitable":8664,"cinema":8665,"frig":8666,"##sex":8667,"interesting":8668,"genetic":8669,"icon":8670,"engineers":8671,"ceremon":8672,"atomic":8673,"mississippi":8674,"coff":8675,"telegr":8676,"kon":8677,"doubt":8678,"dc":8679,"feelings":8680,"kal":8681,"meg":8682,"noble":8683,"jet":8684,"##acle":8685,"saturday":8686,"abol":8687,"usd":8688,"tang":8689,"165":8690,"forg":8691,"loyal":8692,"ide":8693,"##lus":8694,"submitted":8695,"guards":8696,"tribes":8697,"percentage":8698,"completing":8699,"waiting":8700,"provincial":8701,"radical":8702,"select":8703,"explosion":8704,"ownership":8705,"functions":8706,"vs":8707,"witch":8708,"stro":8709,"##iller":8710,"mush":8711,"behalf":8712,"scor":8713,"adopt":8714,"asking":8715,"spar":8716,"charity":8717,"##fire":8718,"autobi":8719,"##itated":8720,"##donald":8721,"##thy":8722,"##esses":8723,"disord":8724,"retail":8725,"evolved":8726,"tenness":8727,"artistic":8728,"shakespeare":8729,"##thel":8730,"##ulating":8731,"##uman":8732,"##odore":8733,"rever":8734,"campbell":8735,"03":8736,"tast":8737,"chronicle":8738,"revenue":8739,"targets":8740,"stu":8741,"##acher":8742,"false":8743,"vinc":8744,"##enz":8745,"steven":8746,"hook":8747,"frust":8748,"registered":8749,"remark":8750,"birthday":8751,"hindu":8752,"rach":8753,"01":8754,"laugh":8755,"alexand":8756,"suspended":8757,"margaret":8758,"##fe":8759,"##emen":8760,"##sters":8761,"obv":8762,"nu":8763,"woods":8764,"favorable":8765,"lakes":8766,"rice":8767,"polar":8768,"##onymous":8769,"04":8770,"reluct":8771,"pole":8772,"movies":8773,"hole":8774,"civilian":8775,"beauty":8776,"poorly":8777,"warren":8778,"heading":8779,"cartoon":8780,"##rator":8781,"stick":8782,"guilty":8783,"##icity":8784,"wire":8785,"lucas":8786,"egyptian":8787,"astronom":8788,"ramp":8789,"replacing":8790,"borough":8791,"liked":8792,"josh":8793,"liv":8794,"stores":8795,"shells":8796,"armies":8797,"aimed":8798,"comfort":8799,"##gression":8800,"pace":8801,"forth":8802,"offering":8803,"nit":8804,"measured":8805,"bulk":8806,"tab":8807,"solution":8808,"tennessee":8809,"##fr":8810,"provision":8811,"##unc":8812,"amid":8813,"engagement":8814,"missouri":8815,"boundary":8816,"clearly":8817,"kin":8818,"butter":8819,"ideal":8820,"1906":8821,"##leton":8822,"louisiana":8823,"cliff":8824,"expensive":8825,"temporarily":8826,"lex":8827,"underst":8828,"palest":8829,"aviation":8830,"recognised":8831,"##car":8832,"360":8833,"simultaneously":8834,"shipping":8835,"1904":8836,"acceler":8837,"##iac":8838,"##uda":8839,"filed":8840,"sas":8841,"##iveness":8842,"ruth":8843,"sequences":8844,"##uable":8845,"pup":8846,"rocks":8847,"remnants":8848,"##ods":8849,"mini":8850,"vulner":8851,"brick":8852,"execut":8853,"storage":8854,"##inea":8855,"represents":8856,"##jan":8857,"chand":8858,"err":8859,"agriculture":8860,"blocks":8861,"readers":8862,"wore":8863,"##mo":8864,"##20":8865,"taxon":8866,"saved":8867,"billy":8868,"wants":8869,"coverage":8870,"conspir":8871,"monaster":8872,"essential":8873,"gene":8874,"galax":8875,"##agen":8876,"patterns":8877,"##ishment":8878,"mining":8879,"comparison":8880,"cancelled":8881,"context":8882,"talent":8883,"proc":8884,"##wned":8885,"hob":8886,"phoen":8887,"craw":8888,"aside":8889,"surgery":8890,"perspective":8891,"suggesting":8892,"overseas":8893,"czech":8894,"institutions":8895,"coinc":8896,"subspec":8897,"sket":8898,"spotted":8899,"kl":8900,"ry":8901,"tox":8902,"subt":8903,"reflected":8904,"matters":8905,"thirteen":8906,"wasn":8907,"maneu":8908,"practices":8909,"contributions":8910,"faster":8911,"##lah":8912,"phone":8913,"rebuilt":8914,"##oming":8915,"familiar":8916,"##essive":8917,"graham":8918,"propag":8919,"fastest":8920,"tight":8921,"lesser":8922,"cass":8923,"quad":8924,"notice":8925,"carn":8926,"furthermore":8927,"protein":8928,"##ribed":8929,"globe":8930,"destroyer":8931,"application":8932,"dogs":8933,"pulled":8934,"wish":8935,"empt":8936,"underw":8937,"predomin":8938,"osc":8939,"retrie":8940,"vertical":8941,"ranks":8942,"toky":8943,"##artney":8944,"hunter":8945,"escaped":8946,"kirk":8947,"archbishop":8948,"##issions":8949,"roots":8950,"badly":8951,"##dale":8952,"##ifer":8953,"subspecies":8954,"amounts":8955,"summit":8956,"lacked":8957,"drugs":8958,"drove":8959,"crystal":8960,"##iary":8961,"##reh":8962,"jobs":8963,"furn":8964,"decides":8965,"cuba":8966,"##ader":8967,"slaves":8968,"strict":8969,"##ctic":8970,"allmusic":8971,"mitchell":8972,"##lec":8973,"##oto":8974,"autumn":8975,"exclud":8976,"confederate":8977,"ariz":8978,"argues":8979,"panel":8980,"stretch":8981,"cave":8982,"pic":8983,"##ylan":8984,"portions":8985,"flagship":8986,"##rom":8987,"wicket":8988,"skel":8989,"controls":8990,"squadrons":8991,"chel":8992,"indies":8993,"severely":8994,"115":8995,"quarterback":8996,"##life":8997,"oliv":8998,"intellect":8999,"mys":9000,"inhabitants":9001,"##vereign":9002,"earning":9003,"sovereign":9004,"subur":9005,"stern":9006,"marie":9007,"##kshire":9008,"##bu":9009,"starring":9010,"striking":9011,"expression":9012,"sult":9013,"printed":9014,"persian":9015,"distinctive":9016,"biography":9017,"triang":9018,"pok":9019,"##die":9020,"shadow":9021,"prost":9022,"tamil":9023,"sq":9024,"##hu":9025,"mainland":9026,"spider":9027,"guitarist":9028,"ambass":9029,"observations":9030,"##kel":9031,"arizona":9032,"rico":9033,"condem":9034,"characterized":9035,"restricted":9036,"sony":9037,"carp":9038,"ferry":9039,"bonus":9040,"godd":9041,"tale":9042,"mik":9043,"##fish":9044,"unex":9045,"##urally":9046,"##estone":9047,"ranging":9048,"ker":9049,"tack":9050,"curt":9051,"planets":9052,"excellent":9053,"visiting":9054,"commanding":9055,"##inations":9056,"sitting":9057,"liberty":9058,"##father":9059,"dylan":9060,"jury":9061,"##rix":9062,"revival":9063,"constitutional":9064,"definition":9065,"##ucing":9066,"bench":9067,"##ieties":9068,"crus":9069,"fixed":9070,"gran":9071,"pearl":9072,"tort":9073,"##idency":9074,"meetings":9075,"rings":9076,"nominations":9077,"173":9078,"threw":9079,"explains":9080,"athletes":9081,"phenom":9082,"bombing":9083,"##rants":9084,"explain":9085,"dominant":9086,"ultimate":9087,"vast":9088,"holiday":9089,"##cements":9090,"carriers":9091,"statistics":9092,"demonstrated":9093,"tiss":9094,"##unes":9095,"wilhel":9096,"amateur":9097,"arrive":9098,"oklah":9099,"illegal":9100,"wine":9101,"##orph":9102,"parliamentary":9103,"toy":9104,"marvel":9105,"educational":9106,"fisher":9107,"austrian":9108,"founding":9109,"coron":9110,"hidden":9111,"chick":9112,"clash":9113,"broadway":9114,"yield":9115,"acoust":9116,"danger":9117,"artific":9118,"switzer":9119,"##bra":9120,"plut":9121,"wait":9122,"8th":9123,"bone":9124,"artwork":9125,"mrs":9126,"prepare":9127,"northward":9128,"heir":9129,"harvey":9130,"census":9131,"switzerland":9132,"grave":9133,"predicted":9134,"##yon":9135,"##atus":9136,"murphy":9137,"aerial":9138,"1901":9139,"lt":9140,"talking":9141,"ml":9142,"rook":9143,"sig":9144,"##bal":9145,"abund":9146,"peaking":9147,"##din":9148,"reaches":9149,"experimental":9150,"bombs":9151,"##rot":9152,"##orship":9153,"conversion":9154,"comed":9155,"consol":9156,"##equ":9157,"##owed":9158,"coat":9159,"feeding":9160,"millimet":9161,"delaware":9162,"vii":9163,"slave":9164,"declar":9165,"ticket":9166,"lanes":9167,"por":9168,"##nie":9169,"maur":9170,"174":9171,"households":9172,"conscious":9173,"101":9174,"symphony":9175,"disagre":9176,"steps":9177,"barry":9178,"apartment":9179,"dread":9180,"oklahoma":9181,"dust":9182,"westward":9183,"cruc":9184,"bah":9185,"##unction":9186,"beam":9187,"bald":9188,"feels":9189,"ballad":9190,"seriously":9191,"flower":9192,"accum":9193,"##uations":9194,"amy":9195,"crush":9196,"repeatedly":9197,"membership":9198,"##whel":9199,"predecessor":9200,"##fts":9201,"chest":9202,"swimming":9203,"baker":9204,"pill":9205,"backed":9206,"considering":9207,"choose":9208,"useful":9209,"audition":9210,"layer":9211,"##mat":9212,"vib":9213,"##bec":9214,"overt":9215,"wells":9216,"liquid":9217,"innoc":9218,"alleg":9219,"abc":9220,"terr":9221,"consequently":9222,"attained":9223,"1903":9224,"circumstances":9225,"thanks":9226,"tokyo":9227,"bones":9228,"rio":9229,"##tha":9230,"congreg":9231,"preserv":9232,"1902":9233,"##rows":9234,"ninet":9235,"eve":9236,"##atched":9237,"##suing":9238,"melody":9239,"lithu":9240,"coc":9241,"##storm":9242,"copper":9243,"physics":9244,"stere":9245,"friendship":9246,"delivery":9247,"mate":9248,"perry":9249,"metall":9250,"patron":9251,"revolt":9252,"rib":9253,"perceived":9254,"arist":9255,"155":9256,"looks":9257,"leslie":9258,"pages":9259,"##rog":9260,"##here":9261,"todd":9262,"pm":9263,"tig":9264,"##itter":9265,"##oga":9266,"duo":9267,"ze":9268,"##away":9269,"millenn":9270,"valuable":9271,"madag":9272,"flowers":9273,"sunk":9274,"nut":9275,"##icut":9276,"stones":9277,"improvements":9278,"mong":9279,"remarked":9280,"##estyle":9281,"##riptions":9282,"tactics":9283,"##lined":9284,"denmark":9285,"subsid":9286,"engage":9287,"fo":9288,"##lings":9289,"jonathan":9290,"retain":9291,"promised":9292,"turret":9293,"towers":9294,"dinosaur":9295,"##esth":9296,"battlec":9297,"personally":9298,"memor":9299,"landscape":9300,"battlecru":9301,"fasc":9302,"hav":9303,"##sky":9304,"theatrical":9305,"lon":9306,"atlanta":9307,"dy":9308,"compens":9309,"edwards":9310,"enlisted":9311,"bernard":9312,"airlines":9313,"airfield":9314,"musician":9315,"johnny":9316,"##oned":9317,"##urer":9318,"execution":9319,"nik":9320,"renov":9321,"rihanna":9322,"dawn":9323,"juan":9324,"demands":9325,"shaw":9326,"##umps":9327,"compound":9328,"##elli":9329,"sixteen":9330,"strengthened":9331,"travels":9332,"denn":9333,"campaigns":9334,"nixon":9335,"manga":9336,"profile":9337,"blu":9338,"##shore":9339,"qualified":9340,"explan":9341,"##apolis":9342,"raising":9343,"elevation":9344,"anat":9345,"demanded":9346,"##mingham":9347,"fault":9348,"mechanical":9349,"parent":9350,"papers":9351,"obst":9352,"funny":9353,"sung":9354,"illustrated":9355,"bour":9356,"guar":9357,"succession":9358,"##iders":9359,"oblig":9360,"hann":9361,"rede":9362,"ask":9363,"spart":9364,"interpretation":9365,"vig":9366,"kids":9367,"insisted":9368,"clothing":9369,"##grad":9370,"isa":9371,"aggreg":9372,"168":9373,"garn":9374,"burns":9375,"arnold":9376,"##gie":9377,"beth":9378,"pitts":9379,"compounds":9380,"keith":9381,"ruling":9382,"electricity":9383,"hog":9384,"ral":9385,"##onian":9386,"settlers":9387,"spa":9388,"bun":9389,"##enson":9390,"jimmy":9391,"waste":9392,"beats":9393,"##ensively":9394,"dressed":9395,"##imination":9396,"mirror":9397,"phoenix":9398,"lying":9399,"##bard":9400,"fewer":9401,"struggled":9402,"ment":9403,"canter":9404,"baron":9405,"glee":9406,"##oons":9407,"judg":9408,"demolished":9409,"erected":9410,"persons":9411,"succeed":9412,"pyr":9413,"tales":9414,"##rome":9415,"trading":9416,"decisions":9417,"barn":9418,"stronger":9419,"patt":9420,"increases":9421,"riding":9422,"insects":9423,"cutting":9424,"encl":9425,"resol":9426,"fourteen":9427,"yankees":9428,"shift":9429,"tracy":9430,"morph":9431,"hybr":9432,"removal":9433,"hood":9434,"berg":9435,"objective":9436,"patch":9437,"##inian":9438,"02":9439,"m2":9440,"daughters":9441,"meter":9442,"##ghan":9443,"birmingham":9444,"advertising":9445,"mills":9446,"defences":9447,"pursue":9448,"cash":9449,"##uma":9450,"external":9451,"surpass":9452,"burial":9453,"culmin":9454,"worship":9455,"warfare":9456,"##anger":9457,"developers":9458,"passion":9459,"bobby":9460,"deterior":9461,"cord":9462,"mccartney":9463,"exactly":9464,"vik":9465,"wis":9466,"##lain":9467,"##jection":9468,"overwhel":9469,"obama":9470,"wayne":9471,"concentration":9472,"##ridge":9473,"##rod":9474,"166":9475,"lights":9476,"##acked":9477,"organised":9478,"magazines":9479,"discovers":9480,"killer":9481,"comprom":9482,"altered":9483,"defending":9484,"ranges":9485,"len":9486,"venue":9487,"##roph":9488,"mercury":9489,"napoleon":9490,"affect":9491,"wealthy":9492,"##ss":9493,"##opp":9494,"employment":9495,"fate":9496,"gau":9497,"gw":9498,"electrical":9499,"superst":9500,"hudson":9501,"cancel":9502,"approaching":9503,"loved":9504,"griff":9505,"exercise":9506,"##acre":9507,"trench":9508,"debt":9509,"armoured":9510,"fossil":9511,"##mith":9512,"hydrogen":9513,"raids":9514,"adventures":9515,"##abs":9516,"109":9517,"buddh":9518,"eval":9519,"establishing":9520,"163":9521,"##fa":9522,"exposure":9523,"commentary":9524,"##folk":9525,"investment":9526,"hearts":9527,"madagascar":9528,"limits":9529,"bacter":9530,"leonard":9531,"rachel":9532,"gosp":9533,"connecticut":9534,"connecting":9535,"aggressive":9536,"fold":9537,"##erb":9538,"asc":9539,"profit":9540,"jurisd":9541,"mature":9542,"hence":9543,"centers":9544,"qualifying":9545,"architectural":9546,"ontar":9547,"disl":9548,"jup":9549,"aspect":9550,"##xual":9551,"##esty":9552,"partial":9553,"paras":9554,"##cles":9555,"##active":9556,"bosn":9557,"ontario":9558,"bod":9559,"dall":9560,"##ugg":9561,"karl":9562,"##zzle":9563,"mood":9564,"vanc":9565,"morrison":9566,"canterbury":9567,"gods":9568,"dimension":9569,"mant":9570,"ov":9571,"friday":9572,"indicating":9573,"sultan":9574,"ongoing":9575,"prove":9576,"markets":9577,"edited":9578,"traveling":9579,"arrangements":9580,"parach":9581,"shorter":9582,"announcement":9583,"withdrawal":9584,"outd":9585,"radiation":9586,"improvement":9587,"dwarf":9588,"##bird":9589,"##iable":9590,"stal":9591,"unless":9592,"volumes":9593,"celebrated":9594,"appropriate":9595,"mend":9596,"stationed":9597,"evacuated":9598,"acoustic":9599,"gy":9600,"##atropical":9601,"orn":9602,"extratropical":9603,"dissipated":9604,"putting":9605,"acknowledged":9606,"precipitation":9607,"isot":9608,"permitted":9609,"152":9610,"determin":9611,"pruss":9612,"sciences":9613,"slavery":9614,"survival":9615,"preparations":9616,"fis":9617,"tube":9618,"discussion":9619,"trick":9620,"##ova":9621,"rend":9622,"##utt":9623,"exter":9624,"realized":9625,"predict":9626,"maid":9627,"tong":9628,"tna":9629,"placing":9630,"youngest":9631,"dubbed":9632,"bomber":9633,"initiated":9634,"graduated":9635,"ced":9636,"##oh":9637,"hosts":9638,"photographs":9639,"epic":9640,"##enna":9641,"silent":9642,"unre":9643,"voices":9644,"recovery":9645,"disappoint":9646,"industries":9647,"nurs":9648,"hardy":9649,"graduate":9650,"translation":9651,"##ige":9652,"uef":9653,"##caa":9654,"attitude":9655,"uefa":9656,"gary":9657,"##aro":9658,"##ifies":9659,"strongest":9660,"honey":9661,"##lock":9662,"##ouver":9663,"bra":9664,"burning":9665,"truck":9666,"##uese":9667,"requires":9668,"spac":9669,"originated":9670,"affili":9671,"estimates":9672,"vancouver":9673,"confront":9674,"voyage":9675,"reporter":9676,"jupiter":9677,"synthes":9678,"referring":9679,"tubes":9680,"trough":9681,"donated":9682,"conventional":9683,"exclusive":9684,"echo":9685,"##ulous":9686,"##amental":9687,"transit":9688,"tours":9689,"sonic":9690,"specimen":9691,"regime":9692,"endors":9693,"signature":9694,"supplement":9695,"colleagues":9696,"closest":9697,"shak":9698,"parody":9699,"guinea":9700,"edin":9701,"devast":9702,"exha":9703,"promotional":9704,"##autical":9705,"minority":9706,"axis":9707,"pakistan":9708,"dict":9709,"##itudes":9710,"southeastern":9711,"indicates":9712,"##hem":9713,"bearing":9714,"decide":9715,"vamp":9716,"expert":9717,"##stan":9718,"drinking":9719,"earthquake":9720,"stol":9721,"watershed":9722,"##rine":9723,"##itively":9724,"scattered":9725,"portuguese":9726,"recall":9727,"pend":9728,"172":9729,"challenged":9730,"##bing":9731,"##enberg":9732,"knock":9733,"visits":9734,"attending":9735,"density":9736,"harmon":9737,"tooth":9738,"bradman":9739,"nerv":9740,"manor":9741,"trium":9742,"mcm":9743,"ms":9744,"yu":9745,"lawyer":9746,"concentrated":9747,"merely":9748,"gathered":9749,"programming":9750,"luke":9751,"emphasis":9752,"collapsed":9753,"identify":9754,"heaven":9755,"supplied":9756,"##asa":9757,"users":9758,"legit":9759,"traditionally":9760,"dwight":9761,"cort":9762,"sak":9763,"overlo":9764,"governments":9765,"biographer":9766,"##mund":9767,"cruise":9768,"territorial":9769,"screenplay":9770,"democrats":9771,"coalition":9772,"##di":9773,"alice":9774,"annually":9775,"craft":9776,"ncaa":9777,"##ivation":9778,"1893":9779,"##pled":9780,"principles":9781,"artificial":9782,"indigen":9783,"cousin":9784,"angl":9785,"achievement":9786,"æthel":9787,"photography":9788,"104":9789,"facult":9790,"sacrif":9791,"##agger":9792,"##bow":9793,"##aser":9794,"##imented":9795,"gren":9796,"111":9797,"fleming":9798,"devil":9799,"1896":9800,"prisoner":9801,"portrait":9802,"bak":9803,"distr":9804,"provinces":9805,"publisher":9806,"##adier":9807,"spur":9808,"cotton":9809,"predators":9810,"oliver":9811,"chemistry":9812,"prices":9813,"offense":9814,"maya":9815,"victorian":9816,"hampshire":9817,"seized":9818,"alpha":9819,"declaration":9820,"accompanying":9821,"terrain":9822,"##thodox":9823,"applications":9824,"edinburgh":9825,"##low":9826,"##kh":9827,"competing":9828,"afghan":9829,"failing":9830,"talks":9831,"reflect":9832,"topped":9833,"reinforcements":9834,"indigenous":9835,"celt":9836,"investigate":9837,"##ski":9838,"reverse":9839,"scholarship":9840,"##anton":9841,"turner":9842,"kills":9843,"uranium":9844,"universities":9845,"portrayal":9846,"##ingham":9847,"1898":9848,"sending":9849,"beng":9850,"tenure":9851,"rangers":9852,"mosc":9853,"##uration":9854,"##iot":9855,"##ieth":9856,"terminal":9857,"veloc":9858,"##case":9859,"##gle":9860,"smart":9861,"broadcasting":9862,"output":9863,"hug":9864,"subm":9865,"revenge":9866,"##agh":9867,"##oven":9868,"penet":9869,"wool":9870,"stuff":9871,"##apy":9872,"127":9873,"experiments":9874,"optim":9875,"volunteers":9876,"##ographical":9877,"350":9878,"beneath":9879,"flooded":9880,"certainly":9881,"reconstruction":9882,"recurring":9883,"consolid":9884,"hitting":9885,"quebec":9886,"171":9887,"##hard":9888,"choir":9889,"branches":9890,"##ci":9891,"chord":9892,"argentina":9893,"juven":9894,"sharks":9895,"voting":9896,"contribution":9897,"lords":9898,"ceased":9899,"proclaim":9900,"##igible":9901,"assembled":9902,"imagery":9903,"yorkshire":9904,"rp":9905,"##mal":9906,"neu":9907,"tribe":9908,"troub":9909,"ralph":9910,"ibn":9911,"fore":9912,"spaces":9913,"questioned":9914,"chronic":9915,"##hous":9916,"songwriter":9917,"hatch":9918,"antonio":9919,"##idae":9920,"decay":9921,"historically":9922,"texts":9923,"strange":9924,"dual":9925,"revised":9926,"commenting":9927,"pond":9928,"underwent":9929,"fed":9930,"##ike":9931,"drummer":9932,"gender":9933,"infrast":9934,"monte":9935,"1940s":9936,"virus":9937,"craig":9938,"jama":9939,"##je":9940,"stops":9941,"orle":9942,"##ipe":9943,"impression":9944,"masters":9945,"neil":9946,"christianity":9947,"jerry":9948,"components":9949,"destroying":9950,"apoll":9951,"##ellation":9952,"cler":9953,"guid":9954,"reducing":9955,"##osa":9956,"obsc":9957,"161":9958,"millennium":9959,"reward":9960,"component":9961,"kam":9962,"devices":9963,"1899":9964,"duration":9965,"replied":9966,"reduction":9967,"ruler":9968,"cable":9969,"unclear":9970,"telegraph":9971,"fulf":9972,"conce":9973,"stamp":9974,"##aux":9975,"reorgan":9976,"consistent":9977,"##ni":9978,"surve":9979,"##hammad":9980,"approaches":9981,"hast":9982,"nice":9983,"py":9984,"collins":9985,"identical":9986,"queensland":9987,"marines":9988,"intervention":9989,"buffalo":9990,"multiplayer":9991,"##otte":9992,"marge":9993,"serge":9994,"reveal":9995,"ambassador":9996,"samples":9997,"##pes":9998,"##anz":9999,"induct":10000,"patients":10001,"##ception":10002,"##haw":10003,"proposals":10004,"lloyd":10005,"frequency":10006,"requirements":10007,"finland":10008,"arrives":10009,"traded":10010,"gaming":10011,"dors":10012,"corrid":10013,"humor":10014,"surrendered":10015,"bann":10016,"spoken":10017,"orleans":10018,"partis":10019,"##rawn":10020,"lifetime":10021,"##gam":10022,"tough":10023,"##atever":10024,"norfolk":10025,"platforms":10026,"rena":10027,"conceived":10028,"sings":10029,"plaza":10030,"spy":10031,"redes":10032,"streak":10033,"turkey":10034,"winners":10035,"researchers":10036,"gaz":10037,"whatever":10038,"hawaii":10039,"banned":10040,"##soft":10041,"howe":10042,"distant":10043,"romance":10044,"##ori":10045,"##ensed":10046,"representation":10047,"wii":10048,"practical":10049,"springs":10050,"suddenly":10051,"##nik":10052,"##ache":10053,"##ricts":10054,"108":10055,"burton":10056,"connections":10057,"exclusively":10058,"nicholas":10059,"rejo":10060,"belgian":10061,"##pler":10062,"##ologies":10063,"warriors":10064,"commanders":10065,"conquest":10066,"bub":10067,"crimes":10068,"donald":10069,"##tt":10070,"cole":10071,"faces":10072,"burned":10073,"169":10074,"celebration":10075,"##gom":10076,"##idal":10077,"finance":10078,"collections":10079,"##oting":10080,"chess":10081,"rebels":10082,"robin":10083,"continuous":10084,"tape":10085,"reed":10086,"catherine":10087,"varied":10088,"supern":10089,"##itis":10090,"##itary":10091,"lighting":10092,"praising":10093,"bennett":10094,"ted":10095,"competitive":10096,"vincent":10097,"districts":10098,"chore":10099,"flames":10100,"cros":10101,"fi":10102,"bend":10103,"##ibilities":10104,"confidence":10105,"scientology":10106,"mansion":10107,"##eon":10108,"reactions":10109,"mull":10110,"##ecution":10111,"##andy":10112,"speaker":10113,"progressive":10114,"thorough":10115,"unw":10116,"reviewed":10117,"significance":10118,"abuse":10119,"camps":10120,"sample":10121,"worn":10122,"##place":10123,"taxes":10124,"prix":10125,"##no":10126,"advised":10127,"considers":10128,"shoulder":10129,"##iciency":10130,"indu":10131,"invent":10132,"sailing":10133,"boilers":10134,"manif":10135,"intersects":10136,"translated":10137,"lac":10138,"vulnerable":10139,"yam":10140,"mond":10141,"shares":10142,"darwin":10143,"resur":10144,"##angel":10145,"glen":10146,"peters":10147,"##tz":10148,"guild":10149,"davies":10150,"proceeded":10151,"dischar":10152,"presidency":10153,"girlfriend":10154,"hughes":10155,"presentation":10156,"judges":10157,"kitch":10158,"##feld":10159,"elite":10160,"handled":10161,"opportunities":10162,"understood":10163,"dak":10164,"stef":10165,"harvard":10166,"pairs":10167,"medals":10168,"1897":10169,"##itarian":10170,"##ffield":10171,"filmm":10172,"ministers":10173,"manufacturing":10174,"##run":10175,"##atra":10176,"##acles":10177,"numbered":10178,"bombardment":10179,"tap":10180,"rivalry":10181,"infrastructure":10182,"marshal":10183,"crops":10184,"bin":10185,"kap":10186,"lav":10187,"stress":10188,"companion":10189,"fairly":10190,"oslo":10191,"phrase":10192,"vern":10193,"##dles":10194,"prest":10195,"geoff":10196,"racial":10197,"nautical":10198,"##ellor":10199,"enthusi":10200,"flows":10201,"swiss":10202,"rocky":10203,"indonesia":10204,"##mers":10205,"##uras":10206,"seal":10207,"respective":10208,"observation":10209,"##iti":10210,"##adi":10211,"descent":10212,"moscow":10213,"##pert":10214,"explicit":10215,"eleph":10216,"cleared":10217,"cyclones":10218,"grossing":10219,"alg":10220,"petition":10221,"transported":10222,"jtw":10223,"saxon":10224,"jtwc":10225,"gif":10226,"traditions":10227,"knights":10228,"extending":10229,"foster":10230,"exile":10231,"exceed":10232,"cameron":10233,"protests":10234,"unexp":10235,"cards":10236,"lip":10237,"##uating":10238,"smoke":10239,"commissioner":10240,"##itely":10241,"reinforced":10242,"rehears":10243,"fern":10244,"##illes":10245,"proof":10246,"intermedi":10247,"assum":10248,"lux":10249,"##ycl":10250,"unlik":10251,"pittsburgh":10252,"mystery":10253,"cav":10254,"pall":10255,"toured":10256,"scores":10257,"structural":10258,"nonetheless":10259,"commenced":10260,"drain":10261,"extinct":10262,"cuts":10263,"tonnes":10264,"bind":10265,"characteristic":10266,"bast":10267,"exists":10268,"decorated":10269,"106":10270,"154":10271,"167":10272,"##strong":10273,"hide":10274,"uncon":10275,"##rik":10276,"relatives":10277,"participation":10278,"maintaining":10279,"kate":10280,"peng":10281,"rivals":10282,"vital":10283,"##iar":10284,"restore":10285,"##pike":10286,"triumph":10287,"gift":10288,"tested":10289,"troop":10290,"terry":10291,"withdrawn":10292,"drink":10293,"##erce":10294,"##irm":10295,"alaska":10296,"121":10297,"theories":10298,"toler":10299,"relocated":10300,"113":10301,"random":10302,"navigation":10303,"tiger":10304,"canyon":10305,"wallace":10306,"rodrig":10307,"##olds":10308,"##ended":10309,"turnpike":10310,"preparing":10311,"answer":10312,"fee":10313,"warnings":10314,"eating":10315,"spong":10316,"guerr":10317,"victim":10318,"reforms":10319,"153":10320,"ub":10321,"airline":10322,"senators":10323,"boom":10324,"diff":10325,"honours":10326,"##ayan":10327,"##ika":10328,"microsoft":10329,"absent":10330,"syria":10331,"editions":10332,"monthly":10333,"kane":10334,"skill":10335,"writings":10336,"kos":10337,"##ista":10338,"displaced":10339,"mim":10340,"tai":10341,"1890":10342,"sculpture":10343,"inquir":10344,"richmond":10345,"republicans":10346,"clan":10347,"unexpected":10348,"upset":10349,"##onsin":10350,"coaches":10351,"archaeological":10352,"empty":10353,"carries":10354,"hollow":10355,"interviews":10356,"magnitude":10357,"cel":10358,"heavyweight":10359,"mixing":10360,"##minster":10361,"concerning":10362,"interaction":10363,"israeli":10364,"clothes":10365,"dri":10366,"sheffield":10367,"larry":10368,"ds":10369,"amazing":10370,"##oa":10371,"##ih":10372,"lightning":10373,"mythology":10374,"dying":10375,"interpreted":10376,"gest":10377,"sega":10378,"courses":10379,"variations":10380,"malaysia":10381,"hurricanes":10382,"learns":10383,"displays":10384,"meteorological":10385,"eis":10386,"commercially":10387,"chambers":10388,"confusion":10389,"arguing":10390,"dreadn":10391,"##isive":10392,"##icing":10393,"releg":10394,"advertis":10395,"dallas":10396,"johnston":10397,"demo":10398,"parkway":10399,"1895":10400,"essentially":10401,"jefferson":10402,"vl":10403,"blocked":10404,"dinner":10405,"jurisdiction":10406,"coh":10407,"segments":10408,"doors":10409,"corporate":10410,"ip":10411,"##oly":10412,"bryan":10413,"manip":10414,"variation":10415,"desper":10416,"airing":10417,"volcanic":10418,"emmy":10419,"salary":10420,"heroes":10421,"beck":10422,"upr":10423,"constitu":10424,"fbi":10425,"heath":10426,"aft":10427,"ferr":10428,"clarke":10429,"golf":10430,"intr":10431,"owen":10432,"##point":10433,"faculty":10434,"villa":10435,"shifted":10436,"daw":10437,"##fc":10438,"regiments":10439,"colors":10440,"costume":10441,"emotion":10442,"accurate":10443,"pock":10444,"cyrus":10445,"lover":10446,"unlikely":10447,"blo":10448,"austin":10449,"idol":10450,"circular":10451,"##igs":10452,"milk":10453,"internation":10454,"##adesh":10455,"opposing":10456,"##rooms":10457,"acre":10458,"colours":10459,"shallow":10460,"va":10461,"loud":10462,"cosm":10463,"panzer":10464,"suspic":10465,"##itious":10466,"sponsored":10467,"parsons":10468,"wed":10469,"##face":10470,"##cester":10471,"##ours":10472,"angry":10473,"##umped":10474,"boulev":10475,"cattle":10476,"##isons":10477,"lasting":10478,"valid":10479,"flex":10480,"dancers":10481,"armstrong":10482,"##emon":10483,"commerce":10484,"##inge":10485,"stall":10486,"breaks":10487,"chelsea":10488,"wished":10489,"swing":10490,"##lington":10491,"danish":10492,"##oria":10493,"worlds":10494,"surprised":10495,"nev":10496,"brazilian":10497,"mp":10498,"tension":10499,"##enger":10500,"rebel":10501,"divorce":10502,"ties":10503,"prel":10504,"bible":10505,"diverse":10506,"##beat":10507,"tickets":10508,"corp":10509,"deeply":10510,"principle":10511,"mckin":10512,"forecast":10513,"##enon":10514,"##enburg":10515,"diplomatic":10516,"proportion":10517,"##hum":10518,"steep":10519,"sustain":10520,"recreation":10521,"embr":10522,"examination":10523,"##ussion":10524,"constantin":10525,"##arr":10526,"macar":10527,"##urst":10528,"advancing":10529,"pitcher":10530,"northwestern":10531,"##lane":10532,"##avia":10533,"newton":10534,"##keeper":10535,"162":10536,"civilians":10537,"neighb":10538,"grandfather":10539,"snake":10540,"drafted":10541,"naming":10542,"inclusion":10543,"abu":10544,"disturbance":10545,"##inter":10546,"parachute":10547,"pas":10548,"pursuit":10549,"biological":10550,"liner":10551,"dil":10552,"prosper":10553,"seam":10554,"travelling":10555,"reich":10556,"beating":10557,"102":10558,"opens":10559,"pod":10560,"crazy":10561,"peas":10562,"##cott":10563,"hoping":10564,"rebuild":10565,"stolen":10566,"##ario":10567,"susan":10568,"orient":10569,"wilhelm":10570,"revel":10571,"##irect":10572,"##ensis":10573,"hamlet":10574,"stim":10575,"ratio":10576,"sporting":10577,"##berry":10578,"kaiser":10579,"rect":10580,"directions":10581,"promise":10582,"processes":10583,"negl":10584,"insurance":10585,"cott":10586,"happen":10587,"substitute":10588,"settlements":10589,"##umented":10590,"blacks":10591,"1861":10592,"dioc":10593,"hammer":10594,"##uki":10595,"proph":10596,"potentially":10597,"utah":10598,"ivan":10599,"neph":10600,"locally":10601,"harold":10602,"challenges":10603,"monastery":10604,"bib":10605,"dense":10606,"fitz":10607,"funded":10608,"quarters":10609,"##acts":10610,"fifa":10611,"##ettes":10612,"1889":10613,"beaten":10614,"taste":10615,"##ao":10616,"##osexual":10617,"equally":10618,"serbian":10619,"aber":10620,"xx":10621,"chile":10622,"charted":10623,"emer":10624,"gamesp":10625,"sentence":10626,"muhammad":10627,"columns":10628,"conspiracy":10629,"followers":10630,"benefits":10631,"rookie":10632,"##eto":10633,"manage":10634,"altitude":10635,"hd":10636,"##abilities":10637,"knows":10638,"infer":10639,"##itted":10640,"##asters":10641,"evident":10642,"verte":10643,"##vised":10644,"explaining":10645,"villain":10646,"caes":10647,"wart":10648,"afford":10649,"myc":10650,"veteran":10651,"mild":10652,"merged":10653,"offshore":10654,"##aha":10655,"participants":10656,"ecl":10657,"ine":10658,"lift":10659,"yout":10660,"enzy":10661,"1894":10662,"rains":10663,"##rov":10664,"canon":10665,"158":10666,"delta":10667,"requiring":10668,"administer":10669,"##wright":10670,"rocket":10671,"error":10672,"options":10673,"sheep":10674,"resort":10675,"nova":10676,"scandal":10677,"##utor":10678,"runner":10679,"persuaded":10680,"stuart":10681,"nord":10682,"##uits":10683,"##world":10684,"constantine":10685,"pump":10686,"recept":10687,"cbs":10688,"mcl":10689,"plum":10690,"knee":10691,"tyler":10692,"memoir":10693,"boulevard":10694,"parad":10695,"operates":10696,"similarities":10697,"kidn":10698,"##reated":10699,"##landers":10700,"mg":10701,"borrow":10702,"witnesses":10703,"gon":10704,"1891":10705,"rifle":10706,"whale":10707,"##ashi":10708,"devoted":10709,"judicial":10710,"farmers":10711,"implemented":10712,"youtube":10713,"gaining":10714,"xii":10715,"educated":10716,"pregnant":10717,"cox":10718,"reservoir":10719,"veterans":10720,"hes":10721,"caps":10722,"addressed":10723,"divine":10724,"prototype":10725,"dreams":10726,"initiative":10727,"apollo":10728,"##roc":10729,"statements":10730,"##ampton":10731,"1000":10732,"flesh":10733,"virtually":10734,"accommodate":10735,"##itate":10736,"##ometric":10737,"massacre":10738,"strikes":10739,"wildlife":10740,"outf":10741,"socialist":10742,"reef":10743,"##illo":10744,"detect":10745,"oriented":10746,"cardiff":10747,"dece":10748,"proteins":10749,"brooks":10750,"indonesian":10751,"disorder":10752,"forever":10753,"1800":10754,"paraly":10755,"persona":10756,"weakening":10757,"complained":10758,"categories":10759,"feared":10760,"sean":10761,"links":10762,"boundaries":10763,"favourite":10764,"##onica":10765,"counterp":10766,"wisc":10767,"till":10768,"1892":10769,"tools":10770,"keys":10771,"##owski":10772,"nose":10773,"perc":10774,"##affe":10775,"##nell":10776,"knocked":10777,"##etta":10778,"blend":10779,"vit":10780,"studying":10781,"keen":10782,"##castle":10783,"threats":10784,"ion":10785,"lud":10786,"##oda":10787,"156":10788,"tempo":10789,"tactical":10790,"tuck":10791,"hostile":10792,"##enos":10793,"lag":10794,"trapped":10795,"nickel":10796,"leop":10797,"##elin":10798,"explor":10799,"dealing":10800,"extensively":10801,"tide":10802,"anarch":10803,"honorary":10804,"wisconsin":10805,"##pin":10806,"marit":10807,"thrown":10808,"maps":10809,"oz":10810,"##ocation":10811,"boyfriend":10812,"##piece":10813,"##usalem":10814,"danny":10815,"hey":10816,"blast":10817,"sox":10818,"galaxy":10819,"ww":10820,"montgom":10821,"kyle":10822,"preserve":10823,"1870":10824,"embarked":10825,"myself":10826,"tent":10827,"##lete":10828,"##terly":10829,"##rific":10830,"##asha":10831,"midnight":10832,"rider":10833,"goddess":10834,"sized":10835,"135":10836,"conflicts":10837,"odd":10838,"##cha":10839,"sentenced":10840,"islamic":10841,"kitchen":10842,"jerusalem":10843,"johann":10844,"112":10845,"honors":10846,"highlighted":10847,"wig":10848,"##gins":10849,"aa":10850,"kan":10851,"##inis":10852,"##onium":10853,"gothic":10854,"gospel":10855,"##pet":10856,"tribune":10857,"##pine":10858,"usage":10859,"tyr":10860,"tasked":10861,"fires":10862,"citizen":10863,"teammate":10864,"##ean":10865,"##erver":10866,"warships":10867,"justin":10868,"tune":10869,"tigers":10870,"bent":10871,"fier":10872,"tourism":10873,"ric":10874,"##master":10875,"disb":10876,"240":10877,"resolved":10878,"documented":10879,"obvious":10880,"velocity":10881,"macarthur":10882,"##gow":10883,"boeing":10884,"##boards":10885,"##ovak":10886,"remote":10887,"evacuation":10888,"politicians":10889,"lacking":10890,"partners":10891,"provisions":10892,"trio":10893,"2000s":10894,"abroad":10895,"1888":10896,"bore":10897,"ordinary":10898,"renewed":10899,"montgomery":10900,"schum":10901,"recruited":10902,"##nels":10903,"intent":10904,"##assed":10905,"regardless":10906,"rescued":10907,"pierre":10908,"frontier":10909,"defenders":10910,"rushing":10911,"hybrid":10912,"discontin":10913,"colored":10914,"encounters":10915,"barbara":10916,"guests":10917,"barnes":10918,"nights":10919,"orthodox":10920,"##ackdown":10921,"telephone":10922,"escorted":10923,"##istent":10924,"flav":10925,"explore":10926,"darkness":10927,"housed":10928,"beliefs":10929,"aar":10930,"machin":10931,"rogers":10932,"battlefield":10933,"authorized":10934,"competitions":10935,"considerably":10936,"##gary":10937,"enabled":10938,"receives":10939,"complement":10940,"helps":10941,"##iciently":10942,"hurt":10943,"brigadier":10944,"##rically":10945,"soap":10946,"presents":10947,"saturn":10948,"1885":10949,"pursued":10950,"elaborate":10951,"scots":10952,"user":10953,"crashed":10954,"prospect":10955,"imprisoned":10956,"rey":10957,"offs":10958,"separation":10959,"ashore":10960,"suspension":10961,"observer":10962,"masc":10963,"beer":10964,"isn":10965,"sanct":10966,"##yll":10967,"##aters":10968,"reass":10969,"garnered":10970,"pon":10971,"sinking":10972,"speculation":10973,"involves":10974,"humanity":10975,"trunk":10976,"promoting":10977,"##ulsion":10978,"dimin":10979,"inhib":10980,"##orton":10981,"bills":10982,"trailer":10983,"icel":10984,"prayer":10985,"depicts":10986,"confident":10987,"handle":10988,"pyram":10989,"inning":10990,"handling":10991,"zh":10992,"unh":10993,"christians":10994,"cats":10995,"ic":10996,"nur":10997,"##aments":10998,"monitor":10999,"smash":11000,"photo":11001,"uprising":11002,"unve":11003,"palm":11004,"rip":11005,"batteries":11006,"##etics":11007,"auton":11008,"batted":11009,"brilliant":11010,"spo":11011,"developments":11012,"baltic":11013,"regulations":11014,"capturing":11015,"hopes":11016,"occasional":11017,"arcade":11018,"remembered":11019,"pirates":11020,"amphib":11021,"bic":11022,"harsh":11023,"##iko":11024,"##backs":11025,"iceland":11026,"tir":11027,"booth":11028,"urged":11029,"confirm":11030,"zoo":11031,"breeds":11032,"magnetic":11033,"noise":11034,"organisms":11035,"mixture":11036,"laps":11037,"eventual":11038,"suspected":11039,"thunderstorm":11040,"internationally":11041,"thames":11042,"chad":11043,"hed":11044,"flour":11045,"editing":11046,"loose":11047,"impressive":11048,"pupp":11049,"compositions":11050,"##aved":11051,"##enter":11052,"dozen":11053,"owing":11054,"ensemb":11055,"tissue":11056,"##mont":11057,"romney":11058,"##fly":11059,"athens":11060,"##erts":11061,"##olly":11062,"##cliff":11063,"railways":11064,"1865":11065,"truly":11066,"license":11067,"pent":11068,"conj":11069,"metric":11070,"castles":11071,"##ocene":11072,"associate":11073,"cardinals":11074,"relation":11075,"lyrical":11076,"mechanism":11077,"sherman":11078,"volunteer":11079,"rendered":11080,"lions":11081,"decreased":11082,"bert":11083,"alto":11084,"thereby":11085,"stein":11086,"horizont":11087,"##anne":11088,"politician":11089,"nato":11090,"ost":11091,"tol":11092,"reagan":11093,"131":11094,"chancellor":11095,"ace":11096,"nancy":11097,"isab":11098,"##essing":11099,"compreh":11100,"##phal":11101,"disappointed":11102,"jaw":11103,"tracked":11104,"restrictions":11105,"warned":11106,"marking":11107,"mccar":11108,"chamberlain":11109,"consumption":11110,"inherited":11111,"##sts":11112,"updated":11113,"##bling":11114,"positively":11115,"counsel":11116,"ky":11117,"pse":11118,"##izer":11119,"##ublin":11120,"customers":11121,"anticipated":11122,"crest":11123,"organic":11124,"intellectual":11125,"##roid":11126,"upcoming":11127,"backst":11128,"117":11129,"balls":11130,"helicopter":11131,"directing":11132,"145":11133,"apply":11134,"accidentally":11135,"##rage":11136,"##eno":11137,"##aks":11138,"##rible":11139,"contracts":11140,"inhab":11141,"mammals":11142,"invaded":11143,"##auc":11144,"dependent":11145,"mutual":11146,"tint":11147,"##imp":11148,"genu":11149,"159":11150,"volt":11151,"machines":11152,"detective":11153,"glas":11154,"closure":11155,"pseud":11156,"pp":11157,"chester":11158,"shah":11159,"southwestern":11160,"conversation":11161,"delegates":11162,"portugal":11163,"constantinople":11164,"##isition":11165,"##etical":11166,"ernest":11167,"##hill":11168,"##anim":11169,"antib":11170,"assessment":11171,"haven":11172,"agu":11173,"##akh":11174,"newcastle":11175,"wiz":11176,"elli":11177,"spokes":11178,"lodge":11179,"oscar":11180,"450":11181,"fossils":11182,"inaugural":11183,"##ulus":11184,"reader":11185,"bund":11186,"debris":11187,"pete":11188,"##aping":11189,"lawsuit":11190,"voters":11191,"bradley":11192,"corridor":11193,"eddie":11194,"styl":11195,"charlotte":11196,"metre":11197,"118":11198,"lighter":11199,"borders":11200,"##eda":11201,"fundamental":11202,"nickname":11203,"rally":11204,"seb":11205,"##unning":11206,"plates":11207,"besides":11208,"nephew":11209,"merced":11210,"accessible":11211,"##restrial":11212,"vin":11213,"##raltar":11214,"gibraltar":11215,"##colm":11216,"easier":11217,"1864":11218,"auto":11219,"cornwall":11220,"grid":11221,"infection":11222,"complicated":11223,"sweep":11224,"##uters":11225,"ingr":11226,"root":11227,"##oys":11228,"occurring":11229,"##imony":11230,"brew":11231,"boost":11232,"114":11233,"laud":11234,"shaft":11235,"peop":11236,"slav":11237,"psychiat":11238,"reject":11239,"##oca":11240,"versus":11241,"memories":11242,"sharing":11243,"sheriff":11244,"prelimin":11245,"##vet":11246,"##edia":11247,"breast":11248,"##took":11249,"heights":11250,"molecular":11251,"heb":11252,"brut":11253,"feathers":11254,"supports":11255,"particles":11256,"reunion":11257,"##ardo":11258,"marl":11259,"##athy":11260,"avoided":11261,"malcolm":11262,"flags":11263,"##aders":11264,"titan":11265,"progressed":11266,"curve":11267,"murdered":11268,"dale":11269,"vick":11270,"remar":11271,"throwing":11272,"hul":11273,"eastward":11274,"kenneth":11275,"cum":11276,"cinc":11277,"cena":11278,"cong":11279,"bry":11280,"doctrine":11281,"gabri":11282,"wartime":11283,"##inated":11284,"leices":11285,"tram":11286,"northeastern":11287,"chrom":11288,"lesb":11289,"consequence":11290,"protestant":11291,"aesth":11292,"hi":11293,"##ocy":11294,"shelter":11295,"armenian":11296,"autobiography":11297,"antar":11298,"imposed":11299,"punishment":11300,"recruit":11301,"intermediate":11302,"##ando":11303,"integrated":11304,"reporting":11305,"convicted":11306,"kilogr":11307,"exhibit":11308,"depicting":11309,"produces":11310,"mounts":11311,"isaac":11312,"noticed":11313,"thriller":11314,"exploration":11315,"tourist":11316,"threatening":11317,"pedro":11318,"##gi":11319,"thorn":11320,"##aco":11321,"monit":11322,"weld":11323,"posts":11324,"touchdowns":11325,"dublin":11326,"mv":11327,"upl":11328,"##urd":11329,"##ilda":11330,"viewing":11331,"1862":11332,"##changed":11333,"peoples":11334,"verses":11335,"vicinity":11336,"dud":11337,"##far":11338,"lut":11339,"holes":11340,"mathematics":11341,"wes":11342,"attraction":11343,"clouds":11344,"resid":11345,"##assy":11346,"crane":11347,"fus":11348,"annex":11349,"undertaken":11350,"cage":11351,"##eals":11352,"releasing":11353,"removing":11354,"bailey":11355,"saints":11356,"tea":11357,"courage":11358,"tier":11359,"patient":11360,"tennis":11361,"diversity":11362,"##zes":11363,"##atsu":11364,"journalists":11365,"ignored":11366,"warrior":11367,"congression":11368,"bris":11369,"blame":11370,"constantly":11371,"decrease":11372,"##othy":11373,"coaching":11374,"isle":11375,"ing":11376,"chop":11377,"sheet":11378,"##encer":11379,"clergy":11380,"syl":11381,"predominantly":11382,"##rough":11383,"realistic":11384,"enrol":11385,"cream":11386,"expanding":11387,"pand":11388,"##rosion":11389,"martial":11390,"tommy":11391,"linear":11392,"dat":11393,"hack":11394,"melod":11395,"krist":11396,"cs":11397,"##ulum":11398,"cincinn":11399,"eighteen":11400,"sacrifice":11401,"##vo":11402,"legion":11403,"remind":11404,"fortune":11405,"camb":11406,"serbia":11407,"interc":11408,"dug":11409,"alberta":11410,"maritime":11411,"congressional":11412,"springfield":11413,"tib":11414,"focuses":11415,"contacted":11416,"parking":11417,"disappeared":11418,"nh":11419,"##roy":11420,"##idia":11421,"facil":11422,"twentieth":11423,"botan":11424,"relieved":11425,"xi":11426,"##aneous":11427,"barrier":11428,"grows":11429,"arose":11430,"enorm":11431,"transc":11432,"independently":11433,"pleased":11434,"propaganda":11435,"##ais":11436,"##roe":11437,"generals":11438,"apolog":11439,"doctors":11440,"ranch":11441,"107":11442,"measuring":11443,"teachers":11444,"duck":11445,"##sch":11446,"leo":11447,"twitter":11448,"churchill":11449,"creature":11450,"explanation":11451,"taiwan":11452,"##cs":11453,"centered":11454,"couldn":11455,"##fast":11456,"stability":11457,"fragment":11458,"preliminary":11459,"dolph":11460,"157":11461,"estates":11462,"sacred":11463,"muslims":11464,"gig":11465,"incred":11466,"asserted":11467,"##flow":11468,"julian":11469,"canceled":11470,"compiled":11471,"emig":11472,"malta":11473,"spell":11474,"joan":11475,"220":11476,"978":11477,"##ellar":11478,"speeds":11479,"yugoslavia":11480,"inducted":11481,"parade":11482,"discr":11483,"celebrate":11484,"collaborated":11485,"subtropical":11486,"roster":11487,"ware":11488,"roadway":11489,"situations":11490,"paying":11491,"bulgar":11492,"locomotives":11493,"enhanced":11494,"jake":11495,"incidents":11496,"discour":11497,"absorbed":11498,"##ju":11499,"132":11500,"sentiment":11501,"scientist":11502,"layers":11503,"saving":11504,"monsters":11505,"aux":11506,"gravity":11507,"wagner":11508,"##found":11509,"tob":11510,"shiva":11511,"nept":11512,"subd":11513,"nan":11514,"worse":11515,"maine":11516,"micha":11517,"focusing":11518,"varying":11519,"aided":11520,"hier":11521,"##rin":11522,"continent":11523,"achiev":11524,"friedrich":11525,"exterior":11526,"dent":11527,"reiss":11528,"##rection":11529,"##the":11530,"##etically":11531,"appeals":11532,"genres":11533,"publicity":11534,"walt":11535,"mask":11536,"submarines":11537,"cincinnati":11538,"networks":11539,"targeted":11540,"kaz":11541,"burke":11542,"discussing":11543,"olivia":11544,"##asm":11545,"fortifications":11546,"angelou":11547,"bullet":11548,"atmospheric":11549,"fib":11550,"##zed":11551,"##ortion":11552,"normandy":11553,"oxid":11554,"luft":11555,"sri":11556,"tensions":11557,"browns":11558,"creatures":11559,"mccl":11560,"scouting":11561,"dislik":11562,"afghanistan":11563,"plains":11564,"betray":11565,"lope":11566,"##tery":11567,"atop":11568,"dropping":11569,"m3":11570,"103":11571,"marched":11572,"positioned":11573,"irreg":11574,"preceding":11575,"fungus":11576,"irregular":11577,"hyper":11578,"hok":11579,"##iture":11580,"leeds":11581,"reminis":11582,"critically":11583,"confused":11584,"summon":11585,"vegas":11586,"regist":11587,"treasury":11588,"aub":11589,"maced":11590,"bee":11591,"chuck":11592,"transmission":11593,"1887":11594,"swept":11595,"resignation":11596,"compromise":11597,"punch":11598,"sod":11599,"##add":11600,"beta":11601,"mechanics":11602,"elevated":11603,"gregory":11604,"dum":11605,"leagues":11606,"##press":11607,"metac":11608,"##issioned":11609,"madison":11610,"acclaimed":11611,"lynch":11612,"##gans":11613,"##enheim":11614,"##icon":11615,"##rels":11616,"concepts":11617,"mentions":11618,"1880":11619,"ritual":11620,"##rent":11621,"##view":11622,"##erd":11623,"viii":11624,"dive":11625,"butler":11626,"ups":11627,"1863":11628,"anchor":11629,"126":11630,"brigades":11631,"##tes":11632,"spacecraft":11633,"lopez":11634,"sulf":11635,"##adal":11636,"spots":11637,"smoking":11638,"edmund":11639,"corruption":11640,"##aughter":11641,"fare":11642,"##iah":11643,"brah":11644,"tender":11645,"arguments":11646,"1886":11647,"eagles":11648,"shin":11649,"##oba":11650,"athletics":11651,"sailors":11652,"mushroom":11653,"##orious":11654,"119":11655,"bonds":11656,"venture":11657,"capitol":11658,"jna":11659,"theodore":11660,"stored":11661,"##verty":11662,"poverty":11663,"worker":11664,"helen":11665,"suggestion":11666,"managing":11667,"##umberland":11668,"pom":11669,"walks":11670,"schumacher":11671,"grove":11672,"corresponding":11673,"assassination":11674,"condemned":11675,"farmer":11676,"orton":11677,"flown":11678,"missile":11679,"conced":11680,"proxim":11681,"flot":11682,"24th":11683,"dennis":11684,"loaded":11685,"##agers":11686,"##ocol":11687,"herb":11688,"graves":11689,"mlb":11690,"orchestral":11691,"aj":11692,"nem":11693,"##rous":11694,"ches":11695,"##ritic":11696,"widow":11697,"brooklyn":11698,"bold":11699,"ply":11700,"devot":11701,"physically":11702,"ambush":11703,"bio":11704,"##gent":11705,"iran":11706,"princeton":11707,"torpedoes":11708,"migration":11709,"cinemat":11710,"instructions":11711,"aria":11712,"rotation":11713,"##held":11714,"##instein":11715,"stair":11716,"##izz":11717,"retreated":11718,"delight":11719,"inhg":11720,"ceremonies":11721,"mckinley":11722,"##wald":11723,"slam":11724,"detected":11725,"challenging":11726,"adri":11727,"##roscop":11728,"purple":11729,"participating":11730,"gusts":11731,"##acht":11732,"blamed":11733,"tet":11734,"##ulates":11735,"preservation":11736,"moist":11737,"knowing":11738,"nasa":11739,"disbanded":11740,"##itic":11741,"bars":11742,"hubbard":11743,"chi":11744,"montana":11745,"sut":11746,"##amine":11747,"marath":11748,"mega":11749,"steadily":11750,"consciousness":11751,"achievements":11752,"##rogen":11753,"pride":11754,"composers":11755,"1884":11756,"trap":11757,"agencies":11758,"disabled":11759,"messages":11760,"bil":11761,"fairy":11762,"calculated":11763,"##nan":11764,"incom":11765,"emerging":11766,"reserves":11767,"vegetation":11768,"##acular":11769,"distinction":11770,"commitment":11771,"darker":11772,"variable":11773,"##zac":11774,"chan":11775,"button":11776,"genesis":11777,"glad":11778,"printing":11779,"##ught":11780,"lan":11781,"barcel":11782,"mouse":11783,"bog":11784,"smackdown":11785,"glasgow":11786,"seeds":11787,"trump":11788,"finest":11789,"prosecut":11790,"canucks":11791,"phyl":11792,"singers":11793,"convince":11794,"venues":11795,"electoral":11796,"rebounds":11797,"mam":11798,"ster":11799,"quoted":11800,"solely":11801,"opinions":11802,"maple":11803,"##udi":11804,"brings":11805,"motif":11806,"caf":11807,"eman":11808,"austro":11809,"mysterious":11810,"finger":11811,"rus":11812,"##ho":11813,"##mel":11814,"##eding":11815,"##omed":11816,"belle":11817,"conducting":11818,"absolute":11819,"mock":11820,"##omon":11821,"convey":11822,"postp":11823,"favored":11824,"songwriting":11825,"pilgr":11826,"fing":11827,"endang":11828,"config":11829,"summar":11830,"cooperation":11831,"phillies":11832,"nass":11833,"inver":11834,"whales":11835,"herbert":11836,"poster":11837,"##lett":11838,"examined":11839,"##mates":11840,"##areness":11841,"spit":11842,"depot":11843,"radius":11844,"naturally":11845,"walked":11846,"gentle":11847,"intend":11848,"electro":11849,"nig":11850,"122":11851,"burg":11852,"priority":11853,"##hart":11854,"sue":11855,"indirect":11856,"westminster":11857,"graphic":11858,"hass":11859,"isles":11860,"eligible":11861,"themed":11862,"modest":11863,"theaters":11864,"renaissance":11865,"ascend":11866,"chet":11867,"##actic":11868,"quit":11869,"temples":11870,"everybody":11871,"rounded":11872,"denver":11873,"bce":11874,"hir":11875,"ants":11876,"tracking":11877,"##gett":11878,"routing":11879,"celtic":11880,"aur":11881,"aids":11882,"cale":11883,"remake":11884,"##bach":11885,"carr":11886,"decisive":11887,"curved":11888,"trem":11889,"volcano":11890,"fragments":11891,"##ener":11892,"beau":11893,"homosexual":11894,"1877":11895,"essay":11896,"shopping":11897,"mercedes":11898,"##tra":11899,"##itals":11900,"##ishops":11901,"demographic":11902,"awareness":11903,"taxonomy":11904,"##elia":11905,"##ront":11906,"151":11907,"screens":11908,"extraordin":11909,"prompting":11910,"pocket":11911,"##inz":11912,"tintin":11913,"1876":11914,"consideration":11915,"##onso":11916,"##usters":11917,"logo":11918,"ske":11919,"saga":11920,"nationalist":11921,"posthum":11922,"farms":11923,"comparing":11924,"heavier":11925,"spectrum":11926,"pokemon":11927,"efficient":11928,"nevada":11929,"##olia":11930,"butt":11931,"newfound":11932,"poe":11933,"performers":11934,"angles":11935,"bulgarian":11936,"elementary":11937,"yd":11938,"manning":11939,"sau":11940,"230":11941,"proclaimed":11942,"afterward":11943,"playable":11944,"consens":11945,"likewise":11946,"138":11947,"gunn":11948,"possessed":11949,"authent":11950,"refuses":11951,"tourists":11952,"accomplished":11953,"mour":11954,"##avan":11955,"manuel":11956,"albany":11957,"agrees":11958,"penal":11959,"expectations":11960,"laz":11961,"mk":11962,"percy":11963,"connects":11964,"searching":11965,"dynamic":11966,"tum":11967,"unoff":11968,"fract":11969,"129":11970,"glou":11971,"commentators":11972,"privile":11973,"psychological":11974,"virtual":11975,"frigate":11976,"##arded":11977,"carlos":11978,"ronald":11979,"nes":11980,"##iors":11981,"##elor":11982,"tril":11983,"signals":11984,"refugees":11985,"ensemble":11986,"pray":11987,"grim":11988,"metaph":11989,"116":11990,"contrad":11991,"sensitive":11992,"surprising":11993,"municipality":11994,"kilometers":11995,"ottawa":11996,"comprising":11997,"consequences":11998,"lig":11999,"anthem":12000,"outcome":12001,"##ahl":12002,"listening":12003,"##reeks":12004,"##gged":12005,"insuff":12006,"##umbered":12007,"##chi":12008,"commons":12009,"centimet":12010,"drake":12011,"ukrain":12012,"discipline":12013,"depiction":12014,"transformed":12015,"##season":12016,"opined":12017,"134":12018,"brien":12019,"lamb":12020,"sergeant":12021,"worksh":12022,"banksia":12023,"exercises":12024,"deposits":12025,"twe":12026,"encomp":12027,"intelligent":12028,"pioneer":12029,"procedure":12030,"mak":12031,"sap":12032,"emotions":12033,"fluor":12034,"##enes":12035,"confer":12036,"##istical":12037,"marqu":12038,"##ennial":12039,"properly":12040,"celebrity":12041,"deliberately":12042,"executives":12043,"barcelona":12044,"alam":12045,"width":12046,"1875":12047,"weakness":12048,"nok":12049,"demon":12050,"payment":12051,"barracks":12052,"##isph":12053,"orph":12054,"relev":12055,"reluctant":12056,"colin":12057,"milan":12058,"123":12059,"keyboard":12060,"chiefs":12061,"rational":12062,"hym":12063,"processing":12064,"ladies":12065,"##isations":12066,"formations":12067,"guit":12068,"landmark":12069,"steady":12070,"fabric":12071,"dome":12072,"##acc":12073,"underwater":12074,"routine":12075,"gauge":12076,"berm":12077,"strings":12078,"contribute":12079,"latest":12080,"complimented":12081,"adjust":12082,"michaels":12083,"file":12084,"enix":12085,"unt":12086,"energ":12087,"extends":12088,"abra":12089,"permit":12090,"accus":12091,"bark":12092,"varies":12093,"silence":12094,"raymond":12095,"ceo":12096,"##aja":12097,"loyalty":12098,"henderson":12099,"gathering":12100,"estimate":12101,"guitars":12102,"##hall":12103,"onwards":12104,"expressway":12105,"fears":12106,"anger":12107,"emma":12108,"collecting":12109,"bowled":12110,"vocalist":12111,"unanim":12112,"##ptic":12113,"carved":12114,"metals":12115,"##rang":12116,"spite":12117,"1883":12118,"contributing":12119,"tribut":12120,"clip":12121,"millions":12122,"paralymp":12123,"chains":12124,"middles":12125,"1881":12126,"jets":12127,"joke":12128,"staged":12129,"##rians":12130,"phon":12131,"128":12132,"complaints":12133,"instrumentation":12134,"tool":12135,"revealing":12136,"romanian":12137,"enlar":12138,"deer":12139,"diseases":12140,"assets":12141,"poles":12142,"consistently":12143,"##yers":12144,"alumn":12145,"##orted":12146,"lemurs":12147,"input":12148,"detachment":12149,"damaging":12150,"symbols":12151,"gym":12152,"##lem":12153,"##agi":12154,"cameo":12155,"##assic":12156,"sandy":12157,"venice":12158,"clause":12159,"blog":12160,"photos":12161,"environments":12162,"locomotive":12163,"jamaica":12164,"##etary":12165,"richardson":12166,"permanently":12167,"coffee":12168,"nervous":12169,"blair":12170,"politically":12171,"belonging":12172,"lancash":12173,"phenomenon":12174,"1869":12175,"veronica":12176,"jumping":12177,"sting":12178,"stabil":12179,"##atty":12180,"staying":12181,"preventing":12182,"advisory":12183,"improving":12184,"disputed":12185,"rays":12186,"##icking":12187,"criter":12188,"midway":12189,"##aches":12190,"berkel":12191,"powell":12192,"ferdin":12193,"duncan":12194,"percussion":12195,"lancashire":12196,"proud":12197,"sixty":12198,"calgary":12199,"acceptance":12200,"referee":12201,"##oric":12202,"inex":12203,"unaware":12204,"##ampa":12205,"dispatched":12206,"ib":12207,"##iens":12208,"##iology":12209,"telesc":12210,"telescope":12211,"eruption":12212,"##izers":12213,"lessons":12214,"wanting":12215,"1866":12216,"chapters":12217,"ceiling":12218,"retrieved":12219,"manifest":12220,"bever":12221,"genera":12222,"colleges":12223,"patrols":12224,"hypothesis":12225,"objectives":12226,"habitats":12227,"switched":12228,"##vi":12229,"contempor":12230,"requirement":12231,"witnessed":12232,"redevelop":12233,"consensus":12234,"slip":12235,"blockade":12236,"##asia":12237,"floyd":12238,"##ographer":12239,"argue":12240,"ironcl":12241,"unsuccessfully":12242,"interactions":12243,"##dam":12244,"##gene":12245,"##riages":12246,"##anted":12247,"tradem":12248,"burger":12249,"costumes":12250,"erupt":12251,"gale":12252,"stir":12253,"circles":12254,"lengths":12255,"fantastic":12256,"750":12257,"adaptations":12258,"sketch":12259,"cn":12260,"fraud":12261,"trinity":12262,"grants":12263,"##lake":12264,"faction":12265,"freshman":12266,"pleasure":12267,"syndrome":12268,"actively":12269,"homeless":12270,"encourage":12271,"allegations":12272,"bacteria":12273,"monk":12274,"angels":12275,"derby":12276,"##ijing":12277,"explosive":12278,"publishers":12279,"immigrants":12280,"reson":12281,"anx":12282,"frances":12283,"202":12284,"accol":12285,"ellen":12286,"crawford":12287,"ally":12288,"funk":12289,"distinguish":12290,"belonged":12291,"palestine":12292,"flanders":12293,"sans":12294,"##upp":12295,"renown":12296,"channels":12297,"leicester":12298,"gast":12299,"pix":12300,"landings":12301,"destiny":12302,"cubic":12303,"pere":12304,"##cia":12305,"##enues":12306,"suffer":12307,"wheat":12308,"holland":12309,"abundant":12310,"judgment":12311,"diary":12312,"mbar":12313,"##orf":12314,"glory":12315,"1873":12316,"nicknamed":12317,"paramount":12318,"congregation":12319,"reop":12320,"guadal":12321,"124":12322,"unusually":12323,"##uz":12324,"##aman":12325,"perpet":12326,"tasks":12327,"submerged":12328,"##adows":12329,"convert":12330,"desired":12331,"contrary":12332,"introduce":12333,"loves":12334,"forgot":12335,"lava":12336,"shipped":12337,"thoughts":12338,"dimensional":12339,"outdoor":12340,"tucker":12341,"phosph":12342,"eldest":12343,"teenage":12344,"machinery":12345,"beijing":12346,"1882":12347,"advocate":12348,"absolut":12349,"cylinder":12350,"##lon":12351,"adela":12352,"beds":12353,"hemisph":12354,"innocent":12355,"dudley":12356,"naked":12357,"##oning":12358,"fringe":12359,"##avian":12360,"cope":12361,"crucial":12362,"newman":12363,"1867":12364,"1871":12365,"proceedings":12366,"fischer":12367,"##nda":12368,"libert":12369,"watson":12370,"nineteenth":12371,"overwhelming":12372,"##reen":12373,"##abe":12374,"surpassed":12375,"beast":12376,"##abad":12377,"adequ":12378,"roth":12379,"instruction":12380,"repet":12381,"##atern":12382,"defenses":12383,"advocated":12384,"hect":12385,"horsepower":12386,"democracy":12387,"welcome":12388,"##olan":12389,"fever":12390,"reviewing":12391,"platoon":12392,"digit":12393,"festivals":12394,"mccarthy":12395,"dot":12396,"zones":12397,"truman":12398,"##iper":12399,"monuments":12400,"##anka":12401,"unity":12402,"subordin":12403,"roller":12404,"pounder":12405,"spores":12406,"storylines":12407,"comprised":12408,"aristocr":12409,"##zig":12410,"##iev":12411,"diving":12412,"kepler":12413,"hunters":12414,"etc":12415,"trent":12416,"##lude":12417,"##ht":12418,"usher":12419,"manufactured":12420,"eccles":12421,"nests":12422,"##atar":12423,"##ulu":12424,"1878":12425,"customs":12426,"mosque":12427,"variant":12428,"wolver":12429,"u2":12430,"geography":12431,"rushed":12432,"vampire":12433,"itunes":12434,"explored":12435,"macdonald":12436,"triangle":12437,"endangered":12438,"##uri":12439,"clif":12440,"turbines":12441,"mold":12442,"pont":12443,"sect":12444,"chal":12445,"outl":12446,"##appa":12447,"eleventh":12448,"reconstruct":12449,"unveiled":12450,"##mill":12451,"leth":12452,"speculated":12453,"averaged":12454,"economics":12455,"resemble":12456,"horizontal":12457,"currency":12458,"fount":12459,"vest":12460,"relating":12461,"undertook":12462,"bigger":12463,"spectators":12464,"nobel":12465,"gem":12466,"intim":12467,"gibson":12468,"literally":12469,"dissolved":12470,"chaos":12471,"##quet":12472,"overd":12473,"damages":12474,"lengthy":12475,"mott":12476,"##sis":12477,"##uez":12478,"##ashed":12479,"fights":12480,"athlete":12481,"##agg":12482,"##istle":12483,"shirt":12484,"luftw":12485,"ensuing":12486,"##appy":12487,"##rington":12488,"coastline":12489,"stripped":12490,"malay":12491,"enormous":12492,"trips":12493,"admiralty":12494,"##imer":12495,"index":12496,"mcg":12497,"maneuver":12498,"prostit":12499,"lone":12500,"overcome":12501,"embassy":12502,"installation":12503,"ineff":12504,"aaron":12505,"wander":12506,"manages":12507,"137":12508,"copyr":12509,"interviewed":12510,"discussions":12511,"copyright":12512,"ferg":12513,"lamp":12514,"##chw":12515,"##assing":12516,"wellington":12517,"##annon":12518,"baptist":12519,"guarant":12520,"metacritic":12521,"##eer":12522,"sho":12523,"grain":12524,"relied":12525,"##boat":12526,"stroke":12527,"aston":12528,"editorial":12529,"sara":12530,"sup":12531,"intact":12532,"adds":12533,"coral":12534,"vlad":12535,"fusion":12536,"riley":12537,"wishes":12538,"##alt":12539,"##omys":12540,"anonymous":12541,"meyer":12542,"extinction":12543,"qualities":12544,"##atural":12545,"oral":12546,"pla":12547,"##ulture":12548,"destination":12549,"luther":12550,"luftwaffe":12551,"shelley":12552,"engaging":12553,"robb":12554,"trigger":12555,"bermuda":12556,"honest":12557,"1860":12558,"bankrupt":12559,"lifted":12560,"rag":12561,"##aba":12562,"advances":12563,"verd":12564,"awa":12565,"deals":12566,"mistake":12567,"monroe":12568,"nomine":12569,"bout":12570,"##employ":12571,"relay":12572,"revived":12573,"##overed":12574,"battlecruisers":12575,"aguil":12576,"trilogy":12577,"biz":12578,"rams":12579,"stom":12580,"ank":12581,"cultures":12582,"1868":12583,"grossed":12584,"merchand":12585,"proceeds":12586,"adelaide":12587,"lp":12588,"##inqu":12589,"swamp":12590,"soccer":12591,"1872":12592,"otto":12593,"jail":12594,"##thor":12595,"horns":12596,"instructed":12597,"weighed":12598,"mick":12599,"hep":12600,"25th":12601,"reminiscent":12602,"aguilera":12603,"##alid":12604,"##ema":12605,"selena":12606,"henri":12607,"successive":12608,"rulers":12609,"summary":12610,"mast":12611,"harvest":12612,"feminist":12613,"gains":12614,"hab":12615,"enrolled":12616,"##asaki":12617,"##eta":12618,"powder":12619,"intersections":12620,"dorm":12621,"##hor":12622,"marx":12623,"soviets":12624,"fluid":12625,"silk":12626,"##monton":12627,"curtis":12628,"coronation":12629,"eb":12630,"hond":12631,"unemploy":12632,"newport":12633,"functional":12634,"##otypes":12635,"iw":12636,"##origin":12637,"##through":12638,"suited":12639,"screening":12640,"chandler":12641,"dakota":12642,"slower":12643,"masses":12644,"dealt":12645,"appealed":12646,"merchants":12647,"rumors":12648,"bishops":12649,"##inth":12650,"deeper":12651,"##rium":12652,"rapper":12653,"aliens":12654,"scrap":12655,"lemur":12656,"batsman":12657,"rah":12658,"##ti":12659,"boot":12660,"disgu":12661,"interference":12662,"quint":12663,"termed":12664,"deployment":12665,"ellis":12666,"toxic":12667,"ald":12668,"arctic":12669,"planes":12670,"##neath":12671,"grammar":12672,"ling":12673,"conting":12674,"floating":12675,"quantities":12676,"vh":12677,"##rac":12678,"##eries":12679,"disputes":12680,"investigations":12681,"pengu":12682,"gamespot":12683,"##stown":12684,"undergrad":12685,"barely":12686,"privately":12687,"panels":12688,"pagan":12689,"leigh":12690,"thickness":12691,"phillips":12692,"viv":12693,"##igo":12694,"rog":12695,"eugene":12696,"trace":12697,"disrupt":12698,"maxwell":12699,"shan":12700,"geoffrey":12701,"##keep":12702,"joins":12703,"symmet":12704,"separately":12705,"exhibited":12706,"ferdinand":12707,"cec":12708,"ming":12709,"meth":12710,"a3":12711,"dish":12712,"##ws":12713,"arbit":12714,"assign":12715,"surrey":12716,"curves":12717,"gorge":12718,"wwf":12719,"##aku":12720,"insist":12721,"borne":12722,"package":12723,"ecology":12724,"inquiry":12725,"imported":12726,"glam":12727,"casino":12728,"nobody":12729,"cere":12730,"chlor":12731,"adrian":12732,"retros":12733,"supporter":12734,"delays":12735,"easter":12736,"involve":12737,"##gener":12738,"marcus":12739,"disliked":12740,"flotilla":12741,"##arus":12742,"##alia":12743,"##oves":12744,"outs":12745,"barrett":12746,"custody":12747,"dart":12748,"hanc":12749,"nak":12750,"##gon":12751,"##ndar":12752,"busy":12753,"essex":12754,"analog":12755,"##opol":12756,"expense":12757,"realm":12758,"gonz":12759,"dere":12760,"kum":12761,"##ystem":12762,"##olith":12763,"contested":12764,"developer":12765,"magical":12766,"calm":12767,"experts":12768,"romans":12769,"licensed":12770,"therapy":12771,"repaired":12772,"proximity":12773,"plymouth":12774,"sier":12775,"shoo":12776,"spencer":12777,"1850":12778,"til":12779,"##inus":12780,"##atem":12781,"##eased":12782,"underneath":12783,"refit":12784,"puzz":12785,"jeremy":12786,"descendants":12787,"abraham":12788,"ria":12789,"item":12790,"phant":12791,"bread":12792,"protecting":12793,"madrid":12794,"dunge":12795,"mobil":12796,"redesign":12797,"lil":12798,"riff":12799,"conform":12800,"admit":12801,"coaster":12802,"deton":12803,"robot":12804,"molecules":12805,"plutonium":12806,"yok":12807,"##mother":12808,"unrest":12809,"interrupted":12810,"warrant":12811,"caliber":12812,"limestone":12813,"mathematical":12814,"##bery":12815,"genius":12816,"141":12817,"ruins":12818,"tribal":12819,"automatic":12820,"##iman":12821,"chee":12822,"farming":12823,"vienna":12824,"captivity":12825,"washed":12826,"excessive":12827,"mvp":12828,"projected":12829,"blank":12830,"subsc":12831,"##esha":12832,"kerr":12833,"nico":12834,"##aren":12835,"##ubs":12836,"operator":12837,"luis":12838,"cardinal":12839,"delegation":12840,"lunar":12841,"##esco":12842,"##star":12843,"comet":12844,"presum":12845,"133":12846,"##obile":12847,"romania":12848,"##pit":12849,"plastic":12850,"assert":12851,"associates":12852,"motors":12853,"escal":12854,"tasman":12855,"pavil":12856,"bosnia":12857,"hancock":12858,"##chan":12859,"chen":12860,"pled":12861,"invented":12862,"florence":12863,"floods":12864,"acquisition":12865,"daniels":12866,"ltd":12867,"ai":12868,"hil":12869,"reel":12870,"monks":12871,"keeps":12872,"architects":12873,"survivor":12874,"floors":12875,"cylind":12876,"pronounced":12877,"pyramid":12878,"wer":12879,"norse":12880,"collision":12881,"rockets":12882,"ump":12883,"##alling":12884,"totally":12885,"seemingly":12886,"coloured":12887,"pedest":12888,"fergus":12889,"allocated":12890,"ballet":12891,"fm":12892,"tin":12893,"secular":12894,"bengal":12895,"##iy":12896,"thrust":12897,"tunnels":12898,"##writer":12899,"restaurants":12900,"bik":12901,"kem":12902,"sag":12903,"maybe":12904,"comparable":12905,"oval":12906,"##occ":12907,"nl":12908,"porter":12909,"torch":12910,"##hd":12911,"edmonton":12912,"##kinson":12913,"demanding":12914,"jennifer":12915,"immigration":12916,"climbing":12917,"baldwin":12918,"##icus":12919,"undergo":12920,"reflecting":12921,"##anche":12922,"acquire":12923,"fatalities":12924,"forts":12925,"##imir":12926,"trout":12927,"subtle":12928,"starr":12929,"arkansas":12930,"maiden":12931,"ful":12932,"##cock":12933,"##aching":12934,"populated":12935,"lifestyle":12936,"evolutionary":12937,"extraordinary":12938,"rent":12939,"shops":12940,"preston":12941,"herge":12942,"sebast":12943,"leban":12944,"cla":12945,"twelf":12946,"##asses":12947,"twelfth":12948,"##anto":12949,"modifications":12950,"irre":12951,"domain":12952,"lobby":12953,"##anas":12954,"jungle":12955,"1879":12956,"struggling":12957,"enforcement":12958,"seventeen":12959,"discontinued":12960,"wise":12961,"##xide":12962,"generations":12963,"franco":12964,"accomplish":12965,"strang":12966,"unfortun":12967,"dad":12968,"ig":12969,"wald":12970,"##wig":12971,"suburb":12972,"mcdonald":12973,"savage":12974,"scrapped":12975,"pierce":12976,"neighbouring":12977,"##urbed":12978,"##iang":12979,"perth":12980,"auction":12981,"moor":12982,"bachelor":12983,"##elly":12984,"perimeter":12985,"garage":12986,"demonstration":12987,"crowned":12988,"chicken":12989,"miner":12990,"streams":12991,"fertil":12992,"demonstrate":12993,"paved":12994,"administered":12995,"fierce":12996,"aus":12997,"##ovsky":12998,"sheph":12999,"minogue":13000,"halted":13001,"anthrop":13002,"interactive":13003,"##entine":13004,"muscle":13005,"operas":13006,"openly":13007,"descended":13008,"##hand":13009,"neo":13010,"wors":13011,"blake":13012,"lesbian":13013,"filter":13014,"regained":13015,"cres":13016,"mccain":13017,"##net":13018,"genes":13019,"bowie":13020,"speakers":13021,"gle":13022,"worried":13023,"##iki":13024,"skinner":13025,"verm":13026,"creates":13027,"janet":13028,"besie":13029,"hawaiian":13030,"suburban":13031,"erosion":13032,"luck":13033,"shack":13034,"attachment":13035,"substance":13036,"dirty":13037,"clerk":13038,"##idd":13039,"##ums":13040,"crust":13041,"contracted":13042,"declaring":13043,"scenario":13044,"liberation":13045,"upgrade":13046,"elderly":13047,"rewrit":13048,"mann":13049,"modes":13050,"koreans":13051,"lancaster":13052,"backup":13053,"artif":13054,"##ologically":13055,"##enne":13056,"pregnancy":13057,"laf":13058,"turks":13059,"strengthen":13060,"bitter":13061,"monarchy":13062,"newfoundland":13063,"tables":13064,"##osity":13065,"merit":13066,"raz":13067,"##lu":13068,"270":13069,"woodland":13070,"rer":13071,"##heads":13072,"logan":13073,"opted":13074,"jokes":13075,"errors":13076,"elephant":13077,"tear":13078,"wonderful":13079,"fog":13080,"lich":13081,"traged":13082,"##grade":13083,"identification":13084,"biology":13085,"scouts":13086,"incomple":13087,"##inte":13088,"stark":13089,"academ":13090,"caution":13091,"##guard":13092,"prohibited":13093,"raven":13094,"compact":13095,"findings":13096,"specialized":13097,"ambitious":13098,"northwestward":13099,"##rist":13100,"shank":13101,"drunk":13102,"divide":13103,"necessarily":13104,"dio":13105,"hate":13106,"##vent":13107,"##bt":13108,"##usive":13109,"conve":13110,"strengthening":13111,"ridic":13112,"motorway":13113,"diesel":13114,"griffin":13115,"buddhist":13116,"diem":13117,"aggregate":13118,"##ido":13119,"reyn":13120,"chin":13121,"##aceous":13122,"decomm":13123,"invitation":13124,"##atorial":13125,"throat":13126,"sierra":13127,"chances":13128,"detached":13129,"kay":13130,"##elines":13131,"alk":13132,"lacks":13133,"spongeb":13134,"##urg":13135,"##ellan":13136,"contents":13137,"louise":13138,"caroline":13139,"remarkable":13140,"comprehensive":13141,"jg":13142,"##list":13143,"##acon":13144,"leather":13145,"societies":13146,"merger":13147,"teammates":13148,"memorable":13149,"quart":13150,"banner":13151,"nost":13152,"deciding":13153,"146":13154,"##ikh":13155,"hawk":13156,"mere":13157,"sphere":13158,"ampl":13159,"centres":13160,"runway":13161,"loading":13162,"recognize":13163,"draws":13164,"bam":13165,"lease":13166,"runners":13167,"anatomy":13168,"fool":13169,"##irts":13170,"antiqu":13171,"corners":13172,"allegedly":13173,"juvenile":13174,"freight":13175,"observers":13176,"synthesis":13177,"kub":13178,"collector":13179,"garcia":13180,"layout":13181,"measurements":13182,"nashville":13183,"rodriguez":13184,"topic":13185,"bassist":13186,"palmer":13187,"hoff":13188,"healthy":13189,"strait":13190,"compensation":13191,"nab":13192,"progression":13193,"introducing":13194,"diagnosis":13195,"incomplete":13196,"stuck":13197,"specialist":13198,"drowned":13199,"rode":13200,"vander":13201,"##immer":13202,"surfaces":13203,"immun":13204,"cheer":13205,"insufficient":13206,"lighth":13207,"pist":13208,"welf":13209,"interfer":13210,"legends":13211,"suburbs":13212,"calvin":13213,"ditch":13214,"hiding":13215,"ard":13216,"arrow":13217,"reserved":13218,"moreover":13219,"emily":13220,"edges":13221,"harper":13222,"moz":13223,"defender":13224,"muzzle":13225,"speeches":13226,"riot":13227,"consumer":13228,"realizes":13229,"attractive":13230,"balk":13231,"generate":13232,"hardc":13233,"maurice":13234,"drainage":13235,"busch":13236,"pushing":13237,"perfectly":13238,"diamonds":13239,"marble":13240,"basement":13241,"reversed":13242,"doubles":13243,"eliminate":13244,"##ishn":13245,"##opsis":13246,"cig":13247,"sul":13248,"vow":13249,"##asp":13250,"##entric":13251,"garfield":13252,"panama":13253,"conjunction":13254,"lunch":13255,"rna":13256,"unpre":13257,"securing":13258,"metab":13259,"collective":13260,"swan":13261,"applic":13262,"ns":13263,"alert":13264,"consent":13265,"149":13266,"devon":13267,"sufficiently":13268,"##ficial":13269,"athen":13270,"randy":13271,"computers":13272,"guatem":13273,"solutions":13274,"dh":13275,"ease":13276,"regulation":13277,"supervis":13278,"berry":13279,"rifles":13280,"unpop":13281,"cater":13282,"locked":13283,"spare":13284,"hospitals":13285,"tonight":13286,"welfare":13287,"eg":13288,"##giate":13289,"rhodesia":13290,"subdiv":13291,"claire":13292,"1874":13293,"embarr":13294,"cameras":13295,"desperate":13296,"hak":13297,"spark":13298,"scales":13299,"##issa":13300,"airplay":13301,"slot":13302,"hardware":13303,"##ayette":13304,"tran":13305,"overth":13306,"1848":13307,"hanging":13308,"##atisf":13309,"perm":13310,"buses":13311,"superman":13312,"choosing":13313,"treasure":13314,"hemisphere":13315,"spongebob":13316,"hutch":13317,"auxili":13318,"##eli":13319,"definitely":13320,"plateau":13321,"armenia":13322,"##rators":13323,"anywhere":13324,"solomon":13325,"emphasized":13326,"roc":13327,"quinn":13328,"counteratt":13329,"finnish":13330,"catalog":13331,"misc":13332,"contend":13333,"edwin":13334,"holmes":13335,"breakthrough":13336,"arabic":13337,"variants":13338,"illustrations":13339,"fuck":13340,"rape":13341,"##ormal":13342,"assessed":13343,"crom":13344,"infected":13345,"michelle":13346,"dop":13347,"whites":13348,"degener":13349,"notion":13350,"competitors":13351,"##verse":13352,"graduating":13353,"windsor":13354,"##force":13355,"dimensions":13356,"legitimate":13357,"cure":13358,"##urers":13359,"serbs":13360,"jacques":13361,"murders":13362,"frustrated":13363,"##uan":13364,"evol":13365,"gerald":13366,"promising":13367,"210":13368,"venus":13369,"lingu":13370,"wounds":13371,"preval":13372,"incorporates":13373,"lindwall":13374,"citizenship":13375,"grab":13376,"missiles":13377,"diagnosed":13378,"glacier":13379,"##pow":13380,"manual":13381,"augustus":13382,"controlling":13383,"puts":13384,"bloody":13385,"coupled":13386,"baham":13387,"##how":13388,"##oland":13389,"alc":13390,"organs":13391,"aborigin":13392,"terrestrial":13393,"insect":13394,"dinosaurs":13395,"fond":13396,"volunt":13397,"panic":13398,"pupils":13399,"jen":13400,"ses":13401,"shipyard":13402,"helm":13403,"investigated":13404,"democrat":13405,"mercy":13406,"incons":13407,"weird":13408,"northbound":13409,"physician":13410,"cheap":13411,"appreciated":13412,"dian":13413,"tract":13414,"lineup":13415,"flee":13416,"breakdown":13417,"tended":13418,"monday":13419,"##icular":13420,"##oded":13421,"##erness":13422,"reads":13423,"ranged":13424,"accolades":13425,"spiel":13426,"compat":13427,"martha":13428,"assignment":13429,"seasonal":13430,"confined":13431,"burst":13432,"testimony":13433,"sexually":13434,"stalin":13435,"berkeley":13436,"strat":13437,"aval":13438,"midfield":13439,"grandson":13440,"stanford":13441,"frozen":13442,"kath":13443,"tiny":13444,"##onen":13445,"stance":13446,"wouldn":13447,"elimination":13448,"presley":13449,"nearest":13450,"pressed":13451,"##aurus":13452,"laying":13453,"helicopters":13454,"dow":13455,"##mons":13456,"##zh":13457,"stunt":13458,"chev":13459,"brush":13460,"drives":13461,"olive":13462,"comfortable":13463,"##houses":13464,"drift":13465,"carefully":13466,"patent":13467,"circus":13468,"exciting":13469,"qualify":13470,"skiing":13471,"spher":13472,"occupy":13473,"inhabited":13474,"preview":13475,"radi":13476,"maintains":13477,"harmony":13478,"inscription":13479,"bulgaria":13480,"enable":13481,"carriage":13482,"retro":13483,"painter":13484,"employee":13485,"cuban":13486,"unst":13487,"designers":13488,"redd":13489,"144":13490,"delhi":13491,"genuine":13492,"##qual":13493,"blown":13494,"restr":13495,"managers":13496,"satir":13497,"reformed":13498,"skeleton":13499,"##bus":13500,"sunder":13501,"gover":13502,"flet":13503,"statute":13504,"unofficial":13505,"profits":13506,"connor":13507,"##mitt":13508,"jennings":13509,"maneuvers":13510,"suite":13511,"##ailing":13512,"successes":13513,"defeats":13514,"summers":13515,"##ocaust":13516,"##wing":13517,"##anus":13518,"topics":13519,"duet":13520,"honored":13521,"fitting":13522,"mistaken":13523,"carpenter":13524,"##birds":13525,"enthusiastic":13526,"##ede":13527,"spear":13528,"proven":13529,"technologies":13530,"1851":13531,"boxing":13532,"scratch":13533,"governing":13534,"og":13535,"##raid":13536,"waterline":13537,"irving":13538,"chapman":13539,"sleeping":13540,"exhaust":13541,"absolutely":13542,"aster":13543,"##agic":13544,"seiz":13545,"scope":13546,"prosecution":13547,"glenn":13548,"facts":13549,"##canal":13550,"vacc":13551,"bare":13552,"##rosse":13553,"edgar":13554,"procedures":13555,"gabriel":13556,"ix":13557,"crack":13558,"280":13559,"escapes":13560,"ecos":13561,"hazard":13562,"isotopes":13563,"disappointment":13564,"hopkins":13565,"civilization":13566,"accuracy":13567,"cauc":13568,"kru":13569,"ore":13570,"monkey":13571,"stepped":13572,"destruct":13573,"ashes":13574,"nun":13575,"protective":13576,"holocaust":13577,"neighboring":13578,"moss":13579,"hayes":13580,"guadalcanal":13581,"hispan":13582,"##atoes":13583,"fet":13584,"prose":13585,"goeb":13586,"blond":13587,"guided":13588,"laure":13589,"civic":13590,"repeat":13591,"momentum":13592,"innovative":13593,"nurse":13594,"brass":13595,"traits":13596,"sophistic":13597,"spawned":13598,"phylogen":13599,"blade":13600,"requests":13601,"##etti":13602,"entertaining":13603,"referend":13604,"unnamed":13605,"spielberg":13606,"rises":13607,"trails":13608,"regret":13609,"possess":13610,"graduation":13611,"slowed":13612,"raiders":13613,"imprisonment":13614,"reconcil":13615,"submit":13616,"performer":13617,"nationally":13618,"fletcher":13619,"mumb":13620,"exceeded":13621,"kenny":13622,"incorporate":13623,"bolton":13624,"cement":13625,"gir":13626,"kot":13627,"beech":13628,"rely":13629,"struggles":13630,"##oft":13631,"southampton":13632,"disco":13633,"philosophical":13634,"##holm":13635,"##enhower":13636,"trademark":13637,"fake":13638,"brandon":13639,"laura":13640,"readily":13641,"unders":13642,"altar":13643,"mineral":13644,"##lessly":13645,"concludes":13646,"rehabil":13647,"##uth":13648,"spani":13649,"##ibal":13650,"148":13651,"affecting":13652,"keyboards":13653,"bangl":13654,"bism":13655,"assume":13656,"convinc":13657,"frost":13658,"unpopular":13659,"##eus":13660,"asyl":13661,"atoms":13662,"shale":13663,"##istically":13664,"##ichi":13665,"##ictions":13666,"reds":13667,"nobility":13668,"patton":13669,"tongue":13670,"##pro":13671,"consumed":13672,"reflects":13673,"dreadnought":13674,"##zing":13675,"thirds":13676,"preceded":13677,"nc":13678,"locate":13679,"choices":13680,"##rified":13681,"##urred":13682,"##oline":13683,"evangel":13684,"negotiated":13685,"vas":13686,"##oop":13687,"##quer":13688,"posed":13689,"combine":13690,"##osphere":13691,"certific":13692,"demolition":13693,"predecessors":13694,"hess":13695,"kra":13696,"##matic":13697,"theft":13698,"plag":13699,"pitching":13700,"anthology":13701,"alumni":13702,"kang":13703,"##fu":13704,"distances":13705,"370":13706,"hendrix":13707,"eisenhower":13708,"ned":13709,"capabilities":13710,"revers":13711,"realize":13712,"michel":13713,"suspect":13714,"limitations":13715,"relevant":13716,"gan":13717,"chip":13718,"##ourt":13719,"##onsc":13720,"136":13721,"array":13722,"dign":13723,"shout":13724,"placement":13725,"basil":13726,"respected":13727,"grande":13728,"emble":13729,"loos":13730,"ancestors":13731,"ecosystem":13732,"tat":13733,"##olo":13734,"chim":13735,"##usty":13736,"ears":13737,"conviction":13738,"##ugu":13739,"lined":13740,"##isle":13741,"cluster":13742,"142":13743,"hammond":13744,"argentine":13745,"kle":13746,"nathan":13747,"##bage":13748,"epid":13749,"climax":13750,"cubs":13751,"sexuality":13752,"warsaw":13753,"stefani":13754,"nebr":13755,"##kee":13756,"crowds":13757,"correspondence":13758,"stomach":13759,"##nut":13760,"##lex":13761,"efficiency":13762,"varieties":13763,"russians":13764,"deriv":13765,"observatory":13766,"incorrect":13767,"bibl":13768,"##stad":13769,"##lew":13770,"extant":13771,"badge":13772,"illeg":13773,"altogether":13774,"ferguson":13775,"barber":13776,"victorious":13777,"forget":13778,"##ripp":13779,"outp":13780,"##tershire":13781,"##rises":13782,"precise":13783,"lucy":13784,"trustees":13785,"namely":13786,"hod":13787,"##lass":13788,"##eit":13789,"##ophone":13790,"sussex":13791,"maturity":13792,"columbus":13793,"wals":13794,"retaining":13795,"presc":13796,"settings":13797,"jeffrey":13798,"doubled":13799,"sprint":13800,"forgotten":13801,"acids":13802,"willis":13803,"kicked":13804,"adoption":13805,"gore":13806,"##nor":13807,"musc":13808,"##ggy":13809,"rhode":13810,"sometime":13811,"conquered":13812,"lean":13813,"buzz":13814,"underlying":13815,"britney":13816,"ethan":13817,"highlights":13818,"bj":13819,"lia":13820,"##nas":13821,"##odia":13822,"spike":13823,"##soon":13824,"southbound":13825,"##changes":13826,"reynolds":13827,"hanna":13828,"stup":13829,"fees":13830,"flame":13831,"terrible":13832,"concluding":13833,"endorsed":13834,"gifts":13835,"pard":13836,"pose":13837,"tears":13838,"inade":13839,"##essa":13840,"##rews":13841,"rankings":13842,"morton":13843,"##lemania":13844,"inadequ":13845,"dear":13846,"willie":13847,"steering":13848,"goalkeeper":13849,"excited":13850,"achieving":13851,"haun":13852,"semif":13853,"rectang":13854,"##olics":13855,"highlands":13856,"castro":13857,"infin":13858,"1880s":13859,"secretly":13860,"violin":13861,"theoretical":13862,"unhappy":13863,"sop":13864,"hein":13865,"servants":13866,"departments":13867,"kas":13868,"ket":13869,"annie":13870,"fortified":13871,"wrestlers":13872,"satisfied":13873,"dex":13874,"countryside":13875,"260":13876,"munich":13877,"confronted":13878,"nebraska":13879,"greeks":13880,"##uates":13881,"##isbury":13882,"homage":13883,"abolished":13884,"binding":13885,"fountain":13886,"comprises":13887,"amino":13888,"musically":13889,"primitive":13890,"recreational":13891,"lithuania":13892,"subsidiary":13893,"bav":13894,"dup":13895,"fen":13896,"engr":13897,"perception":13898,"deceased":13899,"pointing":13900,"fails":13901,"landsl":13902,"transformation":13903,"accidents":13904,"solve":13905,"resembles":13906,"whis":13907,"ordin":13908,"activated":13909,"gav":13910,"tul":13911,"seize":13912,"apprent":13913,"formats":13914,"britt":13915,"gravel":13916,"eaten":13917,"##eley":13918,"##ogical":13919,"drawings":13920,"wan":13921,"##mate":13922,"##bank":13923,"##kson":13924,"referendum":13925,"accordance":13926,"pawn":13927,"##brook":13928,"derek":13929,"jag":13930,"##elic":13931,"phases":13932,"ivy":13933,"lithuanian":13934,"diocese":13935,"yosh":13936,"boyd":13937,"1859":13938,"kidney":13939,"pleasant":13940,"orbital":13941,"gut":13942,"ug":13943,"##vae":13944,"blaz":13945,"annoy":13946,"dorsal":13947,"##oured":13948,"dispos":13949,"safely":13950,"negotiate":13951,"wu":13952,"##adic":13953,"coch":13954,"stopping":13955,"digest":13956,"catholics":13957,"substantially":13958,"##related":13959,"##cliffe":13960,"##aic":13961,"enacted":13962,"twins":13963,"europ":13964,"ballot":13965,"precurs":13966,"chronicles":13967,"##omes":13968,"franz":13969,"##umi":13970,"albeit":13971,"medley":13972,"cran":13973,"clem":13974,"rhys":13975,"businessman":13976,"chec":13977,"##umble":13978,"##odon":13979,"relax":13980,"##group":13981,"factions":13982,"shrine":13983,"inherit":13984,"nee":13985,"lois":13986,"totaled":13987,"robertson":13988,"memoirs":13989,"calendar":13990,"##itating":13991,"##ovich":13992,"bust":13993,"alpine":13994,"sandstone":13995,"millimetres":13996,"ober":13997,"##kar":13998,"subc":13999,"median":14000,"geographical":14001,"salisbury":14002,"availability":14003,"cherry":14004,"decommissioned":14005,"geological":14006,"boarding":14007,"scorer":14008,"resolve":14009,"##aul":14010,"canber":14011,"concord":14012,"conception":14013,"bloom":14014,"sebastian":14015,"##lies":14016,"##iop":14017,"##idian":14018,"##iolet":14019,"stew":14020,"careers":14021,"joyce":14022,"##iast":14023,"##cht":14024,"##uchi":14025,"effectiveness":14026,"motivated":14027,"imagination":14028,"welcom":14029,"##py":14030,"##esters":14031,"##amation":14032,"fraser":14033,"spont":14034,"joel":14035,"##neum":14036,"galv":14037,"papal":14038,"thinks":14039,"##rs":14040,"##ipel":14041,"blaine":14042,"receiver":14043,"controller":14044,"archives":14045,"yes":14046,"##jud":14047,"propulsion":14048,"ancestry":14049,"sparrow":14050,"jin":14051,"commodore":14052,"editors":14053,"##enez":14054,"inflicted":14055,"captive":14056,"conductor":14057,"reinforce":14058,"linda":14059,"pec":14060,"##ecca":14061,"##abling":14062,"trucks":14063,"139":14064,"swall":14065,"lawyers":14066,"clearing":14067,"pollution":14068,"philosopher":14069,"philippine":14070,"riv":14071,"vand":14072,"descriptions":14073,"morale":14074,"comparisons":14075,"intercepted":14076,"sunderland":14077,"##rams":14078,"expend":14079,"143":14080,"farther":14081,"ruther":14082,"##agonists":14083,"1845":14084,"conquer":14085,"hiv":14086,"yang":14087,"##inely":14088,"caliph":14089,"torres":14090,"angela":14091,"reproduction":14092,"trigg":14093,"abolition":14094,"asylum":14095,"##pling":14096,"hamburg":14097,"admired":14098,"accelerated":14099,"oath":14100,"1200":14101,"commands":14102,"introduces":14103,"exhibits":14104,"mortal":14105,"tendency":14106,"jenna":14107,"ved":14108,"brighton":14109,"isolation":14110,"steal":14111,"operators":14112,"organisations":14113,"archer":14114,"freestyle":14115,"nec":14116,"suz":14117,"acute":14118,"foundations":14119,"visuals":14120,"polls":14121,"pipe":14122,"riaa":14123,"cp":14124,"strick":14125,"rept":14126,"admission":14127,"##icia":14128,"realised":14129,"ultr":14130,"dominican":14131,"duchess":14132,"manuscripts":14133,"sne":14134,"##iqu":14135,"colomb":14136,"##ipper":14137,"timberlake":14138,"diction":14139,"norton":14140,"watches":14141,"karen":14142,"whitney":14143,"gills":14144,"veto":14145,"woll":14146,"##var":14147,"larvae":14148,"insight":14149,"bowler":14150,"slee":14151,"arabian":14152,"cowboy":14153,"undergraduate":14154,"##drop":14155,"##ovo":14156,"reliable":14157,"buenos":14158,"matched":14159,"incorporating":14160,"elliott":14161,"##nip":14162,"##cence":14163,"##erting":14164,"##riet":14165,"dominance":14166,"conservatives":14167,"portsmouth":14168,"avoiding":14169,"remarks":14170,"anders":14171,"##anga":14172,"magnific":14173,"drops":14174,"coul":14175,"##hurst":14176,"##atan":14177,"averaging":14178,"shawn":14179,"butterfly":14180,"lg":14181,"presenting":14182,"accounting":14183,"scotia":14184,"clinical":14185,"petersburg":14186,"borrowed":14187,"tut":14188,"##gro":14189,"commended":14190,"dayton":14191,"denomin":14192,"cruz":14193,"mcmah":14194,"zinc":14195,"trin":14196,"retiring":14197,"monica":14198,"legally":14199,"salam":14200,"uncom":14201,"leis":14202,"wend":14203,"....":14204,"lyrically":14205,"favoured":14206,"eccentric":14207,"hugo":14208,"saves":14209,"stam":14210,"austen":14211,"downed":14212,"curric":14213,"pike":14214,"accepting":14215,"espn":14216,"depends":14217,"durham":14218,"rubber":14219,"forbes":14220,"caesar":14221,"puzzles":14222,"ves":14223,"superher":14224,"fuller":14225,"##agonal":14226,"determination":14227,"##kers":14228,"inev":14229,"##ctive":14230,"##mented":14231,"nationwide":14232,"partisan":14233,"fow":14234,"attributes":14235,"sicily":14236,"auxiliary":14237,"cogn":14238,"dull":14239,"activist":14240,"astronomical":14241,"monitoring":14242,"##lance":14243,"##apa":14244,"plent":14245,"whenever":14246,"singh":14247,"slopes":14248,"colleague":14249,"croc":14250,"commissioners":14251,"peaceful":14252,"poisoning":14253,"sovereignty":14254,"ferrari":14255,"##iya":14256,"##itory":14257,"stake":14258,"##abet":14259,"governors":14260,"ambig":14261,"worthy":14262,"sms":14263,"gardner":14264,"webber":14265,"scandin":14266,"rovers":14267,"claud":14268,"abstr":14269,"geographic":14270,"147":14271,"humph":14272,"salmon":14273,"responses":14274,"implementation":14275,"omaha":14276,"dodgers":14277,"celest":14278,"tyrann":14279,"kom":14280,"tired":14281,"##alous":14282,"toss":14283,"##ppe":14284,"amber":14285,"##auer":14286,"priests":14287,"scripts":14288,"galile":14289,"remixes":14290,"bred":14291,"fins":14292,"testament":14293,"##ract":14294,"stab":14295,"incomp":14296,"specified":14297,"persisted":14298,"happens":14299,"shelters":14300,"cigar":14301,"pneum":14302,"##oton":14303,"##estock":14304,"twist":14305,"millimeter":14306,"governed":14307,"furious":14308,"dissent":14309,"krish":14310,"##iatus":14311,"thunderstorms":14312,"configuration":14313,"##armed":14314,"##idel":14315,"disk":14316,"charting":14317,"explicitly":14318,"bahamas":14319,"bened":14320,"kor":14321,"ng":14322,"wong":14323,"##okes":14324,"valued":14325,"responsibilities":14326,"gott":14327,"##vas":14328,"stip":14329,"leaked":14330,"guys":14331,"strain":14332,"mothers":14333,"harder":14334,"pepper":14335,"thermal":14336,"installment":14337,"joshua":14338,"canberra":14339,"bm":14340,"hig":14341,"sg":14342,"##irmed":14343,"exagger":14344,"overtime":14345,"hallow":14346,"striker":14347,"immune":14348,"quantum":14349,"enthusias":14350,"wo":14351,"##aca":14352,"lend":14353,"impair":14354,"visitor":14355,"spirits":14356,"immort":14357,"wrestlemania":14358,"##iji":14359,"taun":14360,"felix":14361,"siblings":14362,"##isch":14363,"intentions":14364,"talked":14365,"bacon":14366,"contemporaries":14367,"mumbai":14368,"dash":14369,"##imon":14370,"##ishi":14371,"indie":14372,"performs":14373,"expelled":14374,"devils":14375,"activists":14376,"committees":14377,"1854":14378,"tournaments":14379,"reunited":14380,"neighborhoods":14381,
[...]
