{"version":"1.0","truncation":null,"padding":null,"added_tokens":[{"id":0,"special":true,"content":"[UNK]","single_word":false,"lstrip":false,"rstrip":false,"normalized":false},{"id":1,"special":true,"content":"[CLS]","single_word":false,"lstrip":false,"rstrip":false,"normalized":false},{"id":2,"special":true,"content":"[SEP]","single_word":false,"lstrip":false,"rstrip":false,"normalized":false},{"id":3,"special":true,"content":"[PAD]","single_word":false,"lstrip":false,"rstrip":false,"normalized":false},{"id":4,"special":true,"content":"[MASK]","single_word":false,"lstrip":false,"rstrip":false,"normalized":false}],"normalizer":null,"pre_tokenizer":{"type":"Whitespace"},"post_processor":null,"decoder":null,"model":{"type":"BPE","dropout":null,"unk_token":"[UNK]","continuing_subword_prefix":null,"end_of_word_suffix":null,"fuse_unk":false,"vocab":{"[UNK]":0,"[CLS]":1,"[SEP]":2,"[PAD]":3,"[MASK]":4,"!":5,"\"":6,"#":7,"$":8,"%":9,"&":10,"'":11,"(":12,")":13,"*":14,"+":15,",":16,"-":17,".":18,"/":19,"0":20,"1":21,"2":22,"3":23,"4":24,"5":25,"6":26,"7":27,"8":28,"9":29,":":30,";":31,"<":32,"=":33,">":34,"?":35,"@":36,"A":37,"B":38,"C":39,"D":40,"E":41,"F":42,"G":43,"H":44,"I":45,"J":46,"K":47,"L":48,"M":49,"N":50,"O":51,"P":52,"Q":53,"R":54,"S":55,"T":56,"U":57,"V":58,"W":59,"X":60,"Y":61,"Z":62,"[":63,"\\":64,"]":65,"^":66,"_":67,"`":68,"a":69,"b":70,"c":71,"d":72,"e":73,"f":74,"g":75,"h":76,"i":77,"j":78,"k":79,"l":80,"m":81,"n":82,"o":83,"p":84,"q":85,"r":86,"s":87,"t":88,"u":89,"v":90,"w":91,"x":92,"y":93,"z":94,"{":95,"|":96,"}":97,"~":98,"":99,"":100,"":101,"":102,"¡":103,"¢":104,"£":105,"¥":106,"§":107,"©":108,"«":109,"­":110,"®":111,"¯":112,"°":113,"±":114,"²":115,"³":116,"´":117,"µ":118,"¶":119,"·":120,"¹":121,"º":122,"»":123,"¼":124,"½":125,"¾":126,"¿":127,"À":128,"Á":129,"Â":130,"Ä":131,"Å":132,"Æ":133,"Ç":134,"È":135,"É":136,"Ì":137,"Í":138,"Î":139,"Ñ":140,"Ó":141,"Ô":142,"Ö":143,"×":144,"Ø":145,"Ú":146,"Ü":147,"Ý":148,"Þ":149,"ß":150,"à":151,"á":152,"â":153,"ã":154,"ä":155,"å":156,"æ":157,"ç":158,"è":159,"é":160,"ê":161,"ë":162,"ì":163,"í":164,"î":165,"ï":166,"ð":167,"ñ":168,"ò":169,"ó":170,"ô":171,"õ":172,"ö":173,"÷":174,"ø":175,"ù":176,"ú":177,"û":178,"ü":179,"ý":180,"þ":181,"ÿ":182,"Ā":183,"ā":184,"ă":185,"ą":186,"Ć":187,"ć":188,"Č":189,"č":190,"Ď":191,"Đ":192,"đ":193,"ē":194,"ė":195,"ę":196,"ě":197,"ğ":198,"ġ":199,"Ħ":200,"ħ":201,"ĩ":202,"Ī":203,"ī":204,"İ":205,"ı":206,"ķ":207,"Ľ":208,"ľ":209,"Ł":210,"ł":211,"ń":212,"ņ":213,"ň":214,"ŋ":215,"Ō":216,"ō":217,"ŏ":218,"ő":219,"Œ":220,"œ":221,"Ř":222,"ř":223,"Ś":224,"ś":225,"Ş":226,"ş":227,"Š":228,"š":229,"Ţ":230,"ţ":231,"ť":232,"ũ":233,"ū":234,"ŭ":235,"ů":236,"ų":237,"ŵ":238,"ŷ":239,"Ź":240,"ź":241,"Ż":242,"ż":243,"Ž":244,"ž":245,"Ə":246,"ƒ":247,"ơ":248,"ư":249,"ǂ":250,"ǎ":251,"ǐ":252,"ǒ":253,"ǔ":254,"ǫ":255,"Ș":256,"ș":257,"Ț":258,"ț":259,"ɐ":260,"ɑ":261,"ɒ":262,"ɓ":263,"ɔ":264,"ɕ":265,"ɖ":266,"ɗ":267,"ə":268,"ɛ":269,"ɟ":270,"ɡ":271,"ɢ":272,"ɣ":273,"ɦ":274,"ɧ":275,"ɨ":276,"ɪ":277,"ɬ":278,"ɯ":279,"ɲ":280,"ɴ":281,"ɵ":282,"ɸ":283,"ɻ":284,"ɾ":285,"ʀ":286,"ʁ":287,"ʂ":288,"ʃ":289,"ʇ":290,"ʈ":291,"ʊ":292,"ʋ":293,"ʌ":294,"ʍ":295,"ʎ":296,"ʒ":297,"ʔ":298,"ʕ":299,"ʘ":300,"ʝ":301,"ʟ":302,"ʰ":303,"ʲ":304,"ʷ":305,"ʻ":306,"ʼ":307,"ʾ":308,"ʿ":309,"ˀ":310,"ˁ":311,"ˈ":312,"ˌ":313,"ː":314,"˔":315,"˘":316,"˚":317,"˞":318,"ˠ":319,"ˤ":320,"˥":321,"˦":322,"˧":323,"˨":324,"˩":325,"̀":326,"́":327,"̂":328,"̃":329,"̄":330,"̆":331,"̈":332,"̊":333,"̌":334,"̍":335,"̐":336,"̚":337,"̝":338,"̞":339,"̟":340,"̠":341,"̣":342,"̤":343,"̥":344,"̧":345,"̩":346,"̪":347,"̯":348,"̰":349,"̱":350,"̲":351,"̺":352,"̽":353,"͍":354,"͘":355,"͜":356,"͡":357,"Α":358,"Β":359,"Γ":360,"Δ":361,"Ε":362,"Η":363,"Θ":364,"Ι":365,"Κ":366,"Λ":367,"Μ":368,"Ν":369,"Ξ":370,"Ο":371,"Π":372,"Σ":373,"Τ":374,"Φ":375,"Χ":376,"Ψ":377,"Ω":378,"ά":379,"έ":380,"ή":381,"ί":382,"α":383,"β":384,"γ":385,"δ":386,"ε":387,"ζ":388,"η":389,"θ":390,"ι":391,"κ":392,"λ":393,"μ":394,"ν":395,"ξ":396,"ο":397,"π":398,"ρ":399,"ς":400,"σ":401,"τ":402,"υ":403,"φ":404,"χ":405,"ψ":406,"ω":407,"ό":408,"ύ":409,"ώ":410,"ϕ":411,"Ј":412,"А":413,"Б":414,"В":415,"Г":416,"Д":417,"Е":418,"З":419,"И":420,"Й":421,"К":422,"М":423,"Н":424,"О":425,"П":426,"Р":427,"С":428,"Т":429,"Ч":430,"Ш":431,"Я":432,"а":433,"б":434,"в":435,"г":436,"д":437,"е":438,"ж":439,"з":440,"и":441,"й":442,"к":443,"л":444,"м":445,"н":446,"о":447,"п":448,"р":449,"с":450,"т":451,"у":452,"х":453,"ц":454,"ч":455,"ш":456,"ъ":457,"ы":458,"ь":459,"э":460,"ю":461,"я":462,"ё":463,"і":464,"ј":465,"љ":466,"ў":467,"Կ":468,"Հ":469,"Մ":470,"Ս":471,"ա":472,"բ":473,"ե":474,"թ":475,"ի":476,"կ":477,"հ":478,"ղ":479,"յ":480,"ն":481,"շ":482,"ո":483,"պ":484,"ս":485,"վ":486,"տ":487,"ր":488,"ց":489,"ւ":490,"ք":491,"֤":492,"֫":493,"ֵ":494,"ֶ":495,"ּ":496,"א":497,"ב":498,"ג":499,"ד":500,"ו":501,"ח":502,"י":503,"כ":504,"ל":505,"ם":506,"מ":507,"ן":508,"נ":509,"ס":510,"ע":511,"צ":512,"ר":513,"ש":514,"ת":515,"،":516,"ء":517,"أ":518,"إ":519,"ا":520,"ب":521,"ة":522,"ت":523,"ث":524,"ج":525,"ح":526,"خ":527,"د":528,"ر":529,"ز":530,"س":531,"ش":532,"ص":533,"ط":534,"ع":535,"غ":536,"ف":537,"ق":538,"ك":539,"ل":540,"م":541,"ن":542,"ه":543,"و":544,"ي":545,"ی":546,"ं":547,"अ":548,"आ":549,"उ":550,"क":551,"ग":552,"ट":553,"ड":554,"त":555,"द":556,"न":557,"प":558,"ब":559,"भ":560,"म":561,"य":562,"र":563,"ल":564,"श":565,"ष":566,"स":567,"ह":568,"़":569,"ा":570,"ि":571,"ी":572,"ु":573,"े":574,"ो":575,"्":576,"।":577,"॥":578,"ক":579,"ত":580,"ন":581,"ব":582,"ম":583,"ল":584,"়":585,"া":586,"ি":587,"্":588,"க":589,"ன":590,"ள":591,"்":592,"్":593,"್":594,"്":595,"්":596,"ก":597,"ข":598,"ง":599,"จ":600,"ช":601,"ฐ":602,"ณ":603,"ต":604,"ท":605,"น":606,"ป":607,"พ":608,"ม":609,"ย":610,"ร":611,"ล":612,"ว":613,"ะ":614,"ั":615,"า":616,"ิ":617,"ี":618,"ู":619,"฿":620,"เ":621,"แ":622,"็":623,"่":624,"้":625,"์":626,"་":627,"།":628,"င":629,"ဆ":630,"န":631,"ရ":632,"္":633,"်":634,"გ":635,"დ":636,"ვ":637,"ზ":638,"ი":639,"კ":640,"ო":641,"რ":642,"ს":643,"უ":644,"ც":645,"ძ":646,"წ":647,"ხ":648,"ჯ":649,"჻":650,"፡":651,"ᛃ":652,"ᛋ":653,"ᛟ":654,"ត":655,"ន":656,"ព":657,"ម":658,"រ":659,"ស":660,"ហ":661,"ី":662,"ុ":663,"ោ":664,"ះ":665,"់":666,"្":667,"᷉":668,"ḍ":669,"ḑ":670,"Ḥ":671,"ḥ":672,"ḩ":673,"ḷ":674,"ḻ":675,"ṃ":676,"ṅ":677,"ṇ":678,"ṉ":679,"ṛ":680,"ṟ":681,"Ṣ":682,"ṣ":683,"ṭ":684,"ṯ":685,"ạ":686,"ả":687,"ấ":688,"ầ":689,"ẩ":690,"ẫ":691,"ậ":692,"ắ":693,"ằ":694,"ẵ":695,"ặ":696,"ẹ":697,"ế":698,"ề":699,"ể":700,"ễ":701,"ệ":702,"ị":703,"Ọ":704,"ọ":705,"ỏ":706,"ố":707,"ồ":708,"ổ":709,"ỗ":710,"ộ":711,"ớ":712,"ờ":713,"ở":714,"ợ":715,"ụ":716,"ủ":717,"ứ":718,"ừ":719,"ử":720,"ữ":721,"ự":722,"ỳ":723,"ỵ":724,"ỹ":725,"ἀ":726,"ἄ":727,"Ἀ":728,"ἐ":729,"Ἕ":730,"ἡ":731,"Ἠ":732,"ἰ":733,"ἱ":734,"ἵ":735,"ἶ":736,"Ἰ":737,"ὁ":738,"Ὄ":739,"ὐ":740,"ὑ":741,"ὡ":742,"ὰ":743,"ὲ":744,"ὴ":745,"ὶ":746,"ὸ":747,"ὺ":748,"ὼ":749,"ᾶ":750,"ῆ":751,"ῖ":752,"ῦ":753,"Ῥ":754,"ῶ":755,"ῷ":756,"​":757,"‌":758,"‍":759,"‐":760,"‑":761,"‒":762,"–":763,"—":764,"―":765,"‘":766,"’":767,"‚":768,"“":769,"”":770,"„":771,"†":772,"‡":773,"•":774,"…":775,"‰":776,"′":777,"″":778,"※":779,"‼":780,"‿":781,"⁄":782,"⁊":783,"⁡":784,"⁺":785,"₁":786,"₂":787,"₃":788,"₡":789,"₣":790,"₤":791,"₦":792,"₨":793,"₩":794,"₫":795,"€":796,"₱":797,"₹":798,"℃":799,"ℓ":800,"№":801,"™":802,"⅓":803,"⅔":804,"⅛":805,"⅜":806,"⅝":807,"⅞":808,"←":809,"↑":810,"→":811,"↓":812,"↔":813,"↗":814,"↦":815,"↪":816,"⇄":817,"⇌":818,"∀":819,"∂":820,"∆":821,"∈":822,"∑":823,"−":824,"∕":825,"∖":826,"∗":827,"∘":828,"√":829,"∝":830,"∞":831,"∩":832,"∪":833,"∴":834,"∼":835,"≈":836,"≠":837,"≡":838,"≢":839,"≤":840,"≥":841,"≪":842,"⊂":843,"⊕":844,"⊗":845,"⊙":846,"⊥":847,"⋅":848,"⋯":849,"⌊":850,"⌋":851,"①":852,"②":853,"④":854,"█":855,"▲":856,"★":857,"☆":858,"☉":859,"♀":860,"♠":861,"♣":862,"♥":863,"♦":864,"♩":865,"♪":866,"♭":867,"♮":868,"♯":869,"⟦":870,"⟧":871,"⟨":872,"⟩":873,"⩽":874,"ⴷ":875,"、":876,"。":877,"〈":878,"〉":879,"「":880,"」":881,"『":882,"』":883,"〜":884,"あ":885,"い":886,"ぅ":887,"う":888,"お":889,"か":890,"が":891,"き":892,"く":893,"ぐ":894,"こ":895,"さ":896,"し":897,"じ":898,"す":899,"ず":900,"せ":901,"た":902,"ち":903,"つ":904,"て":905,"と":906,"ど":907,"な":908,"の":909,"は":910,"ば":911,"ふ":912,"へ":913,"ぽ":914,"ま":915,"み":916,"め":917,"よ":918,"ら":919,"り":920,"る":921,"ん":922,"ァ":923,"ア":924,"ィ":925,"イ":926,"ウ":927,"ェ":928,"エ":929,"ォ":930,"オ":931,"カ":932,"ガ":933,"キ":934,"ギ":935,"ク":936,"グ":937,"ケ":938,"コ":939,"ゴ":940,"サ":941,"ザ":942,"シ":943,"ジ":944,"ス":945,"ズ":946,"セ":947,"ゼ":948,"ソ":949,"タ":950,"ダ":951,"チ":952,"ッ":953,"ツ":954,"テ":955,"デ":956,"ト":957,"ド":958,"ナ":959,"ニ":960,"ノ":961,"ハ":962,"バ":963,"パ":964,"ヒ":965,"ビ":966,"フ":967,"ブ":968,"プ":969,"ベ":970,"ペ":971,"ボ":972,"ポ":973,"マ":974,"ミ":975,"ム":976,"メ":977,"モ":978,"ャ":979,"ヤ":980,"ュ":981,"ユ":982,"ョ":983,"ラ":984,"リ":985,"ル":986,"レ":987,"ロ":988,"ワ":989,"ン":990,"ヴ":991,"・":992,"ー":993,"一":994,"三":995,"上":996,"下":997,"不":998,"丑":999,"世":1000,"个":1001,"久":1002,"之":1003,"乙":1004,"二":1005,"五":1006,"亦":1007,"京":1008,"人":1009,"介":1010,"仙":1011,"令":1012,"伝":1013,"住":1014,"佛":1015,"作":1016,"併":1017,"侠":1018,"個":1019,"催":1020,"像":1021,"光":1022,"内":1023,"写":1024,"冴":1025,"净":1026,"凪":1027,"分":1028,"列":1029,"刘":1030,"初":1031,"判":1032,"別":1033,"前":1034,"剛":1035,"剣":1036,"劇":1037,"動":1038,"勝":1039,"北":1040,"匹":1041,"千":1042,"卒":1043,"南":1044,"博":1045,"厘":1046,"双":1047,"台":1048,"号":1049,"同":1050,"名":1051,"君":1052,"呼":1053,"哈":1054,"四":1055,"回":1056,"国":1057,"國":1058,"土":1059,"坂":1060,"場":1061,"境":1062,"士":1063,"外":1064,"大":1065,"天":1066,"太":1067,"女":1068,"姉":1069,"婷":1070,"子":1071,"字":1072,"季":1073,"孩":1074,"守":1075,"宋":1076,"宗":1077,"寔":1078,"寺":1079,"小":1080,"少":1081,"尾":1082,"巨":1083,"廷":1084,"式":1085,"弘":1086,"张":1087,"張":1088,"彼":1089,"後":1090,"心":1091,"思":1092,"愛":1093,"憲":1094,"戦":1095,"房":1096,"所":1097,"撃":1098,"攻":1099,"新":1100,"方":1101,"日":1102,"旦":1103,"早":1104,"星":1105,"春":1106,"時":1107,"書":1108,"月":1109,"朝":1110,"木":1111,"本":1112,"李":1113,"杜":1114,"束":1115,"条":1116,"東":1117,"松":1118,"枚":1119,"條":1120,"植":1121,"椎":1122,"楽":1123,"様":1124,"機":1125,"正":1126,"武":1127,"歩":1128,"死":1129,"殻":1130,"氏":1131,"民":1132,"気":1133,"氣":1134,"水":1135,"氷":1136,"氾":1137,"法":1138,"活":1139,"流":1140,"浅":1141,"海":1142,"溜":1143,"瀬":1144,"火":1145,"無":1146,"版":1147,"特":1148,"王":1149,"瓦":1150,"生":1151,"用":1152,"田":1153,"町":1154,"界":1155,"畫":1156,"皮":1157,"真":1158,"礮":1159,"神":1160,"秋":1161,"積":1162,"空":1163,"章":1164,"箇":1165,"節":1166,"米":1167,"約":1168,"紋":1169,"綾":1170,"緑":1171,"編":1172,"群":1173,"羽":1174,"耕":1175,"聖":1176,"肖":1177,"膺":1178,"芝":1179,"花":1180,"草":1181,"莊":1182,"蛍":1183,"街":1184,"裁":1185,"装":1186,"西":1187,"見":1188,"語":1189,"説":1190,"議":1191,"词":1192,"谷":1193,"路":1194,"軍":1195,"転":1196,"輝":1197,"逆":1198,"進":1199,"道":1200,"遠":1201,"邪":1202,"部":1203,"野":1204,"量":1205,"金":1206,"銀":1207,"銖":1208,"錬":1209,"隊":1210,"隴":1211,"隻":1212,"雄":1213,"集":1214,"雪":1215,"零":1216,"靈":1217,"青":1218,"韓":1219,"風":1220,"鬼":1221,"魂":1222,"魄":1223,"魔":1224,"鼓":1225,"거":1226,"루":1227,"마":1228,"막":1229,"말":1230,"사":1231,"인":1232,"전":1233,"지":1234,"짓":1235,"투":1236,"하":1237,"ﬁ":1238,"﻿":1239,"！":1240,"＆":1241,"（":1242,"）":1243,"，":1244,"－":1245,"：":1246,"＝":1247,"？":1248,"～":1249,"｢":1250,"･":1251,"￥":1252,"th":1253,"in":1254,"er":1255,"an":1256,"the":1257,"on":1258,"ed":1259,"re":1260,"at":1261,"en":1262,"or":1263,"al":1264,"st":1265,"ar":1266,"and":1267,"as":1268,"of":1269,"ing":1270,"es":1271,"to":1272,"is":1273,"it":1274,"ou":1275,"ic":1276,"ion":1277,"le":1278,"he":1279,"ro":1280,"il":1281,"ac":1282,"ent":1283,"ad":1284,"se":1285,"un":1286,"am":1287,"om":1288,"be":1289,"ly":1290,"was":1291,"for":1292,"ch":1293,"ve":1294,"de":1295,"ur":1296,"ol":1297,"ir":1298,"The":1299,"im":1300,"-@":1301,"@-@":1302,"ig":1303,"ver":1304,"ter":1305,"wh":1306,"ow":1307,"ith":1308,"ce":1309,"ay":1310,"con":1311,"id":1312,"ation":1313,"ct":1314,"with":1315,"that":1316,"ag":1317,"te":1318,"by":1319,"us":1320,"ot":1321,"ere":1322,"el":1323,"ri":1324,"ul":1325,"ap":1326,"ut":1327,"19":1328,"et":1329,"res":1330,"ain":1331,"ers":1332,"op":1333,"pl":1334,"com":1335,"his":1336,"rom":1337,"um":1338,"all":1339,"00":1340,"oun":1341,"ab":1342,"unk":1343,"mo":1344,"ist":1345,"su":1346,"ne":1347,"pro":1348,"sh":1349,"from":1350,"pe":1351,"In":1352,"cl":1353,"ate":1354,"are":1355,"art":1356,"li":1357,"tr":1358,"ther":1359,"igh":1360,"os":1361,"di":1362,"em":1363,"ex":1364,"ber":1365,"est":1366,"ich":1367,"were":1368,"ld":1369,"ard":1370,"ill":1371,"oc":1372,"ak":1373,"ast":1374,"ies":1375,"ant":1376,"ong":1377,"per":1378,"qu":1379,"gh":1380,"ment":1381,"ated":1382,"ive":1383,"out":1384,"man":1385,"ame":1386,"ity":1387,"fe":1388,"ess":1389,"our":1390,"had":1391,"od":1392,"end":1393,"ish":1394,"ack":1395,"ort":1396,"one":1397,"als":1398,"ear":1399,"av":1400,"over":1401,"ge":1402,"tw":1403,"af":1404,"which":1405,"ip":1406,"ough":1407,"ound":1408,"but":1409,"not":1410,"ass":1411,"vi":1412,"act":1413,"gr":1414,"ord":1415,"ally":1416,"ave":1417,"str":1418,"ight":1419,"ine":1420,"her":1421,"ary":1422,"rit":1423,"its":1424,"du":1425,"iv":1426,"ud":1427,"pr":1428,"ep":1429,"ian":1430,"if":1431,"St":1432,"Ch":1433,"ore":1434,"20":1435,"fir":1436,"200":1437,"up":1438,"ew":1439,"ould":1440,"ia":1441,"own":1442,"ous":1443,"der":1444,"au":1445,"bo":1446,"bl":1447,"aw":1448,"ction":1449,"wor":1450,"comp":1451,"ev":1452,"ach":1453,"age":1454,"ke":1455,"att":1456,"first":1457,"land":1458,"port":1459,"ign":1460,"ition":1461,"form":1462,"their":1463,"si":1464,"ical":1465,"low":1466,"sc":1467,"lo":1468,"ial":1469,"ser":1470,"tim":1471,"po":1472,"ater":1473,"ll":1474,"also":1475,"He":1476,"who":1477,"br":1478,"int":1479,"part":1480,"ure":1481,"18":1482,"has":1483,"other":1484,"rec":1485,"have":1486,"play":1487,"ome":1488,"ans":1489,"pt":1490,"ust":1491,"cont":1492,"ree":1493,"off":1494,"ok":1495,".@":1496,"@.@":1497,"two":1498,"ile":1499,"ence":1500,"uring":1501,"pres":1502,"been":1503,"me":1504,"ice":1505,"ance":1506,"we":1507,"mer":1508,",@":1509,"@,@":1510,"dis":1511,"201":1512,"pos":1513,"Th":1514,"It":1515,"this":1516,"year":1517,"ory":1518,"after":1519,"ren":1520,"ph":1521,"ult":1522,"cre":1523,"des":1524,"ell":1525,"ace":1526,"ved":1527,"fin":1528,"ark":1529,"ade":1530,"An":1531,"they":1532,"able":1533,"mon":1534,"co":1535,"sp":1536,"incl":1537,"ue":1538,"ite":1539,"ail":1540,"Un":1541,"work":1542,"ever":1543,"ang":1544,"sion":1545,"air":1546,"ff":1547,"time":1548,"inter":1549,"urn":1550,"would":1551,"ations":1552,"ship":1553,"pre":1554,"og":1555,"ced":1556,"into":1557,"cent":1558,"him":1559,"cr":1560,"iz":1561,"ick":1562,"vel":1563,"spe":1564,"she":1565,"mber":1566,"ict":1567,"ates":1568,"no":1569,"ie":1570,"ased":1571,"more":1572,"ited":1573,"ilm":1574,"min":1575,"way":1576,"ty":1577,"old":1578,"ire":1579,"most":1580,"ces":1581,"new":1582,"amp":1583,"son":1584,"fore":1585,"main":1586,"Ar":1587,"bec":1588,"Al":1589,"ry":1590,"any":1591,"ten":1592,"ret":1593,"ase":1594,"used":1595,"ason":1596,"fl":1597,"ann":1598,"includ":1599,"ood":1600,"cond":1601,"cted":1602,"cess":1603,"ings":1604,"ran":1605,"ind":1606,"vis":1607,"ors":1608,"day":1609,"film":1610,"red":1611,"when":1612,"les":1613,"ted":1614,"ered":1615,"rough":1616,"ath":1617,"ild":1618,"comm":1619,"ward":1620,"col":1621,"ton":1622,"ake":1623,"ican":1624,"Au":1625,"Mar":1626,"bu":1627,"ob":1628,"gan":1629,"though":1630,"ts":1631,"ens":1632,"ions":1633,"reg":1634,"een":1635,"sy":1636,"Wh":1637,"during":1638,"ra":1639,"than":1640,"Re":1641,"On":1642,"again":1643,"De":1644,"game":1645,"under":1646,"ose":1647,"so":1648,"ble":1649,"ubl":1650,"nor":1651,"gen":1652,"char":1653,"produ":1654,"199":1655,"only":1656,"ck":1657,"ollow":1658,"them":1659,"about":1660,"row":1661,"ents":1662,"can":1663,"while":1664,"New":1665,"ide":1666,"ational":1667,"some":1668,"song":1669,"En":1670,"later":1671,"rele":1672,"oy":1673,"outh":1674,"led":1675,"tween":1676,"between":1677,"ele":1678,"sing":1679,"three":1680,"10":1681,"ating":1682,"Af":1683,"where":1684,"ron":1685,"through":1686,"num":1687,"coun":1688,"aid":1689,"As":1690,"season":1691,"ics":1692,"ful":1693,"view":1694,"lar":1695,"Amer":1696,"cons":1697,"my":1698,"tain":1699,"ern":1700,"writ":1701,"stru":1702,"sub":1703,"ied":1704,"then":1705,"iver":1706,"rel":1707,"kn":1708,"000":1709,"ular":1710,"dr":1711,"Le":1712,"ters":1713,"high":1714,"second":1715,"Jo":1716,"sel":1717,"made":1718,"med":1719,"set":1720,"Com":1721,"ef":1722,"ames":1723,"bum":1724,"record":1725,"four":1726,"follow":1727,"do":1728,"spec":1729,"go":1730,"loc":1731,"such":1732,"17":1733,"sur":1734,"cap":1735,"ished":1736,"arri":1737,"eng":1738,"No":1739,"before":1740,"atch":1741,"ub":1742,"back":1743,"cur":1744,"there":1745,"team":1746,"well":1747,"15":1748,"mus":1749,"years":1750,"iel":1751,"appe":1752,"ma":1753,"cho":1754,"ven":1755,"add":1756,"inn":1757,"This":1758,"ident":1759,"ks":1760,"sup":1761,"pol":1762,"ific":1763,"album":1764,"Con":1765,"ros":1766,"publ":1767,"reat":1768,"owever":1769,"ily":1770,"call":1771,"..":1772,"Nor":1773,"je":1774,"tem":1775,"fer":1776,"Sh":1777,"gu":1778,"ual":1779,"ative":1780,"many":1781,"being":1782,"point":1783,"unt":1784,"uary":1785,"epis":1786,"ale":1787,"oup":1788,"ond":1789,"ince":1790,"velop":1791,"ode":1792,"against":1793,"number":1794,"At":1795,"ury":1796,"use":1797,"ped":1798,"side":1799,"lead":1800,"ins":1801,"show":1802,"charac":1803,"ft":1804,"After":1805,"sever":1806,"Be":1807,"mem":1808,"war":1809,"16":1810,"ause":1811,"par":1812,"appear":1813,"long":1814,"found":1815,"became":1816,"ious":1817,"rece":1818,"Brit":1819,"12":1820,"ash":1821,"including":1822,"like":1823,"United":1824,"serv":1825,"ese":1826,"both":1827,"io":1828,"hn":1829,"orn":1830,"series":1831,"Se":1832,"198":1833,"feat":1834,"ise":1835,"cy":1836,"ost":1837,"line":1838,"mi":1839,"cri":1840,"igin":1841,"194":1842,"did":1843,"ended":1844,"She":1845,"eral":1846,"rop":1847,"develop":1848,"tri":1849,"mill":1850,"contin":1851,"ments":1852,"dire":1853,"down":1854,"ities":1855,"cer":1856,"ures":1857,"ley":1858,"ock":1859,"Eng":1860,"suc":1861,"head":1862,"pop":1863,"30":1864,"diff":1865,"dec":1866,"road":1867,"John":1868,"run":1869,"pass":1870,"az":1871,"episode":1872,"ird":1873,"War":1874,"uch":1875,"said":1876,"leg":1877,"west":1878,"Wor":1879,"could":1880,"ouse":1881,"ress":1882,"por":1883,"several":1884,"erson":1885,"mis":1886,"American":1887,"known":1888,"peri":1889,"Ro":1890,"vol":1891,"origin":1892,"vid":1893,"lin":1894,"ield":1895,"197":1896,"Sc":1897,"arch":1898,"comple":1899,"rest":1900,"ised":1901,"14":1902,"196":1903,"II":1904,"cord":1905,"For":1906,"ually":1907,"sign":1908,"self":1909,"music":1910,"Gr":1911,"stem":1912,"remain":1913,"return":1914,"hel":1915,"bed":1916,"began":1917,"cept":1918,"oper":1919,"design":1920,"Ger":1921,"try":1922,"ste":1923,"Br":1924,"ting":1925,"ople":1926,"sm":1927,"chool":1928,"state":1929,"early":1930,"13":1931,"aking":1932,"ah":1933,"cover":1934,"near":1935,"released":1936,"ball":1937,"dist":1938,"car":1939,"che":1940,"ived":1941,"US":1942,"Col":1943,"descri":1944,"until":1945,"une":1946,"called":1947,"ject":1948,"success":1949,"open":1950,"plac":1951,"men":1952,"trans":1953,"present":1954,"arr":1955,"Tr":1956,"hist":1957,"fam":1958,"ross":1959,"olog":1960,"May":1961,"king":1962,"offic":1963,"hy":1964,"get":1965,"overn":1966,"band":1967,"ially":1968,"crit":1969,"group":1970,"gg":1971,"gust":1972,"val":1973,"less":1974,"ists":1975,"along":1976,"may":1977,"vent":1978,"ves":1979,"ms":1980,"bers":1981,"nam":1982,"50":1983,"million":1984,"ower":1985,"mil":1986,"Cl":1987,"British":1988,"tow":1989,"jor":1990,"xt":1991,"Sep":1992,"ving":1993,"sim":1994,"these":1995,"bre":1996,"cast":1997,"met":1998,"come":1999,"enn":2000,"fect":2001,"ather":2002,"ric":2003,"attack":2004,"ized":2005,"oci":2006,"cut":2007,"stral":2008,"tember":2009,"cle":2010,"national":2011,"Wil":2012,"September":2013,"Sp":2014,"now":2015,"August":2016,"World":2017,"ured":2018,"stor":2019,"requ":2020,"States":2021,"batt":2022,"took":2023,"continu":2024,"let":2025,"large":2026,"same":2027,"Ju":2028,"people":2029,"dep":2030,"character":2031,"oot":2032,"because":2033,"und":2034,"vide":2035,"light":2036,"Car":2037,"ib":2038,"position":2039,"var":2040,"grap":2041,"read":2042,"around":2043,"11":2044,"result":2045,"ism":2046,"ired":2047,"Oc":2048,"start":2049,"km":2050,"Is":2051,"class":2052,"aving":2053,"ctor":2054,"wee":2055,"Austral":2056,"ivers":2057,"Jan":2058,"Bl":2059,"sk":2060,"Ad":2061,"cour":2062,"aim":2063,"pon":2064,"support":2065,"formed":2066,"vision":2067,"oth":2068,"mark":2069,"la":2070,"build":2071,"ca":2072,"north":2073,"inc":2074,"following":2075,"life":2076,"six":2077,"allow":2078,"ants":2079,"tal":2080,"system":2081,"However":2082,"ork":2083,"ison":2084,"track":2085,"Octo":2086,"prom":2087,"Pl":2088,"consid":2089,"aft":2090,"each":2091,"received":2092,"urch":2093,"October":2094,"rist":2095,"ime":2096,"ained":2097,"will":2098,"ium":2099,"Pr":2100,"West":2101,"place":2102,"ility":2103,"govern":2104,"very":2105,"ax":2106,"ys":2107,"sol":2108,"thern":2109,"five":2110,"liam":2111,"area":2112,"ling":2113,"just":2114,"ru":2115,"ars":2116,"stand":2117,"century":2118,"wards":2119,"right":2120,"appro":2121,"They":2122,"def":2123,"match":2124,"city":2125,"North":2126,"partic":2127,"ately":2128,"report":2129,"By":2130,"York":2131,"ple":2132,"rote":2133,"public":2134,"June":2135,"world":2136,"contro":2137,"book":2138,"giv":2139,"tle":2140,"top":2141,"small":2142,"major":2143,"ked":2144,"cording":2145,"King":2146,"jo":2147,"ground":2148,"July":2149,"ina":2150,"field":2151,"Nove":2152,"last":2153,"November":2154,"Man":2155,"played":2156,"Can":2157,"organ":2158,"what":2159,"ger":2160,"turn":2161,"atter":2162,"ored":2163,"25":2164,"east":2165,"person":2166,"since":2167,"tit":2168,"town":2169,"single":2170,"gun":2171,"ional":2172,"lish":2173,"Apr":2174,"sequ":2175,"March":2176,"reach":2177,"April":2178,"Fe":2179,"app":2180,"aged":2181,"arm":2182,"Ac":2183,"even":2184,"care":2185,"ude":2186,"ural":2187,"name":2188,"won":2189,"pri":2190,"ster":2191,"Eu":2192,"power":2193,"Mc":2194,"Ge":2195,"hal":2196,"Co":2197,"0s":2198,"differ":2199,"dom":2200,"vious":2201,"Coun":2202,"ient":2203,"lit":2204,"idge":2205,"bro":2206,"ague":2207,"Indi":2208,"ined":2209,"final":2210,"test":2211,"left":2212,"South":2213,"ref":2214,"due":2215,"south":2216,"event":2217,"During":2218,"version":2219,"udi":2220,"gre":2221,"school":2222,"ages":2223,"list":2224,"Dece":2225,"ank":2226,"avy":2227,"ica":2228,"German":2229,"December":2230,"third":2231,"ilt":2232,"incre":2233,"aff":2234,"water":2235,"Ste":2236,"Me":2237,"Ph":2238,"ision":2239,"month":2240,"Ed":2241,"moved":2242,"ier":2243,"much":2244,"another":2245,"January":2246,"expl":2247,"child":2248,"included":2249,"named":2250,"ets":2251,"based":2252,"195":2253,"We":2254,"issu":2255,"claim":2256,"government":2257,"ships":2258,"wrote":2259,"camp":2260,"kill":2261,"193":2262,"ians":2263,"All":2264,"apan":2265,"ales":2266,"When":2267,"ons":2268,"home":2269,"ls":2270,"chan":2271,"short":2272,"death":2273,"Pe":2274,"story":2275,"Or":2276,"Japan":2277,"bert":2278,"ane":2279,"order":2280,"ute":2281,"24":2282,"ought":2283,"ature":2284,"ently":2285,"Gu":2286,"roy":2287,"ner":2288,"ext":2289,"ically":2290,"ody":2291,"tempt":2292,"press":2293,"make":2294,"using":2295,"family":2296,"review":2297,"Pro":2298,"ital":2299,"species":2300,"oss":2301,"pect":2302,"ik":2303,"ution":2304,"flu":2305,"hand":2306,"house":2307,"described":2308,"ement":2309,"rench":2310,"previous":2311,"fact":2312,"...":2313,"dam":2314,"ney":2315,"dest":2316,"ards":2317,"rown":2318,"forman":2319,"late":2320,"Euro":2321,"beli":2322,"cas":2323,"urther":2324,"thing":2325,"built":2326,"real":2327,"gener":2328,"former":2329,"ilar":2330,"ified":2331,"oute":2332,"Bo":2333,"ene":2334,"best":2335,"attempt":2336,"placed":2337,"ler":2338,"tak":2339,"mp":2340,"games":2341,"tract":2342,"held":2343,"polit":2344,"command":2345,"ness":2346,"colle":2347,"still":2348,"stud":2349,"put":2350,"ety":2351,"those":2352,"stit":2353,"original":2354,"ared":2355,"His":2356,"constru":2357,"addition":2358,"Mon":2359,"gram":2360,"bruary":2361,"February":2362,"lim":2363,"ford":2364,"augh":2365,"next":2366,"vo":2367,"effect":2368,"anc":2369,"Christ":2370,"There":2371,"gy":2372,"fall":2373,"performan":2374,"mid":2375,"fel":2376,"members":2377,"fri":2378,"den":2379,"Par":2380,"sent":2381,"rican":2382,"21":2383,"ctions":2384,"ences":2385,"National":2386,"ator":2387,"mar":2388,"Gen":2389,"100":2390,"Europe":2391,"iversity":2392,"adv":2393,"days":2394,"ats":2395,"see":2396,"period":2397,"within":2398,"mit":2399,"Li":2400,"French":2401,"ham":2402,"22":2403,"role":2404,"although":2405,"release":2406,"move":2407,"init":2408,"wind":2409,"video":2410,"thor":2411,"ines":2412,"ush":2413,"half":2414,"say":2415,"2010":2416,"hip":2417,"bur":2418,"estab":2419,"came":2420,"ze":2421,"cor":2422,"ropical":2423,"continued":2424,"William":2425,"round":2426,"Ser":2427,"23":2428,"wom":2429,"ps":2430,"Her":2431,"law":2432,"win":2433,"aining":2434,"craft":2435,"And":2436,"na":2437,"uc":2438,"ains":2439,"ning":2440,"ribut":2441,"ulation":2442,"sou":2443,"posed":2444,"hum":2445,"uss":2446,"ones":2447,"however":2448,"itary":2449,"ris":2450,"ending":2451,"27":2452,"ched":2453,"2008":2454,"inning":2455,"fac":2456,"often":2457,"2009":2458,"few":2459,"you":2460,"Geor":2461,"ral":2462,"imes":2463,"ampion":2464,"equ":2465,"ister":2466,"stri":2467,"take":2468,"ali":2469,"mag":2470,"rad":2471,"local":2472,"28":2473,"friend":2474,"2011":2475,"similar":2476,"player":2477,"sen":2478,"Ear":2479,"Air":2480,"among":2481,"Fran":2482,"production":2483,"force":2484,"beg":2485,"Mich":2486,"pite":2487,"Des":2488,"wood":2489,"went":2490,"different":2491,"Inter":2492,"ior":2493,"mission":2494,"ix":2495,"possi":2496,"chang":2497,"26":2498,"Bar":2499,"storm":2500,"England":2501,"ove":2502,"ony":2503,"atic":2504,"Char":2505,"further":2506,"ery":2507,"40":2508,"strong":2509,"One":2510,"night":2511,"week":2512,"considered":2513,"company":2514,"level":2515,"sty":2516,"served":2517,"ides":2518,"Mus":2519,"post":2520,"Dav":2521,"2007":2522,"ided":2523,"career":2524,"ices":2525,"fire":2526,"Har":2527,"aver":2528,"provid":2529,"City":2530,"having":2531,"fort":2532,"ively":2533,"East":2534,"action":2535,"ged":2536,"Park":2537,"commun":2538,"exp":2539,"trad":2540,"tele":2541,"English":2542,"uck":2543,"bas":2544,"fron":2545,"enter":2546,"every":2547,"without":2548,"history":2549,"Although":2550,"refer":2551,"ives":2552,"club":2553,"hold":2554,"studi":2555,"wide":2556,"2012":2557,"ops":2558,"written":2559,"Scot":2560,"become":2561,"lands":2562,"stead":2563,"board":2564,"respon":2565,"Fr":2566,"influ":2567,"Lond":2568,"reet":2569,"Ang":2570,"London":2571,"ink":2572,"graph":2573,"que":2574,"sound":2575,"Batt":2576,"foot":2577,"With":2578,"River":2579,"ggest":2580,"invol":2581,"suggest":2582,"29":2583,"ung":2584,"So":2585,"190":2586,"tro":2587,"given":2588,"announ":2589,"ington":2590,"divid":2591,"iss":2592,"prof":2593,"oung":2594,"Ex":2595,"bus":2596,"mand":2597,"want":2598,"key":2599,"change":2600,"comb":2601,"reen":2602,"building":2603,"Mo":2604,"High":2605,"Canad":2606,"successful":2607,"imp":2608,"Te":2609,"iment":2610,"father":2611,"gave":2612,"University":2613,"close":2614,"published":2615,"To":2616,"import":2617,"common":2618,"stated":2619,"Ne":2620,"seven":2621,"Sy":2622,"cop":2623,"rent":2624,"sure":2625,"never":2626,"While":2627,"dri":2628,"good":2629,"ai":2630,"ailed":2631,"returned":2632,"bor":2633,"total":2634,"produced":2635,"beh":2636,"ae":2637,"ug":2638,"Pol":2639,"face":2640,"anim":2641,"country":2642,"sw":2643,"omin":2644,"prote":2645,"eved":2646,"Fl":2647,"hour":2648,"fr":2649,"quad":2650,"away":2651,"find":2652,"popular":2653,"tour":2654,"Div":2655,"sit":2656,"reported":2657,"del":2658,"aren":2659,"omet":2660,"lost":2661,"ably":2662,"2006":2663,"program":2664,"aign":2665,"great":2666,"compos":2667,"ways":2668,"particular":2669,"draw":2670,"vest":2671,"making":2672,"Cor":2673,"include":2674,"forces":2675,"According":2676,"decl":2677,"author":2678,"struct":2679,"chn":2680,"interest":2681,"recorded":2682,"how":2683,"indu":2684,"vers":2685,"Dr":2686,"arried":2687,"need":2688,"direct":2689,"vict":2690,"fle":2691,"plan":2692,"urrican":2693,"body":2694,"itions":2695,"ology":2696,"bar":2697,"site":2698,"ploy":2699,"should":2700,"aur":2701,"Phil":2702,"ama":2703,"service":2704,"suff":2705,"quar":2706,"performance":2707,"moder":2708,"ument":2709,"died":2710,"teen":2711,"These":2712,"times":2713,"capt":2714,"soci":2715,"ox":2716,"coming":2717,"grad":2718,"aircraft":2719,"Roy":2720,"military":2721,"Australia":2722,"himself":2723,"2013":2724,"pen":2725,"flo":2726,"rock":2727,"intro":2728,"fan":2729,"battle":2730,"ned":2731,"tell":2732,"depend":2733,"Jack":2734,"sum":2735,"agre":2736,"rew":2737,"room":2738,"net":2739,"songs":2740,"pur":2741,"fun":2742,"member":2743,"Am":2744,"Pres":2745,"General":2746,"iness":2747,"State":2748,"development":2749,"critic":2750,"ana":2751,"Rep":2752,"elect":2753,"xim":2754,"front":2755,"aul":2756,"alth":2757,"search":2758,"represent":2759,"ened":2760,"aster":2761,"itch":2762,"look":2763,"Min":2764,"itive":2765,"BC":2766,"189":2767,"ael":2768,"histor":2769,"developed":2770,"James":2771,"akes":2772,"acy":2773,"istr":2774,"ges":2775,"destroy":2776,"medi":2777,"control":2778,"introdu":2779,"gl":2780,"sl":2781,"children":2782,"remained":2783,"Sw":2784,"Army":2785,"star":2786,"nal":2787,"range":2788,"fav":2789,"Rom":2790,"chart":2791,"characters":2792,"ption":2793,"title":2794,"vir":2795,"months":2796,"60":2797,"clear":2798,"Sm":2799,"ither":2800,"mm":2801,"campaign":2802,"ey":2803,"ues":2804,"occur":2805,"League":2806,"urricane":2807,"ising":2808,"taken":2809,"ense":2810,"cult":2811,"rap":2812,"tropical":2813,"eight":2814,"ream":2815,"gether":2816,"van":2817,"compet":2818,"felt":2819,"across":2820,"signific":2821,"cir":2822,"ban":2823,"ability":2824,"seen":2825,"writing":2826,"project":2827,"disc":2828,"omb":2829,"ering":2830,"Su":2831,"ots":2832,"bridge":2833,"too":2834,"station":2835,"Division":2836,"gest":2837,"tar":2838,"Cap":2839,"appeared":2840,"America":2841,"announced":2842,"pra":2843,"pec":2844,"noted":2845,"reached":2846,"alter":2847,"George":2848,"Tw":2849,"appoint":2850,"Japanese":2851,"County":2852,"experi":2853,"cil":2854,"activ":2855,"created":2856,"areas":2857,"television":2858,"Hen":2859,"fight":2860,"Road":2861,"works":2862,"2005":2863,"uses":2864,"ille":2865,"gin":2866,"saw":2867,"prim":2868,"performed":2869,"various":2870,"cost":2871,"political":2872,"lect":2873,"Street":2874,"complete":2875,"followed":2876,"break":2877,"inv":2878,"full":2879,"hor":2880,"Per":2881,"iting":2882,"players":2883,"trave":2884,"style":2885,"race":2886,"covered":2887,"ality":2888,"2014":2889,"Ma":2890,"arded":2891,"ago":2892,"process":2893,"black":2894,"mph":2895,"abor":2896,"mb":2897,"mix":2898,"mot":2899,"killed":2900,"antic":2901,"help":2902,"points":2903,"wall":2904,"Mad":2905,"ief":2906,"ances":2907,"ible":2908,"hit":2909,"lished":2910,"throughout":2911,"live":2912,"lines":2913,"sess":2914,"bet":2915,"debut":2916,"formation":2917,"together":2918,"techn":2919,"little":2920,"har":2921,"stat":2922,"sex":2923,"significant":2924,"established":2925,"non":2926,"meet":2927,"broad":2928,"ization":2929,"construction":2930,"fem":2931,"Australian":2932,"coast":2933,"icult":2934,"thought":2935,"Thom":2936,"bel":2937,"miles":2938,"pair":2939,"Reg":2940,"aval":2941,"earli":2942,"oto":2943,"enced":2944,"does":2945,"impro":2946,"rain":2947,"stage":2948,"tra":2949,"pain":2950,"entire":2951,"David":2952,"Michael":2953,"born":2954,"acc":2955,"odes":2956,"far":2957,"young":2958,"Rich":2959,"ission":2960,"voc":2961,"got":2962,"special":2963,"route":2964,"El":2965,"Part":2966,"relation":2967,"decided":2968,"ators":2969,"conom":2970,"conne":2971,"women":2972,"Bill":2973,"ivil":2974,"started":2975,"case":2976,"caused":2977,"You":2978,"San":2979,"general":2980,"playing":2981,"features":2982,"Med":2983,"scri":2984,"white":2985,"grow":2986,"once":2987,"eventually":2988,"aves":2989,"ho":2990,"sell":2991,"isted":2992,"House":2993,"crew":2994,"ample":2995,"manag":2996,"tee":2997,"ull":2998,"Royal":2999,"sold":3000,"feet":3001,"host":3002,"added":3003,"Fin":3004,"ald":3005,"Qu":3006,"located":3007,"opened":3008,"stant":3009,"modern":3010,"quadron":3011,"termin":3012,"Hist":3013,"188":3014,"pat":3015,"idence":3016,"ampionship":3017,"base":3018,"reek":3019,"Some":3020,"ife":3021,"ensive":3022,"itar":3023,"ring":3024,"Ital":3025,"instead":3026,"inj":3027,"theast":3028,"vari":3029,"peak":3030,"section":3031,"important":3032,"clos":3033,"Music":3034,"cret":3035,"utes":3036,"word":3037,"Black":3038,"Don":3039,"Comp":3040,"moun":3041,"completed":3042,"possible":3043,"hon":3044,"cross":3045,"ination":3046,"ends":3047,"ocial":3048,"worked":3049,"ov":3050,"current":3051,"others":3052,"cause":3053,"population":3054,"My":3055,"oney":3056,"free":3057,"audi":3058,"Mal":3059,"2004":3060,"mater":3061,"Bel":3062,"ying":3063,"lled":3064,"fig":3065,"pred":3066,"uel":3067,"leading":3068,"guns":3069,"Sch":3070,"pie":3071,"Po":3072,"oted":3073,"rather":3074,"don":3075,"typ":3076,"loss":3077,"behind":3078,"Lu":3079,"quest":3080,"tre":3081,"church":3082,"Ber":3083,"upon":3084,"Robert":3085,"31":3086,"ceed":3087,"forced":3088,"Hol":3089,"pract":3090,"dle":3091,"comment":3092,"lack":3093,"era":3094,"invest":3095,"ask":3096,"heavy":3097,"mother":3098,"France":3099,"2015":3100,"fif":3101,"inch":3102,"Cent":3103,"lie":3104,"vill":3105,"ays":3106,"ecut":3107,"subsequ":3108,"party":3109,"Russ":3110,"respect":3111,"School":3112,"Act":3113,"ming":3114,"difficult":3115,"proble":3116,"Angel":3117,"know":3118,"novel":3119,"accept":3120,"reve":3121,"Vi":3122,"Ab":3123,"working":3124,"joined":3125,"associ":3126,"human":3127,"separ":3128,"Wash":3129,"weeks":3130,"yn":3131,"70":3132,"term":3133,"scene":3134,"originally":3135,"Henry":3136,"avail":3137,"hard":3138,"coll":3139,"ata":3140,"ogn":3141,"pression":3142,"almost":3143,"NA":3144,"asing":3145,"Battle":3146,"ories":3147,"damage":3148,"scored":3149,"ties":3150,"allowed":3151,"Ham":3152,"spir":3153,"inst":3154,"angu":3155,"mass":3156,"fourth":3157,"Ale":3158,"approach":3159,"Em":3160,"Best":3161,"ready":3162,"igned":3163,"provided":3164,"ials":3165,"ino":3166,"engine":3167,"35":3168,"Cr":3169,"80":3170,"ival":3171,"goal":3172,"claimed":3173,"Fir":3174,"ament":3175,"ope":3176,"drop":3177,"wanted":3178,"lower":3179,"amb":3180,"regular":3181,"employ":3182,"Paul":3183,"cup":3184,"Port":3185,"brought":3186,"Vir":3187,"compan":3188,"tradition":3189,"nat":3190,"individ":3191,"500":3192,"featured":3193,"Red":3194,"Cour":3195,"least":3196,"Que":3197,"aut":3198,"laun":3199,"President":3200,"wife":3201,"towards":3202,"hest":3203,"econom":3204,"gar":3205,"cell":3206,"average":3207,"business":3208,"soon":3209,"passed":3210,"region":3211,"Mil":3212,"runs":3213,"super":3214,"TV":3215,"bal":3216,"recogn":3217,"aps":3218,"cred":3219,"Washington":3220,"tempor":3221,"critics":3222,"western":3223,"estim":3224,"quick":3225,"cts":3226,"court":3227,"either":3228,"azine":3229,"defe":3230,"Play":3231,"office":3232,"plann":3233,"186":3234,"contract":3235,"sour":3236,"profess":3237,"redu":3238,"counter":3239,"leng":3240,"emy":3241,"troops":3242,"forms":3243,"Mor":3244,"example":3245,"rail":3246,"merc":3247,"nomin":3248,"Other":3249,"rid":3250,"ula":3251,"Mac":3252,"foc":3253,"icated":3254,"cing":3255,"finished":3256,"hom":3257,"army":3258,"Res":3259,"nia":3260,"dou":3261,"ids":3262,"Despite":3263,"Je":3264,"rul":3265,"2003":3266,"concl":3267,"Follow":3268,"shot":3269,"ades":3270,"feel":3271,"Dan":3272,"generally":3273,"mult":3274,"asy":3275,"condu":3276,"proper":3277,"Game":3278,"circ":3279,"ills":3280,"ply":3281,"Gl":3282,"whe":3283,"ico":3284,"det":3285,"fed":3286,"Colle":3287,"events":3288,"aper":3289,"length":3290,"believed":3291,"compl":3292,"osp":3293,"cert":3294,"ius":3295,"mun":3296,"First":3297,"Following":3298,"particip":3299,"fre":3300,"bes":3301,"keep":3302,"Cup":3303,"parts":3304,"sea":3305,"mal":3306,"aled":3307,"anti":3308,"nine":3309,"scen":3310,"Mary":3311,"replaced":3312,"nel":3313,"fund":3314,"Star":3315,"victory":3316,"bound":3317,"designed":3318,"ention":3319,"island":3320,"available":3321,"official":3322,"Dep":3323,"involved":3324,"iction":3325,"hours":3326,"ping":3327,"conc":3328,"sele":3329,"Two":3330,"opening":3331,"European":3332,"president":3333,"prison":3334,"evol":3335,"Lou":3336,"itor":3337,"ological":3338,"stop":3339,"asked":3340,"ential":3341,"turned":3342,"tor":3343,"execut":3344,"certain":3345,"comes":3346,"tic":3347,"hous":3348,"exist":3349,"director":3350,"hab":3351,"erous":3352,"saying":3353,"bri":3354,"alk":3355,"threat":3356,"ports":3357,"Mer":3358,"Sun":3359,"commit":3360,"75":3361,"appearance":3362,"ount":3363,"2000":3364,"ience":3365,"45":3366,"cycl":3367,"Route":3368,"stone":3369,"istic":3370,"ighest":3371,"love":3372,"highway":3373,"largest":3374,"minutes":3375,"park":3376,"Roman":3377,"southern":3378,"watch":3379,"writer":3380,"Scott":3381,"survi":3382,"taking":3383,"tel":3384,"Republ":3385,"going":3386,"highest":3387,"From":3388,"Church":3389,"earlier":3390,"initially":3391,"2001":3392,"Mid":3393,"ishing":3394,"nd":3395,"training":3396,"particularly":3397,"percent":3398,"vice":3399,"mir":3400,"sil":3401,"lear":3402,"Atl":3403,"cal":3404,"lying":3405,"ordered":3406,"Sing":3407,"ership":3408,"White":3409,"Navy":3410,"educ":3411,"assist":3412,"must":3413,"Charles":3414,"Kingdom":3415,"issue":3416,"ize":3417,"Val":3418,"Mart":3419,"graphy":3420,"Do":3421,"ha":3422,"signed":3423,"bit":3424,"weak":3425,"Off":3426,"hib":3427,"ateg":3428,"Thomas":3429,"pond":3430,"pot":3431,"central":3432,"box":3433,"tries":3434,"studio":3435,"social":3436,"maintain":3437,"praised":3438,"thus":3439,"uture":3440,"pected":3441,"Hall":3442,"International":3443,"speed":3444,"prec":3445,"But":3446,"ency":3447,"ville":3448,"alifor":3449,"langu":3450,"Smith":3451,"Mag":3452,"date":3453,"Du":3454,"units":3455,"northern":3456,"pers":3457,"reason":3458,"gress":3459,"increased":3460,"ception":3461,"bill":3462,"ification":3463,"Virgin":3464,"hurricane":3465,"deal":3466,"bow":3467,"2002":3468,"research":3469,"relig":3470,"depart":3471,"Bur":3472,"past":3473,"90":3474,"type":3475,"stry":3476,"meas":3477,"Canada":3478,"deli":3479,"ape":3480,"via":3481,"Califor":3482,"commission":3483,"fantry":3484,"AA":3485,"Dis":3486,"pay":3487,"Bay":3488,"ta":3489,"Cam":3490,"rac":3491,"immedi":3492,"mean":3493,"ayed":3494,"daugh":3495,"rian":3496,"Pri":3497,"ilities":3498,"relationship":3499,"acqu":3500,"agon":3501,"Peter":3502,"pressed":3503,"Richard":3504,"za":3505,"Pal":3506,"omer":3507,"Indian":3508,"imin":3509,"independ":3510,"bomb":3511,"better":3512,"usually":3513,"told":3514,"California":3515,"winds":3516,"Alex":3517,"Bro":3518,"states":3519,"enough":3520,"Union":3521,"Sen":3522,"icket":3523,"ken":3524,"hol":3525,"positive":3526,"Sam":3527,"sal":3528,"commerc":3529,"Court":3530,"Ho":3531,"Island":3532,"concern":3533,"jour":3534,"sat":3535,"sed":3536,"aring":3537,"uk":3538,"spent":3539,"ference":3540,"according":3541,"Brown":3542,"Ben":3543,"Mi":3544,"above":3545,"appointed":3546,"rup":3547,"screen":3548,"phys":3549,"outside":3550,"arily":3551,"God":3552,"films":3553,"Great":3554,"Award":3555,"ume":3556,"tion":3557,"previously":3558,"football":3559,"script":3560,"responsi":3561,"accoun":3562,"icle":3563,"quare":3564,"Cong":3565,"contribut":3566,"ston":3567,"ara":3568,"recording":3569,"Company":3570,"Sal":3571,"Associ":3572,"standing":3573,"active":3574,"Tom":3575,"failed":3576,"defin":3577,"access":3578,"load":3579,"required":3580,"alion":3581,"bird":3582,"usion":3583,"mur":3584,"reng":3585,"Germany":3586,"elements":3587,"occup":3588,"lay":3589,"NY":3590,"ems":3591,"overnor":3592,"Rock":3593,"Vict":3594,"treat":3595,"ication":3596,"vin":3597,"187":3598,"ener":3599,"directed":3600,"reviews":3601,"India":3602,"viol":3603,"interview":3604,"groups":3605,"ometimes":3606,"itself":3607,"give":3608,"Ap":3609,"Christian":3610,"La":3611,"sey":3612,"Mark":3613,"reme":3614,"despite":3615,"Sou":3616,"gir":3617,"atin":3618,"score":3619,"respond":3620,"vert":3621,"aters":3622,"inner":3623,"Str":3624,"thod":3625,"cru":3626,"prob":3627,"III":3628,"Times":3629,"ique":3630,"soldi":3631,"perform":3632,"beginning":3633,"UK":3634,"ministr":3635,"bour":3636,"Ter":3637,"introduced":3638,"College":3639,"Sk":3640,"space":3641,"happ":3642,"onto":3643,"streng":3644,"frequ":3645,"whose":3646,"flight":3647,"ida":3648,"transfer":3649,"tur":3650,"priv":3651,"Mex":3652,"oring":3653,"sus":3654,"prevent":3655,"Western":3656,"changes":3657,"league":3658,"Cast":3659,"idea":3660,"ept":3661,"defeated":3662,"igan":3663,"brother":3664,"Sim":3665,"ault":3666,"edy":3667,"ga":3668,"Hill":3669,"Sovi":3670,"Jer":3671,"election":3672,"additional":3673,"Gold":3674,"conf":3675,"future":3676,"gold":3677,"Span":3678,"whom":3679,"Ke":3680,"international":3681,"poor":3682,"appl":3683,"pil":3684,"ases":3685,"jud":3686,"Grand":3687,"Awards":3688,"structure":3689,"ns":3690,"exten":3691,"native":3692,"anal":3693,"evidence":3694,"changed":3695,"quickly":3696,"center":3697,"argu":3698,"Force":3699,"Tri":3700,"tom":3701,"already":3702,"specific":3703,"That":3704,"river":3705,"market":3706,"situ":3707,"radio":3708,"Day":3709,"photo":3710,"coach":3711,"sem":3712,"material":3713,"doc":3714,"Most":3715,"aint":3716,"agreed":3717,"arrived":3718,"civil":3719,"Britain":3720,"Bu":3721,"likely":3722,"slow":3723,"atory":3724,"Met":3725,"study":3726,"staff":3727,"decision":3728,"ctive":3729,"dies":3730,"useum":3731,"emp":3732,"lyr":3733,"subject":3734,"umb":3735,"lies":3736,"limited":3737,"sometimes":3738,"fleet":3739,"might":3740,"female":3741,"money":3742,"anch":3743,"surface":3744,"response":3745,"names":3746,"Film":3747,"espec":3748,"icted":3749,"course":3750,"Mill":3751,"spr":3752,"magazine":3753,"Later":3754,"especially":3755,"actions":3756,"Chin":3757,"estimated":3758,"ded":3759,"hop":3760,"food":3761,"apt":3762,"Championship":3763,"Victor":3764,"pet":3765,"ben":3766,"nation":3767,"33":3768,"carried":3769,"Pac":3770,"flood":3771,"broadcast":3772,"flow":3773,"consider":3774,"liament":3775,"community":3776,"shows":3777,"ples":3778,"guitar":3779,"Frank":3780,"prepar":3781,"sch":3782,"listed":3783,"scenes":3784,"paren":3785,"uded":3786,"eastern":3787,"size":3788,"remaining":3789,"venue":3790,"musical":3791,"rate":3792,"1999":3793,"bi":3794,"berg":3795,"plant":3796,"arrison":3797,"related":3798,"text":3799,"minor":3800,"Early":3801,"division":3802,"Over":3803,"personal":3804,"becoming":3805,"Los":3806,"larger":3807,"natural":3808,"cul":3809,"latter":3810,"isl":3811,"Virginia":3812,"bell":3813,"bot":3814,"entered":3815,"emer":3816,"media":3817,"police":3818,"object":3819,"Pat":3820,"rights":3821,"suit":3822,"summer":3823,"approxim":3824,"cis":3825,"pressure":3826,"married":3827,"yard":3828,"teams":3829,"suggested":3830,"Year":3831,"brief":3832,"arrang":3833,"ror":3834,"investig":3835,"liter":3836,"itz":3837,"surround":3838,"establish":3839,"daughter":3840,"Just":3841,"36":3842,"Jackson":3843,"exper":3844,"Second":3845,"students":3846,"temporary":3847,"kil":3848,"tax":3849,"ena":3850,"effects":3851,"Di":3852,"37":3853,"prior":3854,"favor":3855,"Tex":3856,"Chic":3857,"tons":3858,"episodes":3859,"woman":3860,"fit":3861,"If":3862,"els":3863,"alled":3864,"Tour":3865,"destroyed":3866,"winning":3867,"Louis":3868,"Flor":3869,"clim":3870,"worth":3871,"iter":3872,"Oly":3873,"leaving":3874,"Fle":3875,"Spanish":3876,"Ty":3877,"mor":3878,"sett":3879,"irth":3880,"selves":3881,"avo":3882,"Olymp":3883,"mode":3884,"tracks":3885,"join":3886,"viron":3887,"equip":3888,"Aust":3889,"Green":3890,"Club":3891,"Lord":3892,"bs":3893,"aj":3894,"fail":3895,"igade":3896,"reli":3897,"sons":3898,"provide":3899,"idents":3900,"relative":3901,"pan":3902,"mocr":3903,"polic":3904,"territ":3905,"Pre":3906,"burg":3907,"intended":3908,"vie":3909,"proposed":3910,"influence":3911,"overall":3912,"Party":3913,"32":3914,"qual":3915,"moving":3916,"aries":3917,"spo":3918,"38":3919,"verse":3920,"running":3921,"ening":3922,"distr":3923,"artment":3924,"supported":3925,"big":3926,"Soviet":3927,"occas":3928,"fully":3929,"Association":3930,"escap":3931,"quarter":3932,"ander":3933,"purch":3934,"thers":3935,"ek":3936,"expected":3937,"Cal":3938,"Rob":3939,"burn":3940,"fell":3941,"nearly":3942,"49":3943,"Chicago":3944,"abs":3945,"lot":3946,"Chinese":3947,"forward":3948,"Many":3949,"mach":3950,"helped":3951,"movement":3952,"1998":3953,"Love":3954,"Record":3955,"awarded":3956,"secut":3957,"Oper":3958,"mixed":3959,"commercial":3960,"bring":3961,"marked":3962,"Council":3963,"ires":3964,"rey":3965,"issued":3966,"closed":3967,"Che":3968,"Im":3969,"experience":3970,"Song":3971,"Super":3972,"consist":3973,"create":3974,"nu":3975,"185":3976,"dark":3977,"stars":3978,"stra":3979,"Edward":3980,"syn":3981,"planned":3982,"bey":3983,"dead":3984,"legal":3985,"Enter":3986,"Del":3987,"done":3988,"Kore":3989,"longer":3990,"operation":3991,"ny":3992,"breed":3993,"fans":3994,"iple":3995,"language":3996,"pow":3997,"captured":3998,"joy":3999,"possib":4000,"higher":4001,"attract":4002,"increasing":4003,"hood":4004,"Ze":4005,"compared":4006,"300":4007,"ili":4008,"leader":4009,"deep":4010,"ari":4011,"phen":4012,"wing":4013,"approximately":4014,"cele":4015,"bon":4016,"living":4017,"touch":4018,"feature":4019,"Lo":4020,"Johnson":4021,"ato":4022,"fish":4023,"fifth":4024,"intens":4025,"temper":4026,"themselves":4027,"1st":4028,"History":4029,"Pacific":4030,"print":4031,"chall":4032,"producer":4033,"mostly":4034,"bad":4035,"dig":4036,"dy":4037,"Back":4038,"ech":4039,"operations":4040,"icles":4041,"anced":4042,"Billboard":4043,"rica":4044,"yl":4045,"rd":4046,"defeat":4047,"Go":4048,"remains":4049,"olk":4050,"appears":4051,"orial":4052,"weap":4053,"soldiers":4054,"mitted":4055,"buildings":4056,"34":4057,"whether":4058,"aught":4059,"Art":4060,"bury":4061,"probably":4062,"Hu":4063,"Ir":4064,"Squadron":4065,"weight":4066,"Under":4067,"extended":4068,"plot":4069,"copies":4070,"spired":4071,"ba":4072,"heav":4073,"complex":4074,"battles":4075,"Cro":4076,"Since":4077,"1997":4078,"stream":4079,"voice":4080,"lyrics":4081,"transport":4082,"pose":4083,"shoot":4084,"portr":4085,"Queen":4086,"Atlantic":4087,"lor":4088,"mas":4089,"suffered":4090,"jected":4091,"really":4092,"deb":4093,"fill":4094,"ospital":4095,"countries":4096,"ender":4097,"affe":4098,"roll":4099,"carri":4100,"andon":4101,"Mur":4102,"Lake":4103,"cm":4104,"Arch":4105,"Bal":4106,"demand":4107,"includes":4108,"immediately":4109,"Sever":4110,"Florida":4111,"issues":4112,"igr":4113,"MS":4114,"Test":4115,"health":4116,"cting":4117,"Tur":4118,"goals":4119,"request":4120,"Both":4121,"Big":4122,"Leg":4123,"capital":4124,"Law":4125,"private":4126,"los":4127,"visit":4128,"Jim":4129,"Jew":4130,"Sea":4131,"manager":4132,"officers":4133,"boy":4134,"48":4135,"target":4136,"leave":4137,"location":4138,"removed":4139,"ises":4140,"yards":4141,"aging":4142,"ultim":4143,"flict":4144,"ores":4145,"ams":4146,"Fort":4147,"expand":4148,"Tor":4149,"increase":4150,"subsequently":4151,"Texas":4152,"colon":4153,"flag":4154,"Station":4155,"status":4156,"China":4157,"rich":4158,"fast":4159,"offered":4160,"birth":4161,"portion":4162,"wa":4163,"plans":4164,"FA":4165,"always":4166,"Bet":4167,"ications":4168,"cit":4169,"amed":4170,"Another":4171,"confir":4172,"ert":4173,"services":4174,"upper":4175,"Mr":4176,"mel":4177,"Ot":4178,"Town":4179,"Old":4180,"Studi":4181,"Rad":4182,"attacks":4183,"problems":4184,"nes":4185,"block":4186,"evolution":4187,"ging":4188,"reser":4189,"gas":4190,"terms":4191,"oud":4192,"twent":4193,"How":4194,"forts":4195,"tainment":4196,"vey":4197,"instr":4198,"professional":4199,"demon":4200,"something":4201,"habit":4202,"village":4203,"carry":4204,"shire":4205,"Earth":4206,"39":4207,"aily":4208,"takes":4209,"administr":4210,"stitut":4211,"orning":4212,"majority":4213,"discovered":4214,"castle":4215,"ously":4216,"discover":4217,"icans":4218,"vironment":4219,"Boy":4220,"anks":4221,"Emp":4222,"makes":4223,"contr":4224,"ranked":4225,"rat":4226,"Canadian":4227,"Rail":4228,"iser":4229,"Center":4230,"composed":4231,"minute":4232,"Mat":4233,"assigned":4234,"job":4235,"Africa":4236,"damaged":4237,"neg":4238,"elected":4239,"adop":4240,"beat":4241,"concept":4242,"47":4243,"cean":4244,"mouth":4245,"uries":4246,"meeting":4247,"Bow":4248,"initial":4249,"otion":4250,"iles":4251,"aker":4252,"Its":4253,"Wood":4254,"adium":4255,"chester":4256,"cu":4257,"Russian":4258,"individual":4259,"Highway":4260,"revealed":4261,"incor":4262,"atives":4263,"onna":4264,"mat":4265,"raised":4266,"inspired":4267,"itect":4268,"Bra":4269,"giving":4270,"lived":4271,"ulated":4272,"attacked":4273,"necess":4274,"financ":4275,"plays":4276,"phy":4277,"associated":4278,"Carol":4279,"Mel":4280,"olic":4281,"inent":4282,"yet":4283,"ails":4284,"DV":4285,"respectively":4286,"bul":4287,"Central":4288,"Kent":4289,"mic":4290,"Sir":4291,"Trans":4292,"rout":4293,"1995":4294,"numerous":4295,"needed":4296,"Hot":4297,"mist":4298,"impact":4299,"Martin":4300,"Angeles":4301,"heart":4302,"ado":4303,"ider":4304,"grand":4305,"veh":4306,"stitute":4307,"Francis":4308,"nature":4309,"launched":4310,"friends":4311,"actor":4312,"constructed":4313,"occurred":4314,"conditions":4315,"2nd":4316,"distribut":4317,"scient":4318,"uter":4319,"stitution":4320,"domin":4321,"attempted":4322,"contains":4323,"cand":4324,"uments":4325,"shown":4326,"information":4327,"pool":4328,"estival":4329,"Congress":4330,"sales":4331,"books":4332,"exam":4333,"step":4334,"secur":4335,"uals":4336,"kind":4337,"struction":4338,"Bob":4339,"piece":4340,"critical":4341,"depression":4342,"singer":4343,"Prince":4344,"Cle":4345,"19th":4346,"whole":4347,"2016":4348,"premi":4349,"Hal":4350,"1996":4351,"Group":4352,"1950":4353,"zz":4354,"think":4355,"ulf":4356,"Empire":4357,"Mont":4358,"referred":4359,"earned":4360,"ioned":4361,"marri":4362,"produce":4363,"mom":4364,"letter":4365,"Produ":4366,"selected":4367,"cere":4368,"amount":4369,"46":4370,"Not":4371,"fighting":4372,"RA":4373,"Jose":4374,"render":4375,"numbers":4376,"distin":4377,"umed":4378,"vention":4379,"smaller":4380,"resulted":4381,"finally":4382,"dev":4383,"Penn":4384,"revol":4385,"gain":4386,"Pan":4387,"oph":4388,"houses":4389,"oil":4390,"chief":4391,"vic":4392,"wound":4393,"Out":4394,"princ":4395,"bio":4396,"grant":4397,"slight":4398,"Camp":4399,"Italian":4400,"1994":4401,"celebr":4402,"unit":4403,"captain":4404,"industry":4405,"largely":4406,"ipp":4407,"ellow":4408,"bing":4409,"Ver":4410,"utch":4411,"commented":4412,"Corps":4413,"DVD":4414,"sched":4415,"Fer":4416,"audience":4417,"ordin":4418,"Cy":4419,"unable":4420,"notes":4421,"acting":4422,"Ru":4423,"Crit":4424,"traditional":4425,"education":4426,"trade":4427,"artist":4428,"atest":4429,"ify":4430,"legisl":4431,"positions":4432,"directly":4433,"Eli":4434,"recover":4435,"Michigan":4436,"improve":4437,"ift":4438,"gent":4439,"refused":4440,"Final":4441,"double":4442,"Sto":4443,"attention":4444,"spl":4445,"Viet":4446,"jun":4447,"dol":4448,"Command":4449,"sister":4450,"primary":4451,"method":4452,"aland":4453,"newsp":4454,"royal":4455,"below":4456,"quarters":4457,"coup":4458,"secret":4459,"180":4460,"lif":4461,"officer":4462,"horse":4463,"blood":4464,"Wales":4465,"ows":4466,"imm":4467,"male":4468,"ighter":4469,"declared":4470,"Rh":4471,"web":4472,"gradu":4473,"hero":4474,"spect":4475,"kin":4476,"enjoy":4477,"Long":4478,"performances":4479,"Sol":4480,"meant":4481,"science":4482,"religious":4483,"Gar":4484,"Mass":4485,"alle":4486,"iff":4487,"commander":4488,"undred":4489,"standard":4490,"Spe":4491,"conflict":4492,"mos":4493,"train":4494,"indic":4495,"matches":4496,"middle":4497,"ray":4498,"owned":4499,"ranch":4500,"More":4501,"izing":4502,"kes":4503,"orders":4504,"lav":4505,"regard":4506,"repe":4507,"Cath":4508,"ump":4509,"achi":4510,"Care":4511,"records":4512,"Democr":4513,"rated":4514,"Lin":4515,"Acad":4516,"Team":4517,"55":4518,"model":4519,"wear":4520,"district":4521,"ett":4522,"ipal":4523,"northeast":4524,"serious":4525,"pul":4526,"progress":4527,"Sup":4528,"competition":4529,"Ox":4530,"Gi":4531,"ka":4532,"antasy":4533,"severe":4534,"Major":4535,"Hel":4536,"vocals":4537,"abandon":4538,"uten":4539,"session":4540,"Several":4541,"thr":4542,"rapid":4543,"icient":4544,"viewers":4545,"Minister":4546,"1992":4547,"drum":4548,"miral":4549,"ady":4550,"die":4551,"document":4552,"centre":4553,"Mem":4554,"dro":4555,"energy":4556,"Chris":4557,"cases":4558,"arrow":4559,"orm":4560,"Lit":4561,"forest":4562,"atre":4563,"continue":4564,"itation":4565,"traff":4566,"dut":4567,"Fore":4568,"iation":4569,"44":4570,"oft":4571,"theme":4572,"Er":4573,"Zealand":4574,"mes":4575,"wick":4576,"aware":4577,"Four":4578,"determin":4579,"ishop":4580,"combat":4581,"highly":4582,"nearby":4583,"Time":4584,"favour":4585,"Mexico":4586,"iled":4587,"separate":4588,"atal":4589,"writers":4590,"Fox":4591,"adult":4592,"effort":4593,"cam":4594,"thes":4595,"Soci":4596,"bank":4597,"African":4598,"urt":4599,"attended":4600,"reduced":4601,"culture":4602,"rossing":4603,"annual":4604,"presented":4605,"incorpor":4606,"edition":4607,"20th":4608,"metal":4609,"umn":4610,"practice":4611,"oo":4612,"1930":4613,"except":4614,"arts":4615,"ogue":4616,"divided":4617,"sec":4618,"levels":4619,"means":4620,"Haw":4621,"osen":4622,"McC":4623,"tried":4624,"neigh":4625,"Sum":4626,"contact":4627,"thick":4628,"ski":4629,"rang":4630,"movie":4631,"va":4632,"girl":4633,"Madonna":4634,"stating":4635,"architect":4636,"twenty":4637,"accepted":4638,"responsible":4639,"rein":4640,"1991":4641,"omen":4642,"marriage":4643,"1993":4644,"maxim":4645,"ona":4646,"65":4647,"serve":4648,"Stone":4649,"advance":4650,"hi":4651,"aired":4652,"quality":4653,"Wall":4654,"mind":4655,"Moun":4656,"pick":4657,"direction":4658,"candid":4659,"Dou":4660,"seem":4661,"innings":4662,"charge":4663,"Fed":4664,"Scotland":4665,"fru":4666,"bled":4667,"words":4668,"rating":4669,"wealth":4670,"400":4671,"iding":4672,"log":4673,"ands":4674,"Jones":4675,"schools":4676,"han":4677,"eve":4678,"illery":4679,"Their":4680,"passing":4681,"mob":4682,"Infantry":4683,"Dar":4684,"network":4685,"rare":4686,"sides":4687,"ria":4688,"managed":4689,"ieve":4690,"ression":4691,"pret":4692,"Department":4693,"Simp":4694,"award":4695,"function":4696,"efforts":4697,"college":4698,"Greek":4699,"resulting":4700,"asion":4701,"economic":4702,"pit":4703,"Book":4704,"murder":4705,"mountain":4706,"paid":4707,"meaning":4708,"Publ":4709,"utenant":4710,"dropped":4711,"psy":4712,"showed":4713,"ti":4714,"guest":4715,"rif":4716,"inside":4717,"iving":4718,"Three":4719,"environment":4720,"dem":4721,"cyclone":4722,"peror":4723,"Rol":4724,"kept":4725,"allowing":4726,"Tim":4727,"morning":4728,"hus":4729,"Creek":4730,"Bost":4731,"voy":4732,"cust":4733,"controver":4734,"begins":4735,"variety":4736,"arrest":4737,"waters":4738,"chap":4739,"settle":4740,"ceremon":4741,"ero":4742,"Commit":4743,"Sar":4744,"ceeded":4745,"winter":4746,"Williams":4747,"Games":4748,"nest":4749,"Service":4750,"inches":4751,"Alli":4752,"schol":4753,"squadron":4754,"electric":4755,"ole":4756,"activity":4757,"continues":4758,"titled":4759,"farm":4760,"thur":4761,"Records":4762,"drew":4763,"rule":4764,"airs":4765,"Sur":4766,"Tre":4767,"ding":4768,"lam":4769,"write":4770,"95":4771,"pitch":4772,"hall":4773,"dance":4774,"symb":4775,"path":4776,"broke":4777,"founded":4778,"source":4779,"Up":4780,"SA":4781,"Parliament":4782,"Men":4783,"Hor":4784,"metres":4785,"Stan":4786,"Post":4787,"News":4788,"restr":4789,"hundred":4790,"parents":4791,"Foot":4792,"Will":4793,"sole":4794,"1942":4795,"starting":4796,"ram":4797,"conducted":4798,"iced":4799,"Ire":4800,"concert":4801,"your":4802,"ites":4803,"Egy":4804,"vised":4805,"strugg":4806,"presence":4807,"phere":4808,"Oh":4809,"Society":4810,"excl":4811,"aven":4812,"ounds":4813,"Bridge":4814,"Southern":4815,"sequence":4816,"Mic":4817,"exhib":4818,"crow":4819,"spot":4820,"lan":4821,"transferred":4822,"osaur":4823,"speech":4824,"SR":4825,"companies":4826,"deliver":4827,"BA":4828,"pal":4829,"cus":4830,"multiple":4831,"things":4832,"enemy":4833,"contrast":4834,"rot":4835,"selling":4836,"Latin":4837,"Arthur":4838,"pedo":4839,"foreign":4840,"Committee":4841,"oration":4842,"portun":4843,"da":4844,"peaked":4845,"Hung":4846,"Ba":4847,"plat":4848,"obtain":4849,"Govern":4850,"Captain":4851,"isation":4852,"oon":4853,"traffic":4854,"Georg":4855,"Joseph":4856,"recomm":4857,"becomes":4858,"Oxford":4859,"Spec":4860,"Like":4861,"Admiral":4862,"Far":4863,"content":4864,"account":4865,"stories":4866,"Cross":4867,"greater":4868,"Chief":4869,"mess":4870,"ami":4871,"vocal":4872,"scoring":4873,"concluded":4874,"strength":4875,"potential":4876,"federal":4877,"Boston":4878,"attempts":4879,"relatively":4880,"Harrison":4881,"Secret":4882,"loy":4883,"Manchester":4884,"extens":4885,"Ev":4886,"onic":4887,"Sat":4888,"property":4889,"Commission":4890,"primarily":4891,"demonstr":4892,"lock":4893,"Class":4894,"thir":4895,"actually":4896,"64":4897,"observed":4898,"financial":4899,"Egypt":4900,"Because":4901,"prise":4902,"Before":4903,"animals":4904,"Kar":4905,"odd":4906,"birds":4907,"figure":4908,"sets":4909,"prov":4910,"Battalion":4911,"collection":4912,"Jeff":4913,"Sil":4914,"Hurricane":4915,"repair":4916,"propos":4917,"journal":4918,"mond":4919,"identified":4920,"opportun":4921,"Swed":4922,"eth":4923,"featuring":4924,"poet":4925,"78":4926,"withdraw":4927,"tourn":4928,"1944":4929,"ott":4930,"Den":4931,"Life":4932,"istics":4933,"Little":4934,"missed":4935,"situation":4936,"scale":4937,"bles":4938,"distance":4939,"mechan":4940,"share":4941,"passeng":4942,"versions":4943,"extreme":4944,"ange":4945,"independent":4946,"Dire":4947,"corn":4948,"41":4949,"image":4950,"uge":4951,"perial":4952,"faced":4953,"slightly":4954,"Ram":4955,"resist":4956,"thous":4957,"anger":4958,"Fred":4959,"Ken":4960,"Brad":4961,"BBC":4962,"fa":4963,"annel":4964,"resh":4965,"replac":4966,"inking":4967,"IS":4968,"suppl":4969,"Series":4970,"ky":4971,"collabor":4972,"Paris":4973,"Fre":4974,"olf":4975,"anna":4976,"torpedo":4977,"concent":4978,"150":4979,"here":4980,"alleg":4981,"trial":4982,"seconds":4983,"1990":4984,"ultimately":4985,"today":4986,"sa":4987,"Gil":4988,"Line":4989,"42":4990,"76":4991,"lap":4992,"colour":4993,"completely":4994,"square":4995,"ada":4996,"Ann":4997,"vation":4998,"Dun":4999,"proved":5000,"confirmed":5001,"maximum":5002,"Histor":5003,"struck":5004,"inte":5005,"Croat":5006,"tellig":5007,"prop":5008,"naval":5009,"Light":5010,"behav":5011,"sought":5012,"cities":5013,"Academy":5014,"stein":5015,"1920":5016,"branch":5017,"policy":5018,"Max":5019,"combined":5020,"Stephen":5021,"1945":5022,"Museum":5023,"calling":5024,"serving":5025,"designated":5026,"pack":5027,"ita":5028,"blue":5029,"1941":5030,"green":5031,"society":5032,"dise":5033,"northwest":5034,"mainly":5035,"minim":5036,"weather":5037,"border":5038,"commissioned":5039,"ito":5040,"beth":5041,"cers":5042,"boat":5043,"43":5044,"ya":5045,"officials":5046,"Van":5047,"Wal":5048,"explained":5049,"influenced":5050,"Saint":5051,"vessel":5052,"cin":5053,"conver":5054,"Pop":5055,"benef":5056,"powerful":5057,"Bat":5058,"master":5059,"alongside":5060,"batter":5061,"Brigade":5062,"battleship":5063,"PA":5064,"Italy":5065,"Entertainment":5066,"gn":5067,"85":5068,"Way":5069,"visions":5070,"Americans":5071,"Lee":5072,"bass":5073,"organization":5074,"eval":5075,"Gir":5076,"gained":5077,"resol":5078,"sources":5079,"says":5080,"successfully":5081,"ulations":5082,"HL":5083,"older":5084,"background":5085,"attend":5086,"peace":5087,"gency":5088,"Regiment":5089,"orses":5090,"Ca":5091,"systems":5092,"Vol":5093,"industri":5094,"astic":5095,"recent":5096,"edge":5097,"ils":5098,"alone":5099,"artists":5100,"theory":5101,"nominated":5102,"reaching":5103,"feed":5104,"Arab":5105,"seg":5106,"promoted":5107,"sust":5108,"Avenue":5109,"widely":5110,"encour":5111,"problem":5112,"Ireland":5113,"ements":5114,"stay":5115,"elve":5116,"sky":5117,"ses":5118,"Ob":5119,"news":5120,"husband":5121,"bat":5122,"brary":5123,"results":5124,"invasion":5125,"Spr":5126,"dif":5127,"Middle":5128,"bud":5129,"sexual":5130,"Gre":5131,"travel":5132,"Fleet":5133,"greatest":5134,"roads":5135,"subsequent":5136,"acu":5137,"adel":5138,"albums":5139,"aling":5140,"vania":5141,"smo":5142,"offer":5143,"Live":5144,"yer":5145,"officially":5146,"southeast":5147,"arms":5148,"illa":5149,"county":5150,"sixth":5151,"cher":5152,"1989":5153,"push":5154,"affected":5155,"1943":5156,"Common":5157,"lip":5158,"shortly":5159,"theless":5160,"fair":5161,"Otto":5162,"pilot":5163,"opin":5164,"iano":5165,"armed":5166,"contest":5167,"expressed":5168,"causing":5169,"Victoria":5170,"Lie":5171,"doing":5172,"din":5173,"iron":5174,"represented":5175,"spring":5176,"Republic":5177,"reception":5178,"true":5179,"shell":5180,"appearances":5181,"ols":5182,"organized":5183,"Tropical":5184,"nown":5185,"residents":5186,"defense":5187,"arent":5188,"Wind":5189,"ota":5190,"sense":5191,"urban":5192,"Ray":5193,"pieces":5194,"capac":5195,"physical":5196,"tun":5197,"tells":5198,"aded":5199,"seasons":5200,"Catholic":5201,"laid":5202,"Land":5203,"teach":5204,"ansion":5205,"179":5206,"aga":5207,"Valley":5208,"CD":5209,"Bul":5210,"negot":5211,"intend":5212,"syl":5213,"semb":5214,"itude":5215,"hospital":5216,"ufact":5217,"growth":5218,"ategory":5219,"artillery":5220,"avoid":5221,"actors":5222,"IV":5223,"bodies":5224,"require":5225,"MD":5226,"Though":5227,"Dutch":5228,"wal":5229,"600":5230,"ien":5231,"chair":5232,"focus":5233,"ached":5234,"visited":5235,"kg":5236,"fired":5237,"advant":5238,"weapons":5239,"Mountain":5240,"3rd":5241,"Through":5242,"dog":5243,"Week":5244,"Show":5245,"Commun":5246,"Bre":5247,"SS":5248,"plement":5249,"ahead":5250,"fellow":5251,"Bus":5252,"dition":5253,"arian":5254,"Football":5255,"atures":5256,"vote":5257,"usual":5258,"eas":5259,"heavily":5260,"core":5261,"Young":5262,"question":5263,"governor":5264,"inson":5265,"1940":5266,"eigh":5267,"ysis":5268,"1980s":5269,"Upon":5270,"leaders":5271,"pedition":5272,"floor":5273,"spread":5274,"apparent":5275,"Jul":5276,"Kenn":5277,"student":5278,"patter":5279,"pun":5280,"studies":5281,"creation":5282,"AC":5283,"passes":5284,"kilomet":5285,"Good":5286,"Tay":5287,"Ry":5288,"protest":5289,"Well":5290,"executive":5291,"ustr":5292,"prominent":5293,"capture":5294,"agreement":5295,"arg":5296,"consisted":5297,"Def":5298,"wave":5299,"ronic":5300,"setting":5301,"debuted":5302,"mile":5303,"Ash":5304,"ares":5305,"Daniel":5306,"ingu":5307,"injury":5308,"figures":5309,"sions":5310,"condition":5311,"defend":5312,"Bor":5313,"equipment":5314,"Hum":5315,"claims":5316,"catch":5317,"necessary":5318,"begin":5319,"believ":5320,"rical":5321,"Rog":5322,"amber":5323,"launch":5324,"Hy":5325,"istrict":5326,"matter":5327,"instrument":5328,"negative":5329,"preser":5330,"Civil":5331,"phil":5332,"ights":5333,"argued":5334,"transl":5335,"Bey":5336,"anta":5337,"contemporary":5338,"dated":5339,"earth":5340,"Of":5341,"returning":5342,"Mah":5343,"Eliza":5344,"opposed":5345,"Os":5346,"wit":5347,"Ill":5348,"normal":5349,"fuel":5350,"iated":5351,"Homer":5352,"1970s":5353,"arden":5354,"Northern":5355,"Ele":5356,"Top":5357,"ote":5358,"otes":5359,"77":5360,"famous":5361,"Home":5362,"ki":5363,"ube":5364,"pict":5365,"District":5366,"rick":5367,"maintained":5368,"oul":5369,"graphic":5370,"Jon":5371,"Mu":5372,"Main":5373,"1960s":5374,"frequently":5375,"couple":5376,"finish":5377,"glo":5378,"table":5379,"deg":5380,"types":5381,"activities":5382,"criticized":5383,"deck":5384,"stations":5385,"toward":5386,"Sub":5387,"paper":5388,"Bond":5389,"kick":5390,"Tele":5391,"machine":5392,"sn":5393,"ockey":5394,"Carolina":5395,"Fri":5396,"Marsh":5397,"heard":5398,"reign":5399,"Gal":5400,"von":5401,"aces":5402,"rect":5403,"Tem":5404,"Ocean":5405,"discuss":5406,"operated":5407,"occasion":5408,"tournament":5409,"mut":5410,"reference":5411,"drug":5412,"Operation":5413,"trees":5414,"citiz":5415,"else":5416,"vor":5417,"senior":5418,"singles":5419,"acts":5420,"1987":5421,"medical":5422,"rig":5423,"ledge":5424,"folk":5425,"eway":5426,"eye":5427,"planet":5428,"Government":5429,"Scottish":5430,"aspect":5431,"acher":5432,"trying":5433,"worldwide":5434,"1988":5435,"achieve":5436,"value":5437,"territory":5438,"System":5439,"TC":5440,"Writ":5441,"Governor":5442,"siz":5443,"coal":5444,"Colon":5445,"atom":5446,"66":5447,"Field":5448,"Background":5449,"ocks":5450,"rainfall":5451,"modif":5452,"Holly":5453,"Fantasy":5454,"sembly":5455,"hands":5456,"holds":5457,"historian":5458,"treatment":5459,"narr":5460,"assault":5461,"color":5462,"horses":5463,"supply":5464,"looking":5465,"championship":5466,"Ly":5467,"accident":5468,"Dev":5469,"views":5470,"lers":5471,"challeng":5472,"university":5473,"gam":5474,"rum":5475,"grew":5476,"therefore":5477,"Castle":5478,"leaves":5479,"split":5480,"shap":5481,"crash":5482,"chosen":5483,"Duke":5484,"heads":5485,"Senate":5486,"incident":5487,"Pen":5488,"ini":5489,"walls":5490,"Jud":5491,"twice":5492,"Short":5493,"reports":5494,"ressed":5495,"rael":5496,"shore":5497,"stood":5498,"cance":5499,"offensive":5500,"consecut":5501,"gian":5502,"Studios":5503,"wounded":5504,"Polish":5505,"velopment":5506,"escape":5507,"stre":5508,"teenth":5509,"imen":5510,"ker":5511,"Eastern":5512,"steam":5513,"pursu":5514,"billion":5515,"follows":5516,"surrounding":5517,"prompt":5518,"Andrew":5519,"schedul":5520,"Lew":5521,"manufact":5522,"acted":5523,"WW":5524,"soundtrack":5525,"adapt":5526,"Hard":5527,"contained":5528,"lic":5529,"editor":5530,"ucky":5531,"esc":5532,"Christmas":5533,"Allied":5534,"degree":5535,"gate":5536,"rane":5537,"oting":5538,"herself":5539,"workers":5540,"typically":5541,"Pennsyl":5542,"street":5543,"Mean":5544,"Beat":5545,"servation":5546,"unknown":5547,"pton":5548,"lives":5549,"simply":5550,"ette":5551,"rival":5552,"symp":5553,"mn":5554,"fiction":5555,"Wilson":5556,"emphas":5557,"Taylor":5558,"element":5559,"Joe":5560,"regarded":5561,"railway":5562,"wart":5563,"consecutive":5564,"dete":5565,"Columb":5566,"casual":5567,"1986":5568,"Dam":5569,"drive":5570,"chose":5571,"currently":5572,"Mul":5573,"Bell":5574,"ano":5575,"chance":5576,"boats":5577,"authority":5578,"nothing":5579,"Each":5580,"cannot":5581,"Alexander":5582,"marine":5583,"err":5584,"newly":5585,"ifying":5586,"participated":5587,"growing":5588,"awa":5589,"Corn":5590,"tail":5591,"broken":5592,"throw":5593,"Wel":5594,"brown":5595,"Down":5596,"Rod":5597,"mentioned":5598,"spirit":5599,"website":5600,"Head":5601,"Fam":5602,"strike":5603,"losing":5604,"newspaper":5605,"roof":5606,"exc":5607,"Ha":5608,"ancing":5609,"isters":5610,"producers":5611,"Blue":5612,"adopted":5613,"advanced":5614,"capacity":5615,"filming":5616,"Tech":5617,"tree":5618,"grade":5619,"experiment":5620,"compar":5621,"Storm":5622,"extra":5623,"risk":5624,"advert":5625,"moment":5626,"oppon":5627,"Festival":5628,"firm":5629,"What":5630,"disp":5631,"ilies":5632,"Pennsylvania":5633,"Islands":5634,"edom":5635,"opposition":5636,"mann":5637,"basis":5638,"imag":5639,"Chart":5640,"oppos":5641,"door":5642,"council":5643,"sites":5644,"uth":5645,"aud":5646,"abandoned":5647,"Kr":5648,"azz":5649,"Sound":5650,"budget":5651,"Further":5652,"fare":5653,"plants":5654,"Reception":5655,"Night":5656,"clo":5657,"Liber":5658,"Mike":5659,"Irish":5660,"yle":5661,"Ret":5662,"sections":5663,"committee":5664,"56":5665,"aved":5666,"flying":5667,"uce":5668,"Harry":5669,"honor":5670,"homes":5671,"filmed":5672,"bute":5673,"accompan":5674,"silver":5675,"tower":5676,"Spain":5677,"creating":5678,"franch":5679,"phas":5680,"purpose":5681,"otional":5682,"ables":5683,"gal":5684,"deploy":5685,"encounter":5686,"landing":5687,"Coast":5688,"99":5689,"rush":5690,"sail":5691,"Albert":5692,"inth":5693,"ju":5694,"chor":5695,"umber":5696,"Bon":5697,"Person":5698,"ounger":5699,"possibly":5700,"individuals":5701,"expansion":5702,"Jersey":5703,"wild":5704,"1990s":5705,"wel":5706,"tery":5707,"beyond":5708,"illy":5709,"apers":5710,"rank":5711,"eration":5712,"failure":5713,"fly":5714,"ager":5715,"measure":5716,"killing":5717,"Square":5718,"places":5719,"historical":5720,"CA":5721,"lane":5722,"draft":5723,"Ron":5724,"1939":5725,"occupied":5726,"multi":5727,"genus":5728,"Origin":5729,"paralle":5730,"achieved":5731,"intellig":5732,"uff":5733,"believe":5734,"management":5735,"Bol":5736,"roles":5737,"zy":5738,"Production":5739,"58":5740,"ctic":5741,"brid":5742,"narrow":5743,"Elizabeth":5744,"sche":5745,"retired":5746,"Ros":5747,"igg":5748,"Israel":5749,"integr":5750,"ideas":5751,"crowd":5752,"bility":5753,"Institute":5754,"rooms":5755,"eu":5756,"wid":5757,"improved":5758,"personnel":5759,"perman":5760,"Broad":5761,"Kel":5762,"disease":5763,"1985":5764,"briefly":5765,"Due":5766,"eds":5767,"seat":5768,"Doctor":5769,"Bart":5770,"sports":5771,"auto":5772,"Revolution":5773,"mounted":5774,"1968":5775,"effective":5776,"granted":5777,"nick":5778,"kilometres":5779,"Meanwhile":5780,"ocated":5781,"administration":5782,"repeated":5783,"advantage":5784,"porters":5785,"infantry":5786,"Republican":5787,"evacu":5788,"receive":5789,"Liver":5790,"perfect":5791,"turns":5792,"rejected":5793,"bom":5794,"ancy":5795,"twelve":5796,"interchange":5797,"gives":5798,"unique":5799,"crossing":5800,"extensive":5801,"rise":5802,"1970":5803,"custom":5804,"Album":5805,"leadership":5806,"agg":5807,"avalry":5808,"sufficient":5809,"experienced":5810,"Ohio":5811,"hair":5812,"iring":5813,"ques":5814,"Greg":5815,"enge":5816,"Clark":5817,"straight":5818,"Jes":5819,"champion":5820,"data":5821,"security":5822,"controlled":5823,"expanded":5824,"Sand":5825,"choice":5826,"describes":5827,"forming":5828,"Board":5829,"solo":5830,"fought":5831,"yellow":5832,"Secretary":5833,"zil":5834,"ani":5835,"afety":5836,"alty":5837,"Cub":5838,"1984":5839,"attribut":5840,"explos":5841,"acquired":5842,"entr":5843,"iments":5844,"note":5845,"hill":5846,"Sel":5847,"allows":5848,"caught":5849,"Mir":5850,"determined":5851,"tend":5852,"surrender":5853,"didn":5854,"credited":5855,"adelph":5856,"Are":5857,"inf":5858,"sort":5859,"Pu":5860,"cé":5861,"animal":5862,"abin":5863,"Philadelph":5864,"vehicles":5865,"Arm":5866,"families":5867,"ancient":5868,"suggests":5869,"Even":5870,"psych":5871,"stock":5872,"amin":5873,"venture":5874,"guard":5875,"iday":5876,"titles":5877,"drama":5878,"52":5879,"Cambridge":5880,"article":5881,"haps":5882,"ridge":5883,"Georgia":5884,"Bud":5885,"comedy":5886,"NC":5887,"enc":5888,"eyes":5889,"Never":5890,"Ul":5891,"commonly":5892,"Hon":5893,"seventh":5894,"DS":5895,"mod":5896,"ivity":5897,"800":5898,"Philadelphia":5899,"kins":5900,"acad":5901,"prefer":5902,"Ten":5903,"headquarters":5904,"nuclear":5905,"shark":5906,"iful":5907,"Rel":5908,"ec":5909,"powers":5910,"Hit":5911,"Sher":5912,"holding":5913,"connected":5914,"authorities":5915,"sle":5916,"sand":5917,"ola":5918,"Also":5919,"sac":5920,"contain":5921,"anning":5922,"yst":5923,"restling":5924,"gi":5925,"store":5926,"ardi":5927,"labor":5928,"centuries":5929,"islands":5930,"Addition":5931,"1967":5932,"beaut":5933,"burgh":5934,"Russia":5935,"recently":5936,"attle":5937,"cultural":5938,"End":5939,"protected":5940,"Gall":5941,"1980":5942,"Point":5943,"etball":5944,"Among":5945,"battalion":5946,"asc":5947,"simple":5948,"ike":5949,"depict":5950,"Korean":5951,"estic":5952,"turret":5953,"finds":5954,"wise":5955,"umes":5956,"decre":5957,"lyn":5958,"Ottoman":5959,"Miss":5960,"Nintend":5961,"Asia":5962,"Liverpool":5963,"agan":5964,"defence":5965,"reput":5966,"120":5967,"singing":5968,"Nintendo":5969,"phone":5970,"speak":5971,"existing":5972,"ont":5973,"approved":5974,"iana":5975,"Rose":5976,"accompanied":5977,"Columbia":5978,"Chap":5979,"entirely":5980,"dollar":5981,"96":5982,"touchdown":5983,"height":5984,"Tro":5985,"shop":5986,"goes":5987,"containing":5988,"fields":5989,"bands":5990,"Champion":5991,"extr":5992,"Pers":5993,"zer":5994,"scheduled":5995,"orche":5996,"protect":5997,"contributed":5998,"Jenn":5999,"adap":6000,"88":6001,"themes":6002,"Prime":6003,"Jean":6004,"sport":6005,"analysis":6006,"flooding":6007,"Lieutenant":6008,"Development":6009,"Singap":6010,"purchased":6011,"Jewish":6012,"Lincol":6013,"provides":6014,"younger":6015,"oll":6016,"Ve":6017,"conve":6018,"Burn":6019,"computer":6020,"1983":6021,"Gulf":6022,"Jun":6023,"performing":6024,"FL":6025,"prising":6026,"awards":6027,"isers":6028,"locations":6029,"Brazil":6030,"defensive":6031,"iny":6032,"quite":6033,"Rus":6034,"Mos":6035,"Ind":6036,"Hay":6037,"arrival":6038,"Carey":6039,"51":6040,"oma":6041,"headed":6042,"aste":6043,"viewed":6044,"Office":6045,"engaged":6046,"hang":6047,"resem":6048,"1969":6049,"Francisco":6050,"Anderson":6051,"victim":6052,"gather":6053,"Singapore":6054,"Les":6055,"People":6056,"motion":6057,"intensity":6058,"1964":6059,"filled":6060,"Lar":6061,"illustr":6062,"expedition":6063,"Lis":6064,"Order":6065,"formula":6066,"Lincoln":6067,"Die":6068,"mate":6069,"ceremony":6070,"dedicated":6071,"employed":6072,"Sa":6073,"fresh":6074,"Han":6075,"ko":6076,"Radio":6077,"arc":6078,"philos":6079,"Ep":6080,"HMS":6081,"Kir":6082,"myth":6083,"Bas":6084,"sun":6085,"repl":6086,"1914":6087,"why":6088,"joint":6089,"structures":6090,"prepared":6091,"outs":6092,"1918":6093,"79":6094,"ees":6095,"agement":6096,"ule":6097,"Disney":6098,"dry":6099,"cles":6100,"4th":6101,"industrial":6102,"defined":6103,"Oli":6104,"1971":6105,"Turn":6106,"recru":6107,"Dark":6108,"PlayStation":6109,"cat":6110,"sens":6111,"Walter":6112,"1982":6113,"charged":6114,"Ven":6115,"Si":6116,"exer":6117,"closely":6118,"escort":6119,"PC":6120,"consists":6121,"focused":6122,"negoti":6123,"Six":6124,"Metro":6125,"1972":6126,"1966":6127,"Conference":6128,"1979":6129,"drawn":6130,"Lewis":6131,"Steve":6132,"Miller":6133,"protection":6134,"comic":6135,"Brian":6136,"Ko":6137,"product":6138,"technology":6139,"egg":6140,"piano":6141,"facilities":6142,"elimin":6143,"supporting":6144,"Mis":6145,"18th":6146,"Once":6147,"criticism":6148,"preced":6149,"union":6150,"Byz":6151,"ji":6152,"tact":6153,"selection":6154,"Brook":6155,"Olympic":6156,"belong":6157,"susp":6158,"shooting":6159,"discus":6160,"earch":6161,"Emperor":6162,"strip":6163,"advis":6164,"regions":6165,"ilton":6166,"etic":6167,"1965":6168,"visual":6169,"rence":6170,"rear":6171,"Sus":6172,"motor":6173,"Grant":6174,"trail":6175,"Byzant":6176,"belief":6177,"Child":6178,"Railway":6179,"hired":6180,"receiving":6181,"anda":6182,"satis":6183,"onom":6184,"conference":6185,"NHL":6186,"opportunity":6187,"emb":6188,"substant":6189,"kee":6190,"display":6191,"knot":6192,"uct":6193,"recognized":6194,"1975":6195,"correspond":6196,"Blo":6197,"strengthen":6198,"notable":6199,"rupt":6200,"cars":6201,"possess":6202,"Es":6203,"tank":6204,"calls":6205,"Jr":6206,"trains":6207,"ours":6208,"resident":6209,"Germans":6210,"providing":6211,"composition":6212,"Ka":6213,"Only":6214,"Hollywood":6215,"Mod":6216,"iance":6217,"alternative":6218,"Gro":6219,"rapidly":6220,"Summer":6221,"lb":6222,"casualties":6223,"agent":6224,"ween":6225,"59":6226,"57":6227,"liber":6228,"merch":6229,"1974":6230,"charts":6231,"izes":6232,"Davis":6233,"southwest":6234,"achu":6235,"Cur":6236,"exter":6237,"reaction":6238,"desc":6239,"1973":6240,"Water":6241,"resc":6242,"Indu":6243,"Democratic":6244,"Bank":6245,"volume":6246,"publication":6247,"Serb":6248,"digital":6249,"bac":6250,"aly":6251,"ads":6252,"shared":6253,"constant":6254,"Fall":6255,"steel":6256,"iet":6257,"involve":6258,"Between":6259,"Rome":6260,"Daily":6261,"hydro":6262,"highlight":6263,"68":6264,"missing":6265,"economy":6266,"temperature":6267,"1976":6268,"label":6269,"Op":6270,"developing":6271,"adding":6272,"unting":6273,"card":6274,"Pet":6275,"intersection":6276,"lake":6277,"Knight":6278,"ogy":6279,"uan":6280,"Lady":6281,"reflect":6282,"glass":6283,"Ri":6284,"secondary":6285,"icial":6286,"Special":6287,"letters":6288,"Jour":6289,"popularity":6290,"ods":6291,"Mount":6292,"march":6293,"getting":6294,"injured":6295,"formal":6296,"symbol":6297,"inspir":6298,"eleven":6299,"isol":6300,"urb":6301,"painting":6302,"losses":6303,"ceived":6304,"witness":6305,"raid":6306,"oncé":6307,"acks":6308,"Lind":6309,"itled":6310,"trip":6311,"mast":6312,"partn":6313,"crimin":6314,"Bad":6315,"significantly":6316,"brand":6317,"franchise":6318,"portray":6319,"Pit":6320,"hed":6321,"MA":6322,"emic":6323,"unte":6324,"Women":6325,"250":6326,"knew":6327,"save":6328,"poll":6329,"abo":6330,"Nap":6331,"UN":6332,"semi":6333,"hot":6334,"Arts":6335,"Muslim":6336,"54":6337,"math":6338,"literature":6339,"remo":6340,"roughly":6341,"abour":6342,"shape":6343,"distinct":6344,"Syd":6345,"Tam":6346,"actress":6347,"evin":6348,"fash":6349,"inal":6350,"dram":6351,"Beyoncé":6352,"cricket":6353,"Colonel":6354,"brothers":6355,"introduction":6356,"anything":6357,"53":6358,"inger":6359,"Naz":6360,"regarding":6361,"projects":6362,"Dor":6363,"Press":6364,"museum":6365,"nic":6366,"án":6367,"resistance":6368,"iers":6369,"scientific":6370,"ux":6371,"ully":6372,"grapher":6373,"89":6374,"avig":6375,"Nick":6376,"arranged":6377,"gameplay":6378,"IG":6379,"bishop":6380,"Supreme":6381,"storyline":6382,"neighbor":6383,"Kentucky":6384,"gro":6385,"distingu":6386,"reasons":6387,"zen":6388,"ulate":6389,"rules":6390,"bid":6391,"daily":6392,"aka":6393,"1946":6394,"shaped":6395,"cool":6396,"1981":6397,"missions":6398,"cruiser":6399,"stages":6400,"accur":6401,"itors":6402,"turning":6403,"watched":6404,"plane":6405,"cells":6406,"ulpt":6407,"Gord":6408,"capable":6409,"perhaps":6410,"declined":6411,"renamed":6412,"annon":6413,"converted":6414,"ients":6415,"setts":6416,"istry":6417,"acres":6418,"160":6419,"enjoyed":6420,"rhy":6421,"Prote":6422,"laws":6423,"1950s":6424,"Mun":6425,"trou":6426,"opinion":6427,"asty":6428,"Bern":6429,"1917":6430,"Dream":6431,"estate":6432,"Norway":6433,"Massachu":6434,"poem":6435,"reputation":6436,"cited":6437,"Base":6438,"ultural":6439,"BN":6440,"recon":6441,"publish":6442,"87":6443,"abilities":6444,"Olympics":6445,"dates":6446,"operating":6447,"stable":6448,"Ell":6449,"udes":6450,"awn":6451,"Fair":6452,"replace":6453,"statement":6454,"agric":6455,"retire":6456,"asser":6457,"existence":6458,"Massachusetts":6459,"ading":6460,"Det":6461,"genre":6462,"Nel":6463,"rog":6464,"buried":6465,"enh":6466,"producing":6467,"graded":6468,"AD":6469,"marks":6470,"tos":6471,"combination":6472,"exact":6473,"knowledge":6474,"mad":6475,"depth":6476,"Philip":6477,"increasingly":6478,"Public":6479,"aug":6480,"ura":6481,"scholar":6482,"zone":6483,"planning":6484,"limit":6485,"approached":6486,"flat":6487,"heim":6488,"lease":6489,"responded":6490,"Pict":6491,"Tod":6492,"stadium":6493,"BS":6494,"ride":6495,"Airport":6496,"Gree":6497,"aer":6498,"Independ":6499,"1948":6500,"Vide":6501,"Der":6502,"easily":6503,"Whit":6504,"collected":6505,"Golden":6506,"Run":6507,"settlement":6508,"sects":6509,"anth":6510,"expect":6511,"bling":6512,"1960":6513,"Ball":6514,"FC":6515,"amond":6516,"Ari":6517,"Cir":6518,"Elect":6519,"succeeded":6520,"equal":6521,"sustained":6522,"About":6523,"IA":6524,"photograph":6525,"models":6526,"platform":6527,"ctors":6528,"safety":6529,"learned":6530,"Mit":6531,"Simpsons":6532,"67":6533,"ias":6534,"69":6535,"Earl":6536,"humans":6537,"secure":6538,"Imperial":6539,"1978":6540,"Pass":6541,"carrying":6542,"ES":6543,"Init":6544,"promotion":6545,"Vietnam":6546,"rol":6547,"youth":6548,"aust":6549,"showing":6550,"sie":6551,"indicated":6552,"baseball":6553,"Ice":6554,"exchange":6555,"owner":6556,"Songs":6557,"ignment":6558,"Kh":6559,"iger":6560,"auth":6561,"lasted":6562,"weakened":6563,"Rac":6564,"paint":6565,"breeding":6566,"athan":6567,"violence":6568,"Hugh":6569,"seems":6570,"Stand":6571,"MTV":6572,"rob":6573,"1915":6574,"Cape":6575,"icks":6576,"cruisers":6577,"uration":6578,"designs":6579,"700":6580,"athlet":6581,"agu":6582,"ruled":6583,"freeway":6584,"Shortly":6585,"cold":6586,"landfall":6587,"univers":6588,"earliest":6589,"proceed":6590,"entry":6591,"borough":6592,"Sydney":6593,"sculpt":6594,"retained":6595,"Hart":6596,"1977":6597,"trust":6598,"Poland":6599,"icate":6600,"description":6601,"Moore":6602,"safe":6603,"Naval":6604,"Who":6605,"install":6606,"assistant":6607,"reserve":6608,"Maryland":6609,"applied":6610,"seas":6611,"none":6612,"issance":6613,"grounds":6614,"Form":6615,"urs":6616,"inton":6617,"programs":6618,"borne":6619,"Found":6620,"hits":6621,"serves":6622,"insula":6623,"coastal":6624,"writes":6625,"resour":6626,"ampions":6627,"playoff":6628,"CE":6629,"wich":6630,"entrance":6631,"page":6632,"Band":6633,"1963":6634,"domestic":6635,"virt":6636,"fix":6637,"dial":6638,"Ra":6639,"delivered":6640,"battery":6641,"neut":6642,"stret":6643,"1916":6644,"ental":6645,"stopped":6646,"strate":6647,"Rhodes":6648,"ii":6649,"exclus":6650,"istan":6651,"Jay":6652,"Spring":6653,"candidate":6654,"gradually":6655,"items":6656,"cler":6657,"Hun":6658,"politics":6659,"iverse":6660,"breaking":6661,"elled":6662,"ining":6663,"heat":6664,"supplies":6665,"apped":6666,"settled":6667,"onym":6668,"details":6669,"independence":6670,"solid":6671,"Edu":6672,"Confed":6673,"zo":6674,"eff":6675,"interested":6676,"ears":6677,"distribution":6678,"Prin":6679,"ador":6680,"warm":6681,"Matt":6682,"86":6683,"towns":6684,"Vo":6685,"ries":6686,"asks":6687,"fine":6688,"Gordon":6689,"72":6690,"Mulder":6691,"affect":6692,"bask":6693,"engines":6694,"equival":6695,"finding":6696,"cinem":6697,"wr":6698,"minister":6699,"camera":6700,"parties":6701,"ifications":6702,"Tun":6703,"decis":6704,"phoon":6705,"appeal":6706,"Stadium":6707,"1919":6708,"prisoners":6709,"Bir":6710,"Cont":6711,"1962":6712,"campus":6713,"gall":6714,"py":6715,"aret":6716,"refle":6717,"entitled":6718,"winner":6719,"extremely":6720,"illi":6721,"osis":6722,"Carl":6723,"iversary":6724,"Fire":6725,"foss":6726,"Here":6727,"online":6728,"rose":6729,"regiment":6730,"Adams":6731,"Net":6732,"convin":6733,"Philipp":6734,"investigation":6735,"Space":6736,"mical":6737,"copy":6738,"ipe":6739,"Theatre":6740,"decade":6741,"evening":6742,"lee":6743,"lets":6744,"Premi":6745,"Kim":6746,"1938":6747,"adapted":6748,"Sul":6749,"studied":6750,"offers":6751,"poration":6752,"bought":6753,"survived":6754,"inois":6755,"knots":6756,"classified":6757,"inary":6758,"hear":6759,"threatened":6760,"religion":6761,"voted":6762,"consum":6763,"isms":6764,"deaths":6765,"Prof":6766,"Bowl":6767,"message":6768,"classic":6769,"61":6770,"Moon":6771,"Justice":6772,"routes":6773,"rie":6774,"Research":6775,"relations":6776,"relief":6777,"stic":6778,"aine":6779,"proposal":6780,"Instead":6781,"izations":6782,"installed":6783,"download":6784,"bottom":6785,"crown":6786,"revolution":6787,"tanks":6788,"cation":6789,"mine":6790,"swe":6791,"Constant":6792,"kingdom":6793,"reduce":6794,"specifically":6795,"Age":6796,"ophy":6797,"phase":6798,"bourne":6799,"acid":6800,"yo":6801,"males":6802,"ansas":6803,"USA":6804,"happy":6805,"orter":6806,"62":6807,"fi":6808,"implement":6809,"recalled":6810,"portrayed":6811,"fict":6812,"uzz":6813,"duty":6814,"controversy":6815,"ira":6816,"compon":6817,"imet":6818,"ishes":6819,"aked":6820,"fal":6821,"ester":6822,"diss":6823,"wides":6824,"pread":6825,"wan":6826,"servative":6827,"appropri":6828,"ighters":6829,"products":6830,"causes":6831,"everything":6832,"pel":6833,"send":6834,"arrested":6835,"Tony":6836,"references":6837,"Let":6838,"fil":6839,"meters":6840,"shel":6841,"Beach":6842,"walk":6843,"importance":6844,"Sav":6845,"faith":6846,"Iron":6847,"thin":6848,"Alan":6849,"typical":6850,"130":6851,"crossed":6852,"visible":6853,"1956":6854,"1930s":6855,"bringing":6856,"express":6857,"Anth":6858,"AR":6859,"NBA":6860,"Singles":6861,"81":6862,"Loc":6863,"invited":6864,"presents":6865,"entially":6866,"Director":6867,"overs":6868,"ati":6869,"starts":6870,"opher":6871,"opera":6872,"reading":6873,"admitted":6874,"corner":6875,"tall":6876,"nomination":6877,"angle":6878,"ja":6879,"Video":6880,"lad":6881,"internal":6882,"equipped":6883,"Kong":6884,"aints":6885,"istered":6886,"ipated":6887,"concerns":6888,"crop":6889,"sequences":6890,"Jane":6891,"Simon":6892,"Pur":6893,"Power":6894,"1936":6895,"IGN":6896,"Bos":6897,"convoy":6898,"Critical":6899,"armour":6900,"Engine":6901,"emies":6902,"volcan":6903,"amoun":6904,"Hamilton":6905,"Donald":6906,"actual":6907,"principal":6908,"ranean":6909,"incorporated":6910,"hun":6911,"images":6912,"recommended":6913,"Ow":6914,"Nat":6915,"remainder":6916,"crime":6917,"UTC":6918,"dream":6919,"ibility":6920,"vard":6921,"Maria":6922,"journey":6923,"shots":6924,"Your":6925,"Adam":6926,"medal":6927,"17th":6928,"ration":6929,"assess":6930,"ordan":6931,"Plot":6932,"thew":6933,"prot":6934,"consisting":6935,"storms":6936,"price":6937,"hr":6938,"funds":6939,"una":6940,"promote":6941,"considerable":6942,"Wild":6943,"1961":6944,"objects":6945,"composer":6946,"appointment":6947,"Kat":6948,"Ur":6949,"Indones":6950,"ima":6951,"charges":6952,"snow":6953,"milit":6954,"leton":6955,"extension":6956,"ilation":6957,"females":6958,"Memorial":6959,"frag":6960,"ni":6961,"ches":6962,"posted":6963,"claiming":6964,"Rand":6965,"Death":6966,"otic":6967,"looked":6968,"mort":6969,"Today":6970,"AAF":6971,"1953":6972,"WWE":6973,"spons":6974,"duties":6975,"7th":6976,"sters":6977,"generation":6978,"Military":6979,"Rem":6980,"Gram":6981,"canal":6982,"clean":6983,"rett":6984,"Nether":6985,"someone":6986,"rural":6987,"Hitler":6988,"5th":6989,"bra":6990,"Kennedy":6991,"beach":6992,"mere":6993,"eighth":6994,"Cleve":6995,"Sunday":6996,"decades":6997,"driving":6998,"Howard":6999,"Transport":7000,"hope":7001,"wed":7002,"Indiana":7003,"perior":7004,"cycle":7005,"Ant":7006,"gone":7007,"Norman":7008,"acre":7009,"challenge":7010,"Tit":7011,"Walk":7012,"san":7013,"identity":7014,"connection":7015,"Sky":7016,"oe":7017,"apping":7018,"ulture":7019,"permanent":7020,"occurs":7021,"outer":7022,"manner":7023,"afford":7024,"brigade":7025,"Harr":7026,"Norwe":7027,"onia":7028,"aki":7029,"casting":7030,"answ":7031,"Scully":7032,"freedom":7033,"entering":7034,"thesis":7035,"aspects":7036,"Five":7037,"1947":7038,"Arsen":7039,"inher":7040,"ader":7041,"divisions":7042,"fashion":7043,"Leon":7044,"attached":7045,"liked":7046,"Plan":7047,"tunnel":7048,"110":7049,"mole":7050,"glas":7051,"concerned":7052,"willing":7053,"Ross":7054,"ician":7055,"noting":7056,"slowly":7057,"1958":7058,"1937":7059,"classes":7060,"prised":7061,"rend":7062,"Brist":7063,"hotel":7064,"1910":7065,"lling":7066,"junction":7067,"cens":7068,"restaur":7069,"vessels":7070,"74":7071,"Sl":7072,"ora":7073,"oldest":7074,"involving":7075,"supporters":7076,"seeing":7077,"Ryan":7078,"dub":7079,"department":7080,"itage":7081,"Vill":7082,"enemies":7083,"describing":7084,"Wars":7085,"Project":7086,"resent":7087,"1957":7088,"nie":7089,"scar":7090,"antly":7091,"owners":7092,"intention":7093,"purchase":7094,"Bry":7095,"valu":7096,"til":7097,"Assembly":7098,"armor":7099,"equivalent":7100,"Gun":7101,"obtained":7102,"theatre":7103,"Science":7104,"debate":7105,"iques":7106,"ynasty":7107,"possibility":7108,"Pear":7109,"Jac":7110,"grave":7111,"mud":7112,"regon":7113,"63":7114,"parliament":7115,"decor":7116,"regularly":7117,"widespread":7118,"Magazine":7119,"basic":7120,"agonist":7121,"convent":7122,"iley":7123,"committed":7124,"icit":7125,"decline":7126,"Turk":7127,"sessions":7128,"Rolling":7129,"ici":7130,"income":7131,"Oregon":7132,"agues":7133,"prede":7134,"Pot":7135,"recognition":7136,"certified":7137,"populations":7138,"departure":7139,"Cleveland":7140,"erald":7141,"brain":7142,"Pa":7143,"accused":7144,"Throughout":7145,"scious":7146,"acknow":7147,"Illinois":7148,"Jordan":7149,"pup":7150,"Douglas":7151,"Hou":7152,"deleg":7153,"constitut":7154,"frame":7155,"derived":7156,"Isa":7157,"sequel":7158,"nut":7159,"Weekly":7160,"assumed":7161,"Master":7162,"Pier":7163,"esh":7164,"intelligence":7165,"segment":7166,"1959":7167,"Andy":7168,"Media":7169,"sam":7170,"hosted":7171,"wearing":7172,"survey":7173,"skin":7174,"Card":7175,"iven":7176,"Stanley":7177,"icide":7178,"agn":7179,"iro":7180,"returns":7181,"Family":7182,"historic":7183,"citizens":7184,"6th":7185,"stands":7186,"valley":7187,"temple":7188,"Arsenal":7189,"Third":7190,"terminus":7191,"literary":7192,"Ku":7193,"iterranean":7194,"denied":7195,"parallel":7196,"Cas":7197,"regional":7198,"transition":7199,"torn":7200,"Roger":7201,"Key":7202,"Kevin":7203,"Cre":7204,"lose":7205,"Recording":7206,"noon":7207,"animated":7208,"Mediterranean":7209,"Freder":7210,"Beatles":7211,"inity":7212,"guil":7213,"Bruce":7214,"Mexican":7215,"DE":7216,"akers":7217,"interpret":7218,"Ira":7219,"pled":7220,"circum":7221,"thousands":7222,"uni":7223,"supposed":7224,"graphics":7225,"1955":7226,"clip":7227,"check":7228,"1954":7229,"altern":7230,"ISBN":7231,"Norwegian":7232,"Bristol":7233,"gets":7234,"Treat":7235,"Alf":7236,"plate":7237,"gers":7238,"intr":7239,"Gra":7240,"strongly":7241,"wickets":7242,"Federal":7243,"sailed":7244,"Allen":7245,"fruit":7246,"ione":7247,"mosphere":7248,"proto":7249,"eman":7250,"address":7251,"thedr":7252,"trait":7253,"raise":7254,"convict":7255,"aboard":7256,"circulation":7257,"passengers":7258,"Rain":7259,"downtown":7260,"behavior":7261,"impl":7262,"16th":7263,"Girl":7264,"link":7265,"thetic":7266,"emerged":7267,"clubs":7268,"races":7269,"Morgan":7270,"mates":7271,"thirty":7272,"fictional":7273,"commanded":7274,"Glo":7275,"prey":7276,"aced":7277,"tied":7278,"conduct":7279,"establishment":7280,"ML":7281,"conscious":7282,"replacement":7283,"shr":7284,"82":7285,"neck":7286,"Bush":7287,"instru":7288,"begun":7289,"tex":7290,"uous":7291,"Channel":7292,"operate":7293,"emed":7294,"ocked":7295,"assistance":7296,"Now":7297,"aran":7298,"ologist":7299,"generated":7300,"destruction":7301,"Korea":7302,"Tenn":7303,"vary":7304,"exception":7305,"norm":7306,"task":7307,"71":7308,"CR":7309,"magn":7310,"feeling":7311,"telling":7312,"costs":7313,"Ali":7314,"moves":7315,"cou":7316,"migr":7317,"volunte":7318,"Within":7319,"attributed":7320,"apart":7321,"sud":7322,"atinum":7323,"Forest":7324,"speaking":7325,"orient":7326,"finishing":7327,"driven":7328,"anned":7329,"demol":7330,"13th":7331,"alleged":7332,"recovered":7333,"orb":7334,"Additionally":7335,"stayed":7336,"strateg":7337,"appearing":7338,"Ut":7339,"unusual":7340,"Color":7341,"kid":7342,"opposite":7343,"dict":7344,"Fame":7345,"sight":7346,"joining":7347,"Kin":7348,"properties":7349,"grass":7350,"Argent":7351,"dipl":7352,"Lisa":7353,"1952":7354,"73":7355,"Low":7356,"shif":7357,"Dig":7358,"Confeder":7359,"responsibility":7360,"Row":7361,"atmosphere":7362,"cow":7363,"institut":7364,"Profess":7365,"fled":7366,"garrison":7367,"chorus":7368,"abol":7369,"occasionally":7370,"fighter":7371,"fitted":7372,"abled":7373,"Robinson":7374,"cavalry":7375,"atus":7376,"Ok":7377,"Prior":7378,"completion":7379,"Murray":7380,"effectively":7381,"surviving":7382,"Lenn":7383,"Nich":7384,"sounds":7385,"Morris":7386,"1933":7387,"methods":7388,"dang":7389,"Anne":7390,"Similar":7391,"astron":7392,"swim":7393,"Television":7394,"Somer":7395,"scrap":7396,"Around":7397,"province":7398,"Ever":7399,"Unlike":7400,"column":7401,"alco":7402,"materials":7403,"Hawai":7404,"84":7405,"Anton":7406,"Construction":7407,"demo":7408,"warning":7409,"Temple":7410,"ingly":7411,"classical":7412,"attracted":7413,"accom":7414,"persu":7415,"doub":7416,"technical":7417,"ords":7418,"girls":7419,"opt":7420,"Lyn":7421,"iller":7422,"quant":7423,"global":7424,"fear":7425,"classification":7426,"Nelson":7427,"erup":7428,"climate":7429,"aza":7430,"Patrick":7431,"differences":7432,"keeping":7433,"passage":7434,"sequently":7435,"inde":7436,"poly":7437,"select":7438,"sid":7439,"Fish":7440,"mobile":7441,"neither":7442,"enses":7443,"1935":7444,"Sweden":7445,"reform":7446,"pure":7447,"association":7448,"weigh":7449,"Finn":7450,"Winter":7451,"basketball":7452,"Fron":7453,"rus":7454,"Anim":7455,"count":7456,"boys":7457,"reinforce":7458,"battleships":7459,"bels":7460,"alph":7461,"tie":7462,"massive":7463,"ensure":7464,"concer":7465,"Welsh":7466,"uit":7467,"1949":7468,"Premier":7469,"Mas":7470,"poses":7471,"credit":7472,"reality":7473,"painted":7474,"ratings":7475,"tip":7476,"1951":7477,"Nations":7478,"FI":7479,"controversi":7480,"desire":7481,"code":7482,"Toronto":7483,"separated":7484,"votes":7485,"outbreak":7486,"Journal":7487,"requested":7488,"seemed":7489,"vehicle":7490,"predecess":7491,"shar":7492,"historians":7493,"Web":7494,"fur":7495,"Matthew":7496,"picture":7497,"restored":7498,"Ak":7499,"memory":7500,"movements":7501,"revi":7502,"oslav":7503,"infe":7504,"Byzantine":7505,"hoped":7506,"PS":7507,"cel":7508,"loyd":7509,"Netherlands":7510,"soul":7511,"carbon":7512,"difficulty":7513,"funding":7514,"scape":7515,"Marine":7516,"convinced":7517,"Gill":7518,"Jam":7519,"Every":7520,"programme":7521,"ios":7522,"pir":7523,"uty":7524,"Chron":7525,"cript":7526,"communities":7527,"remember":7528,"agle":7529,"Ford":7530,"cloud":7531,"Dri":7532,"Dean":7533,"Az":7534,"map":7535,"Jews":7536,"thedral":7537,"fee":7538,"Iraq":7539,"cos":7540,"dating":7541,"delayed":7542,"premiere":7543,"EC":7544,"MI":7545,"discovery":7546,"praise":7547,"assem":7548,"Again":7549,"anniversary":7550,"ala":7551,"weapon":7552,"98":7553,"Open":7554,"honour":7555,"pattern":7556,"Story":7557,"greatly":7558,"consult":7559,"Design":7560,"injuries":7561,"inspiration":7562,"Dog":7563,"thy":7564,"leads":7565,"otherwise":7566,"solution":7567,"1900":7568,"boil":7569,"Hero":7570,"batting":7571,"accounts":7572,"moral":7573,"anny":7574,"94":7575,"surrounded":7576,"Bishop":7577,"ucks":7578,"spoke":7579,"oked":7580,"needs":7581,"penalty":7582,"partner":7583,"bear":7584,"Sports":7585,"Techn":7586,"Bou":7587,"Russell":7588,"Ey":7589,"throne":7590,"ureau":7591,"crosses":7592,"strategy":7593,"rip":7594,"Heart":7595,"Thomp":7596,"cock":7597,"agree":7598,"comparison":7599,"elev":7600,"sees":7601,"Tal":7602,"vive":7603,"architecture":7604,"involvement":7605,"Puer":7606,"DNA":7607,"ige":7608,"Av":7609,"Domin":7610,"wrong":7611,"Oak":7612,"Sax":7613,"documentary":7614,"accompl":7615,"Lau":7616,"worst":7617,"12th":7618,"musicians":7619,"Croatian":7620,"ography":7621,"learn":7622,"remn":7623,"vince":7624,"termine":7625,"rates":7626,"umin":7627,"Bah":7628,"Free":7629,"Hop":7630,"Pow":7631,"elling":7632,"chairman":7633,"determine":7634,"formally":7635,"dismissed":7636,"colonial":7637,"NFL":7638,"Thompson":7639,"9th":7640,"ua":7641,"Armen":7642,"category":7643,"forcing":7644,"Dick":7645,"cement":7646,"falling":7647,"MC":7648,"sale":7649,"trained":7650,"Centre":7651,"gross":7652,"intense":7653,"infl":7654,"micro":7655,"adaptation":7656,"Last":7657,"quir":7658,"Carter":7659,"resources":7660,"library":7661,"somewhat":7662,"Shar":7663,"Islam":7664,"interests":7665,"Kelly":7666,"scheme":7667,"Brun":7668,"immediate":7669,"Holy":7670,"Puerto":7671,"starred":7672,"vul":7673,"medieval":7674,"adults":7675,"rhyth":7676,"NBC":7677,"bond":7678,"tack":7679,"commem":7680,"sized":7681,"Bi":7682,"presidential":7683,"academic":7684,"pound":7685,"mont":7686,"pregn":7687,"legs":7688,"Hend":7689,"invent":7690,"ardian":7691,"lins":7692,"oty":7693,"Along":7694,"techniques":7695,"fighters":7696,"theat":7697,"meets":7698,"attacking":7699,"alien":7700,"modified":7701,"elections":7702,"profit":7703,"ninth":7704,"faces":7705,"Hungarian":7706,"streets":7707,"frequent":7708,"buy":7709,"difference":7710,"BI":7711,"fold":7712,"stro":7713,"audio":7714,"Bed":7715,"Niel":7716,"themat":7717,"measures":7718,"falls":7719,"Labor":7720,"submarine":7721,"superior":7722,"reviewer":7723,"passenger":7724,"83":7725,"oles":7726,"1913":7727,"interior":7728,"Constitution":7729,"MP":7730,"electron":7731,"absence":7732,"Wright":7733,"Beck":7734,"arrangement":7735,"controversial":7736,"favorite":7737,"landed":7738,"bron":7739,"Modern":7740,"airport":7741,"ugu":7742,"firing":7743,"Thus":7744,"phr":7745,"observ":7746,"Parker":7747,"engineer":7748,"premiered":7749,"stan":7750,"impressed":7751,"bean":7752,"convection":7753,"margin":7754,"Build":7755,"Cra":7756,"deemed":7757,"ava":7758,"porter":7759,"Hell":7760,"Batman":7761,"Harris":7762,"conclusion":7763,"Ath":7764,"1927":7765,"romantic":7766,"shut":7767,"enters":7768,"1926":7769,"continuing":7770,"Steven":7771,"Bang":7772,"Pak":7773,"renew":7774,"characteristics":7775,"belt":7776,"wins":7777,"Berlin":7778,"Ban":7779,"afterwards":7780,"oman":7781,"Late":7782,"infr":7783,"myster":7784,"talk":7785,"facility":7786,"Seven":7787,"crete":7788,"Library":7789,"Eric":7790,"unch":7791,"suffering":7792,"munic":7793,"encouraged":7794,"colony":7795,"temperatures":7796,"giant":7797,"Benn":7798,"Minn":7799,"secured":7800,"retirement":7801,"tenance":7802,"eggs":7803,"owed":7804,"1921":7805,"ameter":7806,"1934":7807,"everyone":7808,"Front":7809,"cha":7810,"biography":7811,"ipl":7812,"informed":7813,"cloth":7814,"vac":7815,"legislation":7816,"Education":7817,"ceased":7818,"cris":7819,"archae":7820,"attempting":7821,"itzer":7822,"Commonwealth":7823,"believes":7824,"aux":7825,"defended":7826,"iate":7827,"horn":7828,"toms":7829,"styles":7830,"rome":7831,"authors":7832,"facing":7833,"judge":7834,"distributed":7835,"Police":7836,"dominated":7837,"rescue":7838,"Cop":7839,"RAAF":7840,"wings":7841,"curren":7842,"asure":7843,"pointed":7844,"depicted":7845,"Houston":7846,"apse":7847,"Commander":7848,"900":7849,"Santa":7850,"roit":7851,"ool":7852,"Palace":7853,"anyone":7854,"93":7855,"Dist":7856,"Hospital":7857,"huge":7858,"standards":7859,"ixon":7860,"Raj":7861,"habitat":7862,"1912":7863,"cancer":7864,"longest":7865,"unsuccessful":7866,"agas":7867,"Vis":7868,"carrier":7869,"acknowled":7870,"finals":7871,"monarch":7872,"Silver":7873,"ware":7874,"teor":7875,"Tok":7876,"Var":7877,"empt":7878,"representing":7879,"Sab":7880,"Wis":7881,"biggest":7882,"stal":7883,"Jacob":7884,"merged":7885,"Swedish":7886,"stances":7887,"AI":7888,"Wy":7889,"sudden":7890,"dress":7891,"Samuel":7892,"Indians":7893,"graphical":7894,"remix":7895,"layer":7896,"Cry":7897,"ultane":7898,"Bri":7899,"oke":7900,"Offic":7901,"immigr":7902,"Track":7903,"1932":7904,"Reser":7905,"Simpson":7906,"deployed":7907,"Yug":7908,"abinet":7909,"toll":7910,"comfort":7911,"140":7912,"changing":7913,"Cru":7914,"bridges":7915,"aire":7916,"dimen":7917,"Corporation":7918,"Yan":7919,"veter":7920,"Mot":7921,"ners":7922,"uding":7923,"releases":7924,"harmon":7925,"Warner":7926,"ón":7927,"closer":7928,"formerly":7929,"retreat":7930,"beautiful":7931,"convention":7932,"91":7933,"Jason":7934,"adj":7935,"intent":7936,"97":7937,"Gard":7938,"Anthony":7939,"moderate":7940,"comed":7941,"TA":7942,"trials":7943,"RAF":7944,"Yugoslav":7945,"emergency":7946,"Work":7947,"Wing":7948,"bone":7949,"emotional":7950,"assass":7951,"siege":7952,"Social":7953,"gay":7954,"vy":7955,"util":7956,"journalist":7957,"encies":7958,"Lam":7959,"hypo":7960,"influential":7961,"Author":7962,"successor":7963,"festival":7964,"pin":7965,"narrative":7966,"Dom":7967,"mart":7968,"eless":7969,"questions":7970,"satisf":7971,"iat":7972,"Detroit":7973,"ugg":7974,"oxy":7975,"Croatia":7976,"Rap":7977,"hunting":7978,"suitable":7979,"squad":7980,"factory":7981,"treated":7982,"courts":7983,"bright":7984,"1929":7985,"influences":7986,"novels":7987,"thel":7988,"wooden":7989,"printed":7990,"acent":7991,"eing":7992,"1911":7993,"Athen":7994,"aska":7995,"apparently":7996,"excess":7997,"Gaga":7998,"Anna":7999,"victims":8000,"executed":8001,"VI":8002,"experiences":8003,"discussed":8004,"Ag":8005,"Get":8006,"tes":8007,"childhood":8008,"handed":8009,"Belg":8010,"detail":8011,"diplom":8012,"Mort":8013,"ocean":8014,"insur":8015,"Network":8016,"alcohol":8017,"stab":8018,"Staff":8019,"hanna":8020,"instruments":8021,"veget":8022,"Ol":8023,"sor":8024,"watching":8025,"170":8026,"inhabit":8027,"Chamber":8028,"Wat":8029,"offices":8030,"environmental":8031,"Tar":8032,"coins":8033,"hys":8034,"Asian":8035,"approval":8036,"aser":8037,"tone":8038,"irt":8039,"loan":8040,"graduate":8041,"Spears":8042,"Wol":8043,"Clinton":8044,"depos":8045,"1931":8046,"Princess":8047,"hearing":8048,"flash":8049,"15th":8050,"channel":8051,"1922":8052,"Melbourne":8053,"factors":8054,"exposed":8055,"Heavy":8056,"arked":8057,"Arn":8058,"tern":8059,"achment":8060,"Nic":8061,"Jesus":8062,"coin":8063,"Vice":8064,"Cooper":8065,"normally":8066,"Xbox":8067,"existed":8068,"banks":8069,"igins":8070,"reck":8071,"memor":8072,"hundreds":8073,"CO":8074,"eller":8075,"skills":8076,"Pope":8077,"Nielsen":8078,"navig":8079,"resigned":8080,"Horse":8081,"Evans":8082,"Ren":8083,"Ian":8084,"disput":8085,"memorial":8086,"reveals":8087,"DC":8088,"Hud":8089,"plus":8090,"flew":8091,"Tower":8092,"chain":8093,"jum":8094,"format":8095,"oli":8096,"spin":8097,"drums":8098,"Nevertheless":8099,"prevented":8100,"Da":8101,"tran":8102,"enthus":8103,"owa":8104,"pushed":8105,"understand":8106,"Category":8107,"chapter":8108,"substantial":8109,"listing":8110,"lik":8111,"testing":8112,"wheel":8113,"linked":8114,"wet":8115,"relationships":8116,"92":8117,"Son":8118,"happened":8119,"opponents":8120,"preferred":8121,"jur":8122,"Guy":8123,"locom":8124,"genetic":8125,"skill":8126,"Stewart":8127,"footage":8128,"pete":8129,"animation":8130,"tests":8131,"reportedly":8132,"eat":8133,"hatt":8134,"stance":8135,"iliar":8136,"poetry":8137,"Cel":8138,"alo":8139,"Thor":8140,"languages":8141,"thereafter":8142,"chemical":8143,"correct":8144,"politan":8145,"thousand":8146,"Bulgar":8147,"Turkish":8148,"seek":8149,"imens":8150,"resign":8151,"lla":8152,"Mars":8153,"Austria":8154,"commemor":8155,"notably":8156,"deter":8157,"agents":8158,"liqu":8159,"device":8160,"visitors":8161,"arring":8162,"Queens":8163,"grav":8164,"driver":8165,"Sarah":8166,"Alb":8167,"Lennon":8168,"TO":8169,"employees":8170,"Stock":8171,"Colorado":8172,"Lane":8173,"guide":8174,"Greece":8175,"Gib":8176,"accompany":8177,"Real":8178,"departed":8179,"icians":8180,"Express":8181,"favorable":8182,"interpre":8183,"teeth":8184,"Albums":8185,"grown":8186,"participate":8187,"calcul":8188,"Win":8189,"Baltim":8190,"factor":8191,"Sulli":8192,"lists":8193,"extin":8194,"Baltimore":8195,"Dur":8196,"Malays":8197,"osaurus":8198,"Gam":8199,"Budd":8200,"helm":8201,"imprison":8202,"usal":8203,"gang":8204,"dialogue":8205,"Raw":8206,"afternoon":8207,"Carib":8208,"residential":8209,"icon":8210,"extent":8211,"detailed":8212,"Writing":8213,"mac":8214,"mam":8215,"mention":8216,"learning":8217,"instance":8218,"Organ":8219,"draf":8220,"familiar":8221,"picked":8222,"exerc":8223,"covering":8224,"Sullivan":8225,"pine":8226,"vals":8227,"evil":8228,"periods":8229,"Conne":8230,"universe":8231,"Initially":8232,"Rick":8233,"ee":8234,"powered":8235,"Dave":8236,"easy":8237,"endment":8238,"apprec":8239,"brick":8240,"oster":8241,"Foundation":8242,"Marshall":8243,"Wrestling":8244,"dens":8245,"Lim":8246,"Player":8247,"talent":8248,"AL":8249,"10th":8250,"Bird":8251,"Hand":8252,"taught":8253,"territories":8254,"reviewers":8255,"Frederick":8256,"criminal":8257,"videos":8258,"3D":8259,"balance":8260,"Baby":8261,"14th":8262,"isolated":8263,"Clar":8264,"iling":8265,"diameter":8266,"Somerset":8267,"technique":8268,"1928":8269,"Mario":8270,"cad":8271,"iner":8272,"Ark":8273,"negotiations":8274,"Having":8275,"covers":8276,"Gilbert":8277,"prep":8278,"obl":8279,"upgraded":8280,"encountered":8281,"withdrew":8282,"EP":8283,"ethnic":8284,"creative":8285,"bases":8286,"icop":8287,"lined":8288,"gene":8289,"Univers":8290,"Release":8291,"goods":8292,"Lev":8293,"nations":8294,"tub":8295,"Marg":8296,"behavi":8297,"Ay":8298,"divers":8299,"1925":8300,"scholars":8301,"sleep":8302,"dangerous":8303,"portions":8304,"satell":8305,"embr":8306,"founder":8307,"simultane":8308,"occupation":8309,"organizations":8310,"iva":8311,"athers":8312,"junior":8313,"iest":8314,"cong":8315,"Guard":8316,"engineering":8317,"Anglo":8318,"Mississ":8319,"Horn":8320,"specimens":8321,"aria":8322,"excell":8323,"partly":8324,"medium":8325,"Miami":8326,"Giants":8327,"Know":8328,"lowest":8329,"loop":8330,"logy":8331,"Edge":8332,"crisis":8333,"ongo":8334,"toon":8335,"pounds":8336,"Nev":8337,"partially":8338,"fined":8339,"indicate":8340,"soft":8341,"irs":8342,"spending":8343,"Seattle":8344,"Soon":8345,"bellion":8346,"1924":8347,"prohib":8348,"expression":8349,"turrets":8350,"traveled":8351,"whereas":8352,"window":8353,"refers":8354,"weekend":8355,"Championships":8356,"rarely":8357,"1920s":8358,"etime":8359,"oking":8360,"collect":8361,"monument":8362,"designer":8363,"orous":8364,"Treaty":8365,"hen":8366,"proced":8367,"doctor":8368,"maintenance":8369,"Alab":8370,"raising":8371,"pole":8372,"doesn":8373,"permission":8374,"pitched":8375,"Iowa":8376,"platinum":8377,"compete":8378,"advice":8379,"Nichol":8380,"spher":8381,"criticised":8382,"Human":8383,"Alabama":8384,"intercept":8385,"Forces":8386,"Australians":8387,"employment":8388,"deser":8389,"ranking":8390,"friendly":8391,"difficulties":8392,"icine":8393,"truth":8394,"shear":8395,"finale":8396,"representative":8397,"teacher":8398,"absor":8399,"Trek":8400,"earning":8401,"USS":8402,"pse":8403,"uncertain":8404,"mainstream":8405,"policies":8406,"ordinary":8407,"Napole":8408,"personality":8409,"refuge":8410,"stick":8411,"cott":8412,"closing":8413,"Missou":8414,"WC":8415,"comments":8416,"km2":8417,"concerts":8418,"aggress":8419,"recordings":8420,"chell":8421,"remove":8422,"Charlie":8423,"Caribbean":8424,"uscript":8425,"understanding":8426,"Canal":8427,"Lan":8428,"attered":8429,"Country":8430,"marry":8431,"windows":8432,"recur":8433,"Lawrence":8434,"jack":8435,"vors":8436,"uster":8437,"Minnes":8438,"orbit":8439,"ila":8440,"1923":8441,"scr":8442,"drawing":8443,"tap":8444,"ilst":8445,"oftw":8446,"seats":8447,"ventures":8448,"prompted":8449,"locomot":8450,"icy":8451,"sop":8452,"fishing":8453,"8th":8454,"Then":8455,"destroyers":8456,"housing":8457,"perspect":8458,"Hindu":8459,"divor":8460,"tenth":8461,"patch":8462,"gery":8463,"bay":8464,"dynasty":8465,"Senator":8466,"examples":8467,"describe":8468,"ende":8469,"poison":8470,"Buff":8471,"Crown":8472,"dynam":8473,"tag":8474,"minimum":8475,"bombers":8476,"Ministry":8477,"Nazi":8478,"Hamp":8479,"communication":8480,"travelled":8481,"hockey":8482,"churches":8483,"false":8484,"Garden":8485,"Roc":8486,"nationally":8487,"Grammy":8488,"string":8489,"Hungary":8490,"patron":8491,"neighborhood":8492,"hat":8493,"violent":8494,"Dance":8495,"Health":8496,"11th":8497,"alions":8498,"anton":8499,"USD":8500,"explo":8501,"corpor":8502,"Stud":8503,"mines":8504,"celer":8505,"dale":8506,"ij":8507,"expensive":8508,"credits":8509,"Bros":8510,"displayed":8511,"naissance":8512,"Flight":8513,"tribute":8514,"adjacent":8515,"Belgium":8516,"cular":8517,"amph":8518,"olis":8519,"vies":8520,"soil":8521,"Benj":8522,"Township":8523,"Return":8524,"inaug":8525,"Polit":8526,"collapse":8527,"Banks":8528,"predict":8529,"forests":8530,"restrict":8531,"appropriate":8532,"garden":8533,"grees":8534,"shall":8535,"oftware":8536,"creator":8537,"earn":8538,"Shakes":8539,"designation":8540,"benefit":8541,"Diego":8542,"inno":8543,"oren":8544,"values":8545,"partnership":8546,"lift":8547,"option":8548,"protagonist":8549,"Event":8550,"hid":8551,"Ass":8552,"LC":8553,"catal":8554,"moments":8555,"orph":8556,"vić":8557,"possession":8558,"Shakespe":8559,"Represent":8560,"Medal":8561,"scientists":8562,"interesting":8563,"rell":8564,"nur":8565,"Christopher":8566,"Call":8567,"solute":8568,"Children":8569,"rounds":8570,"radar":8571,"Guardian":8572,"victories":8573,"villages":8574,"fung":8575,"incent":8576,"Cho":8577,"cope":8578,"dollars":8579,"itim":8580,"paintings":8581,"nee":8582,"treaty":8583,"restricted":8584,"Tan":8585,"1908":8586,"elsewhere":8587,"forth":8588,"velt":8589,"imeter":8590,"instrumental":8591,"survive":8592,"1905":8593,"mature":8594,"eliminated":8595,"armament":8596,"numbered":8597,"Legacy":8598,"minimal":8599,"oz":8600,"surprise":8601,"autom":8602,"justice":8603,"21st":8604,"tox":8605,"encing":8606,"1909":8607,"seeking":8608,"Minnesota":8609,"Cold":8610,"waves":8611,"priest":8612,"precip":8613,"emperor":8614,"Roose":8615,"Apple":8616,"Mississipp":8617,"arriving":8618,"purposes":8619,"Cred":8620,"newspapers":8621,"suicide":8622,"jection":8623,"helping":8624,"namese":8625,"Vietnamese":8626,"Review":8627,"cot":8628,"wine":8629,"Has":8630,"Hills":8631,"Hockey":8632,"anium":8633,"aya":8634,"Por":8635,"bin":8636,"occasions":8637,"smooth":8638,"Interstate":8639,"Khan":8640,"allies":8641,"Alfred":8642,"Benjamin":8643,"Dead":8644,"categ":8645,"unlike":8646,"munition":8647,"dispute":8648,"Kurt":8649,"aws":8650,"rupted":8651,"Walker":8652,"degrees":8653,"mayor":8654,"Manhatt":8655,"het":8656,"legend":8657,"cous":8658,"Administr":8659,"Manhattan":8660,"orious":8661,"coordin":8662,"intensified":8663,"AS":8664,"parent":8665,"recre":8666,"preserved":8667,"oms":8668,"manuscript":8669,"schedule":8670,"struggle":8671,"competed":8672,"Fel":8673,"Peninsula":8674,"assisted":8675,"meter":8676,"cryst":8677,"professor":8678,"Franklin":8679,"boards":8680,"RO":8681,"tight":8682,"lov":8683,"Trust":8684,"bath":8685,"resumed":8686,"Roosevelt":8687,"mental":8688,"traits":8689,"lah":8690,"Kansas":8691,"survivors":8692,"publicly":8693,"amounts":8694,"alignment":8695,"1907":8696,"Hans":8697,"atherine":8698,"angel":8699,"helicop":8700,"concrete":8701,"electronic":8702,"candidates":8703,"neighbour":8704,"god":8705,"functions":8706,"organised":8707,"prove":8708,"pilots":8709,"Industry":8710,"impossible":8711,"oxygen":8712,"Cher":8713,"Hong":8714,"lon":8715,"wrest":8716,"Portland":8717,"Race":8718,"shi":8719,"tested":8720,"wedding":8721,"neutral":8722,"citing":8723,"qualified":8724,"uto":8725,"clar":8726,"vit":8727,"stones":8728,"tomb":8729,"Philippines":8730,"Satur":8731,"Ta":8732,"hur":8733,"ishment":8734,"Much":8735,"ayer":8736,"Cole":8737,"defeating":8738,"argument":8739,"ensu":8740,"asking":8741,"prosecut":8742,"sher":8743,"teaching":8744,"ori":8745,"Hotel":8746,"jan":8747,"remark":8748,"advoc":8749,"Building":8750,"businesses":8751,"backing":8752,"rede":8753,"backs":8754,"hem":8755,"Native":8756,"assists":8757,"legitim":8758,"Campbell":8759,"Nash":8760,"oen":8761,"sevent":8762,"elabor":8763,"opponent":8764,"constitutional":8765,"Shel":8766,"Mississippi":8767,"sung":8768,"submitted":8769,"agricultural":8770,"ounced":8771,"foundation":8772,"acle":8773,"Imp":8774,"anne":8775,"owing":8776,"dense":8777,"sunk":8778,"signing":8779,"Area":8780,"Born":8781,"VII":8782,"gap":8783,"hull":8784,"lights":8785,"switch":8786,"consistent":8787,"diet":8788,"Digital":8789,"fifteen":8790,"Gate":8791,"cod":8792,"household":8793,"discipl":8794,"affili":8795,"beaten":8796,"Fried":8797,"Lith":8798,"behalf":8799,"signs":8800,"rows":8801,"rug":8802,"voiced":8803,"Blues":8804,"percentage":8805,"Dol":8806,"gor":8807,"pron":8808,"esis":8809,"ammunition":8810,"railroad":8811,"symptoms":8812,"Nik":8813,"Tennes":8814,"Set":8815,"Whe":8816,"Descri":8817,"racing":8818,"subjects":8819,"Shakespeare":8820,"sank":8821,"organisation":8822,"Dal":8823,"pm":8824,"utter":8825,"registered":8826,"spiritual":8827,"incial":8828,"situated":8829,"parish":8830,"forty":8831,"elder":8832,"miss":8833,"imperial":8834,"recognised":8835,"shells":8836,"Athlet":8837,"Halo":8838,"repairs":8839,"illness":8840,"Rober":8841,"conventional":8842,"Buck":8843,"Contro":8844,"Ward":8845,"chron":8846,"Alexand":8847,"flights":8848,"itt":8849,"resolution":8850,"Py":8851,"Ti":8852,"Inc":8853,"flank":8854,"gard":8855,"rant":8856,"tornado":8857,"deliber":8858,"Margaret":8859,"pler":8860,"Kings":8861,"sacrif":8862,"audiences":8863,"attendance":8864,"itated":8865,"rolled":8866,"terror":8867,"disaster":8868,"onymous":8869,"Egyptian":8870,"collaboration":8871,"Historic":8872,"grey":8873,"entertain":8874,"suspended":8875,"worn":8876,"Lucas":8877,"feelings":8878,"restaurant":8879,"underground":8880,"lieutenant":8881,"targets":8882,"affairs":8883,"Guide":8884,"amps":8885,"threw":8886,"atically":8887,"initi":8888,"seed":8889,"exit":8890,"earthqu":8891,"Box":8892,"Tennessee":8893,"360":8894,"lob":8895,"aimed":8896,"Depression":8897,"fires":8898,"worship":8899,"operational":8900,"armored":8901,"iples":8902,"uro":8903,"thinking":8904,"1906":8905,"Louisiana":8906,"pace":8907,"affair":8908,"Warren":8909,"funeral":8910,"andal":8911,"NO":8912,"eties":8913,"Critics":8914,"eros":8915,"compilation":8916,"loved":8917,"1904":8918,"measured":8919,"poorly":8920,"documents":8921,"shield":8922,"circle":8923,"Palest":8924,"Montreal":8925,"Labour":8926,"filed":8927,"ache":8928,"eme":8929,"odge":8930,"delay":8931,"Missouri":8932,"Rang":8933,"sector":8934,"temporarily":8935,"represents":8936,"Season":8937,"ingham":8938,"inners":8939,"Dest":8940,"lanes":8941,"altar":8942,"statue":8943,"crews":8944,"explosion":8945,"stell":8946,"gry":8947,"rial":8948,"Lad":8949,"plain":8950,"keeper":8951,"Pad":8952,"fat":8953,"overe":8954,"Program":8955,"netic":8956,"entertainment":8957,"Mack":8958,"OS":8959,"replacing":8960,"alliance":8961,"offering":8962,"nucle":8963,"Mitchell":8964,"Cze":8965,"Kal":8966,"tension":8967,"Billy":8968,"preparation":8969,"diver":8970,"inea":8971,"scription":8972,"Fal":8973,"jazz":8974,"engagement":8975,"fifty":8976,"Nine":8977,"Mach":8978,"eline":8979,"Beg":8980,"AT":8981,"ders":8982,"trend":8983,"administrative":8984,"Ultim":8985,"wore":8986,"meat":8987,"onomy":8988,"mers":8989,"residence":8990,"Works":8991,"hole":8992,"Independent":8993,"restoration":8994,"Tag":8995,"Tel":8996,"ateur":8997,"CS":8998,"UE":8999,"feud":9000,"zona":9001,"Ship":9002,"Czech":9003,"Fem":9004,"Jos":9005,"tot":9006,"Small":9007,"Graham":9008,"rebuilt":9009,"touring":9010,"reluct":9011,"venues":9012,"collaps":9013,"reflected":9014,"Wes":9015,"inland":9016,"exh":9017,"Dragon":9018,"roots":9019,"charter":9020,"Luc":9021,"Report":9022,"zed":9023,"suggesting":9024,"prime":9025,"frig":9026,"fatal":9027,"Business":9028,"rivers":9029,"rod":9030,"surge":9031,"completing":9032,"blocks":9033,"mountains":9034,"igs":9035,"amongst":9036,"Ridge":9037,"remin":9038,"igen":9039,"agen":9040,"Michel":9041,"directors":9042,"tribes":9043,"cture":9044,"squ":9045,"conservative":9046,"horror":9047,"tz":9048,"escaped":9049,"pulled":9050,"looks":9051,"Ring":9052,"vens":9053,"wonder":9054,"lacked":9055,"cancelled":9056,"diction":9057,"wasn":9058,"diagn":9059,"geo":9060,"recommend":9061,"dramatic":9062,"warn":9063,"stores":9064,"Shaw":9065,"coverage":9066,"altered":9067,"Cuba":9068,"Tot":9069,"lemur":9070,"clearly":9071,"arrier":9072,"patrol":9073,"argues":9074,"stretch":9075,"ribute":9076,"decides":9077,"bombard":9078,"Mes":9079,"rh":9080,"circuit":9081,"fallen":9082,"predomin":9083,"ylan":9084,"distinguished":9085,"fixed":9086,"oes":9087,"ownership":9088,"colonies":9089,"cargo":9090,"Cook":9091,"mining":9092,"steps":9093,"tellect":9094,"patterns":9095,"adequ":9096,"Dw":9097,"Ped":9098,"Snow":9099,"Cow":9100,"dish":9101,"Phoen":9102,"drove":9103,"overeign":9104,"artney":9105,"Indies":9106,"Files":9107,"Persian":9108,"maneu":9109,"remnants":9110,"hu":9111,"perspective":9112,"Josh":9113,"femin":9114,"faster":9115,"merchant":9116,"Tamil":9117,"punk":9118,"saved":9119,"Bureau":9120,"Maur":9121,"characterized":9122,"spoken":9123,"Arizona":9124,"oxide":9125,"contributions":9126,"wicket":9127,"eron":9128,"poems":9129,"badly":9130,"Saturday":9131,"Sony":9132,"valid":9133,"excav":9134,"rix":9135,"fastest":9136,"artistic":9137,"Dylan":9138,"Grey":9139,"mathemat":9140,"playoffs":9141,"ais":9142,"twin":9143,"icken":9144,"chapel":9145,"athy":9146,"absolute":9147,"shock":9148,"Marie":9149,"hosts":9150,"riders":9151,"militia":9152,"clock":9153,"dia":9154,"boundary":9155,"ranging":9156,"severely":9157,"institutions":9158,"Scout":9159,"phe":9160,"notice":9161,"rising":9162,"rever":9163,"idency":9164,"explain":9165,"Confederate":9166,"Swe":9167,"serial":9168,"wait":9169,"Denn":9170,"urally":9171,"retail":9172,"xture":9173,"spend":9174,"depending":9175,"inhabitants":9176,"strict":9177,"bulk":9178,"hears":9179,"ranks":9180,"explains":9181,"distinctive":9182,"demonstrated":9183,"ideal":9184,"turb":9185,"crest":9186,"Oklah":9187,"bronze":9188,"inations":9189,"bowling":9190,"condem":9191,"arrive":9192,"boss":9193,"closure":9194,"Nar":9195,"theater":9196,"context":9197,"lips":9198,"controls":9199,"Barbar":9200,"Austrian":9201,"flagship":9202,"Hip":9203,"practices":9204,"chamber":9205,"Switzer":9206,"agency":9207,"obvious":9208,"waiting":9209,"wider":9210,"shad":9211,"sisters":9212,"wants":9213,"yd":9214,"abund":9215,"evolved":9216,"Ye":9217,"Harvey":9218,"Switzerland":9219,"Aff":9220,"elig":9221,"visiting":9222,"placing":9223,"Mrs":9224,"Murphy":9225,"dominant":9226,"ABC":9227,"1901":9228,"baby":9229,"Broadway":9230,"vulner":9231,"itter":9232,"satellite":9233,"northward":9234,"Mess":9235,"yield":9236,"spotted":9237,"rub":9238,"conspir":9239,"application":9240,"Econom":9241,"tha":9242,"articles":9243,"reaches":9244,"Sin":9245,"acceler":9246,"ighth":9247,"exhibition":9248,"vast":9249,"fortun":9250,"Delaware":9251,"nominations":9252,"Chand":9253,"surgery":9254,"beam":9255,"mphony":9256,"Barry":9257,"palace":9258,"prepare":9259,"Len":9260,"Liz":9261,"lia":9262,"iento":9263,"adi":9264,"synd":9265,"Oklahoma":9266,"Ga":9267,"carriers":9268,"Las":9269,"Shad":9270,"dee":9271,"Federation":9272,"Cycl":9273,"Such":9274,"rescu":9275,"Bron":9276,"Mik":9277,"altit":9278,"helps":9279,"impression":9280,"heading":9281,"storage":9282,"households":9283,"protein":9284,"predicted":9285,"Kirk":9286,"attained":9287,"subspecies":9288,"Amy":9289,"08":9290,"Cer":9291,"ffect":9292,"vs":9293,"motiv":9294,"Gary":9295,"engage":9296,"ruption":9297,"typhoon":9298,"Mode":9299,"enger":9300,"Gab":9301,"ić":9302,"adventure":9303,"slaves":9304,"Sn":9305,"apy":9306,"essential":9307,"1902":9308,"1903":9309,"descend":9310,"UC":9311,"vine":9312,"span":9313,"oga":9314,"battalions":9315,"HD":9316,"repeatedly":9317,"hl":9318,"predecessor":9319,"tent":9320,"kees":9321,"Original":9322,"Lithuan":9323,"peaking":9324,"aks":9325,"bombing":9326,"mistry":9327,"sper":9328,"intellect":9329,"Originally":9330,"Perry":9331,"striking":9332,"Leslie":9333,"excellent":9334,"Hem":9335,"westward":9336,"signal":9337,"Flo":9338,"NS":9339,"remarked":9340,"frustr":9341,"philosophy":9342,"Baseball":9343,"illegal":9344,"vertical":9345,"pretty":9346,"alive":9347,"aqu":9348,"ée":9349,"Morr":9350,"Fif":9351,"matters":9352,"Tokyo":9353,"perceived":9354,"Juan":9355,"faction":9356,"bard":9357,"ci":9358,"convers":9359,"circumstances":9360,"pension":9361,"Denmark":9362,"cliff":9363,"ogan":9364,"choose":9365,"meetings":9366,"seriously":9367,"useful":9368,"Jonathan":9369,"Ton":9370,"apartment":9371,"reconnaissance":9372,"bones":9373,"impress":9374,"mund":9375,"ulating":9376,"proxim":9377,"civilian":9378,"Rico":9379,"izon":9380,"Joh":9381,"Players":9382,"Won":9383,"Atlanta":9384,"Campaign":9385,"drugs":9386,"09":9387,"sick":9388,"leaf":9389,"Johnny":9390,"Sciento":9391,"musician":9392,"backed":9393,"sket":9394,"inals":9395,"readers":9396,"Rihanna":9397,"planets":9398,"whilst":9399,"chi":9400,"retain":9401,"Territ":9402,"RS":9403,"angular":9404,"Nixon":9405,"harm":9406,"similarly":9407,"democr":9408,"expo":9409,"quiet":9410,"retre":9411,"strengthened":9412,"Barr":9413,"triple":9414,"juris":9415,"Hub":9416,"lord":9417,"demanded":9418,"posit":9419,"acou":9420,"Edwards":9421,"RP":9422,"apolis":9423,"placement":9424,"Abbey":9425,"simultaneously":9426,"115":9427,"enlisted":9428,"legacy":9429,"accurate":9430,"Bernard":9431,"assembled":9432,"clin":9433,"pressing":9434,"panel":9435,"Lex":9436,"alternate":9437,"definite":9438,"jury":9439,"overw":9440,"Spot":9441,"insisted":9442,"rine":9443,"Gray":9444,"connect":9445,"mingham":9446,"shipping":9447,"urer":9448,"Wilhelm":9449,"Arnold":9450,"bombs":9451,"dancing":9452,"shift":9453,"Pitts":9454,"RI":9455,"athletes":9456,"promised":9457,"Keith":9458,"demands":9459,"iences":9460,"pages":9461,"rebound":9462,"estyle":9463,"coat":9464,"citizen":9465,"texts":9466,"mant":9467,"revenue":9468,"partial":9469,"mainland":9470,"Brig":9471,"enna":9472,"console":9473,"cury":9474,"petition":9475,"behaviour":9476,"Jimmy":9477,"itted":9478,"aph":9479,"ruling":9480,"compass":9481,"Madagas":9482,"marketing":9483,"cia":9484,"subsid":9485,"personally":9486,"dubbed":9487,"Less":9488,"stim":9489,"drivers":9490,"Prize":9491,"struggled":9492,"gau":9493,"tempo":9494,"continental":9495,"extend":9496,"guilty":9497,"interpretation":9498,"vices":9499,"definition":9500,"guitarist":9501,"believing":9502,"Prom":9503,"regation":9504,"Iran":9505,"OC":9506,"pione":9507,"loose":9508,"Gy":9509,"moon":9510,"orchestra":9511,"Wolf":9512,"armies":9513,"Internet":9514,"confess":9515,"constitution":9516,"secretary":9517,"propag":9518,"audition":9519,"Rachel":9520,"artwork":9521,"Universal":9522,"fest":9523,"Neil":9524,"fossil":9525,"uma":9526,"compens":9527,"Spir":9528,"Furthermore":9529,"Theod":9530,"jobs":9531,"demolished":9532,"accum":9533,"Yankees":9534,"artific":9535,"Tracy":9536,"iveness":9537,"markets":9538,"compliment":9539,"Hur":9540,"cannon":9541,"starring":9542,"Laur":9543,"amid":9544,"virus":9545,"aus":9546,"ghan":9547,"Railroad":9548,"lavery":9549,"feels":9550,"Birmingham":9551,"adm":9552,"verte":9553,"profile":9554,"Eventually":9555,"Pil":9556,"acclaim":9557,"counties":9558,"pursue":9559,"AP":9560,"kW":9561,"lain":9562,"guy":9563,"azines":9564,"Chel":9565,"bonus":9566,"increases":9567,"culmin":9568,"Lost":9569,"iders":9570,"utical":9571,"comprom":9572,"olds":9573,"See":9574,"Obama":9575,"Defence":9576,"aman":9577,"Canter":9578,"ller":9579,"Ni":9580,"haw":9581,"discovers":9582,"challenged":9583,"clothing":9584,"gence":9585,"erected":9586,"ressing":9587,"productions":9588,"listen":9589,"glac":9590,"delivery":9591,"bearing":9592,"dock":9593,"wire":9594,"elevation":9595,"succeed":9596,"Enterprise":9597,"Jup":9598,"Bobby":9599,"Cost":9600,"ras":9601,"anes":9602,"Hudson":9603,"Phoenix":9604,"Baker":9605,"Ple":9606,"cutting":9607,"Morrison":9608,"sq":9609,"practical":9610,"chest":9611,"Mission":9612,"Wayne":9613,"Eve":9614,"inian":9615,"overseas":9616,"liner":9617,"educational":9618,"extract":9619,"Impact":9620,"laugh":9621,"funny":9622,"doubt":9623,"hind":9624,"defences":9625,"tario":9626,"Pearl":9627,"icing":9628,"cticut":9629,"Connecticut":9630,"renov":9631,"deterior":9632,"Madagascar":9633,"dan":9634,"quer":9635,"McCartney":9636,"hire":9637,"oblig":9638,"Bach":9639,"sitting":9640,"Rights":9641,"conversion":9642,"founding":9643,"realized":9644,"settlers":9645,"acknowledged":9646,"Sid":9647,"edited":9648,"understood":9649,"Peace":9650,"indicating":9651,"Todd":9652,"connecting":9653,"barr":9654,"Blood":9655,"Ontario":9656,"cultiv":9657,"objective":9658,"sharp":9659,"oral":9660,"solar":9661,"ultan":9662,"legislature":9663,"Canterbury":9664,"highways":9665,"Type":9666,"Community":9667,"prises":9668,"Trail":9669,"communications":9670,"dressed":9671,"wrestling":9672,"mush":9673,"vous":9674,"Friday":9675,"rolling":9676,"atomic":9677,"jer":9678,"rice":9679,"idal":9680,"diamond":9681,"campaigns":9682,"bacter":9683,"Wag":9684,"ouver":9685,"compounds":9686,"bats":9687,"aftermath":9688,"Allies":9689,"decisions":9690,"compound":9691,"arrangements":9692,"Cin":9693,"initiated":9694,"Napoleon":9695,"tale":9696,"raids":9697,"concentration":9698,"Leonard":9699,"atropical":9700,"dissipated":9701,"haul":9702,"trouble":9703,"Rat":9704,"lu":9705,"establishing":9706,"Drive":9707,"aggressive":9708,"Foreign":9709,"wealthy":9710,"hidden":9711,"dogs":9712,"Hom":9713,"irty":9714,"exactly":9715,"liquid":9716,"TNA":9717,"ashed":9718,"danger":9719,"confron":9720,"permitted":9721,"improvements":9722,"considering":9723,"Trib":9724,"Pi":9725,"oker":9726,"Pruss":9727,"execution":9728,"Boys":9729,"publishing":9730,"walking":9731,"hydrogen":9732,"publications":9733,"graduated":9734,"evacuated":9735,"spell":9736,"Windows":9737,"Mountains":9738,"removal":9739,"Carr":9740,"Mint":9741,"feeding":9742,"maid":9743,"fewer":9744,"celebrated":9745,"fortress":9746,"soldier":9747,"observations":9748,"recip":9749,"travels":9750,"Goth":9751,"nik":9752,"ported":9753,"membership":9754,"Outstanding":9755,"Rud":9756,"Prim":9757,"stationed":9758,"aerial":9759,"UEFA":9760,"Patt":9761,"utions":9762,"asant":9763,"ME":9764,"rebellion":9765,"requires":9766,"defending":9767,"cry":9768,"visits":9769,"eland":9770,"ogen":9771,"originated":9772,"ancouver":9773,"Gor":9774,"origins":9775,"strategic":9776,"Vancouver":9777,"Bath":9778,"extratropical":9779,"Jupiter":9780,"explan":9781,"ancers":9782,"05":9783,"okie":9784,"putting":9785,"Ted":9786,"bare":9787,"youngest":9788,"metric":9789,"approaching":9790,"quarterback":9791,"theatrical":9792,"Our":9793,"Dall":9794,"Kn":9795,"shorter":9796,"Portugu":9797,"assembly":9798,"announcement":9799,"fantasy":9800,"magazines":9801,"Lion":9802,"Mol":9803,"conven":9804,"donated":9805,"kiss":9806,"Edin":9807,"astronom":9808,"amen":9809,"brilli":9810,"magic":9811,"Administration":9812,"Kon":9813,"pard":9814,"Champions":9815,"Pakistan":9816,"ongoing":9817,"Cat":9818,"riff":9819,"monitor":9820,"Sem":9821,"zon":9822,"adier":9823,"aken":9824,"gray":9825,"exposure":9826,"Spart":9827,"irts":9828,"ennium":9829,"discussion":9830,"asters":9831,"cruc":9832,"rik":9833,"topped":9834,"sang":9835,"drag":9836,"closest":9837,"Portuguese":9838,"insects":9839,"ules":9840,"strongest":9841,"Triple":9842,"amental":9843,"eving":9844,"consol":9845,"Collins":9846,"colleagues":9847,"Bradman":9848,"Ah":9849,"tubes":9850,"ried":9851,"identify":9852,"withdrawal":9853,"07":9854,"350":9855,"proof":9856,"landscape":9857,"warf":9858,"skull":9859,"gathered":9860,"pale":9861,"volumes":9862,"indicates":9863,"evalu":9864,"phrase":9865,"Cand":9866,"supplied":9867,"Dwight":9868,"Ky":9869,"itals":9870,"united":9871,"collapsed":9872,"Trophy":9873,"gender":9874,"Stu":9875,"spur":9876,"merely":9877,"Potter":9878,"exhaust":9879,"JT":9880,"fault":9881,"orer":9882,"decide":9883,"vinces":9884,"flowers":9885,"NCAA":9886,"solved":9887,"1893":9888,"Alice":9889,"radiation":9890,"06":9891,"confront":9892,"Girls":9893,"interpreted":9894,"density":9895,"105":9896,"dispatch":9897,"stress":9898,"reduc":9899,"limits":9900,"rhythm":9901,"provision":9902,"debt":9903,"specimen":9904,"Marvel":9905,"Fleming":9906,"Reserve":9907,"beats":9908,"agger":9909,"guaran":9910,"1896":9911,"Years":9912,"Dale":9913,"Mand":9914,"jet":9915,"uncle":9916,"vertebr":9917,"Bac":9918,"cali":9919,"osex":9920,"persons":9921,"Meteor":9922,"Oliver":9923,"concentrated":9924,"Hampshire":9925,"queen":9926,"mini":9927,"Honor":9928,"Joy":9929,"navy":9930,"promotional":9931,"Monte":9932,"corps":9933,"weekly":9934,"Edinburgh":9935,"Mans":9936,"Sex":9937,"ugh":9938,"annually":9939,"municipal":9940,"TS":9941,"Those":9942,"Afghan":9943,"respective":9944,"Tai":9945,"tick":9946,"zing":9947,"thet":9948,"basin":9949,"emphasis":9950,"seized":9951,"trough":9952,"Sak":9953,"Flying":9954,"questioned":9955,"ranges":9956,"Sig":9957,"ifies":9958,"Charts":9959,"Maj":9960,"Lang":9961,"duo":9962,"attending":9963,"Roberts":9964,"Bot":9965,"1898":9966,"Swift":9967,"currency":9968,"Rab":9969,"XX":9970,"anime":9971,"parody":9972,"champions":9973,"elli":9974,"astru":9975,"electricity":9976,"crops":9977,"furn":9978,"nom":9979,"Tax":9980,"pill":9981,"papers":9982,"thed":9983,"ifer":9984,"cuts":9985,"eneath":9986,"investigate":9987,"Victorian":9988,"rocks":9989,"Ald":9990,"uman":9991,"herd":9992,"offense":9993,"Personal":9994,"Secur":9995,"Natural":9996,"bast":9997,"Where":9998,"Princ":9999,"Finally":10000,"OT":10001,"vital":10002,"polar":10003,"talking":10004,"exercise":10005,"stuff":10006,"unc":10007,"unless":10008,"flooded":10009,"imetres":10010,"List":10011,"Democrats":10012,"gear":10013,"ticket":10014,"salt":10015,"proportion":10016,"Inn":10017,"adjust":10018,"ulous":10019,"Turner":10020,"Ful":10021,"eries":10022,"Maya":10023,"Beaut":10024,"prize":10025,"daughters":10026,"Na":10027,"mour":10028,"Yorkshire":10029,"Ralph":10030,"illing":10031,"advertising":10032,"sar":10033,"Performan":10034,"Karl":10035,"portrayal":10036,"Jar":10037,"finger":10038,"constit":10039,"blind":10040,"Beng":10041,"Dy":10042,"Nu":10043,"ensus":10044,"regime":10045,"flows":10046,"birthday":10047,"Argentina":10048,"Lloyd":10049,"brig":10050,"underwent":10051,"Overall":10052,"attitude":10053,"doors":10054,"Mong":10055,"scattered":10056,"photographs":10057,"conservation":10058,"1940s":10059,"Village":10060,"swimming":10061,"Lat":10062,"Pam":10063,"sending":10064,"hitting":10065,"uniform":10066,"ske":10067,"tu":10068,"stere":10069,"tooth":10070,"Christianity":10071,"external":10072,"Kid":10073,"Say":10074,"kings":10075,"Convention":10076,"continuous":10077,"Brothers":10078,"och":10079,"software":10080,"Cob":10081,"terrain":10082,"spaces":10083,"commentary":10084,"experimental":10085,"overwhel":10086,"output":10087,"drinking":10088,"translation":10089,"Professor":10090,"coinc":10091,"imagery":10092,"cub":10093,"Comple":10094,"dimension":10095,"Hunt":10096,"marsh":10097,"1899":10098,"Jerry":10099,"usive":10100,"replied":10101,"Chronicle":10102,"acoustic":10103,"unclear":10104,"Andre":10105,"Lt":10106,"oid":10107,"ballad":10108,"charted":10109,"lawyer":10110,"Charac":10111,"loyal":10112,"Craig":10113,"Tig":10114,"leges":10115,"fairly":10116,"Mother":10117,"aggreg":10118,"empire":10119,"Fis":10120,"penet":10121,"representatives":10122,"cards":10123,"azing":10124,"thirteen":10125,"liberal":10126,"cousin":10127,"Abr":10128,"angered":10129,"Marge":10130,"pike":10131,"stops":10132,"redes":10133,"Lock":10134,"lat":10135,"wish":10136,"adal":10137,"valuable":10138,"Bomb":10139,"intim":10140,"conceived":10141,"iciency":10142,"Queensland":10143,"failing":10144,"pictures":10145,"enthusi":10146,"slave":10147,"GM":10148,"duration":10149,"courses":10150,"Finland":10151,"Epis":10152,"NL":10153,"nell":10154,"sin":10155,"movies":10156,"handle":10157,"Glen":10158,"exclusive":10159,"identical":10160,"hammad":10161,"devast":10162,"branches":10163,"accompanying":10164,"Ax":10165,"stronger":10166,"Howe":10167,"surrendered":10168,"arrives":10169,"ologists":10170,"embarked":10171,"friendship":10172,"expert":10173,"reinforcements":10174,"Dem":10175,"outr":10176,"tenure":10177,"Fund":10178,"gon":10179,"Similarly":10180,"provincial":10181,"Wii":10182,"atever":10183,"centers":10184,"Norfolk":10185,"analy":10186,"Hardy":10187,"succession":10188,"reveal":10189,"reward":10190,"pert":10191,"components":10192,"patri":10193,"reverse":10194,"disband":10195,"Deep":10196,"Heritage":10197,"reducing":10198,"Mason":10199,"users":10200,"lighting":10201,"destroying":10202,"Books":10203,"Stevens":10204,"competing":10205,"suspect":10206,"Hawaii":10207,"authorized":10208,"Nicholas":10209,"resolved":10210,"trading":10211,"accommo":10212,"Ama":10213,"dread":10214,"prices":10215,"labe":10216,"Burton":10217,"mechanical":10218,"exclusively":10219,"Jama":10220,"Services":10221,"Quar":10222,"Belgian":10223,"burned":10224,"watershed":10225,"Nation":10226,"arriors":10227,"Cart":10228,"puzz":10229,"thrown":10230,"ampton":10231,"recall":10232,"component":10233,"Count":10234,"Communist":10235,"aches":10236,"Boat":10237,"slavery":10238,"sect":10239,"investment":10240,"publisher":10241,"1850":10242,"governments":10243,"considers":10244,"Vincent":10245,"precipitation":10246,"Rangers":10247,"Catherine":10248,"nit":10249,"gaining":10250,"voting":10251,"stall":10252,"jok":10253,"varied":10254,"feld":10255,"ptions":10256,"Training":10257,"Bio":10258,"banned":10259,"ogram":10260,"developers":10261,"gom":10262,"Medical":10263,"imination":10264,"counters":10265,"traded":10266,"devices":10267,"Credits":10268,"Side":10269,"icity":10270,"Stat":10271,"Davies":10272,"contribution":10273,"efficient":10274,"Emer":10275,"toured":10276,"parks":10277,"tube":10278,"Emmy":10279,"Transportation":10280,"Fu":10281,"server":10282,"conce":10283,"125":10284,"riding":10285,"platforms":10286,"Local":10287,"Fat":10288,"aurus":10289,"Liberal":10290,"Fil":10291,"Tube":10292,"labour":10293,"runner":10294,"Execut":10295,"architectural":10296,"Thunder":10297,"artificial":10298,"Scre":10299,"nan":10300,"intersects":10301,"talks":10302,"handled":10303,"frequency":10304,"earthquake":10305,"astructure":10306,"blast":10307,"referring":10308,"Living":10309,"songwriter":10310,"characteristic":10311,"humor":10312,"Bennett":10313,"waste":10314,"tours":10315,"Darwin":10316,"boilers":10317,"Haz":10318,"abuse":10319,"electrical":10320,"Scientology":10321,"ags":10322,"ffield":10323,"fourteen":10324,"kills":10325,"Prix":10326,"Diamond":10327,"thunder":10328,"umph":10329,"proceeded":10330,"prev":10331,"Hughes":10332,"innov":10333,"1897":10334,"Curt":10335,"HS":10336,"otions":10337,"reviewed":10338,"destroyer":10339,"connections":10340,"advised":10341,"amateur":10342,"Guitar":10343,"Harvard":10344,"Sign":10345,"oor":10346,"tribut":10347,"qualifying":10348,"improvement":10349,"Stre":10350,"racial":10351,"noble":10352,"retro":10353,"profession":10354,"Soul":10355,"ür":10356,"shares":10357,"competitive":10358,"Appe":10359,"legislative":10360,"Shak":10361,"Yellow":10362,"pier":10363,"Farm":10364,"acles":10365,"accord":10366,"licens":10367,"slip":10368,"Æthel":10369,"burst":10370,"Market":10371,"requirements":10372,"makers":10373,"sixteen":10374,"copper":10375,"Swiss":10376,"praising":10377,"Gallery":10378,"Indonesia":10379,"samples":10380,"Antonio":10381,"uranium":10382,"forecast":10383,"representation":10384,"aments":10385,"chant":10386,"Moscow":10387,"Saxon":10388,"Dak":10389,"charity":10390,"translated":10391,"tactics":10392,"Hann":10393,"Ori":10394,"theore":10395,"Hey":10396,"Harbor":10397,"photography":10398,"JTWC":10399,"Bour":10400,"mail":10401,"passion":10402,"cleared":10403,"Cameron":10404,"grossing":10405,"reduction":10406,"confidence":10407,"ctoral":10408,"Kate":10409,"certainly":10410,"Oslo":10411,"Bak":10412,"Toy":10413,"mock":10414,"brew":10415,"hes":10416,"anyon":10417,"ulty":10418,"Auto":10419,"marines":10420,"Globe":10421,"Pittsburgh":10422,"Hold":10423,"exists":10424,"patients":10425,"ruler":10426,"exceed":10427,"Geoff":10428,"utt":10429,"Chance":10430,"commenced":10431,"Scar":10432,"commanding":10433,"Upper":10434,"Bes":10435,"signature":10436,"realistic":10437,"axy":10438,"flex":10439,"itarian":10440,"inspe":10441,"aro":10442,"Next":10443,"attor":10444,"tonnes":10445,"survival":10446,"transported":10447,"Must":10448,"VIII":10449,"lide":10450,"reinforced":10451,"Apol":10452,"Cit":10453,"bore":10454,"acing":10455,"quit":10456,"nautical":10457,"hook":10458,"minster":10459,"Mayor":10460,"construct":10461,"Terry":10462,"MV":10463,"leans":10464,"shoulder":10465,"uras":10466,"nose":10467,"Alaska":10468,"Tow":10469,"idae":10470,"taxes":10471,"mol":10472,"explicit":10473,"Craw":10474,"melody":10475,"Wallace":10476,"opportunities":10477,"Tu":10478,"isc":10479,"morph":10480,"communist":10481,"Nag":10482,"relocated":10483,"pairs":10484,"jump":10485,"laps":10486,"elle":10487,"bris":10488,"harbour":10489,"revolt":10490,"enforce":10491,"Aftermath":10492,"accessible":10493,"bol":10494,"revised":10495,"posts":10496,"synthe":10497,"Kap":10498,"Mix":10499,"anner":10500,"rosoft":10501,"burning":10502,"Microsoft":10503,"withdrawn":10504,"Bab":10505,"Kane":10506,"ugal":10507,"manga":10508,"Peters":10509,"Quest":10510,"cules":10511,"climb":10512,"itis":10513,"illes":10514,"airing":10515,"Syria":10516,"hills":10517,"commanders":10518,"indeed":10519,"lasting":10520,"programming":10521,"minority":10522,"drafted":10523,"ayan":10524,"traveling":10525,"warfare":10526,"voices":10527,"1890":10528,"thodox":10529,"Jefferson":10530,"Nam":10531,"soc":10532,"ambers":10533,"uton":10534,"provinces":10535,"Ade":10536,"Sud":10537,"ologies":10538,"carries":10539,"sovereign":10540,"distant":10541,"extending":10542,"biographer":10543,"stroke":10544,"Pic":10545,"Vari":10546,"cartoon":10547,"Luke":10548,"Malaysia":10549,"rand":10550,"blues":10551,"Richmond":10552,"displaced":10553,"Near":10554,"RNA":10555,"tru":10556,"Security":10557,"thro":10558,"Still":10559,"promin":10560,"Pap":10561,"Israeli":10562,"Officer":10563,"Sheffield":10564,"Larry":10565,"principles":10566,"keys":10567,"Grace":10568,"prisoner":10569,"experiments":10570,"Vic":10571,"pus":10572,"urricanes":10573,"autumn":10574,"judg":10575,"shifted":10576,"Classic":10577,"tender":10578,"learns":10579,"Dallas":10580,"Guinea":10581,"1895":10582,"Bryan":10583,"magnitude":10584,"acked":10585,"fant":10586,"relatives":10587,"Pictures":10588,"creek":10589,"Past":10590,"rivalry":10591,"Clay":10592,"Together":10593,"approaches":10594,"blocked":10595,"sample":10596,"vinc":10597,"venge":10598,"Industri":10599,"cats":10600,"Johnston":10601,"towers":10602,"radical":10603,"Defense":10604,"FBI":10605,"cyclones":10606,"04":10607,"aders":10608,"imposed":10609,"Steel":10610,"Lem":10611,"haz":10612,"porting":10613,"Performance":10614,"Daw":10615,"igu":10616,"ista":10617,"Chile":10618,"transportation":10619,"pip":10620,"avel":10621,"Sega":10622,"Clarke":10623,"displays":10624,"supplement":10625,"restore":10626,"Cyrus":10627,"shelter":10628,"warnings":10629,"Cad":10630,"None":10631,"rab":10632,"cester":10633,"routine":10634,"absent":10635,"Province":10636,"Yam":10637,"rebels":10638,"paras":10639,"Owen":10640,"Orange":10641,"Som":10642,"vet":10643,"physics":10644,"chore":10645,"emble":10646,"Austin":10647,"districts":10648,"nice":10649,"ented":10650,"traditions":10651,"Abd":10652,"preparing":10653,"proposals":10654,"Continent":10655,"Pir":10656,"sings":10657,"medicine":10658,"participation":10659,"Rest":10660,"estimates":10661,"Wells":10662,"colum":10663,"Blu":10664,"rebel":10665,"scores":10666,"Parsons":10667,"multiplayer":10668,"iti":10669,"essentially":10670,"doct":10671,"adesh":10672,"interviews":10673,"Studio":10674,"1000":10675,"Woman":10676,"ön":10677,"institution":10678,"trunk":10679,"unlikely":10680,"Brand":10681,"Greater":10682,"clothes":10683,"decorated":10684,"inhab":10685,"user":10686,"desert":10687,"disturb":10688,"protests":10689,"oriented":10690,"Fi":10691,"thal":10692,"optim":10693,"inding":10694,"Armstrong":10695,"diversity":10696,"Zone":10697,"diverse":10698,"merce":10699,"electro":10700,"avia":10701,"powder":10702,"comfortable":10703,"Chelsea":10704,"wished":10705,"itious":10706,"uez":10707,"crush":10708,"maintaining":10709,"Formation":10710,"veloc":10711,"salary":10712,"Ferr":10713,"Description":10714,"Eis":10715,"cabinet":10716,"tort":10717,"Beginning":10718,"assum":10719,"Brazilian":10720,"wreck":10721,"landers":10722,"intervention":10723,"promise":10724,"cinema":10725,"adequate":10726,"maker":10727,"toler":10728,"noticed":10729,"drummer":10730,"reforms":10731,"sile":10732,"arguing":10733,"recovery":10734,"Fourth":10735,"Actor":10736,"Danish":10737,"Greatest":10738,"mediate":10739,"worthy":10740,"Pink":10741,"allied":10742,"ifest":10743,"Tul":10744,"manage":10745,"ieth":10746,"vig":10747,"Quebec":10748,"recurring":10749,"Wheel":10750,"beneath":10751,"astery":10752,"Meg":10753,"Abu":10754,"Agency":10755,"gel":10756,"significance":10757,"funded":10758,"vulnerable":10759,"simpl":10760,"dinosaur":10761,"GB":10762,"Rio":10763,"utton":10764,"Authority":10765,"Pin":10766,"berry":10767,"consolid":10768,"WA":10769,"eating":10770,"atop":10771,"achute":10772,"ultimate":10773,"advertis":10774,"conquest":10775,"breast":10776,"Pul":10777,"avi":10778,"statistics":10779,"Cathedral":10780,"sponsored":10781,"Buffalo":10782,"Liter":10783,"uki":10784,"releg":10785,"McKin":10786,"chronic":10787,"Anti":10788,"Susan":10789,"scope":10790,"applications":10791,"squadrons":10792,"neth":10793,"Constantin":10794,"prin":10795,"Orleans":10796,"Jacqu":10797,"Yo":10798,"cart":10799,"descent":10800,"surprised":10801,"Charlot":10802,"unexpected":10803,"shallow":10804,"trick":10805,"ipality":10806,"loaded":10807,"Kaiser":10808,"answer":10809,"cro":10810,"Sle":10811,"colors":10812,"surve":10813,"bears":10814,"Alban":10815,"breaks":10816,"Junior":10817,"ashore":10818,"Cultural":10819,"vant":10820,"enzy":10821,"Plant":10822,"1861":10823,"Falls":10824,"airline":10825,"tribe":10826,"kilome":10827,"grandfather":10828,"fate":10829,"Tyler":10830,"Spirit":10831,"LP":10832,"cant":10833,"inclusion":10834,"Harold":10835,"gus":10836,"summit":10837,"Herald":10838,"Pon":10839,"Utah":10840,"gren":10841,"1889":10842,"Serbian":10843,"organisms":10844,"FIFA":10845,"rains":10846,"ela":10847,"metro":10848,"echo":10849,"atra":10850,"Magn":10851,"deeply":10852,"ante":10853,"supervis":10854,"emotion":10855,"mons":10856,"balls":10857,"civilians":10858,"juven":10859,"Od":10860,"Move":10861,"illo":10862,"Reich":10863,"potentially":10864,"ratio":10865,"Ach":10866,"Mob":10867,"dancers":10868,"educated":10869,"Sac":10870,"1894":10871,"theories":10872,"istoc":10873,"suspic":10874,"rin":10875,"beauty":10876,"pa":10877,"shops":10878,"LA":10879,"Conf":10880,"horizon":10881,"Republicans":10882,"Half":10883,"Muhammad":10884,"Newton":10885,"processes":10886,"implemented":10887,"Stuart":10888,"Cool":10889,"structural":10890,"garn":10891,"segments":10892,"Constantine":10893,"beating":10894,"crimes":10895,"pleased":10896,"sword":10897,"levard":10898,"sugar":10899,"mobil":10900,"ario":10901,"Stefan":10902,"Orche":10903,"sentence":10904,"Ker":10905,"afts":10906,"addressed":10907,"Panzer":10908,"osexual":10909,"1891":10910,"Gw":10911,"cable":10912,"stern":10913,"Gay":10914,"reactions":10915,"Sweet":10916,"03":10917,"Fighter":10918,"Hav":10919,"Kit":10920,"heritage":10921,"Minor":10922,"sculpture":10923,"persuaded":10924,"holes":10925,"Freedom":10926,"knee":10927,"dium":10928,"sailing":10929,"Picture":10930,"Avi":10931,"agh":10932,"emen":10933,"decay":10934,"flies":10935,"smoke":10936,"southeastern":10937,"accommodate":10938,"cession":10939,"operates":10940,"Symphony":10941,"streak":10942,"altitude":10943,"villain":10944,"Typhoon":10945,"CBS":10946,"ths":10947,"inhib":10948,"feared":10949,"columns":10950,"Ran":10951,"iga":10952,"Cardiff":10953,"YouTube":10954,"seventeen":10955,"Apollo":10956,"Link":10957,"fu":10958,"wake":10959,"followers":10960,"presentation":10961,"Amendment":10962,"agriculture":10963,"Indonesian":10964,"len":10965,"truck":10966,"evident":10967,"complained":10968,"flower":10969,"requiring":10970,"Cricket":10971,"Ivan":10972,"RT":10973,"hatch":10974,"eding":10975,"Hunter":10976,"Wiscons":10977,"1800":10978,"1892":10979,"devoted":10980,"revers":10981,"astro":10982,"Alph":10983,"pes":10984,"posing":10985,"locked":10986,"error":10987,"Electric":10988,"Duch":10989,"cum":10990,"precise":10991,"categories":10992,"interaction":10993,"observation":10994,"rowed":10995,"fame":10996,"org":10997,"camps":10998,"Without":10999,"olen":11000,"plates":11001,"strikes":11002,"Days":11003,"IC":11004,"oda":11005,"240":11006,"Jess":11007,"Pete":11008,"Bald":11009,"dles":11010,"writings":11011,"Conservation":11012,"confusion":11013,"Hope":11014,"bie":11015,"pregnant":11016,"penn":11017,"opens":11018,"golden":11019,"judges":11020,"diplomatic":11021,"Wisconsin":11022,"extinct":11023,"zes":11024,"onica":11025,"affir":11026,"suddenly":11027,"Sultan":11028,"llor":11029,"Until":11030,"statements":11031,"voyage":11032,"mythology":11033,"Aren":11034,"Danny":11035,"Hob":11036,"Kan":11037,"sad":11038,"Sox":11039,"extensively":11040,"ika":11041,"Brooks":11042,"kidn":11043,"Kyle":11044,"1870":11045,"advancing":11046,"holiday":11047,"escorted":11048,"usalem":11049,"jurisdiction":11050,"Cavalry":11051,"aco":11052,"Any":11053,"commenting":11054,"researchers":11055,"remote":11056,"resort":11057,"Section":11058,"Islamic":11059,"rowing":11060,"similarities":11061,"planes":11062,"Nature":11063,"asha":11064,"Metropolitan":11065,"highlighted":11066,"Psy":11067,"Schum":11068,"Actress":11069,"girlfriend":11070,"eligible":11071,"Dub":11072,"hin":11073,"chase":11074,"ospel":11075,"Jerusalem":11076,"Kam":11077,"ecol":11078,"rivals":11079,"Attor":11080,"m2":11081,"inge":11082,"Stars":11083,"113":11084,"Ceme":11085,"Pas":11086,"pink":11087,"knocked":11088,"steep":11089,"equally":11090,"mented":11091,"manip":11092,"challenges":11093,"Watch":11094,"drown":11095,"gift":11096,"avian":11097,"sentenced":11098,"osed":11099,"dust":11100,"Grade":11101,"umble":11102,"Trade":11103,"studying":11104,"ucker":11105,"Justin":11106,"principle":11107,"infrastructure":11108,"Johann":11109,"Boeing":11110,"Legisl":11111,"gomery":11112,"Sean":11113,"Wonder":11114,"Bible":11115,"ergy":11116,"oded":11117,"Airlines":11118,"disturbance":11119,"Sonic":11120,"usage":11121,"prog":11122,"lifetime":11123,"Executive":11124,"oured":11125,"2000s":11126,"Edition":11127,"Burns":11128,"gardens":11129,"organic":11130,"1888":11131,"collections":11132,"Montgomery":11133,"bred":11134,"traditionally":11135,"locally":11136,"orange":11137,"Start":11138,"Rey":11139,"variation":11140,"Based":11141,"aes":11142,"divorce":11143,"constitu":11144,"dealing":11145,"inherited":11146,"onian":11147,"warships":11148,"Ruth":11149,"Evil":11150,"universal":11151,"Pierre":11152,"lian":11153,"explaining":11154,"Barnes":11155,"predators":11156,"Cos":11157,"Pok":11158,"naming":11159,"boundaries":11160,"housed":11161,"empty":11162,"ella":11163,"Baron":11164,"recruited":11165,"apolog":11166,"happen":11167,"Independence":11168,"Cemetery":11169,"tape":11170,"lete":11171,"aming":11172,"chemistry":11173,"iko":11174,"documented":11175,"enabled":11176,"neo":11177,"resur":11178,"Artic":11179,"MacArthur":11180,"crashed":11181,"01":11182,"receives":11183,"Sche":11184,"1885":11185,"Century":11186,"Turkey":11187,"Rogers":11188,"fab":11189,"weakening":11190,"Code":11191,"Miles":11192,"considerably":11193,"settlements":11194,"impressive":11195,"unning":11196,"wars":11197,"ometric":11198,"colours":11199,"tasked":11200,"edia":11201,"lington":11202,"Register":11203,"rescued":11204,"travelling":11205,"hostile":11206,"commercially":11207,"garnered":11208,"Fro":11209,"ashes":11210,"involves":11211,"sharks":11212,"Aber":11213,"Din":11214,"Had":11215,"Us":11216,"itate":11217,"benefits":11218,"tickets":11219,"Branch":11220,"mals":11221,"mospher":11222,"explore":11223,"Saturn":11224,"Face":11225,"Prest":11226,"substitute":11227,"Patri":11228,"volunteers":11229,"Ric":11230,"Tang":11231,"dying":11232,"mixture":11233,"sweet":11234,"dwarf":11235,"batted":11236,"pitcher":11237,"options":11238,"fo":11239,"vamp":11240,"Dec":11241,"Bask":11242,"Crus":11243,"Christians":11244,"depicts":11245,"disorder":11246,"breath":11247,"Movie":11248,"Sherman":11249,"gods":11250,"Leaf":11251,"ocket":11252,"dinner":11253,"epic":11254,"Sie":11255,"burial":11256,"conflicts":11257,"detected":11258,"tracked":11259,"Management":11260,"handling":11261,"Scots":11262,"proteins":11263,"circular":11264,"Baltic":11265,"Judge":11266,"Agr":11267,"Ages":11268,"concerning":11269,"elaborate":11270,"Ce":11271,"dimin":11272,"gé":11273,"aching":11274,"philosoph":11275,"Attorney":11276,"enos":11277,"tough":11278,"prince":11279,"pursuit":11280,"pursued":11281,"blow":11282,"warned":11283,"Spy":11284,"patient":11285,"imprisoned":11286,"Aar":11287,"zh":11288,"innoc":11289,"Gang":11290,"upset":11291,"Beau":11292,"legitimate":11293,"pull":11294,"Thames":11295,"Chad":11296,"LS":11297,"Pep":11298,"Sug":11299,"teammate":11300,"Barbara":11301,"Vers":11302,"ensis":11303,"examination":11304,"favourite":11305,"opposing":11306,"virtually":11307,"satisfied":11308,"Heavyweight":11309,"Bark":11310,"Fight":11311,"Spider":11312,"revival":11313,"Against":11314,"lovak":11315,"Fern":11316,"Fitz":11317,"bypass":11318,"competitions":11319,"rushing":11320,"velocity":11321,"editions":11322,"choos":11323,"suspected":11324,"Take":11325,"ois":11326,"Anc":11327,"portrait":11328,"manufacturing":11329,"eventual":11330,"anticipated":11331,"Athens":11332,"agers":11333,"Regional":11334,"1865":11335,"Ott":11336,"Slav":11337,"eras":11338,"Hearts":11339,"ceded":11340,"lett":11341,"politicians":11342,"census":11343,"Representatives":11344,"Charlotte":11345,"DJ":11346,"drain":11347,"troop":11348,"renewed":11349,"Mall":11350,"taste":11351,"usions":11352,"screenplay":11353,"beliefs":11354,"Mind":11355,"wright":11356,"comics":11357,"throwing":11358,"veteran":11359,"450":11360,"urged":11361,"produces":11362,"lengths":11363,"Bull":11364,"gri":11365,"Comedy":11366,"aughter":11367,"Romney":11368,"iso":11369,"heir":11370,"abroad":11371,"distur":11372,"apply":11373,"universities":11374,"raw":11375,"sible":11376,"Reagan":11377,"complicated":11378,"Nancy":11379,"rib":11380,"sures":11381,"NATO":11382,"ERA":11383,"Ki":11384,"formations":11385,"Beth":11386,"slop":11387,"remembered":11388,"dependent":11389,"Nas":11390,"Want":11391,"rehears":11392,"stolen":11393,"aside":11394,"amas":11395,"links":11396,"capturing":11397,"ublin":11398,"participants":11399,"unve":11400,"promoting":11401,"sustain":11402,"cattle":11403,"rendered":11404,"orton":11405,"Tribune":11406,"Krist":11407,"medals":11408,"Magic":11409,"Non":11410,"trapped":11411,"interven":11412,"ema":11413,"Nova":11414,"thereby":11415,"bombardment":11416,"rings":11417,"rible":11418,"decreased":11419,"trailer":11420,"elf":11421,"ups":11422,"phal":11423,"Brid":11424,"confirm":11425,"Ernest":11426,"uine":11427,"compre":11428,"buff":11429,"accidentally":11430,"trench":11431,"rier":11432,"McCar":11433,"costume":11434,"Portugal":11435,"Chester":11436,"Iceland":11437,"Constantinople":11438,"tissue":11439,"ín":11440,"thum":11441,"isition":11442,"grid":11443,"compositions":11444,"activated":11445,"prototype":11446,"positively":11447,"Fa":11448,"Rou":11449,"Marines":11450,"knock":11451,"marking":11452,"invaded":11453,"kar":11454,"maps":11455,"02":11456,"Newcastle":11457,"caster":11458,"volcanic":11459,"HC":11460,"bars":11461,"ambass":11462,"occasional":11463,"celebration":11464,"Personnel":11465,"220":11466,"Joint":11467,"hopes":11468,"Others":11469,"arest":11470,"endor":11471,"Antar":11472,"ierce":11473,"Elli":11474,"ridor":11475,"Gibr":11476,"tong":11477,"productive":11478,"Eddie":11479,"biological":11480,"batteries":11481,"José":11482,"uts":11483,"hoping":11484,"evacuation":11485,"Jere":11486,"Affairs":11487,"indigen":11488,"variations":11489,"Glas":11490,"Crow":11491,"avan":11492,"upcoming":11493,"Normand":11494,"restrial":11495,"Tournam":11496,"colm":11497,"occurring":11498,"phenomen":11499,"Laboratory":11500,"Gibraltar":11501,"Draft":11502,"1864":11503,"Cornwall":11504,"integrated":11505,"Cass":11506,"Nord":11507,"Environment":11508,"guards":11509,"continent":11510,"Chapel":11511,"uters":11512,"bee":11513,"bomber":11514,"laboratory":11515,"Cris":11516,"obsc":11517,"guests":11518,"Liberty":11519,"sinking":11520,"memo":11521,"dozen":11522,"Merced":11523,"pap":11524,"godd":11525,"killer":11526,"indigenous":11527,"goddess":11528,"Fun":11529,"Vick":11530,"provisions":11531,"Filming":11532,"easier":11533,"retri":11534,"separation":11535,"nickname":11536,"Voice":11537,"strange":11538,"drink":11539,"panic":11540,"rugby":11541,"scandal":11542,"threats":11543,"parliamentary":11544,"Case":11545,"avoided":11546,"consumption":11547,"Got":11548,"Lower":11549,"gow":11550,"oh":11551,"ferry":11552,"refere":11553,"Meteorological":11554,"cann":11555,"Invest":11556,"genuine":11557,"supports":11558,"politician":11559,"Malcolm":11560,"asserted":11561,"Phys":11562,"Tree":11563,"lyric":11564,"cash":11565,"enda":11566,"Poly":11567,"progressed":11568,"Members":11569,"Kill":11570,"ipher":11571,"genres":11572,"mixing":11573,"walks":11574,"Friends":11575,"disputed":11576,"ilda":11577,"Energy":11578,"Kenneth":11579,"Cena":11580,"Maxim":11581,"defenders":11582,"Gabri":11583,"Zero":11584,"rally":11585,"olia":11586,"Leic":11587,"speeds":11588,"Gon":11589,"Armenian":11590,"random":11591,"lighter":11592,"inser":11593,"deputy":11594,"bitter":11595,"restrictions":11596,"aze":11597,"particles":11598,"mounts":11599,"corporate":11600,"truly":11601,"Action":11602,"isan":11603,"agles":11604,"confident":11605,"Protestant":11606,"odies":11607,"arose":11608,"nephe":11609,"nephew":11610,"sav":11611,"Room":11612,"bowl":11613,"murdered":11614,"Boulevard":11615,"Orchestra":11616,"Bapt":11617,"Hg":11618,"neys":11619,"eves":11620,"111":11621,"contracts":11622,"Isaac":11623,"dreadn":11624,"bull":11625,"ía":11626,"Oscar":11627,"RC":11628,"yr":11629,"osa":11630,"ibn":11631,"eastward":11632,"Pedro":11633,"Bright":11634,"customers":11635,"Chamberlain":11636,"stom":11637,"arrior":11638,"lawsuit":11639,"Athletic":11640,"Dublin":11641,"ipation":11642,"grades":11643,"Titan":11644,"Bears":11645,"oples":11646,"1862":11647,"exile":11648,"ivals":11649,"spokes":11650,"dual":11651,"scop":11652,"humanity":11653,"aple":11654,"ielder":11655,"jew":11656,"witch":11657,"speculation":11658,"Syn":11659,"Continental":11660,"phant":11661,"cathedral":11662,"touchdowns":11663,"SH":11664,"lover":11665,"rational":11666,"tune":11667,"anx":11668,"elite":11669,"timber":11670,"engineers":11671,"Bradley":11672,"Tak":11673,"osph":11674,"threatening":11675,"Youth":11676,"angry":11677,"leased":11678,"register":11679,"unders":11680,"gif":11681,"orship":11682,"onge":11683,"agrees":11684,"Legend":11685,"Career":11686,"Cyclone":11687,"Rush":11688,"debris":11689,"tram":11690,"Chair":11691,"companion":11692,"depicting":11693,"Peng":11694,"facts":11695,"ressional":11696,"industries":11697,"Saw":11698,"hence":11699,"nis":11700,"disappointed":11701,"undertaken":11702,"Robin":11703,"definitely":11704,"encounters":11705,"prest":11706,"developments":11707,"othy":11708,"woods":11709,"kilogram":11710,"convicted":11711,"Tournament":11712,"idi":11713,"ignored":11714,"gotten":11715,"revolutionary":11716,"Control":11717,"Wa":11718,"owski":11719,"lier":11720,"Than":11721,"Cab":11722,"vicinity":11723,"ranged":11724,"armoured":11725,"lyrical":11726,"mechanism":11727,"sweep":11728,"intellectual":11729,"percus":11730,"decrease":11731,"absorbed":11732,"pig":11733,"lium":11734,"triumph":11735,"Belle":11736,"paying":11737,"Archbishop":11738,"infection":11739,"Fly":11740,"Glee":11741,"incinn":11742,"conversation":11743,"Guild":11744,"Eight":11745,"hide":11746,"Thr":11747,"Stein":11748,"judicial":11749,"championships":11750,"positioned":11751,"BO":11752,"Wed":11753,"sho":11754,"poster":11755,"Serbia":11756,"itime":11757,"iously":11758,"oxid":11759,"Collection":11760,"exhibit":11761,"Alberta":11762,"bish":11763,"territorial":11764,"Cincinn":11765,"Happ":11766,"gs":11767,"asp":11768,"rought":11769,"aneous":11770,"lacking":11771,"license":11772,"chrom":11773,"awak":11774,"contacted":11775,"preserve":11776,"Villa":11777,"constantly":11778,"Place":11779,"focuses":11780,"Tommy":11781,"decisive":11782,"Rear":11783,"amine":11784,"ailing":11785,"metre":11786,"dropping":11787,"suspension":11788,"atoon":11789,"Marshal":11790,"helicopter":11791,"Future":11792,"ograph":11793,"voters":11794,"mammals":11795,"inaugural":11796,"boost":11797,"viewing":11798,"Springfield":11799,"fro":11800,"encer":11801,"Churchill":11802,"Taiwan":11803,"declar":11804,"Studies":11805,"farmers":11806,"predominantly":11807,"Twent":11808,"erals":11809,"enberg":11810,"Inde":11811,"manifest":11812,"zero":11813,"ouch":11814,"iah":11815,"facil":11816,"motif":11817,"boyfriend":11818,"Gates":11819,"Lanc":11820,"Chi":11821,"Reed":11822,"layers":11823,"Muslims":11824,"desper":11825,"Coal":11826,"honest":11827,"loud":11828,"eda":11829,"membr":11830,"relieved":11831,"978":11832,"Raid":11833,"wer":11834,"lys":11835,"Joan":11836,"arena":11837,"feathers":11838,"sheep":11839,"breeds":11840,"Yugoslavia":11841,"releasing":11842,"thorough":11843,"Malta":11844,"collaborated":11845,"bian":11846,"Shah":11847,"brilliant":11848,"Jake":11849,"admir":11850,"aided":11851,"24th":11852,"Mang":11853,"removing":11854,"uted":11855,"compiled":11856,"spots":11857,"conspiracy":11858,"Ancient":11859,"Parks":11860,"Wagner":11861,"nar":11862,"isn":11863,"centered":11864,"peninsula":11865,"detect":11866,"Sic":11867,"vae":11868,"lem":11869,"adu":11870,"compat":11871,"colored":11872,"Maine":11873,"illustrated":11874,"attorney":11875,"Pine":11876,"instant":11877,"chlor":11878,"estone":11879,"swept":11880,"Friedrich":11881,"PN":11882,"castles":11883,"quiry":11884,"Hood":11885,"lung":11886,"Shiva":11887,"grows":11888,"PD":11889,"roe":11890,"actively":11891,"explanation":11892,"tum":11893,"resid":11894,"Shield":11895,"knows":11896,"canceled":11897,"Cincinnati":11898,"Mam":11899,"Tol":11900,"104":11901,"roadway":11902,"iary":11903,"tees":11904,"sentiment":11905,"Burke":11906,"Olivia":11907,"Hil":11908,"Angelou":11909,"independently":11910,"Planet":11911,"Waters":11912,"wig":11913,"enorm":11914,"ogical":11915,"Comics":11916,"situations":11917,"Normandy":11918,"Round":11919,"itched":11920,"dispers":11921,"Alliance":11922,"Afghanistan":11923,"tools":11924,"endors":11925,"icking":11926,"conqu":11927,"loading":11928,"varying":11929,"AM":11930,"Lud":11931,"marched":11932,"fossils":11933,"BL":11934,"109":11935,"linear":11936,"rounded":11937,"Steam":11938,"offshore":11939,"ibly":11940,"reads":11941,"verses":11942,"Vegas":11943,"Rosen":11944,"asury":11945,"butter":11946,"Uk":11947,"itchen":11948,"1887":11949,"Maced":11950,"Hull":11951,"clan":11952,"outstanding":11953,"possessed":11954,"112":11955,"Pay":11956,"Madison":11957,"itable":11958,"clergy":11959,"Tir":11960,"stown":11961,"rels":11962,"couldn":11963,"reporting":11964,"1880":11965,"mary":11966,"calculated":11967,"itudes":11968,"arks":11969,"Twitter":11970,"1863":11971,"width":11972,"prosper":11973,"disappeared":11974,"Conservative":11975,"bott":11976,"expanding":11977,"Revolutionary":11978,"locomotives":11979,"bapt":11980,"vance":11981,"infer":11982,"hosp":11983,"grat":11984,"Former":11985,"quoted":11986,"varies":11987,"1886":11988,"Gregory":11989,"accommod":11990,"itol":11991,"Technology":11992,"mospheric":11993,"Nob":11994,"pum":11995,"tical":11996,"beer":11997,"Ches":11998,"Chuck":11999,"flour":12000,"Edmund":12001,"swing":12002,"JNA":12003,"overty":12004,"Leeds":12005,"coron":12006,"suggestion":12007,"bach":12008,"zig":12009,"Herbert":12010,"celebrate":12011,"umberland":12012,"ministers":12013,"Schumacher":12014,"nevertheless":12015,"Morning":12016,"Hein":12017,"regulations":12018,"hybrid":12019,"fungus":12020,"Aud":12021,"cane":12022,"Orton":12023,"inducted":12024,"Mercury":12025,"submarines":12026,"ashi":12027,"Dennis":12028,"Poké":12029,"Andr":12030,"flown":12031,"azy":12032,"ovic":12033,"finite":12034,"witnesses":12035,"MLB":12036,"Dud":12037,"Rub":12038,"leted":12039,"idia":12040,"Serge":12041,"attraction":12042,"Leo":12043,"Brooklyn":12044,"instein":12045,"stability":12046,"Julian":12047,"Kes":12048,"reporter":12049,"iph":12050,"101":12051,"taker":12052,"faculty":12053,"persist":12054,"Princeton":12055,"reject":12056,"Tigers":12057,"Sor":12058,"inHg":12059,"romance":12060,"retreated":12061,"McKinley":12062,"Mann":12063,"UB":12064,"eagle":12065,"Isle":12066,"prints":12067,"Organization":12068,"reminis":12069,"anthem":12070,"osy":12071,"emission":12072,"metals":12073,"holders":12074,"blamed":12075,"publicity":12076,"payment":12077,"Browns":12078,"gentle":12079,"urity":12080,"noise":12081,"fortifications":12082,"parking":12083,"cruise":12084,"Helen":12085,"stored":12086,"voir":12087,"connects":12088,"Myster":12089,"liver":12090,"spite":12091,"fundamental":12092,"Historical":12093,"Buddhist":12094,"agi":12095,"curve":12096,"Floren":12097,"1884":12098,"ambush":12099,"Tint":12100,"whatever":12101,"Chang":12102,"drunk":12103,"conducting":12104,"machin":12105,"targeted":12106,"challenging":12107,"condemned":12108,"heimer":12109,"Hubbard":12110,"progressive":12111,"imony":12112,"igger":12113,"reliable":12114,"annex":12115,"114":12116,"ritic":12117,"servers":12118,"NASA":12119,"focusing":12120,"corresponding":12121,"Fisher":12122,"Smack":12123,"Brien":12124,"studios":12125,"terminal":12126,"recruit":12127,"bab":12128,"raud":12129,"harsh":12130,"examined":12131,"torpedoes":12132,"preceding":12133,"GS":12134,"Num":12135,"ao":12136,"Political":12137,"Sri":12138,"winners":12139,"igation":12140,"shirt":12141,"inned":12142,"directing":12143,"confused":12144,"disbanded":12145,"Glasgow":12146,"roster":12147,"mentions":12148,"magnetic":12149,"favored":12150,"convince":12151,"Canucks":12152,"Opera":12153,"Tunes":12154,"Father":12155,"harvest":12156,"machines":12157,"Solar":12158,"resignation":12159,"acular":12160,"playable":12161,"Scient":12162,"telephone":12163,"Tests":12164,"Kaz":12165,"rep":12166,"Barcel":12167,"Holland":12168,"Devil":12169,"insurance":12170,"dor":12171,"thi":12172,"root":12173,"igious":12174,"tourist":12175,"rebounds":12176,"brings":12177,"solely":12178,"Kay":12179,"hurt":12180,"regiments":12181,"Shep":12182,"adopt":12183,"Cu":12184,"Phillies":12185,"rage":12186,"Inside":12187,"buck":12188,"Montana":12189,"Ther":12190,"semin":12191,"sharing":12192,"Oil":12193,"gary":12194,"worse":12195,"surprising":12196,"Millennium":12197,"Prop":12198,"sheet":12199,"thanks":12200,"BCE":12201,"Austro":12202,"Westminster":12203,"Luf":12204,"Theodore":12205,"lum":12206,"ghost":12207,"creature":12208,"Percy":12209,"concepts":12210,"Walt":12211,"olph":12212,"ulum":12213,"darker":12214,"rotation":12215,"Denver":12216,"spaw":12217,"routing":12218,"itan":12219,"dez":12220,"spective":12221,"curved":12222,"Musical":12223,"scholarship":12224,"Gas":12225,"sta":12226,"apes":12227,"steadily":12228,"Basketball":12229,"Rot":12230,"historically":12231,"1877":12232,"Celtic":12233,"Fifth":12234,"atively":12235,"gusts":12236,"Adventure":12237,"ED":12238,"themed":12239,"Southeast":12240,"prompting":12241,"cotton":12242,"Il":12243,"arte":12244,"hyper":12245,"printing":12246,"Tintin":12247,"Mult":12248,"theaters":12249,"ceme":12250,"agencies":12251,"privi":12252,"McL":12253,"1876":12254,"cemetery":12255,"onso":12256,"pest":12257,"commitment":12258,"Pel":12259,"myself":12260,"consideration":12261,"cises":12262,"Mercedes":12263,"230":12264,"clay":12265,"ennial":12266,"mount":12267,"Strong":12268,"asa":12269,"acclaimed":12270,"cogn":12271,"Mega":12272,"Et":12273,"reconstruction":12274,"trio":12275,"spacecraft":12276,"consciousness":12277,"Nevada":12278,"wartime":12279,"Bulgarian":12280,"kids":12281,"logo":12282,"messages":12283,"Cele":12284,"diale":12285,"ewise":12286,"Poe":12287,"Additional":12288,"usters":12289,"Manuel":12290,"summar":12291,"measuring":12292,"Albany":12293,"frog":12294,"sulf":12295,"yers":12296,"abort":12297,"monastery":12298,"incidents":12299,"pleasure":12300,"aja":12301,"walked":12302,"Theater":12303,"este":12304,"Glou":12305,"bench":12306,"hint":12307,"lux":12308,"Carlos":12309,"refuses":12310,"clouds":12311,"amphib":12312,"117":12313,"Eld":12314,"Mau":12315,"Rev":12316,"hail":12317,"radius":12318,"distinction":12319,"arguments":12320,"elevated":12321,"ét":12322,"icular":12323,"coaches":12324,"proclaimed":12325,"clad":12326,"ampa":12327,"explored":12328,"Current":12329,"Territory":12330,"kilometers":12331,"Ottawa":12332,"funk":12333,"én":12334,"plum":12335,"interrupted":12336,"covery":12337,"revenge":12338,"consequence":12339,"canon":12340,"Cloud":12341,"estimate":12342,"Gothic":12343,"phosph":12344,"consistently":12345,"accomplished":12346,"omon":12347,"convey":12348,"1830":12349,"transmission":12350,"critically":12351,"joins":12352,"Ellen":12353,"Alpha":12354,"opined":12355,"physically":12356,"exterior":12357,"Nathan":12358,"XI":12359,"finest":12360,"obst":12361,"introduce":12362,"Ukrain":12363,"Yard":12364,"creatures":12365,"legally":12366,"Cox":12367,"participating":12368,"gates":12369,"atty":12370,"chann":12371,"istical":12372,"lifted":12373,"Barcelona":12374,"Hus":12375,"lakes":12376,"1875":12377,"airborne":12378,"sensitive":12379,"Pokémon":12380,"encompass":12381,"washed":12382,"Chan":12383,"Cardinals":12384,"Dow":12385,"Mile":12386,"Pos":12387,"anor":12388,"cht":12389,"tensions":12390,"surpassed":12391,"Emma":12392,"instructions":12393,"martial":12394,"FM":12395,"Fab":12396,"offee":12397,"teles":12398,"ardo":12399,"ritual":12400,"deliberately":12401,"Dod":12402,"honey":12403,"shaft":12404,"worker":12405,"jections":12406,"lesser":12407,"ceremonies":12408,"itars":12409,"config":12410,"scout":12411,"Colin":12412,"Parkway":12413,"planted":12414,"enhanced":12415,"demographic":12416,"Henderson":12417,"staged":12418,"authen":12419,"contribute":12420,"properly":12421,"Salt":12422,"complimented":12423,"sic":12424,"mansion":12425,"intermediate":12426,"rider":12427,"Punk":12428,"Enix":12429,"variable":12430,"Operations":12431,"Caes":12432,"SmackDown":12433,"Khal":12434,"peoples":12435,"extends":12436,"Michaels":12437,"weakness":12438,"preparations":12439,"Circle":12440,"Hin":12441,"hell":12442,"transformed":12443,"puts":12444,"Lords":12445,"jaw":12446,"Drake":12447,"naturally":12448,"heavier":12449,"Kil":12450,"Tra":12451,"Marc":12452,"choir":12453,"onwards":12454,"dell":12455,"contrad":12456,"diary":12457,"Paraly":12458,"Metac":12459,"functional":12460,"Foster":12461,"PR":12462,"bowled":12463,"CEO":12464,"remake":12465,"rols":12466,"southwestern":12467,"Derby":12468,"Bris":12469,"Method":12470,"1883":12471,"Milan":12472,"assassination":12473,"prospect":12474,"outcome":12475,"relevant":12476,"fights":12477,"Arena":12478,"therapy":12479,"strand":12480,"1881":12481,"emerging":12482,"initiative":12483,"stereoty":12484,"Pack":12485,"Angle":12486,"variant":12487,"achievements":12488,"vegetation":12489,"uri":12490,"modest":12491,"updated":12492,"Sciences":12493,"summon":12494,"Romanian":12495,"Mut":12496,"ye":12497,"Unit":12498,"processing":12499,"homosexual":12500,"Rena":12501,"disabled":12502,"Ground":12503,"courage":12504,"Middles":12505,"stad":12506,"itic":12507,"suited":12508,"Northwest":12509,"tourists":12510,"ashire":12511,"populated":12512,"genera":12513,"associate":12514,"trap":12515,"qualities":12516,"propaganda":12517,"Blair":12518,"Raymond":12519,"Break":12520,"Venice":12521,"fielder":12522,"vironments":12523,"Speed":12524,"alpha":12525,"deposits":12526,"Jamaica":12527,"Paralymp":12528,"hunt":12529,"depiction":12530,"enburg":12531,"ulates":12532,"rocket":12533,"Computer":12534,"Brah":12535,"sailors":12536,"exercises":12537,"weighed":12538,"betr":12539,"managing":12540,"1869":12541,"Powell":12542,"Smo":12543,"ramp":12544,"monster":12545,"subtropical":12546,"listening":12547,"autobiography":12548,"cave":12549,"lun":12550,"moist":12551,"specified":12552,"Richardson":12553,"melod":12554,"loyalty":12555,"unanim":12556,"Composition":12557,"damaging":12558,"orchestral":12559,"archaeological":12560,"BM":12561,"ribution":12562,"Syl":12563,"honors":12564,"revealing":12565,"Ferdin":12566,"northeastern":12567,"Duncan":12568,"punishment":12569,"achievement":12570,"permanently":12571,"Lancashire":12572,"dent":12573,"environments":12574,"seal":12575,"comprising":12576,"Stage":12577,"solve":12578,"latest":12579,"Schol":12580,"Calgary":12581,"Delta":12582,"argue":12583,"Isles":12584,"atorial":12585,"journalists":12586,"borders":12587,"scre":12588,"regret":12589,"caps":12590,"smen":12591,"Total":12592,"doctrine":12593,"1866":12594,"Veronica":12595,"Nak":12596,"dive":12597,"insist":12598,"delegates":12599,"Tas":12600,"Voy":12601,"tels":12602,"presidency":12603,"shipped":12604,"carved":12605,"searching":12606,"coaching":12607,"witnessed":12608,"750":12609,"iture":12610,"performers":12611,"Springs":12612,"Range":12613,"confer":12614,"versus":12615,"Ferdinand":12616,"Floyd":12617,"unsuccessfully":12618,"102":12619,"linder":12620,"Frances":12621,"belonging":12622,"dispatched":12623,"Mills":12624,"Using":12625,"smith":12626,"priority":12627,"Wellington":12628,"mysterious":12629,"rous":12630,"desired":12631,"scientist":12632,"Grove":12633,"Canyon":12634,"Headquarters":12635,"ocy":12636,"permit":12637,"finance":12638,"ibal":12639,"preventing":12640,"psychiat":12641,"reluctant":12642,"Body":12643,"lings":12644,"atts":12645,"metall":12646,"Weather":12647,"Archae":12648,"encourage":12649,"frigate":12650,"Lab":12651,"cents":12652,"awareness":12653,"ijing":12654,"mbar":12655,"grace":12656,"Crystal":12657,"Fear":12658,"mentary":12659,"silent":12660,"calc":12661,"Rodrig":12662,"Urban":12663,"Hale":12664,"Mom":12665,"mood":12666,"spar":12667,"fract":12668,"Crawford":12669,"phenomenon":12670,"ceiling":12671,"belonged":12672,"distinguish":12673,"assessment":12674,"Palestine":12675,"Flanders":12676,"Zim":12677,"Butler":12678,"molecular":12679,"Leicester":12680,"Jen":12681,"tt":12682,"switched":12683,"suffer":12684,"inhabited":12685,"Lot":12686,"lab":12687,"rations":12688,"executives":12689,"hypothesis":12690,"poverty":12691,"imal":12692,"Intellig":12693,"licensed":12694,"SE":12695,"directions":12696,"1873":12697,"mechanics":12698,"muda":12699,"Ast":12700,"dun":12701,"omed":12702,"exploration":12703,"Guadal":12704,"generate":12705,"ensem":12706,"eighteen":12707,"CC":12708,"Cot":12709,"wo":12710,"corruption":12711,"Telegraph":12712,"Culture":12713,"mint":12714,"Newman":12715,"filter":12716,"mystery":12717,"dynamic":12718,"Assist":12719,"eter":12720,"Edmon":12721,"contributing":12722,"expectations":12723,"oa":12724,"Grif":12725,"gran":12726,"internationally":12727,"Beijing":12728,"Adri":12729,"1882":12730,"qualification":12731,"Devon":12732,"Roche":12733,"Tucker":12734,"lean":12735,"flav":12736,"flesh":12737,"paved":12738,"guitars":12739,"objectives":12740,"Effect":12741,"Food":12742,"temples":12743,"vidence":12744,"fluor":12745,"Region":12746,"1867":12747,"1871":12748,"Fischer":12749,"Aaron":12750,"leagues":12751,"geon":12752,"Conserv":12753,"milk":12754,"sympa":12755,"Watson":12756,"procedure":12757,"dimensional":12758,"Fur":12759,"NG":12760,"ims":12761,"whales":12762,"Stal":12763,"eward":12764,"Why":12765,"submerged":12766,"agreements":12767,"saving":12768,"abad":12769,"improving":12770,"staying":12771,"Hog":12772,"advocated":12773,"overwhelming":12774,"Steph":12775,"pseud":12776,"abundant":12777,"Clif":12778,"Gene":12779,"cure":12780,"tasks":12781,"steady":12782,"McCarthy":12783,"usty":12784,"Truman":12785,"Films":12786,"discussing":12787,"bills":12788,"comprised":12789,"acceptance":12790,"habitats":12791,"Adela":12792,"brush":12793,"composers":12794,"Kepler":12795,"horsepower":12796,"requirement":12797,"Vel":12798,"convert":12799,"sym":12800,"25th":12801,"Slo":12802,"dwell":12803,"mild":12804,"seeds":12805,"Norse":12806,"Prison":12807,"Deputy":12808,"rushed":12809,"refugees":12810,"channels":12811,"Tat":12812,"deals":12813,"reson":12814,"estates":12815,"cameo":12816,"roller":12817,"partners":12818,"crucial":12819,"cubic":12820,"stair":12821,"ips":12822,"Commerc":12823,"1878":12824,"Commons":12825,"Dudley":12826,"screens":12827,"nervous":12828,"iki":12829,"arians":12830,"Stri":12831,"penal":12832,"blockade":12833,"fragments":12834,"uins":12835,"collecting":12836,"keyboard":12837,"opinions":12838,"percussion":12839,"Ply":12840,"ilder":12841,"navigation":12842,"Led":12843,"urg":12844,"speculated":12845,"ierra":12846,"resemble":12847,"Alam":12848,"intelligent":12849,"Hok":12850,"iTunes":12851,"incar":12852,"ocese":12853,"prem":12854,"centric":12855,"undertook":12856,"Trinity":12857,"Desert":12858,"contested":12859,"landings":12860,"Gibson":12861,"Rif":12862,"isations":12863,"necessarily":12864,"Professional":12865,"turbines":12866,"oming":12867,"averaged":12868,"compromise":12869,"ountain":12870,"atern":12871,"teachers":12872,"immigrants":12873,"Bom":12874,"oct":12875,"acon":12876,"calm":12877,"manufactured":12878,"compreh":12879,"Luftw":12880,"chess":12881,"Malay":12882,"homeless":12883,"Mail":12884,"cill":12885,"assets":12886,"neuro":12887,"relating":12888,"Shan":12889,"scribed":12890,"Fav":12891,"Wer":12892,"whale":12893,"posthum":12894,"Alter":12895,"defenses":12896,"complaints":12897,"JG":12898,"Mak":12899,"constr":12900,"dissolved":12901,"crust":12902,"underwater":12903,"ensuing":12904,"Ec":12905,"Kur":12906,"manages":12907,"strings":12908,"tourism":12909,"View":12910,"Scr":12911,"symbols":12912,"psychological":12913,"grossed":12914,"fierce":12915,"pian":12916,"upl":12917,"és":12918,"olan":12919,"Metacritic":12920,"Eagle":12921,"clam":12922,"engaging":12923,"networks":12924,"coastline":12925,"relied":12926,"gauge":12927,"cab":12928,"consequences":12929,"singers":12930,"circles":12931,"Goe":12932,"heroes":12933,"honorary":12934,"remarkable":12935,"Mobile":12936,"rays":12937,"ilogy":12938,"lengthy":12939,"Baptist":12940,"Riley":12941,"Sour":12942,"consensus":12943,"subordin":12944,"Meyer":12945,"Luther":12946,"Luftwaffe":12947,"Vlad":12948,"nox":12949,"adds":12950,"trips":12951,"reserves":12952,"Standard":12953,"eruption":12954,"pounder":12955,"Shelley":12956,"fraud":12957,"oton":12958,"ocation":12959,"reader":12960,"Bermuda":12961,"authentic":12962,"rection":12963,"intact":12964,"1860":12965,"assassin":12966,"bacteria":12967,"OD":12968,"roid":12969,"signals":12970,"Month":12971,"Genesis":12972,"discipline":12973,"Slam":12974,"atro":12975,"pling":12976,"cultures":12977,"patrols":12978,"Vik":12979,"duck":12980,"lemurs":12981,"aristoc":12982,"ipating":12983,"actic":12984,"battlefield":12985,"Curtis":12986,"unveiled":12987,"Aguil":12988,"Sara":12989,"matic":12990,"Comb":12991,"Monster":12992,"Bun":12993,"recept":12994,"1868":12995,"Wolver":12996,"Machine":12997,"eldest":12998,"neur":12999,"doctors":13000,"archy":13001,"1872":13002,"iggins":13003,"explosive":13004,"Choice":13005,"maneuver":13006,"Bh":13007,"Wrest":13008,"lind":13009,"ographic":13010,"Marcus":13011,"ambassador":13012,"Gran":13013,"Mick":13014,"emotions":13015,"avil":13016,"brut":13017,"offs":13018,"Various":13019,"Aguilera":13020,"aton":13021,"olly":13022,"millions":13023,"battlecruisers":13024,"Henri":13025,"Notable":13026,"Selena":13027,"eted":13028,"comparing":13029,"Engineering":13030,"rav":13031,"contempor":13032,"interactions":13033,"Peru":13034,"Timber":13035,"Rip":13036,"tradem":13037,"literally":13038,"twentieth":13039,"comparable":13040,"enormous":13041,"Come":13042,"insufficient":13043,"essay":13044,"politically":13045,"inu":13046,"rode":13047,"Marx":13048,"spectators":13049,"batsman":13050,"Bil":13051,"vas":13052,"songwriting":13053,"Blake":13054,"Did":13055,"Newport":13056,"Flames":13057,"costumes":13058,"Adelaide":13059,"Number":13060,"neath":13061,"topic":13062,"instructed":13063,"Female":13064,"Dakota":13065,"horizontal":13066,"Money":13067,"tended":13068,"airfield":13069,"appealed":13070,"ahl":13071,"accus":13072,"dealt":13073,"Woods":13074,"revived":13075,"enrolled":13076,"arth":13077,"opol":13078,"umi":13079,"assign":13080,"prelim":13081,"lining":13082,"Adrian":13083,"Monroe":13084,"acceptable":13085,"stabil":13086,"Cabinet":13087,"endar":13088,"topes":13089,"Phillips":13090,"Ellis":13091,"MVP":13092,"chord":13093,"brook":13094,"vocalist":13095,"repaired":13096,"Chandler":13097,"Renaissance":13098,"Griffin":13099,"Rid":13100,"Marqu":13101,"Expedition":13102,"digit":13103,"cuit":13104,"Laf":13105,"U2":13106,"delight":13107,"Official":13108,"Knights":13109,"referee":13110,"Soph":13111,"olith":13112,"Leigh":13113,"Franco":13114,"instrumentation":13115,"migration":13116,"hier":13117,"erly":13118,"imer":13119,"Soviets":13120,"lava":13121,"allegations":13122,"slower":13123,"vern":13124,"intersections":13125,"attractive":13126,"Daniels":13127,"orchestr":13128,"tactical":13129,"RPG":13130,"Wings":13131,"oria":13132,"vibr":13133,"renumber":13134,"Spencer":13135,"nery":13136,"scripts":13137,"logical":13138,"Survi":13139,"diseases":13140,"WWF":13141,"Geoffrey":13142,"declaration":13143,"Clim":13144,"Capital":13145,"anchor":13146,"chapters":13147,"exhibited":13148,"reminiscent":13149,"hurricanes":13150,"rians":13151,"Combat":13152,"quet":13153,"angles":13154,"Surrey":13155,"termed":13156,"allocated":13157,"keley":13158,"Heaven":13159,"Therefore":13160,"mushroom":13161,"Cut":13162,"missile":13163,"contracted":13164,"mistake":13165,"throat":13166,"ND":13167,"Nept":13168,"wrap":13169,"wishes":13170,"Berg":13171,"masses":13172,"neutron":13173,"ng":13174,"otilla":13175,"overcome":13176,"ministered":13177,"synthesis":13178,"Buch":13179,"Put":13180,"interference":13181,"Adult":13182,"fluid":13183,"Barrett":13184,"Maxwell":13185,"gallery":13186,"ento":13187,"asia":13188,"Essex":13189,"sacrifice":13190,"incred":13191,"etc":13192,"disliked":13193,"thickness":13194,"athletic":13195,"utonium":13196,"fabric":13197,"Fellow":13198,"Stop":13199,"harbor":13200,"gaming":13201,"quantities":13202,"Plymouth":13203,"gie":13204,"chy":13205,"shoo":13206,"anni":13207,"Large":13208,"volcano":13209,"mathematics":13210,"Movement":13211,"Abrah":13212,"Online":13213,"Madrid":13214,"GameSpot":13215,"holder":13216,"healthy":13217,"Hanc":13218,"Tip":13219,"antis":13220,"transit":13221,"ungle":13222,"rulers":13223,"demanding":13224,"shopping":13225,"Masters":13226,"ör":13227,"arus":13228,"guided":13229,"nomine":13230,"machinery":13231,"lion":13232,"zones":13233,"inqu":13234,"rifle":13235,"etary":13236,"bery":13237,"deriv":13238,"speaker":13239,"supporter":13240,"expense":13241,"panels":13242,"proceeds":13243,"suits":13244,"Seas":13245,"Vienna":13246,"nicknamed":13247,"syndrome":13248,"opard":13249,"aku":13250,"refit":13251,"natives":13252,"Resident":13253,"Aviation":13254,"Hir":13255,"Nico":13256,"wash":13257,"assed":13258,"Contemporary":13259,"Sponge":13260,"Drum":13261,"caliber":13262,"Bren":13263,"esp":13264,"Romans":13265,"acquire":13266,"Brigadier":13267,"Ext":13268,"deton":13269,"opted":13270,"counsel":13271,"imported":13272,"Burger":13273,"Bosnia":13274,"Hancock":13275,"Tab":13276,"jam":13277,"helor":13278,"commentators":13279,"Florence":13280,"Speak":13281,"aque":13282,"lone":13283,"istle":13284,"itects":13285,"Expl":13286,"spores":13287,"ramid":13288,"pronounced":13289,"progression":13290,"MF":13291,"interviewed":13292,"Admiralty":13293,"locomotive":13294,"uls":13295,"appa":13296,"Metal":13297,"custody":13298,"Astr":13299,"Spo":13300,"chw":13301,"irregular":13302,"disgu":13303,"stems":13304,"proximity":13305,"joke":13306,"Architect":13307,"gravity":13308,"mish":13309,"tailed":13310,"Fergus":13311,"enlar":13312,"bankrupt":13313,"Publishing":13314,"Bear":13315,"Voc":13316,"edges":13317,"iman":13318,"cease":13319,"logg":13320,"Heath":13321,"boarding":13322,"molecules":13323,"210":13324,"atar":13325,"aviation":13326,"redesign":13327,"Agricult":13328,"Jeremy":13329,"holm":13330,"kinson":13331,"Jennifer":13332,"Baldwin":13333,"Tasman":13334,"Idol":13335,"bourg":13336,"116":13337,"330":13338,"athe":13339,"oak":13340,"eta":13341,"curves":13342,"successive":13343,"Progress":13344,"Tunnel":13345,"Usher":13346,"aude":13347,"ambitious":13348,"sporting":13349,"Nicol":13350,"Arkansas":13351,"Ltd":13352,"Reading":13353,"knowing":13354,"Article":13355,"Twenty":13356,"GA":13357,"Tales":13358,"Hergé":13359,"Preston":13360,"unaware":13361,"Leban":13362,"Nobel":13363,"memories":13364,"anka":13365,"separately":13366,"Romania":13367,"gathering":13368,"elfth":13369,"isa":13370,"convinc":13371,"Stories":13372,"Ned":13373,"tier":13374,"igo":13375,"Banksia":13376,"preliminary":13377,"mim":13378,"rogen":13379,"divine":13380,"Lead":13381,"1879":13382,"diagnosed":13383,"Manning":13384,"kit":13385,"regardless":13386,"brit":13387,"golf":13388,"Chase":13389,"discussions":13390,"stellar":13391,"McDonald":13392,"farms":13393,"scrapped":13394,"Gaz":13395,"dome":13396,"ando":13397,"shed":13398,"Allmusic":13399,"installation":13400,"Mine":13401,"acer":13402,"agons":13403,"reef":13404,"advances":13405,"massacre":13406,"nineteenth":13407,"screening":13408,"deployment":13409,"PP":13410,"editing":13411,"admit":13412,"discontinued":13413,"Newfound":13414,"northwestern":13415,"flee":13416,"demonstrate":13417,"WS":13418,"zi":13419,"iden":13420,"illed":13421,"damages":13422,"floors":13423,"Minogue":13424,"coloured":13425,"widow":13426,"127":13427,"cylinder":13428,"tracking":13429,"Electronic":13430,"Industrial":13431,"file":13432,"grain":13433,"locks":13434,"Termin":13435,"fusion":13436,"tool":13437,"rosse":13438,"halted":13439,"McCain":13440,"Edmonton":13441,"Make":13442,"inform":13443,"Starr":13444,"Carp":13445,"Bowie":13446,"appreciated":13447,"Brew":13448,"muzz":13449,"pic":13450,"perpet":13451,"vier":13452,"counted":13453,"Perth":13454,"Skinner":13455,"crowned":13456,"Motor":13457,"Beautiful":13458,"Bengal":13459,"Wiz":13460,"Brother":13461,"Hawaiian":13462,"cylind":13463,"protecting":13464,"descended":13465,"Sans":13466,"ović":13467,"seemingly":13468,"Character":13469,"enthusiastic":13470,"gains":13471,"administered":13472,"regained":13473,"Koreans":13474,"Lancaster":13475,"Screen":13476,"imped":13477,"projected":13478,"openly":13479,"traver":13480,"fortune":13481,"besie":13482,"Turks":13483,"descendants":13484,"Newfoundland":13485,"iffe":13486,"135":13487,"assessed":13488,"uprising":13489,"Single":13490,"jumping":13491,"neighbouring":13492,"Logan":13493,"instruction":13494,"aba":13495,"creates":13496,"distort":13497,"lessons":13498,"Senior":13499,"barely":13500,"incur":13501,"diving":13502,"privately":13503,"accomplish":13504,"Shadow":13505,"Apart":13506,"Plaza":13507,"busy":13508,"Mounted":13509,"delegation":13510,"disputes":13511,"Sey":13512,"270":13513,"Ronald":13514,"invented":13515,"horns":13516,"Motion":13517,"atmospheric":13518,"Sty":13519,"matched":13520,"corridor":13521,"northwestward":13522,"Lynch":13523,"totally":13524,"fork":13525,"versely":13526,"Gonz":13527,"conting":13528,"captivity":13529,"Suff":13530,"Crime":13531,"Protection":13532,"cooperation":13533,"deeper":13534,"Flow":13535,"Gh":13536,"Kom":13537,"trophy":13538,"Senators":13539,"bilities":13540,"subtle":13541,"rapper":13542,"Prepar":13543,"filling":13544,"reserved":13545,"coalition":13546,"Tiger":13547,"zac":13548,"outdoor":13549,"175":13550,"Circuit":13551,"Tall":13552,"array":13553,"delays":13554,"lacks":13555,"CG":13556,"ctu":13557,"Janet":13558,"Louise":13559,"Caroline":13560,"Feder":13561,"Raf":13562,"keen":13563,"genes":13564,"suburb":13565,"Airborne":13566,"farming":13567,"atomy":13568,"ampl":13569,"Reyn":13570,"Phan":13571,"urbs":13572,"manned":13573,"Sierra":13574,"vian":13575,"Berry":13576,"nests":13577,"excessive":13578,"eria":13579,"blog":13580,"Adventures":13581,"Parachute":13582,"Generation":13583,"memorable":13584,"fatalities":13585,"Nan":13586,"fears":13587,"presum":13588,"Capitol":13589,"sketch":13590,"iod":13591,"Spin":13592,"streams":13593,"Principal":13594,"Crom":13595,"bis":13596,"akh":13597,"developer":13598,"Colum":13599,"Productions":13600,"mutual":13601,"perfectly":13602,"Nashville":13603,"jokes":13604,"ID":13605,"Right":13606,"boun":13607,"dors":13608,"cream":13609,"Holoc":13610,"Chet":13611,"Lor":13612,"crack":13613,"tens":13614,"Consequently":13615,"sixty":13616,"declaring":13617,"Commissioner":13618,"modore":13619,"rehab":13620,"proven":13621,"iang":13622,"Audi":13623,"Disc":13624,"advent":13625,"teammates":13626,"AllMusic":13627,"introducing":13628,"scriptions":13629,"Pale":13630,"Chairman":13631,"carn":13632,"laying":13633,"prohibited":13634,"Maurice":13635,"Chancellor":13636,"assignment":13637,"recognize":13638,"Calvin":13639,"struggling":13640,"synthesiz":13641,"Task":13642,"Yet":13643,"kitchen":13644,"oding":13645,"True":13646,"Drama":13647,"Emily":13648,"drops":13649,"Palmer":13650,"enders":13651,"awk":13652,"oko":13653,"Shank":13654,"warrant":13655,"realizes":13656,"Quinn":13657,"FS":13658,"Pent":13659,"Sad":13660,"fing":13661,"iy":13662,"exped":13663,"operator":13664,"bread":13665,"Paramount":13666,"Damage":13667,"speakers":13668,"EU":13669,"Pall":13670,"aler":13671,"honours":13672,"qualify":13673,"Busch":13674,"emphasized":13675,"stripped":13676,"Hutch":13677,"cabin":13678,"pist":13679,"Chall":13680,"Harper":13681,"eliminate":13682,"aggregate":13683,"rud":13684,"ruins":13685,"Regard":13686,"pregnancy":13687,"phon":13688,"Nothing":13689,"storylines":13690,"limbs":13691,"findings":13692,"Garfield":13693,"Dum":13694,"Hond":13695,"Sant":13696,"incomplete":13697,"auction":13698,"issa":13699,"package":13700,"merchants":13701,"sophist":13702,"Mk":13703,"anno":13704,"postpon":13705,"acquisition":13706,"Cou":13707,"bag":13708,"arbit":13709,"unusually":13710,"atemal":13711,"trigg":13712,"Guatemal":13713,"draws":13714,"experts":13715,"fitting":13716,"reversed":13717,"dug":13718,"blown":13719,"metap":13720,"hammer":13721,"collision":13722,"Hat":13723,"Have":13724,"hart":13725,"exem":13726,"Booth":13727,"muzzle":13728,"conjunction":13729,"tea":13730,"legiate":13731,"operas":13732,"Mania":13733,"proceedings":13734,"Rhodesia":13735,"Abraham":13736,"Made":13737,"fers":13738,"uz":13739,"ativity":13740,"isions":13741,"grants":13742,"Arctic":13743,"surfaces":13744,"Trad":13745,"scenario":13746,"1874":13747,"adaptations":13748,"bishops":13749,"orus":13750,"letcher":13751,"caution":13752,"Panama":13753,"tide":13754,"icke":13755,"ayette":13756,"1848":13757,"generals":13758,"keeps":13759,"lifestyle":13760,"ridic":13761,"fox":13762,"pend":13763,"substance":13764,"sufficiently":13765,"Junction":13766,"Randy":13767,"restaurants":13768,"metropolitan":13769,"Gust":13770,"Ghost":13771,"worried":13772,"tennis":13773,"chances":13774,"floating":13775,"secular":13776,"Starting":13777,"Bret":13778,"Nab":13779,"uli":13780,"thematic":13781,"Claire":13782,"Armenia":13783,"Lamb":13784,"Orthodox":13785,"Guest":13786,"Solomon":13787,"erosion":13788,"escal":13789,"modes":13790,"gett":13791,"tunnels":13792,"allegedly":13793,"Finnish":13794,"veterans":13795,"lobby":13796,"bush":13797,"Edwin":13798,"Holmes":13799,"climbing":13800,"Irving":13801,"bors":13802,"aceous":13803,"pedest":13804,"detached":13805,"Valent":13806,"motorway":13807,"Michelle":13808,"hiding":13809,"Deb":13810,"Windsor":13811,"infected":13812,"Eye":13813,"Bast":13814,"Dere":13815,"lessly":13816,"Jacques":13817,"Catal":13818,"nights":13819,"SpongeBob":13820,"Cann":13821,"hism":13822,"sham":13823,"Price":13824,"incorporates":13825,"Lindwall":13826,"endum":13827,"proud":13828,"Moz":13829,"festivals":13830,"aristocr":13831,"dawn":13832,"lod":13833,"lest":13834,"hect":13835,"Advance":13836,"demonstration":13837,"Formula":13838,"Rug":13839,"plutonium":13840,"computers":13841,"Gregor":13842,"attachment":13843,"Arabic":13844,"Kas":13845,"urers":13846,"investigated":13847,"negotiated":13848,"sphere":13849,"persecut":13850,"centres":13851,"runners":13852,"operative":13853,"stepped":13854,"favourable":13855,"speeches":13856,"Dian":13857,"ersed":13858,"internet":13859,"soap":13860,"Augustus":13861,"Monday":13862,"hamlet":13863,"opsis":13864,"floods":13865,"biographical":13866,"Bog":13867,"colades":13868,"axis":13869,"errors":13870,"anche":13871,"Shack":13872,"ovsky":13873,"Berkeley":13874,"thrust":13875,"Pierce":13876,"Stalin":13877,"Hind":13878,"iper":13879,"Spiel":13880,"Stanford":13881,"rely":13882,"amendment":13883,"confined":13884,"emigr":13885,"merger":13886,"identification":13887,"Presley":13888,"sided":13889,"alous":13890,"Martha":13891,"Superman":13892,"Legion":13893,"modifications":13894,"upgrade":13895,"Manor":13896,"Sau":13897,"Vern":13898,"ease":13899,"notion":13900,"naked":13901,"ère":13902,"anan":13903,"counts":13904,"consent":13905,"maintains":13906,"securing":13907,"strengthening":13908,"accuracy":13909,"Bulgaria":13910,"enable":13911,"Style":13912,"generations":13913,"Cuban":13914,"RB":13915,"Wake":13916,"bold":13917,"nearest":13918,"thoughts":13919,"promising":13920,"cameras":13921,"pushing":13922,"backup":13923,"HV":13924,"Swan":13925,"Finals":13926,"applic":13927,"Look":13928,"Broadcasting":13929,"hanging":13930,"Gabriel":13931,"dra":13932,"agic":13933,"awl":13934,"Connor":13935,"Jennings":13936,"Hoff":13937,"Sue":13938,"Reviews":13939,"analog":13940,"item":13941,"flan":13942,"Mahon":13943,"Aur":13944,"artif":13945,"Warwick":13946,"1851":13947,"Krish":13948,"organs":13949,"ensemble":13950,"Ced":13951,"Ober":13952,"Sit":13953,"m3":13954,"mare":13955,"imir":13956,"colleges":13957,"waterline":13958,"exciting":13959,"Chapman":13960,"embarr":13961,"revel":13962,"electoral":13963,"basal":13964,"Delhi":13965,"grandson":13966,"elderly":13967,"IP":13968,"wives":13969,"input":13970,"boot":13971,"registr":13972,"Glass":13973,"Glenn":13974,"Turnpike":13975,"orbital":13976,"370":13977,"Rah":13978,"amer":13979,"ivic":13980,"Subsequently":13981,"bonds":13982,"Aqu":13983,"fortified":13984,"doubles":13985,"biograph":13986,"ER":13987,"IT":13988,"muscle":13989,"Serbs":13990,"darkness":13991,"Hopkins":13992,"esty":13993,"outed":13994,"frontier":13995,"mouse":13996,"nas":13997,"tab":13998,"isans":13999,"Sha":14000,"carefully":14001,"judged":14002,"graduating":14003,"brigades":14004,"Things":14005,"Edgar":14006,"funnel":14007,"flags":14008,"sacred":14009,"Hayes":14010,"toxic":14011,"Guadalcanal":14012,"bly":14013,"monks":14014,"preval":14015,"280":14016,"Struct":14017,"atoes":14018,"maturity":14019,"barrier":14020,"successes":14021,"ditch":14022,"ido":14023,"ichi":14024,"Sword":14025,"sexually":14026,"incorporate":14027,"Kenny":14028,"vre":14029,"static":14030,"asts":14031,"locate":14032,"Shear":14033,"honored":14034,"boxes":14035,"satir":14036,"escapes":14037,"carriage":14038,"Borough":14039,"Commercial":14040,"Spielberg":14041,"Fac":14042,"bout":14043,"consequently":14044,"phones":14045,"defeats":14046,"mastered":14047,"Fletcher":14048,"midnight":14049,"drives":14050,"Observ":14051,"Lakes":14052,"Pom":14053,"Sunder":14054,"rookie":14055,"immun":14056,"exceeded":14057,"Bolton":14058,"Kath":14059,"plas":14060,"vik":14061,"ska":14062,"Manager":14063,"layout":14064,"wounds":14065,"spawned":14066,"Arc":14067,"Southampton":14068,"ridges":14069,"Burg":14070,"enhower":14071,"compensation":14072,"Rugby":14073,"wrec":14074,"unity":14075,"Brandon":14076,"readily":14077,"monthly":14078,"radi":14079,"profits":14080,"invitation":14081,"Laura":14082,"tile":14083,"appointing":14084,"availability":14085,"concludes":14086,"Artist":14087,"mistaken":14088,"Mirror":14089,"eleventh":14090,"Global":14091,"BE":14092,"Fo":14093,"bage":14094,"Marath":14095,"engers":14096,"Charle":14097,"agonists":14098,"slowed":14099,"Store":14100,"Basin":14101,"Saints":14102,"Wit":14103,"submit":14104,"chez":14105,"laus":14106,"reasonable":14107,"kicked":14108,"Porter":14109,"VA":14110,"iens":14111,"immune":14112,"patches":14113,"Patton":14114,"Pirates":14115,"Ib":14116,"mask":14117,"scream":14118,"northbound":14119,"organize":14120,"realm":14121,"Artillery":14122,"Retri":14123,"reflects":14124,"monarchy":14125,"osity":14126,"106":14127,"tribal":14128,"thirds":14129,"mirror":14130,"Venus":14131,"mantle":14132,"Lay":14133,"sten":14134,"forbid":14135,"ashing":14136,"Rocky":14137,"maneuvers":14138,"Pand":14139,"stors":14140,"respected":14141,"Truth":14142,"ologically":14143,"controlling":14144,"destination":14145,"salv":14146,"oeu":14147,"disappointment":14148,"dragon":14149,"Leader":14150,"missil":14151,"NOK":14152,"missiles":14153,"inscription":14154,"lib":14155,"umni":14156,"pupils":14157,"Gardens":14158,"Crane":14159,"Equ":14160,"igon":14161,"competitors":14162,"employee":14163,"measurements":14164,"Hendrix":14165,"jersey":14166,"Eisenhower":14167,"Imm":14168,"magical":14169,"Too":14170,"celebrity":14171,"Member":14172,"negotiate":14173,"erupt":14174,"entertaining":14175,"acute":14176,"lineup":14177,"rified":14178,"atoms":14179,"Distingu":14180,"coffee":14181,"jail":14182,"assume":14183,"interf":14184,"consumed":14185,"Spit":14186,"evolutionary":14187,"testimony":14188,"physician":14189,"colonel":14190,"Treasury":14191,"Lightning":14192,"automatic":14193,"conquered":14194,"Cav":14195,"Page":14196,"dum":14197,"veto":14198,"owl":14199,"deciding":14200,"sequent":14201,"Rhode":14202,"integration":14203,"affecting":14204,"valued":14205,"Argentine":14206,"Rare":14207,"dos":14208,"Warsaw":14209,"Stefani":14210,"IX":14211,"UP":14212,"pub":14213,"fins":14214,"capabilities":14215,"Nebr":14216,"volunteer":14217,"AIDS":14218,"vault":14219,"herald":14220,"Almost":14221,"Sebast":14222,"distances":14223,"Russians":14224,"sprint":14225,"struggles":14226,"neighboring":14227,"predecessors":14228,"cav":14229,"wage":14230,"ordination":14231,"Shin":14232,"Easter":14233,"Hammer":14234,"Priv":14235,"Powers":14236,"duet":14237,"Bangl":14238,"Variety":14239,"choosing":14240,"Reynolds":14241,"fits":14242,"ław":14243,"unnamed":14244,"receiver":14245,"realize":14246,"Lucy":14247,"freight":14248,"arcade":14249,"procedures":14250,"Gerald":14251,"Ming":14252,"topics":14253,"Sussex":14254,"drainage":14255,"Intelligence":14256,"Ferguson":14257,"Columbus":14258,"Gone":14259,"Jeffrey":14260,"feminist":14261,"Alternative":14262,"Vul":14263,"sau":14264,"andin":14265,"Willis":14266,"Citiz":14267,"Pie":14268,"acids":14269,"wouldn":14270,"ometime":14271,"momentum":14272,"Zel":14273,"alia":14274,"eling":14275,"choices":14276,"Britney":14277,"illustrations":14278,"preceded":14279,"reconcil":14280,"stomach":14281,"HA":14282,"ulu":14283,"pointing":14284,"Places":14285,"Castro":14286,"requests":14287,"enforcement":14288,"disturbed":14289,"Hanna":14290,"omys":14291,"rium":14292,"Universe":14293,"fairy":14294,"heating":14295,"seiz":14296,"oline":14297,"Guards":14298,"enhance":14299,"Continu":14300,"Morton":14301,"Sport":14302,"chains":14303,"elong":14304,"suburban":14305,"complement":14306,"congregation":14307,"isotopes":14308,"Site":14309,"coc":14310,"omy":14311,"olics":14312,"tech":14313,"spare":14314,"aird":14315,"nobility":14316,"1880s":14317,"occupy":14318,"Munic":14319,"limitations":14320,"Gren":14321,"pent":14322,"plastic":14323,"anywhere":14324,"hardware":14325,"settings":14326,"endorsed":14327,"Vish":14328,"bassist":14329,"leather":14330,"underneath":14331,"addle":14332,"Annie":14333,"dimensions":14334,"Fan":14335,"fees":14336,"governing":14337,"Eugene":14338,"protective":14339,"Beyond":14340,"Munich":14341,"advocate":14342,"Nebraska":14343,"warriors":14344,"albe":14345,"Greeks":14346,"abolished":14347,"sympathetic":14348,"Eighth":14349,"ropol":14350,"commerce":14351,"twelfth":14352,"260":14353,"incorrect":14354,"welcome":14355,"Lithuania":14356,"Was":14357,"neum":14358,"absolutely":14359,"Rice":14360,"accent":14361,"epi":14362,"scales":14363,"recy":14364,"wanting":14365,"Flag":14366,"teenage":14367,"specialized":14368,"resembles":14369,"Rever":14370,"icus":14371,"comprises":14372,"nationalist":14373,"referendum":14374,"painter":14375,"sexuality":14376,"coupled":14377,"Talk":14378,"Vene":14379,"rez":14380,"robot":14381,"forget":14382,"shine":14383,"Hebrew":14384,"Shir":14385,"namely":14386,"thriller":14387,"Popular":14388,"Batter":14389,"Hi":14390,"Pitch":14391,"bye":14392,"108":14393,"aims":14394,"rews":14395,"imprisonment":14396,"Ultimately":14397,"frames":14398,"repeat":14399,"Survey":14400,"helicopters":14401,"Pun":14402,"overlap":14403,"extant":14404,"touched":14405,"extraordinary":14406,"municipality":14407,"crystal":14408,"skeleton":14409,"accordance":14410,"Derek":14411,"Spect":14412,"Wander":14413,"cies":14414,"eness":14415,"Salis":14416,"Lithuanian":14417,"sting":14418,"cliffe":14419,"boom":14420,"underlying":14421,"1859":14422,"Wrestle":14423,"Hast":14424,"Harri":14425,"cook":14426,"crimination":14427,"Priest":14428,"secretly":14429,"innovative":14430,"binding":14431,"mend":14432,"asi":14433,"usc":14434,"prayer":14435,"Hammond":14436,"achieving":14437,"ez":14438,"retaining":14439,"commended":14440,"limestone":14441,"conductor":14442,"Catholics":14443,"rumors":14444,"substantially":14445,"Ultimate":14446,"Ved":14447,"export":14448,"fever":14449,"nickel":14450,"Distinguished":14451,"Rather":14452,"Rhys":14453,"pocket":14454,"rann":14455,"lected":14456,"thermal":14457,"fried":14458,"iliary":14459,"safely":14460,"ão":14461,"seize":14462,"ulls":14463,"insult":14464,"Franz":14465,"Poll":14466,"Roads":14467,"Von":14468,"intern":14469,"totaled":14470,"Robertson":14471,"extinction":14472,"Evol":14473,"liz":14474,"specialist":14475,"efficiency":14476,"dorsal":14477,"adic":14478,"detain":14479,"elic":14480,"odon":14481,"ipel":14482,"disco":14483,"millimetres":14484,"keyboards":14485,"Associated":14486,"Soundtrack":14487,"Remix":14488,"Bent":14489,"kh":14490,"enacted":14491,"bler":14492,"monuments":14493,"runway":14494,"Lois":14495,"customs":14496,"clesi":14497,"hospitals":14498,"Salisbury":14499,"Lone":14500,"blings":14501,"brass":14502,"recoun":14503,"contents":14504,"finity":14505,"volunt":14506,"smouth":14507,"basement":14508,"thinks":14509,"deceased":14510,"izer":14511,"athlete":14512,"Canber":14513,"realised":14514,"minds":14515,"copyright":14516,"conviction":14517,"subsidiary":14518,"albeit":14519,"Dawn":14520,"WR":14521,"introduces":14522,"eaten":14523,"shadow":14524,"gifts":14525,"trademark":14526,"320":14527,"Aer":14528,"fake":14529,"southbound":14530,"factions":14531,"Cambo":14532,"murders":14533,"perception":14534,"avis":14535,"smart":14536,"Holocaust":14537,"pets":14538,"evo":14539,"Blaine":14540,"garage":14541,"Outside":14542,"catalog":14543,"Mumb":14544,"hou":14545,"Linda":14546,"Joyce":14547,"Taxonomy":14548,"comprehensive":14549,"wie":14550,"zan":14551,"Anal":14552,"Fraser":14553,"societies":14554,"editorial":14555,"freshman":14556,"inflicted":14557,"barri":14558,"Comic":14559,"drawings":14560,"investigations":14561,"preservation":14562,"Philippine":14563,"Ster":14564,"aic":14565,"compression":14566,"Marl":14567,"servants":14568,"designers":14569,"summary":14570,"Roll":14571,"Sunderland":14572,"Hes":14573,"pige":14574,"amino":14575,"1845":14576,"Britt":14577,"Gameplay":14578,"Cum":14579,"NME":14580,"essa":14581,"scorer":14582,"bub":14583,"Joel":14584,"Willie":14585,"Angela":14586,"HIV":14587,"regulation":14588,"Soldi":14589,"Double":14590,"Balk":14591,"ibi":14592,"Monument":14593,"Critic":14594,"Jenna":14595,"intercepted":14596,"prosecution":14597,"Dart":14598,"adher":14599,"contrary":14600,"highlights":14601,"Brighton":14602,"Ana":14603,"genet":14604,"genius":14605,"Train":14606,"breakdown":14607,"pitching":14608,"Scouting":14609,"Lesser":14610,"confronted":14611,"Dry":14612,"amm":14613,"mills":14614,"domain":14615,"rape":14616,"stopping":14617,"resolve":14618,"RIAA":14619,"AN":14620,"Karen":14621,"oly":14622,"Arms":14623,"skir":14624,"variants":14625,"Doc":14626,"Witch":14627,"eclip":14628,"fasc":14629,"deer":14630,"ession":14631,"ggy":14632,"buses":14633,"watches":14634,"excited":14635,"Axis":14636,"judgment":14637,"Yu":14638,"engr":14639,"sued":14640,"ishi":14641,"relax":14642,"Colomb":14643,"worlds":14644,"tendency":14645,"merchand":14646,"Timberlake":14647,"Block":14648,"Tell":14649,"inquiry":14650,"adventures":14651,"compact":14652,"maha":14653,"tales":14654,"solutions":14655,"ikes":14656,"Torres":14657,"Whitney":14658,"Wu":14659,"jar":14660,"illusion":14661,"ancestors":14662,"Thir":14663,"ova":14664,"Arabian":14665,"Racing":14666,"Dominican":14667,"103":14668,"effectiveness":14669,"denomin":14670,"Buenos":14671,"infant":14672,"1200":14673,"Maid":14674,"Norton":14675,"dian":14676,"pered":14677,"monsters":14678,"....":14679,"Portsmouth":14680,"diagnosis":14681,"Kum":14682,"vacc":14683,"icas":14684,"amazing":14685,"ballot":14686,"collective":14687,"adoption":14688,"clamation":14689,"lady":14690,"decommissioned":14691,"ember":14692,"admired":14693,"Kerr":14694,"cluster":14695,"Scotia":14696,"Petersburg":14697,"Loy":14698,"rer":14699,"icia":14700,"abling":14701,"embass":14702,"ocene":14703,"Chal":14704,"Dayton":14705,"crowds":14706,"hurst":14707,"Nur":14708,"fut":14709,"saint":14710,"än":14711,"theor":14712,"visuals":14713,"idel":14714,"131":14715,"motivated":14716,"tables":14717,"anarch":14718,"arity":14719,"itating":14720,"ulus":14721,"lesbian":14722,"imeters":14723,"Aircraft":14724,"ESPN":14725,"Luis":14726,"Durham":14727,"Besides":14728,"Nonetheless":14729,"Elliott":14730,"suburbs":14731,"Forbes":14732,"careers":14733,"barracks":14734,"Azer":14735,"alumin":14736,"152":14737,"organisations":14738,"homage":14739,"agonal":14740,"Salv":14741,"Metall":14742,"Bass":14743,"CP":14744,"Lope":14745,"terrestrial":14746,"Information":14747,"endangered":14748,"depends":14749,"Bailey":14750,"Bav":14751,"tut":14752,"zie":14753,"overt":14754,"1820":14755,"millimeter":14756,"concluding":14757,"skiing":14758,"Webber":14759,"Sicily":14760,"Fant":14761,"Strait":14762,"performer":14763,"blank":14764,"meteor":14765,"botan":14766,"inherit":14767,"citizenship":14768,"Given":14769,"kel":14770,"oso":14771,"retali":14772,"departments":14773,"Ferrari":14774,"Phy":14775,"Prov":14776,"fisher":14777,"NES":14778,"SMS":14779,"lore":14780,"diag":14781,"Scandin":14782,"starter":14783,"varieties":14784,"favoured":14785,"mathematical":14786,"Omaha":14787,"Reven":14788,"assured":14789,"spont":14790,"goalkeeper":14791,"Hugo":14792,"Historian":14793,"Humph":14794,"Engineers":14795,"convincing":14796,"Kle":14797,"Lodge":14798,"Ré":14799,"mall":14800,"nian":14801,"stunt":14802,"stuck":14803,"heated":14804,"cheap":14805,"maritime":14806,"physic":14807,"Galile":14808,"Economic":14809,"Lil":14810,"swell":14811,"idance":14812,"governed":14813,"unhappy":14814,"seasonal":14815,"colleague":14816,"countryside":14817,"economics":14818,"persisted":14819,"alloy":14820,"puzzles":14821,"Caesar":14822,"sab":14823,"owns":14824,"chev":14825,"Singh":14826,"semif":14827,"dominance":14828,"Bahamas":14829,"affiliated":14830,"dinosaurs":14831,"ums":14832,"artic":14833,"Assistant":14834,"Dre":14835,"Winn":14836,"mineral":14837,"observers":14838,"Austen":14839,
[...]
