{"version":"1.0","truncation":null,"padding":null,"added_tokens":[{"id":0,"special":true,"content":"[UNK]","single_word":false,"lstrip":false,"rstrip":false,"normalized":false},{"id":1,"special":true,"content":"[CLS]","single_word":false,"lstrip":false,"rstrip":false,"normalized":false},{"id":2,"special":true,"content":"[SEP]","single_word":false,"lstrip":false,"rstrip":false,"normalized":false},{"id":3,"special":true,"content":"[PAD]","single_word":false,"lstrip":false,"rstrip":false,"normalized":false},{"id":4,"special":true,"content":"[MASK]","single_word":false,"lstrip":false,"rstrip":false,"normalized":false}],"normalizer":null,"pre_tokenizer":{"type":"ByteLevel","add_prefix_space":true,"trim_offsets":true},"post_processor":null,"decoder":{"type":"ByteLevel","add_prefix_space":true,"trim_offsets":true},"model":{"type":"BPE","dropout":null,"unk_token":"[UNK]","continuing_subword_prefix":null,"end_of_word_suffix":null,"fuse_unk":false,"vocab":{"[UNK]":0,"[CLS]":1,"[SEP]":2,"[PAD]":3,"[MASK]":4,"!":5,"\"":6,"#":7,"$":8,"%":9,"&":10,"'":11,"(":12,")":13,"*":14,"+":15,",":16,"-":17,".":18,"/":19,"0":20,"1":21,"2":22,"3":23,"4":24,"5":25,"6":26,"7":27,"8":28,"9":29,":":30,";":31,"<":32,"=":33,">":34,"?":35,"@":36,"A":37,"B":38,"C":39,"D":40,"E":41,"F":42,"G":43,"H":44,"I":45,"J":46,"K":47,"L":48,"M":49,"N":50,"O":51,"P":52,"Q":53,"R":54,"S":55,"T":56,"U":57,"V":58,"W":59,"X":60,"Y":61,"Z":62,"[":63,"\\":64,"]":65,"^":66,"_":67,"`":68,"a":69,"b":70,"c":71,"d":72,"e":73,"f":74,"g":75,"h":76,"i":77,"j":78,"k":79,"l":80,"m":81,"n":82,"o":83,"p":84,"q":85,"r":86,"s":87,"t":88,"u":89,"v":90,"w":91,"x":92,"y":93,"z":94,"|":95,"}":96,"~":97,"¡":98,"¢":99,"£":100,"¤":101,"¥":102,"¦":103,"§":104,"¨":105,"©":106,"ª":107,"«":108,"¬":109,"®":110,"¯":111,"°":112,"±":113,"²":114,"³":115,"´":116,"µ":117,"¶":118,"·":119,"¸":120,"¹":121,"º":122,"»":123,"¼":124,"½":125,"¾":126,"¿":127,"Â":128,"Ã":129,"Ä":130,"Å":131,"Æ":132,"Ç":133,"È":134,"É":135,"Ê":136,"Ë":137,"Ì":138,"Í":139,"Î":140,"Ï":141,"Ð":142,"Ñ":143,"Ö":144,"×":145,"Ø":146,"Ù":147,"Ú":148,"Ü":149,"à":150,"á":151,"â":152,"ã":153,"ä":154,"å":155,"æ":156,"ç":157,"è":158,"é":159,"ë":160,"ì":161,"ï":162,"Ċ":163,"Ġ":164,"Ģ":165,"ģ":166,"Ĥ":167,"ĥ":168,"Ħ":169,"ħ":170,"Ĩ":171,"ĩ":172,"Ī":173,"ī":174,"Ĭ":175,"ĭ":176,"Į":177,"į":178,"İ":179,"ı":180,"Ĳ":181,"ĳ":182,"Ĵ":183,"ĵ":184,"Ķ":185,"ķ":186,"ĸ":187,"Ĺ":188,"ĺ":189,"Ļ":190,"ļ":191,"Ľ":192,"ľ":193,"Ŀ":194,"ŀ":195,"Ł":196,"ł":197,"Ń":198,"Ġt":199,"he":200,"Ġa":201,"in":202,"Ġthe":203,"er":204,"on":205,"Ġ,":206,"re":207,"Ġs":208,"ed":209,"Ġw":210,"Ġo":211,"nd":212,"at":213,"Ġ.":214,"or":215,"it":216,"Ġc":217,"en":218,"Ġf":219,"es":220,"is":221,"ar":222,"Ġof":223,"an":224,"Ġb":225,"Ġin":226,"al":227,"ing":228,"Ġp":229,"as":230,"Ġand":231,"Ġto":232,"ro":233,"ic":234,"Ġm":235,"Ġd":236,"Ġh":237,"ion":238,"ĠĊ":239,"ou":240,"le":241,"ĠT":242,"Ġre":243,"Ġ=":244,"ĠA":245,"ĠS":246,"il":247,"ent":248,"Ġ\"":249,"Ġth":250,"Ġ1":251,"st":252,"ĠC":253,"Ġl":254,"el":255,"om":256,"am":257,"Ġe":258,"Ġn":259,"Ġ@":260,"ad":261,"ac":262,"ĠM":263,"Ġwas":264,"ur":265,"ĠThe":266,"ec":267,"Ġon":268,"ly":269,"ĠB":270,"ĠI":271,"et":272,"Ġ'":273,"ol":274,"Ġg":275,"id":276,"iv":277,"im":278,"Ġfor":279,"ir":280,"ig":281,"-@":282,"Ġ@-@":283,"ter":284,"ot":285,"ĠH":286,"Ġas":287,"us":288,"ow":289,"ut":290,"Ġst":291,"Ġ2":292,"ay":293,"ith":294,"ĠP":295,"ation":296,"ver":297,"Ġbe":298,"Ġwith":299,"Ġhe":300,"Ġthat":301,"ĠR":302,"em":303,"th":304,"ĠD":305,"un":306,"ce":307,"ĠF":308,"Ġis":309,"ul":310,"Ġwh":311,"Ġby":312,"ch":313,"Ġ)":314,"Ġ(":315,"Ġal":316,"Ġcon":317,"ĠN":318,"ĠW":319,"ra":320,"Ġat":321,"ĠL":322,"os":323,"ĠG":324,"ers":325,"ct":326,"Ġ19":327,"Ġit":328,"rom":329,"and":330,"ĠJ":331,"Ġan":332,"her":333,"est":334,"um":335,"00":336,"ag":337,"ist":338,"ain":339,"av":340,"ri":341,"od":342,"ĠE":343,"ĠO":344,"Ġfrom":345,"Ġcom":346,"Ġhis":347,"op":348,"res":349,"if":350,"ere":351,"ort":352,"Ġpro":353,"ies":354,"Ġv":355,"ill":356,"Ġde":357,"pp":358,"ore":359,"ld":360,"Ġr":361,"Ġwere":362,"Ġsu":363,"ĠIn":364,"Ġse":365,"ong":366,"igh":367,"ew":368,"ate":369,"all":370,"ak":371,"ard":372,"ich":373,"art":374,"ber":375,"ant":376,"Ġor":377,"ity":378,"ud":379,"oc":380,"ated":381,"ab":382,"ĠK":383,"Ġch":384,"gh":385,"Ġex":386,"qu":387,"pt":388,"Ġpl":389,"rou":390,"ess":391,"ear":392,"ĠU":393,"ame":394,"ive":395,"Ġâ":396,"ack":397,"Ġsh":398,"Ġk":399,"Ġare":400,"ect":401,"Ġhad":402,"ĠâĢ":403,"ian":404,"ĠSt":405,"se":406,"Ġwhich":407,"ast":408,"red":409,"ge":410,"our":411,"ov":412,"ip":413,"ment":414,"Ġsp":415,"Ġnot":416,"Ġy":417,"Ġle":418,"ial":419,"ine":420,"rit":421,"ost":422,"ap":423,"ust":424,"ight":425,"ell":426,"ĠCh":427,"ord":428,"Ġ3":429,"Ġu":430,"oun":431,"ia":432,"ical":433,"ther":434,"ish":435,"ary":436,"ave":437,"og":438,"Ġun":439,"cl":440,"Ġ200":441,"irst":442,"ĠV":443,"ous":444,"ions":445,"Ġ;":446,"Ġar":447,"Ġint":448,"ru":449,"ide":450,"so":451,"Ġcomp":452,"fter":453,"Ġbut":454,"Ġtheir":455,"Ġcont":456,"cc":457,"ure":458,"out":459,"ould":460,"Ġits":461,"Ġwhe":462,"Ġfirst":463,"wo":464,"Ġ20":465,"per":466,"ff":467,"hed":468,"ĠâĢĵ":469,"own":470,"ass":471,"ign":472,"Ġalso":473,"ue":474,"ry":475,"orm":476,"Ġcl":477,"ok":478,"ub":479,"ĠHe":480,"ie":481,"ater":482,"ran":483,"ome":484,"Ġres":485,"ire":486,"Ġ:":487,"ond":488,"ork":489,"end":490,"Ġad":491,"Ġab":492,"mer":493,"Ġus":494,"Ġ4":495,"age":496,"Ġher":497,"Ġro":498,"Ġhave":499,"Ġ5":500,"low":501,"Ġone":502,"Ġper":503,"Ġrec":504,"Ġbeen":505,"Ġhas":506,"Ġtwo":507,".@":508,"Ġ@.@":509,"ime":510,"ĠTh":511,"ree":512,"uring":513,"du":514,"ally":515,"ence":516,"pl":517,"Ġ18":518,"ile":519,"ult":520,"Ġsc":521,"land":522,"ough":523,"ition":524,"iz":525,"Ġag":526,"Ġwho":527,"Ġthis":528,"ach":529,"ations":530,"Ġdis":531,"ĠAl":532,"ric":533,"Ġbec":534,"ĠIt":535,"Ġapp":536,"Ġj":537,"Ġpart":538,"ount":539,"are":540,"Ġdes":541,"clud":542,"act":543,"ely":544,"ade":545,"ory":546,"Ġ201":547,"Ġthey":548,"Ġover":549,"Ġplay":550,"over":551,"ib":552,"Ġman":553,"ound":554,"Ġafter":555,"Ġyear":556,"ens":557,",@":558,"Ġ@,@":559,"ik":560,"Ġoff":561,"Ġser":562,"Ġatt":563,"Ġim":564,"ction":565,"Ġother":566,"ĠY":567,"urn":568,"ph":569,"ember":570,"ace":571,"Ġinclud":572,"ance":573,"ress":574,"ite":575,"Ġout":576,"ice":577,"te":578,"Ġen":579,"ark":580,"ang":581,"man":582,"ey":583,"round":584,"wn":585,"Ġinto":586,"rough":587,"Ġup":588,"Ġpre":589,"nder":590,"Ġev":591,"ren":592,"Ġ6":593,"Ġtime":594,"int":595,"we":596,"ĠOn":597,"ced":598,"port":599,"Ġcomm":600,"ward":601,"ind":602,"ces":603,"amp":604,"Ġte":605,"ied":606,"ĠUn":607,"Ġwould":608,"vel":609,"ose":610,"Ġ7":611,"Ġwe":612,"Ġmore":613,"tern":614,"ited":615,"Ġall":616,"ents":617,"ĠAn":618,"les":619,"Ġhim":620,"ason":621,"Ġne":622,"able":623,"iss":624,"rib":625,"ors":626,"ings":627,"oy":628,"ased":629,"Ġshe":630,"aw":631,"ates":632,"rop":633,"ood":634,"att":635,"Ġcent":636,"ase":637,"one":638,"Ġwork":639,"Ġpo":640,"ral":641,"ious":642,"old":643,"orth":644,"ix":645,"ict":646,"gan":647,"Ġ9":648,"ild":649,"Ġrem":650,"inal":651,"Ġsec":652,"ep":653,"ail":654,"Ġfe":655,"form":656,"Ġear":657,"Ġduring":658,"ath":659,"Ġbet":660,"Ġthem":661,"ered":662,"Ġwhen":663,"Ġcons":664,"Ġ8":665,"ilm":666,"outh":667,"ved":668,"ron":669,"Ġkn":670,"ĠAs":671,"aus":672,"fer":673,"Ġmost":674,"ubl":675,"Ġdec":676,"ft":677,"ick":678,"Ġonly":679,"Ġsong":680,"way":681,"Ġagain":682,"ake":683,"ĠSe":684,"ollow":685,"Ġnew":686,"ug":687,"ĠMar":688,"ters":689,"ĠCom":690,"oth":691,"Ġ199":692,"reat":693,"ween":694,"ational":695,"ons":696,"ĠAr":697,"hip":698,"Ġthree":699,"Ġtr":700,"Ġunder":701,"Ġgame":702,"ook":703,"ision":704,"Ġabout":705,"ock":706,"Ġfl":707,"Ġrel":708,"ob":709,"olog":710,"Ġcol":711,"Ġ00":712,"als":713,"Ġthan":714,"Ġseason":715,"Ġpos":716,"Ġbetween":717,"ve":718,"Ġfilm":719,"Ġthrough":720,"meric":721,"fore":722,"Ġend":723,"Ġcan":724,"ĠAmeric":725,"Ġme":726,"Ġnum":727,"orn":728,"ĠEn":729,"ĠNew":730,"iew":731,"Ġlater":732,"Ġdef":733,"Ġret":734,"Ġass":735,"ted":736,"Ġwhile":737,"ular":738,"ans":739,"Ġchar":740,"Ġact":741,"Ġsub":742,"hn":743,"Ġver":744,"Ġrecord":745,"ts":746,"Ġprodu":747,"Ġra":748,"Ġpe":749,"Ġpr":750,"Ġreg":751,"Ġwhere":752,"Ġmade":753,"ames":754,"orld":755,"Ġform":756,"ating":757,"Ġbu":758,"Ġac":759,"Ġlar":760,"Ġmov":761,"Ġrele":762,"Ġinter":763,"ener":764,"ever":765,"hes":766,"ury":767,"ished":768,"ines":769,"Ġsome":770,"Ġfollow":771,"Ġso":772,"Ġwrit":773,"ros":774,"Ġqu":775,"Ġco":776,"Ġday":777,"Ġspec":778,"Ġinc":779,"ĠAt":780,"Ġfour":781,"Ġam":782,"ived":783,"ĠLe":784,"ual":785,"Ġsecond":786,"Ġacc":787,"ĠRe":788,"Ġ000":789,"Ġused":790,"ins":791,"lect":792,"Ġind":793,"ning":794,"ike":795,"Ġbefore":796,"ank":797,"bum":798,"aid":799,"iel":800,"Ġsupp":801,"ific":802,"Ġsuch":803,"Ġmon":804,"rans":805,"Ġmus":806,"Ġ0":807,"ĠThis":808,"ll":809,"ics":810,"Ġ10":811,"ily":812,"Ġ12":813,"hen":814,"Ġhigh":815,"iver":816,"ĠSh":817,"Ġcall":818,"ĠBrit":819,"Ġbeing":820,"Ġthere":821,"any":822,"Ġpubl":823,"aj":824,"io":825,"Ġent":826,"ars":827,"ĠSc":828,"owever":829,"ĠJo":830,"Ġsy":831,"Ġsur":832,"Ġdo":833,"ĠAust":834,"Ġyears":835,"Ġnumber":836,"Ġfound":837,"Ġep":838,"Ġloc":839,"Ġalbum":840,"Ġtra":841,"Ġsever":842,"velop":843,"Ġagainst":844,"Ġno":845,"ton":846,"ek":847,"Ġset":848,"ĠâĢĶ":849,"Ġinv":850,"ife":851,"ince":852,"ised":853,"other":854,"Ġbl":855,"ject":856,"uc":857,"ier":858,"ĠZ":859,"ement":860,"Ġem":861,"ten":862,"ird":863,"ĠEng":864,"Ġ/":865,"Ġboth":866,"ities":867,"Ġpres":868,"Ġincluding":869,"Ġback":870,"Ġseries":871,"ained":872,"ause":873,"Ġthen":874,"Ġbecame":875,"its":876,"ane":877,"irect":878,"Ġwell":879,"yl":880,"pr":881,"ode":882,"ram":883,"ise":884,"Ġknown":885,"urch":886,"Ġtrans":887,"Ġperform":888,"Ġteam":889,"Ġadd":890,"ident":891,"ale":892,"son":893,"Ġexp":894,"Ġ16":895,"ĠUnited":896,"Ġdep":897,"ures":898,"ann":899,"az":900,"Ġ198":901,"ert":902,"Ġepis":903,"ined":904,"Ġmain":905,"row":906,"ful":907,"Ġpop":908,"Ġrece":909,"ield":910,"Ġ194":911,"Ġmet":912,"though":913,"Ġ15":914,"overn":915,"ower":916,"Ġsing":917,"iet":918,"uch":919,"Ġ11":920,"Ġmany":921,"air":922,"ross":923,"ĠAfter":924,"Ġcharac":925,"Ġlong":926,"ĠInd":927,"Ġseveral":928,"Ġdesc":929,"ather":930,"ober":931,"Ġrep":932,"Ġcontin":933,"Ġest":934,"Ġ17":935,"Ġdevelop":936,"Ġop":937,"ool":938,"ĠAustral":939,"ĠAmerican":940,"Ġmill":941,"up":942,"ivers":943,"Ġgo":944,"ute":945,"Ġsm":946,"ern":947,"elf":948,"Ġorig":949,"led":950,"Ġcity":951,"Ġbegan":952,"ative":953,"ared":954,"Ġshow":955,"Ġstud":956,"ĠGer":957,"Ġmin":958,"au":959,"Ġcre":960,"une":961,"emb":962,"der":963,"roup":964,"ĠWar":965,"ĠShe":966,"ĠBritish":967,"Ġalong":968,"ah":969,"ĠMay":970,"ven":971,"Ġpol":972,"Ġhead":973,"Ġcomple":974,"apt":975,"Ġ197":976,"Ġcentury":977,"ĠJohn":978,"ued":979,"Ġdid":980,"Ġlead":981,"erm":982,"Ġsign":983,"Ġ196":984,"ired":985,"Ġmil":986,"Ġdirect":987,"Ġship":988,"til":989,"Ġart":990,"ually":991,"Ġcould":992,"ized":993,"Ġob":994,"Ġext":995,"Ġdown":996,"iam":997,"Ġearly":998,"ley":999,"Ġhist":1000,"view":1001,"Ġnear":1002,"Ġcar":1003,"Ġbel":1004,"Ġdif":1005,"Ġwar":1006,"Ġoper":1007,"ĠCon":1008,"Ġinf":1009,"ient":1010,"Ġbro":1011,"ĠWh":1012,"ĠUS":1013,"Ġthese":1014,"els":1015,"Ġmat":1016,"Ġcalled":1017,"oot":1018,"Ġair":1019,"ĠBr":1020,"Ġimp":1021,"Ġmay":1022,"Ġsaid":1023,"aking":1024,"Ġrun":1025,"Ġcrit":1026,"Ġkm":1027,"ĠIs":1028,"ople":1029,"ull":1030,"ruct":1031,"ccess":1032,"Ġfeat":1033,"Ġepisode":1034,"Ġdesign":1035,"itt":1036,"ured":1037,"Ġland":1038,"Ġinst":1039,"Ġresp":1040,"Ġdisc":1041,"ments":1042,"ĠSp":1043,"imes":1044,"Ġdist":1045,"Ġuntil":1046,"Ġreturn":1047,"gest":1048,"Ġdescrib":1049,"yp":1050,"ists":1051,"Ġins":1052,"ĠCl":1053,"Ġstart":1054,"Ġattack":1055,"xt":1056,"ajor":1057,"Ġprev":1058,"ided":1059,"oss":1060,"Ġany":1061,"Ġfin":1062,"ĠBl":1063,"ĠAug":1064,"ĠGerman":1065,"ĠAugust":1066,"ink":1067,"Ġarea":1068,"amed":1069,"erson":1070,"ains":1071,"ially":1072,"ĠSept":1073,"my":1074,"erv":1075,"Ġprov":1076,"enn":1077,"ible":1078,"ism":1079,"ĠCol":1080,"Ġthough":1081,"Ġgener":1082,"ĠSeptember":1083,"ĠCar":1084,"Ġconst":1085,"Ġ13":1086,"Ġpass":1087,"Ġgovern":1088,"Ġnorth":1089,"ĠNorth":1090,"ty":1091,"Ġoffic":1092,"ange":1093,"ĠThey":1094,"osed":1095,"ĠComm":1096,"Ġsame":1097,"Ġown":1098,"Ġaround":1099,"ĠMan":1100,"Ġgroup":1101,"ove":1102,"Ġopen":1103,"Ġbecause":1104,"Ġsupport":1105,"cept":1106,"Ġreleased":1107,"Ġmillion":1108,"ĠPl":1109,"Ġeff":1110,"ets":1111,"Ġuse":1112,"Ġlike":1113,"ium":1114,"Ġsix":1115,"Ġsmall":1116,"Ġocc":1117,"ash":1118,"Ġsuccess":1119,"Ġfinal":1120,"Ġcount":1121,"chool":1122,"Ġadv":1123,"Ã©":1124,"Ġbatt":1125,"ĠJu":1126,"Ġappear":1127,"Ġmusic":1128,"aced":1129,"Ġgu":1130,"Ġsim":1131,"Ġpeople":1132,"ues":1133,"stem":1134,"ĠWorld":1135,"Ġfam":1136,"ĠChr":1137,"Ġfollowing":1138,"wards":1139,"ivision":1140,"ĠDe":1141,"Ġbr":1142,"Ġconc":1143,"Ġdam":1144,"ouse":1145,"Ġmod":1146,"Ġwin":1147,"Ġph":1148,"uth":1149,"ĠAll":1150,"ĠHowever":1151,"ina":1152,"ke":1153,"und":1154,"ilt":1155,"ians":1156,"Ġconsid":1157,"Ġlarge":1158,"Ġeach":1159,"Ġ195":1160,"ĠJune":1161,"ĠAd":1162,"oman":1163,"Ġresult":1164,"ck":1165,"ology":1166,"ution":1167,"ĠFor":1168,"ole":1169,"Ġed":1170,"ats":1171,"ropical":1172,"Ġele":1173,"ives":1174,"ĠSouth":1175,"Ġann":1176,"Ġ191":1177,"Ġfive":1178,"Ġ%":1179,"Ġreport":1180,"Ġpoint":1181,"Ġcontro":1182,"Ġcharacter":1183,"ĠMe":1184,"ged":1185,"Ġlife":1186,"Ġsouth":1187,"Ġstr":1188,"Ġ14":1189,"ĠJan":1190,"Ġvar":1191,"ĠPro":1192,"raph":1193,"ery":1194,"ĠBe":1195,"Ġgun":1196,"ording":1197,"eb":1198,"ales":1199,"Ġever":1200,"ended":1201,"ony":1202,"Ġ193":1203,"ately":1204,"Ġsince":1205,"Ġprom":1206,"Ġgr":1207,"ural":1208,"ax":1209,"ĠGu":1210,"ĠOct":1211,"ĠQ":1212,"med":1213,"ble":1214,"ically":1215,"avy":1216,"ĠStates":1217,"ox":1218,"aving":1219,"ling":1220,"Ġweek":1221,"ored":1222,"uary":1223,"Ġstate":1224,"Ġ$":1225,"Ġmajor":1226,"ĠFran":1227,"ont":1228,"Ġtook":1229,"ĠOctober":1230,"ified":1231,"ĠNov":1232,"ting":1233,"ys":1234,"ection":1235,"ĠEu":1236,"ected":1237,"Ġwill":1238,"empt":1239,"ĠII":1240,"iving":1241,"Ġreceived":1242,"lish":1243,"ball":1244,"Ġpartic":1245,"Ġpublic":1246,"ility":1247,"ĠJuly":1248,"raft":1249,"Ġclass":1250,"ae":1251,"Ġrest":1252,"ission":1253,"Ġcare":1254,"ague":1255,"Ġtit":1256,"Ġplayed":1257,"Ġline":1258,"Ġhel":1259,"ĠDec":1260,"Ġwhat":1261,"Ġbook":1262,"Ġdet":1263,"ĠHer":1264,"ional":1265,"Ġsystem":1266,"ple":1267,"by":1268,"Ġname":1269,"ops":1270,"ants":1271,"Ġlast":1272,"Ġnow":1273,"Ġ25":1274,"Ġprot":1275,"Ġport":1276,"Ġbuild":1277,"ĠJanuary":1278,"Ġ[":1279,"Ġ]":1280,"Ġincre":1281,"aim":1282,"ĠCan":1283,"esp":1284,"Ġstorm":1285,"ĠChrist":1286,"omet":1287,"Ġserv":1288,"Ġref":1289,"ively":1290,"Ġ30":1291,"ĠMc":1292,"hel":1293,"Ġlate":1294,"Ġincluded":1295,"ĠPh":1296,"Ġconf":1297,"Ġdue":1298,"ages":1299,"Ġmar":1300,"Ġtri":1301,"ĠYork":1302,"Ġdescribed":1303,"ret":1304,"dom":1305,"ĠDuring":1306,"aur":1307,"Ġwon":1308,"ĠKing":1309,"anc":1310,"Ġjust":1311,"ham":1312,"Ġmuch":1313,"app":1314,"Ġsingle":1315,"ĠApr":1316,"apan":1317,"ĠApril":1318,"Ġgovernment":1319,"gin":1320,"Ġallow":1321,"ner":1322,"ody":1323,"..":1324,"Ġsl":1325,"iod":1326,"ideo":1327,"Ġworld":1328,"ĠJapan":1329,"get":1330,"Ġdeath":1331,"oad":1332,"Ġappro":1333,"sion":1334,"Ġattempt":1335,"ital":1336,"Ġcommand":1337,"ĠNovember":1338,"Ġkill":1339,"rote":1340,"Ġanother":1341,"itions":1342,"Ġleft":1343,"Ġcamp":1344,"Ġmen":1345,"Ġ...":1346,"ently":1347,"Ġalthough":1348,"ai":1349,"Ġwithin":1350,"Ġshort":1351,"Ġposs":1352,"ger":1353,"Ġold":1354,"ĠPar":1355,"orp":1356,"Ġnamed":1357,"ech":1358,"Ġwrote":1359,"ĠEurop":1360,"ene":1361,"ĠMus":1362,"Ġeven":1363,"Ġbuilt":1364,"urther":1365,"Ġorgan":1366,"rand":1367,"ched":1368,"Ġturn":1369,"Ġtop":1370,"omin":1371,"ption":1372,"ract":1373,"Ġbased":1374,"idge":1375,"Ġtrack":1376,"ays":1377,"Ġplace":1378,"ĠMarch":1379,"itary":1380,"ĠBatt":1381,"Ġprog":1382,"Ġchild":1383,"rench":1384,"Ġpower":1385,"Ġthird":1386,"ĠGe":1387,"ĠDecember":1388,"Ġprevious":1389,"ness":1390,"Ġevent":1391,"Ġpar":1392,"Ġstar":1393,"Ġspecies":1394,"ulation":1395,"ĠNational":1396,"Ġif":1397,"Ġcap":1398,"Ġestab":1399,"Ġvis":1400,"Ġdiffer":1401,"ards":1402,"ipp":1403,"Ġschool":1404,"ached":1405,"Ġbelie":1406,"ĠBy":1407,"Ġvery":1408,"ĠAnd":1409,"Ġbre":1410,"ung":1411,"Ġperson":1412,"Ġhome":1413,"ilar":1414,"Ġdr":1415,"osp":1416,"Ġexpl":1417,"Ġperiod":1418,"ler":1419,"Ġwater":1420,"ances":1421,"Ġlist":1422,"Ġrequ":1423,"ĠThere":1424,"Ġgames":1425,"Ġhal":1426,"ms":1427,"Ġtem":1428,"ves":1429,"amb":1430,"Ġhand":1431,"Ġreview":1432,"iversity":1433,"ĠCity":1434,"ĠRiver":1435,"ĠFrench":1436,"Ġ192":1437,"que":1438,"Ġeng":1439,"ison":1440,"oint":1441,"eder":1442,"Ġbest":1443,"Ġsent":1444,"aged":1445,"Ġrepl":1446,"Ġthose":1447,"iven":1448,"Ġhum":1449,"ides":1450,"ĠEurope":1451,"Ġwind":1452,"Ġ100":1453,"Ġmonth":1454,"ese":1455,"ense":1456,"ĠHis":1457,"ĠWhen":1458,"oci":1459,"ĠEngland":1460,"Ġmed":1461,"side":1462,"Ġdest":1463,"ruction":1464,"hest":1465,"ature":1466,"Ġled":1467,"ĠNo":1468,"Ġcour":1469,"elt":1470,"Ġ2010":1471,"Ġbo":1472,"Ġgreat":1473,"Ġcapt":1474,"ences":1475,"aken":1476,"let":1477,"ĠFl":1478,"Ġfamily":1479,"aster":1480,"ience":1481,"ĠÂ":1482,"Ġbas":1483,"Ġmake":1484,"ĠSte":1485,"mp":1486,"Ġvideo":1487,"Ġoriginal":1488,"Ġopp":1489,"Ġ2008":1490,"Ġnext":1491,"Ġcame":1492,"inc":1493,"Ġdem":1494,"akes":1495,"Ġtyp":1496,"urric":1497,"ention":1498,"Ġstill":1499,"ĠComp":1500,"Ġterm":1501,"Ġside":1502,"Ġmark":1503,"Ġmoved":1504,"Ġrole":1505,"Ġleg":1506,"Ġcontinued":1507,"ented":1508,"Ġstory":1509,"ĠOr":1510,"alk":1511,"Ġfew":1512,"Ġlocal":1513,"Ġway":1514,"Ġ2009":1515,"Ġsold":1516,"Ġcaus":1517,"ĠDivision":1518,"Ġwest":1519,"Ġhistory":1520,"Ġmid":1521,"ott":1522,"ĠChurch":1523,"gy":1524,"atter":1525,"ior":1526,"ĠTe":1527,"Ġview":1528,"line":1529,"bs":1530,"oon":1531,"Ġheld":1532,"rew":1533,"uted":1534,"Ġforces":1535,"aining":1536,"ival":1537,"embers":1538,"Ġsug":1539,"Ġauth":1540,"Ġformer":1541,"ĠPr":1542,"Ġiss":1543,"Ġaddition":1544,"read":1545,"Ġroad":1546,"uss":1547,"ĠAm":1548,"riend":1549,"lev":1550,"ĠBro":1551,"eng":1552,"lu":1553,"Ġant":1554,"Ġcover":1555,"Ġoften":1556,"ne":1557,"ĠChar":1558,"sh":1559,"Ġeast":1560,"Ġfurther":1561,"astern":1562,"ograph":1563,"Ġconsidered":1564,"Ġcareer":1565,"Ġeffect":1566,"ĠEd":1567,"ĠWe":1568,"Ġstand":1569,"ining":1570,"arn":1571,"Ġtown":1572,"ĠWill":1573,"Ġclaim":1574,"Ġright":1575,"Ġcr":1576,"ront":1577,"Ġinit":1578,"Ġdeb":1579,"ampions":1580,"ches":1581,"eter":1582,"Ġ21":1583,"Ġtot":1584,"Ġ2007":1585,"ĠOne":1586,"Ġposition":1587,"self":1588,"ories":1589,"Ġexper":1590,"Ġdel":1591,"Ġarch":1592,"Ġnort":1593,"ĠState":1594,"Ġmilitary":1595,"Ġmatch":1596,"Ġ23":1597,"ĠWith":1598,"enc":1599,"Ġdra":1600,"ĠAb":1601,"Ġhalf":1602,"Ġtropical":1603,"ĠAcc":1604,"ternational":1605,"Ġsimilar":1606,"Ġhelp":1607,"Ġsuggest":1608,"par":1609,"roy":1610,"Ġstrong":1611,"Ġ24":1612,"Ġdefe":1613,"Ġfire":1614,"Ġconv":1615,"ister":1616,"Ġband":1617,"ĠCount":1618,"ĠRec":1619,"Ġimport":1620,"Ġplayer":1621,"Ġrefer":1622,"Ġwithout":1623,"ĠGener":1624,"Ġcur":1625,"Ġreal":1626,"Ġpolit":1627,"alion":1628,"Ġdays":1629,"Ġtrad":1630,"urricane":1631,"Ġplan":1632,"Ġcommun":1633,"estern":1634,"Ġmembers":1635,"Ġ2011":1636,"Ġtake":1637,"ĠTr":1638,"Ġspe":1639,"ebru":1640,"ead":1641,"ĠX":1642,"Ġtw":1643,"Ġmy":1644,"ried":1645,"Ġcompany":1646,"Ġclub":1647,"iment":1648,"ĠPer":1649,"Ġcommon":1650,"Ġav":1651,"Ġamong":1652,"Ġ22":1653,"Ġlevel":1654,"ensive":1655,"Ġdifferent":1656,"ones":1657,"Ġyou":1658,"Ġevery":1659,"Ġpost":1660,"Ġrecorded":1661,"Ġprop":1662,"ots":1663,"Ġel":1664,"itar":1665,"Ġhowever":1666,"ĠFebru":1667,"ĠEar":1668,"ĠAlthough":1669,"ĠFebruary":1670,"Ġelect":1671,"Ġbeh":1672,"Ġinvol":1673,"augh":1674,"Ġfore":1675,"Ġ2012":1676,"ĠAustralian":1677,"iter":1678,"ĠPort":1679,"Ġrepres":1680,"eal":1681,"Ġ2006":1682,"ĠEnglish":1683,"Ġarr":1684,"yn":1685,"arr":1686,"Ġpublished":1687,"ĠAf":1688,"Ġ26":1689,"Ġlow":1690,"ize":1691,"ression":1692,"reen":1693,"yle":1694,"hern":1695,"ĠAccording":1696,"Ġfind":1697,"Ġships":1698,"Ġorder":1699,"lear":1700,"Ġwritten":1701,"ering":1702,"ittle":1703,"outher":1704,"Ġmag":1705,"Ġtro":1706,"atic":1707,"be":1708,"Ġvict":1709,"Ġtotal":1710,"isc":1711,"ices":1712,"ploy":1713,"Ġfre":1714,"Ġpat":1715,"rodu":1716,"Ġrelease":1717,"Ġorigin":1718,"outhern":1719,"ĠSu":1720,"ĠAustralia":1721,"Ġfield":1722,"Ġparticular":1723,"Ġsongs":1724,"Ġtitle":1725,"Ġbecome":1726,"Ġfoot":1727,"ĠAir":1728,"Ġcompet":1729,"Ġer":1730,"ĠAng":1731,"ising":1732,"ĠPark":1733,"Ġreported":1734,"Ġcontrol":1735,"ĠGeneral":1736,"Ġlost":1737,"ĠMich":1738,"rick":1739,"Ġprof":1740,"Ġord":1741,"Ġproject":1742,"reet":1743,"ush":1744,"Ġcomb":1745,"ĠCanad":1746,"Ġtimes":1747,"Ġhaving":1748,"aces":1749,"sequ":1750,"Ġsurv":1751,"Ġft":1752,"Ġgave":1753,"Ġter":1754,"aying":1755,"ĠCent":1756,"Ġproduced":1757,"Ġstat":1758,"Ġversion":1759,"ĠLeague":1760,"Ġsk":1761,"Ġcy":1762,"urs":1763,"esc":1764,"ĠEl":1765,"ampionship":1766,"ĠAss":1767,"rest":1768,"ĠWest":1769,"ĠUniversity":1770,"Ġ!":1771,"Ġequ":1772,"rent":1773,"Ġlight":1774,"ĠMin":1775,"ĠBar":1776,"Ġ28":1777,"Ġproduction":1778,"iety":1779,"oung":1780,"Ġsignific":1781,"Ġless":1782,"Ġchang":1783,"Ġauthor":1784,"iron":1785,"ĠGeor":1786,"ream":1787,"ably":1788,"ours":1789,"ailed":1790,"ĠReg":1791,"levision":1792,"Ġhistor":1793,"ges":1794,"Ġjo":1795,"ĠThese":1796,"Ġnever":1797,"Ġinflu":1798,"ĠRich":1799,"ille":1800,"Ġcountry":1801,"quad":1802,"ald":1803,"Ã¡":1804,"Ġgiven":1805,"ĠRoman":1806,"Ġarm":1807,"Ġaff":1808,"Ġsite":1809,"Ġmaking":1810,"Ġforce":1811,"Ġ&":1812,"Ġwant":1813,"used":1814,"Ġ27":1815,"Ġinclude":1816,"Ġreturned":1817,"echn":1818,"Ġpopular":1819,"ĠAfric":1820,"aul":1821,"work":1822,"Ġsol":1823,"Ġ50":1824,"Ġground":1825,"na":1826,"ither":1827,"Ġobs":1828,"Ġpress":1829,"Ġeight":1830,"ĠMiss":1831,"vers":1832,"oard":1833,"Ġsit":1834,"ĠRoad":1835,"Ġ2013":1836,"Ġdestroy":1837,"ades":1838,"ivil":1839,"Ġisland":1840,"antry":1841,"Ġcritic":1842,"ator":1843,"Ġnight":1844,"Ġstated":1845,"ĠLes":1846,"ization":1847,"Ġacross":1848,"ĠPol":1849,"ination":1850,"ask":1851,"Ġstruct":1852,"me":1853,"Ġreached":1854,"Ġchurch":1855,"ĠWilliam":1856,"Ġfar":1857,"Ġdeveloped":1858,"Ġseen":1859,"ring":1860,"ffic":1861,"aun":1862,"fic":1863,"ford":1864,"ape":1865,"ĠAmerica":1866,"Ġpopulation":1867,"ĠWhile":1868,"ĠJapanese":1869,"Ġcult":1870,"aff":1871,"Ġlim":1872,"Ġpresent":1873,"Ġmiles":1874,"Ġprogram":1875,"Ġannoun":1876,"ration":1877,"reek":1878,"ĠSim":1879,"ĠSong":1880,"ius":1881,"Ġfact":1882,"Ġcross":1883,"ument":1884,"Ġsignificant":1885,"sp":1886,"Ġ29":1887,"Ġshould":1888,"Ġestabl":1889,"Ġearl":1890,"Ġ190":1891,"ĠJack":1892,"omb":1893,"Ġusing":1894,"oyal":1895,"Ġchildren":1896,"cess":1897,"Ġread":1898,"omen":1899,"Ġaway":1900,"iness":1901,"Ġnov":1902,"ground":1903,"ĠLond":1904,"Ġfriend":1905,"Ġrad":1906,"Ġguns":1907,"aign":1908,"ĠOld":1909,"ological":1910,"reg":1911,"Ġdiv":1912,"Ġhimself":1913,"ĠCounty":1914,"Ġhow":1915,"Ġmanag":1916,"craft":1917,"Ġpit":1918,"alth":1919,"ĠMount":1920,"ĠDav":1921,"Ġdevelopment":1922,"Ġestablished":1923,"ĠLondon":1924,"imately":1925,"Ġmodern":1926,"Ġbody":1927,"Ġbattle":1928,"Ġmm":1929,"Ġformed":1930,"Ġthought":1931,"eared":1932,"Ġbar":1933,"Ġpra":1934,"Ġsound":1935,"Ġperformance":1936,"igade":1937,"isted":1938,"ope":1939,"Ġcast":1940,"Ġhig":1941,"Ġgen":1942,"Ġthroughout":1943,"iers":1944,"Ġwent":1945,"Ġfelt":1946,"Ġpain":1947,"Ġareas":1948,"aren":1949,"arch":1950,"most":1951,"Ġcat":1952,"ĠIm":1953,"rie":1954,"Ġkilled":1955,"Ġwat":1956,"Ġtour":1957,"ĠHigh":1958,"ĠScient":1959,"ero":1960,"Ġlaw":1961,"utes":1962,"Ġprim":1963,"ĠBlack":1964,"Ġsomet":1965,"Ġfight":1966,"Ġgood":1967,"ĠNe":1968,"Ġsuccessful":1969,"ĠCal":1970,"Ġintrodu":1971,"ylan":1972,"iec":1973,"Ġdied":1974,"Ġgl":1975,"ements":1976,"Ġseven":1977,"ĠDylan":1978,"Ġnoted":1979,"ords":1980,"Ġcou":1981,"acy":1982,"oll":1983,"ript":1984,"Ġrange":1985,"ublic":1986,"field":1987,"itive":1988,"Ġdiscover":1989,"Ġfull":1990,"Ġtoo":1991,"Ġste":1992,"Ġimportant":1993,"af":1994,"Ġsoc":1995,"Ġmount":1996,"irc":1997,"Ġadm":1998,"Ġlocated":1999,"Ġten":2000,"Ġfront":2001,"ĠEx":2002,"ĠArmy":2003,"Ġblack":2004,"Ġstarted":2005,"Ġput":2006,"Ġdecl":2007,"Ġbuilding":2008,"ĠEv":2009,"ief":2010,"Ġneed":2011,"ĠHa":2012,"Ġchart":2013,"ĠPhil":2014,"Ġide":2015,"Ġhuman":2016,"ico":2017,"ĠGl":2018,"Ġ31":2019,"Ġactiv":2020,"Ġperformed":2021,"Ġvarious":2022,"epend":2023,"ĠCompany":2024,"eth":2025,"osaur":2026,"Ġremained":2027,"Ġwriting":2028,"Ġcas":2029,"Ġlook":2030,"Ġtelevision":2031,"Ġfeet":2032,"fall":2033,"Ġsee":2034,"Ġtroops":2035,"ĠOl":2036,"ways":2037,"Ġofficial":2038,"con":2039,"reland":2040,"Ġfem":2041,"Ġfather":2042,"ĠFeder":2043,"Ġcaused":2044,"itted":2045,"Ġfun":2046,"Ġnational":2047,"ĠIreland":2048,"Ġpoem":2049,"com":2050,"Ġwid":2051,"Ġwhite":2052,"ogn":2053,"Ġhouse":2054,"ĠTo":2055,"ĠJames":2056,"ries":2057,"Äģ":2058,"Ġtechn":2059,"Ġheavy":2060,"Ġinterest":2061,"ĠSec":2062,"idence":2063,"ĠHar":2064,"Ġconstruction":2065,"Ġage":2066,"Ġred":2067,"Ġsum":2068,"hem":2069,"ara":2070,"Ġget":2071,"Ġ2005":2072,"iting":2073,"ĠMon":2074,"ĠHist":2075,"Ġplayers":2076,"uck":2077,"gr":2078,"Ġstri":2079,"Ġstyle":2080,"ĠPal":2081,"ump":2082,"ael":2083,"Ġentire":2084,"Ġsw":2085,"Ġke":2086,"idd":2087,"ino":2088,"ĠKe":2089,"Ġevents":2090,"Ġdoes":2091,"Ġsett":2092,"ĠIsland":2093,"ĠRober":2094,"ourn":2095,"Ġmix":2096,"Ġrev":2097,"Ġbegin":2098,"Ġvill":2099,"Ġable":2100,"Ġrelig":2101,"quadron":2102,"ressed":2103,"Ġcoast":2104,"Ġserved":2105,"Ġpeak":2106,"asing":2107,"Ġcampaign":2108,"Ġfav":2109,"ĠBut":2110,"Ġpolitical":2111,"Ġlik":2112,"ĠYou":2113,"enced":2114,"Ġ40":2115,"Ġregion":2116,"lected":2117,"Ġcreated":2118,"Ġtre":2119,"ened":2120,"ĠCo":2121,"mar":2122,"leet":2123,"Ġonce":2124,"Ġgod":2125,"por":2126,"ids":2127,"duct":2128,"Ġfig":2129,"enth":2130,"ĠCare":2131,"ĠMag":2132,"Ġfollowed":2133,"ĠBattalion":2134,"antic":2135,"Ġ189":2136,"Ġothers":2137,"ĠAtl":2138,"Ġpromot":2139,"Ġpri":2140,"Ġagre":2141,"Ġworks":2142,"ÃŃ":2143,"Ġson":2144,"ster":2145,"abor":2146,"ĠâĢĻ":2147,"Ġroute":2148,"Ġestim":2149,"less":2150,"Ġcompleted":2151,"ficult":2152,"Ġcond":2153,"elling":2154,"Ġannounced":2155,"ĠCro":2156,"Ġ2004":2157,"here":2158,"Ġbecom":2159,"day":2160,"ĠSy":2161,"Ġrank":2162,"Ġleast":2163,"Ġmeet":2164,"Ġdifficult":2165,"Ġcoun":2166,"Ġhold":2167,"ĠDu":2168,"Ġadded":2169,"Ġball":2170,"ivid":2171,"rab":2172,"Ġoriginally":2173,"Ġval":2174,"rought":2175,"ample":2176,"ique":2177,"ana":2178,"ĠSw":2179,"play":2180,"ought":2181,"rict":2182,"Ġrelations":2183,"Ġcharacters":2184,"Ġoccur":2185,"Ġfac":2186,"Ġbus":2187,"Ġappeared":2188,"Ġrock":2189,"Ġmonths":2190,"Ġcert":2191,"ĠHam":2192,"Ġspecial":2193,"br":2194,"Ġident":2195,"urb":2196,"ki":2197,"Ġsouthern":2198,"rap":2199,"Ġcolle":2200,"Ġround":2201,"Ġpred":2202,"Ġloss":2203,"ament":2204,"ects":2205,"Ġbase":2206,"Ġlittle":2207,"odes":2208,"Ġcomment":2209,"Ġassoci":2210,"cher":2211,"ĠMer":2212,"ĠRoyal":2213,"Ġconn":2214,"ĠOther":2215,"Ġprocess":2216,"Ġsuper":2217,"Ġbroad":2218,"Ġmi":2219,"ĠAct":2220,"ĠSom":2221,"Ġinstead":2222,"Ġdamage":2223,"Ġborn":2224,"emy":2225,"ality":2226,"Ġtradition":2227,"Ġ2015":2228,"Ġaircraft":2229,"cer":2230,"aly":2231,"ett":2232,"ĠKingdom":2233,"ying":2234,"ĠRout":2235,"pped":2236,"Ġfeatures":2237,"Ġ2003":2238,"Ġaud":2239,"orse":2240,"ĠTown":2241,"unk":2242,"Ġdecided":2243,"Ġbehind":2244,"Ġcycl":2245,"oice":2246,"Ġlack":2247,"Ġenc":2248,"Ġaccom":2249,"ency":2250,"cil":2251,"Ġeastern":2252,"Ġknow":2253,"Ġservice":2254,"Ġredu":2255,"ĠRep":2256,"Ġlet":2257,"ĠTwo":2258,"Ġgrow":2259,"Ġnovel":2260,"oo":2261,"ĠSan":2262,"ĠMad":2263,"Ġnon":2264,"umb":2265,"Ġvol":2266,"Ġsuff":2267,"igned":2268,"Ġ188":2269,"Ġhighway":2270,"ray":2271,"Ġaward":2272,"Ġriver":2273,"Ġcritics":2274,"heast":2275,"Ġcirc":2276,"ĠEast":2277,"Ġsaw":2278,"ĠScientology":2279,"Ġtaken":2280,"Ġoperations":2281,"ĠMex":2282,"ĠRoute":2283,"Ġfif":2284,"Ġmass":2285,"ĠMor":2286,"ĠBra":2287,"Ġrecogn":2288,"ĠMcC":2289,"ming":2290,"Ġwife":2291,"Ġtowards":2292,"Ġclose":2293,"angu":2294,"Ġfourth":2295,"ault":2296,"ned":2297,"Ġaver":2298,"Ġaction":2299,"ĠSome":2300,"ĠBill":2301,"gg":2302,"Ġvoc":2303,"Ġeither":2304,"ĠPres":2305,"Ġanim":2306,"oph":2307,"ĠStreet":2308,"ĠChampionship":2309,"off":2310,"Ġeventually":2311,"Ġtest":2312,"ata":2313,"ators":2314,"ecut":2315,"istic":2316,"aching":2317,"ĠDavid":2318,"Ġclos":2319,"Ġreb":2320,"ĠSer":2321,"ĠFrance":2322,"Ġrepresent":2323,"Ġhurricane":2324,"urg":2325,"olution":2326,"illa":2327,"Ġsepar":2328,"Ġscored":2329,"Ġappoint":2330,"Ġsubsequ":2331,"alt":2332,"Ġlive":2333,"Ġimpro":2334,"cast":2335,"Ġz":2336,"ica":2337,"Ġmother":2338,"Ġfort":2339,"Ġalmost":2340,"Ġproble":2341,"Ġcoll":2342,"Ġbird":2343,"ĠWales":2344,"Ġindivid":2345,"Ġprofess":2346,"Ġstage":2347,"iff":2348,"Ġ185":2349,"azine":2350,"Ġnorthern":2351,"Ġstars":2352,"Ġcommer":2353,"ude":2354,"Ġyoung":2355,"ĠMusic":2356,"Ġcut":2357,"Ġmiss":2358,"Ġsex":2359,"Ġce":2360,"Ġfall":2361,"ĠFollow":2362,"Ġ35":2363,"iber":2364,"Ġwall":2365,"Ġren":2366,"Ġask":2367,"aval":2368,"ĠEm":2369,"Ġcentral":2370,"ĠIndian":2371,"Ġfeatured":2372,"Ġcor":2373,"Ġlaun":2374,"aper":2375,"ĠCup":2376,"ĠBo":2377,"ĠHill":2378,"ĠNY":2379,"Ġcrew":2380,"ography":2381,"ores":2382,"Ġdou":2383,"ceed":2384,"ĠGrand":2385,"Ġhon":2386,"orts":2387,"Ġunits":2388,"medi":2389,"ĠRock":2390,"ĠInf":2391,"Ġexample":2392,"iol":2393,"Ġhost":2394,"ota":2395,"Ġrul":2396,"Ġplaying":2397,"Ġaccept":2398,"Ġmove":2399,"Ġwomen":2400,"ston":2401,"stit":2402,"ully":2403,"Ġarg":2404,"Ġrespons":2405,"Ġgeneral":2406,"Ġbelieved":2407,"ĠFollowing":2408,"west":2409,"ĠAg":2410,"ending":2411,"Ġgoal":2412,"Ġiron":2413,"Ġbrought":2414,"ama":2415,"emor":2416,"chie":2417,"Ġ500":2418,"Ġmot":2419,"lement":2420,"Ġking":2421,"ĠRobert":2422,"ĠCarey":2423,"Ġcase":2424,"Ġtoget":2425,"aves":2426,"ĠInternational":2427,"Ġtogether":2428,"men":2429,"uation":2430,"arter":2431,"Ġmater":2432,"ĠGod":2433,"Ġexc":2434,"Ġwinds":2435,"aut":2436,"ĠSl":2437,"ĠBer":2438,"cial":2439,"eum":2440,"Ġnuc":2441,"Ġdev":2442,"Ġplaced":2443,"Ġlargest":2444,"Ġdirected":2445,"Ġrelationship":2446,"Ġmph":2447,"ĠMed":2448,"Ġstru":2449,"ĠPart":2450,"reng":2451,"Ġleading":2452,"Ġfinished":2453,"iation":2454,"Ġlangu":2455,"Ġintens":2456,"wood":2457,"Ġ186":2458,"Ġupon":2459,"Ġinsp":2460,"Ġcourt":2461,"Ġsour":2462,"Ġmember":2463,"ĠJew":2464,"Ġcontract":2465,"Ġindust":2466,"Ġprovided":2467,"board":2468,"co":2469,"ential":2470,"ĠPaul":2471,"Ġrather":2472,"ĠBrigade":2473,"Ġweeks":2474,"head":2475,"Ġshot":2476,"Ġflood":2477,"Ġcurrent":2478,"ving":2479,"ĠFrom":2480,"Ġopened":2481,"oring":2482,"ĠDay":2483,"ĠGame":2484,"Ġsequ":2485,"Ġemploy":2486,"uel":2487,"ville":2488,"Ġcreat":2489,"Ġhy":2490,"ĠPe":2491,"artment":2492,"ĠThom":2493,"val":2494,"icated":2495,"ishing":2496,"Ġappearance":2497,"Ġcivil":2498,"Ġey":2499,"bert":2500,"ights":2501,"cing":2502,"Ġprob":2503,"Ġve":2504,"Ġinvest":2505,"ĠCommand":2506,"Ġopening":2507,"Ġelements":2508,"go":2509,"ule":2510,"Ġ-":2511,"ĠHen":2512,"Ġstreng":2513,"AF":2514,"ĠPre":2515,"Ġregular":2516,"ih":2517,"atin":2518,"Ġinform":2519,"asion":2520,"ĠFirst":2521,"Ġdirector":2522,"Ġdesigned":2523,"Ġpoints":2524,"Ġinvolved":2525,"Ġearlier":2526,"Ġcost":2527,"Ġcell":2528,"Ġhours":2529,"ida":2530,"iding":2531,"Ġyards":2532,"Ġemb":2533,"Ġrespect":2534,"Ġgenerally":2535,"Ġallowed":2536,"hing":2537,"Ġreve":2538,"iction":2539,"Ġmeas":2540,"ĠWhite":2541,"ĠGeorge":2542,"Ġfoc":2543,"Ġconduct":2544,"ĠEuropean":2545,"Ġsaying":2546,"Ġoutside":2547,"Ġpossible":2548,"erous":2549,"Ġbeg":2550,"ĠNavy":2551,"Ġmean":2552,"Ġquick":2553,"Ġbi":2554,"Ġburn":2555,"ĠSm":2556,"ĠMy":2557,"ĠViet":2558,"enes":2559,"Ġengine":2560,"Ġreplaced":2561,"Ġwanted":2562,"cent":2563,"now":2564,"ĠMark":2565,"Ġgra":2566,"conom":2567,"ls":2568,"uk":2569,"Ġmer":2570,"Ġreact":2571,"ĠDep":2572,"aps":2573,"ellow":2574,"nar":2575,"ĠAc":2576,"ĠBest":2577,"Ġdesp":2578,"Ġvictory":2579,"Ġwood":2580,"ington":2581,"eck":2582,"Ġhom":2583,"Ġexist":2584,"Ġpreviously":2585,"liam":2586,"tar":2587,"Ġfund":2588,"ĠCr":2589,"Ġleng":2590,"ĠRh":2591,"Ġworking":2592,"Ġparticularly":2593,"Ġestimated":2594,"Ġabove":2595,"Ġ187":2596,"Ġ2014":2597,"Ġjoined":2598,"to":2599,"etwork":2600,"Ġpract":2601,"Ġmetres":2602,"ĠQu":2603,"ĠChristian":2604,"ĠAngel":2605,"Ġbusiness":2606,"Ġill":2607,"Ġesc":2608,"ĠMost":2609,"ĠIr":2610,"ĠPac":2611,"ĠRed":2612,"ze":2613,"Ġclear":2614,"ĠDesp":2615,"ĠKore":2616,"Ġ2001":2617,"inese":2618,"ĠLove":2619,"Ġseem":2620,"Ġ2000":2621,"Ġneg":2622,"Ġtravel":2623,"anned":2624,"ĠFlor":2625,"for":2626,"osition":2627,"ĠChinese":2628,"Ġremov":2629,"Ġ1970":2630,"sel":2631,"uter":2632,"Ġachie":2633,"ita":2634,"Ġhit":2635,"Ġforced":2636,"ula":2637,"Ġdraw":2638,"ĠDespite":2639,"bor":2640,"ma":2641,"Ġcop":2642,"ĠHouse":2643,"pper":2644,"Ġdiss":2645,"liament":2646,"Ġly":2647,"Ġworked":2648,"Ġtransport":2649,"Ġavail":2650,"Ġpraised":2651,"Ġmach":2652,"ĠCorp":2653,"ĠMo":2654,"urt":2655,"Ġprote":2656,"onst":2657,"Ġpers":2658,"Ġpast":2659,"Ġwithd":2660,"Ġtransfer":2661,"Ġlength":2662,"Ġbur":2663,"Ġinj":2664,"Ġmult":2665,"Ġscene":2666,"Ġpoet":2667,"rated":2668,"Ġreason":2669,"ecess":2670,"aint":2671,"elled":2672,"ĠZeal":2673,"Ġstudy":2674,"ĠZealand":2675,"nel":2676,"Ġslow":2677,"atural":2678,"itz":2679,"Ġfr":2680,"Ġfree":2681,"Ġthreat":2682,"ĠMac":2683,"ĠLa":2684,"osing":2685,"ĠVal":2686,"Ġrain":2687,"Ġmaint":2688,"ĠPlay":2689,"Ġincreased":2690,"ps":2691,"ties":2692,"Ġcondom":2693,"ĠOper":2694,"ĠKh":2695,"Ġresear":2696,"ĠBritain":2697,"Ġordered":2698,"ste":2699,"Ġconstruct":2700,"ĠBattle":2701,"ee":2702,"Ġthink":2703,"Ġstation":2704,"opp":2705,"ĠMichael":2706,"Ġmaterial":2707,"mb":2708,"ĠRuss":2709,"ago":2710,"ĠÂ°":2711,"ĠSuper":2712,"Ġ1990":2713,"Ġregard":2714,"Ġobject":2715,"ĠLesnar":2716,"ĠMexico":2717,"ĠCreek":2718,"ĠBay":2719,"ĠWal":2720,"ĠWil":2721,"aker":2722,"Ġevidence":2723,"ĠAtlantic":2724,"nes":2725,"rd":2726,"acing":2727,"ĠLater":2728,"ĠGal":2729,"Ġ45":2730,"ibility":2731,"Ġaccount":2732,"Ġfootball":2733,"Ġtrib":2734,"ĠGreat":2735,"Ġviol":2736,"Ġremains":2737,"Ġrap":2738,"Ġsyn":2739,"Ġmanager":2740,"Ġnomin":2741,"ĠMary":2742,"irth":2743,"Ġwhom":2744,"anding":2745,"Ġpoor":2746,"Ġsoon":2747,"Ġhous":2748,"ĠHall":2749,"Ġwestern":2750,"ania":2751,"ĠTor":2752,"Ġlines":2753,"ĠDon":2754,"Ġrace":2755,"Ġ60":2756,"Ġcenter":2757,"ification":2758,"ĠPacific":2759,"Ġface":2760,"ching":2761,"ĠGovern":2762,"ĠEarly":2763,"ĠRepublic":2764,"uz":2765,"ĠOs":2766,"ributed":2767,"ready":2768,"Ġhighest":2769,"ĠFederer":2770,"ĠÃ":2771,"ites":2772,"leg":2773,"oms":2774,"Ġarmy":2775,"ĠFlorida":2776,"wh":2777,"Ġtreat":2778,"ulf":2779,"Ġrail":2780,"ĠQue":2781,"vest":2782,"aries":2783,"anish":2784,"Ġdon":2785,"Ġgre":2786,"ĠPo":2787,"ĠGold":2788,"Ġchange":2789,"Ġ2002":2790,"Ġparticip":2791,"Ġturned":2792,"ĠÂ£":2793,"ship":2794,"Ġnine":2795,"Ġsurf":2796,"Ġfemale":2797,"Ġaverage":2798,"lict":2799,"Ġpen":2800,"ĠSchool":2801,"ession":2802,"ordan":2803,"Ġinterview":2804,"Ġarrived":2805,"ĠRichard":2806,"porary":2807,"Ġyard":2808,"Ġsigned":2809,"Ġbreak":2810,"Ġterrit":2811,"BC":2812,"Ġtaking":2813,"Ġpur":2814,"ĠSch":2815,"clus":2816,"Ġitself":2817,"Ġsubject":2818,"Ġpriv":2819,"anks":2820,"Ġblock":2821,"Ġclaimed":2822,"ĠInfantry":2823,"ĠOp":2824,"Ġdamaged":2825,"ĠHero":2826,"Ġstructure":2827,"ecutive":2828,"Ġavailable":2829,"erved":2830,"Ġlove":2831,"eler":2832,"Ġheav":2833,"ĠGr":2834,"Ġcontr":2835,"Ġsurround":2836,"Ġcommercial":2837,"ĠThomas":2838,"oul":2839,"ĠJordan":2840,"Ġimmedi":2841,"Ġstudio":2842,"Ġoccup":2843,"Ġdefeated":2844,"Ġpiec":2845,"ouri":2846,"ĠApp":2847,"Ġinitially":2848,"Ġcommunity":2849,"Ġdro":2850,"Ġhard":2851,"ĠHol":2852,"abit":2853,"ĠUnion":2854,"Ġtraining":2855,"Ġbrother":2856,"ĠRegiment":2857,"chest":2858,"hib":2859,"ky":2860,"Ġsection":2861,"arily":2862,"Ġbill":2863,"vert":2864,"ĠOliv":2865,"Ġdespite":2866,"band":2867,"Ġcal":2868,"Ġnames":2869,"ulated":2870,"ĠOd":2871,"Ġdisp":2872,"Ġdepression":2873,"gypt":2874,"ĠPresident":2875,"ximately":2876,"ĠAward":2877,"ĠMet":2878,"Ġgold":2879,"ĠDr":2880,"rian":2881,"Ġ36":2882,"ĠVir":2883,"Ġtru":2884,"ĠEgypt":2885,"Ġpassed":2886,"ĠCanada":2887,"Ġvillage":2888,"Ġesp":2889,"Ġinternational":2890,"Ġtold":2891,"Ġeconom":2892,"Ġwhose":2893,"Ġexcept":2894,"ference":2895,"Ġquarter":2896,"Ġhar":2897,"Ġalready":2898,"ateg":2899,"ĠUnder":2900,"Ġ75":2901,"Ġincreasing":2902,"oor":2903,"Ġcru":2904,"arters":2905,"ila":2906,"Ġlatter":2907,"ĠMa":2908,"ĠBel":2909,"ĠYear":2910,"Ġ1960":2911,"ĠCarol":2912,"Ġrequired":2913,"Ġprobably":2914,"Ġwide":2915,"ases":2916,"ĠTom":2917,"ĠBus":2918,"ĠThat":2919,"Ġparts":2920,"Ġappointed":2921,"Ġstates":2922,"ription":2923,"Ġkey":2924,"Ġ38":2925,"Ġ183":2926,"Ġestablish":2927,"stein":2928,"ari":2929,"urity":2930,"rag":2931,"ume":2932,"ĠScott":2933,"Ġdebut":2934,"Ġreligious":2935,"ĠVietn":2936,"down":2937,"inist":2938,"oration":2939,"Ġfly":2940,"ĠTimes":2941,"Ġproper":2942,"Ġpolice":2943,"Ġcomplet":2944,"Ġgrad":2945,"Ġsoldiers":2946,"ĠArt":2947,"Ġcapital":2948,"ĠMissouri":2949,"ĠHenry":2950,"AS":2951,"ney":2952,"Ġliter":2953,"Ġforward":2954,"thlet":2955,"ranch":2956,"Ġbetter":2957,"Ġassist":2958,"oid":2959,"áĥ":2960,"Ġmust":2961,"ĠTem":2962,"Ġabs":2963,"Ġcolon":2964,"Ġden":2965,"Ġdate":2966,"ilities":2967,"ĠNot":2968,"Ġcome":2969,"Ġdead":2970,"Ġremaining":2971,"Ġsuggested":2972,"Ġbeginning":2973,"Ġsize":2974,"atory":2975,"Ġgive":2976,"Ġanc":2977,"Ġenough":2978,"Ġgoing":2979,"Ġwinning":2980,"Ġanti":2981,"Ġap":2982,"Ġpot":2983,"ĠTra":2984,"ĠFort":2985,"aby":2986,"ability":2987,"Ġdecision":2988,"Ġended":2989,"hens":2990,"Ġdeterm":2991,"gu":2992,"itor":2993,"Ġfailed":2994,"ĠSun":2995,"ĠHel":2996,"Ġwriter":2997,"Ġaccording":2998,"Ġindepend":2999,"Ġnearly":3000,"rang":3001,"atives":3002,"Ġtouch":3003,"ĠTech":3004,"ĠCong":3005,"ĠMal":3006,"olic":3007,"ĠFe":3008,"ĠNero":3009,"ĠAfrica":3010,"gl":3011,"ks":3012,"Ġsect":3013,"ecially":3014,"ĠFilm":3015,"ĠIndia":3016,"Ġgoals":3017,"Ġshows":3018,"Ġcomplete":3019,"Ġphys":3020,"Ġlanguage":3021,"Ġaut":3022,"Ġmight":3023,"ĠSquadron":3024,"Ġlower":3025,"Ġscore":3026,"ĠCharles":3027,"Ġintroduced":3028,"Ã³":3029,"onse":3030,"Ġfut":3031,"ĠPet":3032,"uments":3033,"Ġremain":3034,"Ġfeel":3035,"ĠAssoci":3036,"of":3037,"Ġtow":3038,"illery":3039,"Ġrecording":3040,"Ġdepict":3041,"Ġrunning":3042,"Ġcaptured":3043,"den":3044,"Ġ?":3045,"ĠCard":3046,"ĠCamp":3047,"ĠMont":3048,"ĠPeter":3049,"ĠOt":3050,"Ġspent":3051,"Ġleague":3052,"ĠVict":3053,"rics":3054,"Ġ80":3055,"ronic":3056,"Ġminor":3057,"ĠSpanish":3058,"ĠGermany":3059,"Ġeduc":3060,"ĠBrown":3061,"aughter":3062,"Ġprior":3063,"Ġespecially":3064,"iest":3065,"lor":3066,"ĠMany":3067,"idents":3068,"ĠPat":3069,"ests":3070,"Ġsupported":3071,"Ġapproximately":3072,"Ġdestroyed":3073,"Ġlimited":3074,"ĠIrish":3075,"ga":3076,"aring":3077,"ĠSing":3078,"Ġchap":3079,"ĠVar":3080,"Ġintended":3081,"Ġgroups":3082,"Ġissue":3083,"ĠHistory":3084,"ĠWhe":3085,"Ġ1980":3086,"Ġmur":3087,"Ġdivision":3088,"Ġnetwork":3089,"ĠMil":3090,"odies":3091,"Ġdeal":3092,"quare":3093,"Ġimm":3094,"Ġreviews":3095,"Ġdiscovered":3096,"Ġfleet":3097,"ĠMos":3098,"raw":3099,"Ġkil":3100,"rying":3101,"Ġresponse":3102,"Ġreveal":3103,"Ġsat":3104,"Ġdoc":3105,"ĠAwards":3106,"Ġstaff":3107,"Ġincludes":3108,"Ġsometimes":3109,"inct":3110,"reak":3111,"Ġscreen":3112,"Ġoffice":3113,"inent":3114,"Ġfood":3115,"ils":3116,"ĠNort":3117,"ĠStud":3118,"Ġ184":3119,"Ġpositive":3120,"Ġlarger":3121,"Ġruns":3122,"Ġarchae":3123,"ĠCanadian":3124,"Ġchanges":3125,"rief":3126,"Ġcertain":3127,"ises":3128,"Ġinn":3129,"ĠTur":3130,"ĠWestern":3131,"ĠAnother":3132,"orning":3133,"Ġadditional":3134,"Ġmagazine":3135,"Ġagreed":3136,"fect":3137,"Ġri":3138,"Ġmale":3139,"Ġhapp":3140,"ĠCoun":3141,"order":3142,"ĠColle":3143,"Ġmixed":3144,"back":3145,"ha":3146,"uing":3147,"Ġsch":3148,"ĠCour":3149,"ishop":3150,"ples":3151,"Ġscript":3152,"Ġprovide":3153,"ĠOldham":3154,"Ġfighting":3155,"Ġche":3156,"anies":3157,"ĠSoc":3158,"ĠPri":3159,"Ġexam":3160,"quarters":3161,"Ġjourn":3162,"Ġsocial":3163,"Ġsem":3164,"Ġfail":3165,"ication":3166,"Ġdomin":3167,"ads":3168,"ĠJe":3169,"Ġmostly":3170,"ires":3171,"lymp":3172,"Ġfeature":3173,"ĠFrank":3174,"edy":3175,"lex":3176,"ĠBur":3177,"ĠHurricane":3178,"Ġdeep":3179,"hedral":3180,"Ġusually":3181,"Ġpositions":3182,"anna":3183,"Ġforest":3184,"Ġfrequ":3185,"Ġpressure":3186,"ĠOlymp":3187,"Ġuns":3188,"Ġpair":3189,"Ġmention":3190,"change":3191,"Ġcompl":3192,"Ġamount":3193,"ĠIII":3194,"Ġtype":3195,"iser":3196,"Ġbomb":3197,"irt":3198,"igan":3199,"ĠHot":3200,"ĠRad":3201,"ĠLaw":3202,"ĠInter":3203,"oke":3204,"Ġadop":3205,"Ġminutes":3206,"Ġguitar":3207,"fact":3208,"Ġens":3209,"atively":3210,"ĠServ":3211,"stant":3212,"iring":3213,"ĠOver":3214,"ĠUK":3215,"Ġ1999":3216,"Ġcarried":3217,"Ġradio":3218,"osaurus":3219,"Ġbecoming":3220,"Ġfuture":3221,"Ġsil":3222,"umn":3223,"Ġshown":3224,"ĠChina":3225,"Ġunc":3226,"teen":3227,"Ġ70":3228,"Ġsmaller":3229,"Ġdefeat":3230,"Ġsubsequently":3231,"isions":3232,"ĠVer":3233,"ospital":3234,"ĠOlivier":3235,"bers":3236,"Ġword":3237,"ĠTV":3238,"ĠTer":3239,"ĠSince":3240,"Ġconclud":3241,"ills":3242,"Ġcontem":3243,"Ġpresident":3244,"Ġfavor":3245,"Ġlikely":3246,"mon":3247,"mond":3248,"under":3249,"asy":3250,"enty":3251,"ĠJin":3252,"ĠEver":3253,"ĠStar":3254,"Ġadapt":3255,"Ġ1995":3256,"Ġteams":3257,"Ġcounter":3258,"NA":3259,"het":3260,"itte":3261,"ĠMart":3262,"Ġvot":3263,"Ġpercent":3264,"ĠAnt":3265,"oys":3266,"Ġreferred":3267,"ĠJewish":3268,"Ġquickly":3269,"uals":3270,"Ġtons":3271,"Ġwoman":3272,"ady":3273,"aded":3274,"ĠBack":3275,"Ġstay":3276,"ĠRes":3277,"ĠDan":3278,"Ġ32":3279,"Ġund":3280,"Ġquest":3281,"Ġentered":3282,"Ġlocation":3283,"Ġproblems":3284,"ror":3285,"onna":3286,"Ġwound":3287,"oud":3288,"ĠCath":3289,"omm":3290,"ĠBen":3291,"ĠRac":3292,"cean":3293,"ands":3294,"ĠOff":3295,"peror":3296,"ĠGuitar":3297,"ĠVictor":3298,"ios":3299,"Ġinters":3300,"Ġder":3301,"Ġlo":3302,"ĠPenn":3303,"Ġnotes":3304,"Ġtemper":3305,"Ġranked":3306,"Ġfifth":3307,"ĠBillboard":3308,"ĠAssociation":3309,"Ġbirth":3310,"imum":3311,"unt":3312,"Ġ400":3313,"Ġappl":3314,"Ġprofessional":3315,"gen":3316,"gely":3317,"Ġflow":3318,"Ġbrief":3319,"Ġstra":3320,"rael":3321,"Ġrelated":3322,"ĠSecond":3323,"Ġkeep":3324,"Ġsurface":3325,"dle":3326,"Ġdi":3327,"ĠTropical":3328,"imate":3329,"iforn":3330,"Ġsea":3331,"Ġleaving":3332,"Ġunit":3333,"Ġmoving":3334,"Ġindic":3335,"Ġconcern":3336,"ĠForce":3337,"Ġmedia":3338,"well":3339,"Ġself":3340,"usp":3341,"Ġ33":3342,"Ġ90":3343,"Ġamb":3344,"Ġofficers":3345,"ĠManila":3346,"Ġmajority":3347,"Ġconstructed":3348,"ny":3349,"Ġthick":3350,"Ġenv":3351,"Ġconsist":3352,"Ġstudents":3353,"Ġminute":3354,"Ġcomplex":3355,"Ġconcert":3356,"Ġvisit":3357,"Ġidea":3358,"Ġsuffered":3359,"Ġlaunched":3360,"gar":3361,"hy":3362,"rat":3363,"ses":3364,"anced":3365,"andon":3366,"Ġattacked":3367,"Ġrapid":3368,"ĠTour":3369,"ĠSur":3370,"Ġshoot":3371,"ĠItal":3372,"Ġthemsel":3373,"Ġassigned":3374,"Ġ1950":3375,"Ġprimary":3376,"ĠVirgin":3377,"Ġthemselves":3378,"Ġmakes":3379,"Ġalways":3380,"ĠLight":3381,"ĠLatin":3382,"Ġoverall":3383,"Ġlargely":3384,"Ġartillery":3385,"Ġdiscuss":3386,"Ġeffects":3387,"ĠCaliforn":3388,"ners":3389,"Ġult":3390,"era":3391,"ĠHead":3392,"ĠIsrael":3393,"Ġspeed":3394,"Ġsummer":3395,"ĠJer":3396,"Ġlearn":3397,"Ġfilms":3398,"Ġcreate":3399,"ĠCentral":3400,"Ġoccurred":3401,"Ġcele":3402,"ĠCouncil":3403,"Ġcm":3404,"ĠTre":3405,"Ġrein":3406,"ĠSam":3407,"Ġlink":3408,"ĠMr":3409,"ĠHow":3410,"Ġran":3411,"Ġcontains":3412,"Ġ1998":3413,"Ġcann":3414,"Ġconsider":3415,"arent":3416,"Ġlyrics":3417,"Ġcer":3418,"alled":3419,"Ġattract":3420,"Ġproduct":3421,"Ġlonger":3422,"Ġcritical":3423,"Ġattacks":3424,"hou":3425,"vens":3426,"Ġcred":3427,"Ġdark":3428,"Ġemer":3429,"aches":3430,"thing":3431,"ulpt":3432,"ĠWood":3433,"ĠJose":3434,"Ġ300":3435,"ĠArch":3436,"Ġtraffic":3437,"ĠBrad":3438,"Ġinvestig":3439,"ĠWheeler":3440,"Ġfans":3441,"ĠUp":3442,"ĠStorm":3443,"Ġimage":3444,"Ġmeth":3445,"Ġslight":3446,"Ġbroadcast":3447,"rown":3448,"Ġlived":3449,"ĠMajor":3450,"Ġdeg":3451,"lands":3452,"Ġmovement":3453,"Ġmusical":3454,"Ġ1940":3455,"Ġappears":3456,"Ġcontroll":3457,"Ġincrease":3458,"Ġstatus":3459,"ĠCroat":3460,"Ġkilomet":3461,"Ġschol":3462,"Ġlab":3463,"ĠDem":3464,"Ġabandon":3465,"Ġjob":3466,"Ġ2016":3467,"Ġprem":3468,"Ġcommission":3469,"undred":3470,"Ġconflict":3471,"Ġexperience":3472,"Ġproposed":3473,"Ġcasual":3474,"Ġasked":3475,"ĠCalifornia":3476,"RA":3477,"Ġpurch":3478,"Ġdoll":3479,"Ġscenes":3480,"Ġsculpt":3481,"Ġaccess":3482,"Ġmoney":3483,"itting":3484,"lin":3485,"Ġtar":3486,"ani":3487,"imb":3488,"ĠHaw":3489,"Ġvoice":3490,"Ġjud":3491,"ĠSever":3492,"Ġforms":3493,"Ġelection":3494,"Ġgrant":3495,"Ġlisted":3496,"ex":3497,"zy":3498,"inated":3499,"Ġbow":3500,"ĠFore":3501,"riage":3502,"arts":3503,"Ġbelow":3504,"Ġcommander":3505,"Ġrequest":3506,"incip":3507,"Ġinfluence":3508,"Ġobserv":3509,"Ġremoved":3510,"mas":3511,"ĠCamb":3512,"ĠRoss":3513,"cend":3514,"eway":3515,"ously":3516,"Ġparty":3517,"Ġcentre":3518,"ĠCommission":3519,"Ġbring":3520,"Ġ1930":3521,"ĠStevens":3522,"Ġassociated":3523,"ken":3524,"erve":3525,"ergy":3526,"eding":3527,"Ġcle":3528,"Ġdram":3529,"Ġreach":3530,"ĠSov":3531,"Ġnature":3532,"ĠRA":3533,"ĠDist":3534,"Ġconcept":3535,"Ġending":3536,"Ġmeant":3537,"Ġnumbers":3538,"Ġacqu":3539,"Ġdaughter":3540,"ĠRob":3541,"ander":3542,"Ġplanned":3543,"Ġserious":3544,"Ġcyclone":3545,"ĠNorthern":3546,"Ġbound":3547,"Ġmom":3548,"Ġded":3549,"ĠFI":3550,"ulu":3551,"Ġleave":3552,"ruit":3553,"Ġdism":3554,"Ġearth":3555,"Ġterms":3556,"ĠEarth":3557,"ĠMichigan":3558,"Ġchanged":3559,"ĠAfrican":3560,"Ġprivate":3561,"ĠRachel":3562,"awn":3563,"ging":3564,"Ġthus":3565,"Ġlif":3566,"ĠBu":3567,"ĠLake":3568,"umed":3569,"Ġunderst":3570,"ĠAtt":3571,"Ġsusp":3572,"Ġbad":3573,"Ġmorning":3574,"ĠArab":3575,"Ġstone":3576,"ĠLou":3577,"Ġplat":3578,"Ġplot":3579,"Ġupper":3580,"ylv":3581,"Ġperformances":3582,"Ġpersonal":3583,"Ġawarded":3584,"Ġbirds":3585,"ĠCourt":3586,"II":3587,"lo":3588,"itation":3589,"itect":3590,"ĠSal":3591,"Ġgot":3592,"Ġplans":3593,"Ġunable":3594,"Ġwhether":3595,"Ġtrade":3596,"Ġrare":3597,"Ġbuildings":3598,"ĠTex":3599,"Ġdouble":3600,"atre":3601,"Ġlay":3602,"ĠBC":3603,"ĠIf":3604,"ĠRose":3605,"Ġconver":3606,"ria":3607,"ify":3608,"Ġchall":3609,"Ġflight":3610,"Ġoperation":3611,"Ġfinally":3612,"Ġculture":3613,"Ġresearch":3614,"tr":3615,"Ġtell":3616,"Ġnatural":3617,"irl":3618,"ĠDo":3619,"ĠDel":3620,"aven":3621,"iano":3622,"ellig":3623,"Ġweap":3624,"hips":3625,"Ġrecords":3626,"Ġinfantry":3627,"ĠCenter":3628,"Ġfocus":3629,"Ġconducted":3630,"ittee":3631,"ĠHu":3632,"Ġasp":3633,"ĠJim":3634,"ortun":3635,"Ġcompared":3636,"ĠThree":3637,"Ġsched":3638,"ails":3639,"Ġcollect":3640,"ĠClub":3641,"Ġissued":3642,"Ġcompetition":3643,"Ġcommented":3644,"Ġstrength":3645,"Ġmeaning":3646,"Ġtakes":3647,"Ġfell":3648,"ĠSen":3649,"Ġliving":3650,"ĠNic":3651,"ĠJane":3652,"ective":3653,"Ġyet":3654,"ĠChic":3655,"ĠIts":3656,"aily":3657,"aught":3658,"Ġaccomp":3659,"iant":3660,"Ġdig":3661,"ĠThrough":3662,"Ġtheme":3663,"Ġcovered":3664,"Ġmethod":3665,"iqu":3666,"ĠTay":3667,"Ġcoach":3668,"Ġpresence":3669,"venue":3670,"Ġpolic":3671,"Ġprevent":3672,"Ġlog":3673,"ĠBow":3674,"ĠForm":3675,"ifa":3676,"Ġ37":3677,"Ġ42":3678,"Ġnewsp":3679,"Ġraised":3680,"Ġepisodes":3681,"Ġadvance":3682,"Ġbattles":3683,"Ġattempted":3684,"Ġfigure":3685,"Ġindustry":3686,"bury":3687,"sen":3688,"Ġtalk":3689,"ening":3690,"Ġbatter":3691,"ĠTrans":3692,"ili":3693,"usband":3694,"Ġhealth":3695,"Ġoffered":3696,"ologist":3697,"ĠMuseum":3698,"Ġnortheast":3699,"Ġresponsible":3700,"car":3701,"enon":3702,"Ġdone":3703,"ĠTw":3704,"ado":3705,"ĠBob":3706,"istics":3707,"rial":3708,"ĠEmp":3709,"Ġcompanies":3710,"Ġwhole":3711,"Ġearned":3712,"Ġ1993":3713,"ĠEnter":3714,"Ġmarked":3715,"Ġexperi":3716,"ĠPortug":3717,"Ġimmediately":3718,"ĠCollege":3719,"oir":3720,"tain":3721,"Ġour":3722,"Ġbig":3723,"Ġtourn":3724,"Ġgiving":3725,"ĠHo":3726,"ĠGo":3727,"Ġvia":3728,"ocr":3729,"Ġweaken":3730,"Ġmatches":3731,"ĠParliament":3732,"Ġschools":3733,"Ġera":3734,"ĠPhilipp":3735,"emorial":3736,"Ġmurder":3737,"ĠTexas":3738,"ras":3739,"itude":3740,"Ġpark":3741,"ĠBoth":3742,"Ġstories":3743,"ĠJust":3744,"Ġselected":3745,"Ġ39":3746,"Ġprep":3747,"Ġdirectly":3748,"ipped":3749,"Ġhelped":3750,"Ġ+":3751,"Ġsal":3752,"alys":3753,"Ġpurs":3754,"Ġ47":3755,"Ġ1996":3756,"Ġstarting":3757,"Ġphot":3758,"ĠHaifa":3759,"Ġbegins":3760,"ĠCorps":3761,"ĠChicago":3762,"bar":3763,"Ġhundred":3764,"ĠSar":3765,"Ġcomposed":3766,"Ġ1997":3767,"embly":3768,"onym":3769,"Ġmarried":3770,"Ġindividual":3771,"ĠAcad":3772,"Ġmachine":3773,"ĠTaylor":3774,"kan":3775,"vement":3776,"Ġpay":3777,"ĠCross":3778,"ĠBey":3779,"etic":3780,"olk":3781,"ows":3782,"ĠNor":3783,"Ġuses":3784,"Ġnearby":3785,"ĠAdm":3786,"Ġtraditional":3787,"ĠDepartment":3788,"Ġgreater":3789,"ĠCatholic":3790,"ĠSeveral":3791,"CA":3792,"Ġcause":3793,"Ġhop":3794,"Ġrear":3795,"Ġreally":3796,"ada":3797,"etr":3798,"ĠFoot":3799,"rain":3800,"Ġkind":3801,"ports":3802,"ĠSea":3803,"Ġbattalion":3804,"ĠChristmas":3805,"Ġwaters":3806,"Ġbox":3807,"Ġreject":3808,"Ġnecess":3809,"ĠBig":3810,"Ġclosed":3811,"Ġevac":3812,"Ġcontinue":3813,"Ã¡n":3814,"ĠOperation":3815,"Ġox":3816,"isl":3817,"Ġhour":3818,"Ġhighly":3819,"Ġannual":3820,"Ġmarket":3821,"MS":3822,"can":3823,"isation":3824,"Ġmor":3825,"ĠSol":3826,"Ġthrow":3827,"Ġnorm":3828,"berg":3829,"Ġrecover":3830,"Ġshell":3831,"rowd":3832,"Ġleaders":3833,"ype":3834,"Ġinside":3835,"Ġfinanc":3836,"Ġinitial":3837,"ĠSeries":3838,"stitute":3839,"Ġcasualties":3840,"ev":3841,"Ġtax":3842,"hew":3843,"ĠCer":3844,"Ġgraph":3845,"iva":3846,"agon":3847,"ĠOut":3848,"ondyl":3849,"ibly":3850,"Ġassault":3851,"ĠScot":3852,"Ġartist":3853,"Ġimpact":3854,"Ġresulted":3855,"orpor":3856,"Ġgreatest":3857,"Ġnucle":3858,"ĠGalvest":3859,"ĠGalveston":3860,"onc":3861,"ican":3862,"ĠTurn":3863,"ether":3864,"Ġ1991":3865,"Ġ150":3866,"Ġcourse":3867,"Ġsituation":3868,"ĠService":3869,"ĠItalian":3870,"ien":3871,"edo":3872,"Ġdom":3873,"Ġdyn":3874,"ĠIll":3875,"olf":3876,"ĠLos":3877,"aped":3878,"Ġdefend":3879,"Ġspecific":3880,"Ġmetal":3881,"Ġdrum":3882,"Ġmiddle":3883,"ĠGeorg":3884,"ares":3885,"like":3886,"Ġess":3887,"Ġsout":3888,"Ġpil":3889,"Ġhot":3890,"ĠSaint":3891,"uries":3892,"Ġdeploy":3893,"Ġsecret":3894,"Ġcontrovers":3895,"Ġbooks":3896,"Ġattempts":3897,"ospondyl":3898,"Ġgods":3899,"Ġfigures":3900,"Ġinspired":3901,"Ġinformation":3902,"Ġtouchdown":3903,"Ã³n":3904,"TV":3905,"pool":3906,"Ġsides":3907,"atops":3908,"isk":3909,"icle":3910,"ĠTenn":3911,"ĠSix":3912,"Ġthings":3913,"ĠHum":3914,"Ġsev":3915,"anta":3916,"Ġactive":3917,"Ġheadquarters":3918,"Ġextended":3919,"Ġservices":3920,"Ġallowing":3921,"Ġtracks":3922,"Ġboats":3923,"ĠCharl":3924,"Ġstandard":3925,"Ġsomething":3926,"lers":3927,"Ġx":3928,"Ġfeder":3929,"Ġpick":3930,"ĠAI":3931,"ĠAre":3932,"Ġnaval":3933,"ctor":3934,"ĠJam":3935,"Ġadvant":3936,"Ġpowerful":3937,"Ġaudience":3938,"ĠParty":3939,"light":3940,"rey":3941,"Ġpath":3942,"adium":3943,"ims":3944,"Ġstating":3945,"ĠLong":3946,"Ġsearch":3947,"ĠVilla":3948,"rane":3949,"Ġenj":3950,"Ġ65":3951,"Ġ1994":3952,"Ġnumerous":3953,"Ġvers":3954,"Ġrefused":3955,"Ġapproach":3956,"ĠJackson":3957,"Ġneeded":3958,"Ġvocals":3959,"Ġstruck":3960,"ĠCarolina":3961,"uit":3962,"Ġast":3963,"Ġwalk":3964,"itch":3965,"Ġmax":3966,"ĠLady":3967,"agan":3968,"aging":3969,"Ġheads":3970,"Ġlands":3971,"Ġconfir":3972,"Ġheavily":3973,"ĠSoviet":3974,"een":3975,"rid":3976,"vin":3977,"ĠCrit":3978,"ĠMill":3979,"ĠBec":3980,"Ġrate":3981,"Ġrule":3982,"Ġroom":3983,"Ġ180":3984,"izing":3985,"ĠAlice":3986,"Ġblood":3987,"Ġintensity":3988,"Ġmultip":3989,"ĠOtt":3990,"Ġcontemporary":3991,"ĠEmpire":3992,"Ġbodies":3993,"roll":3994,"ĠTheir":3995,"ĠLive":3996,"ĠGroup":3997,"ĠEr":3998,"Ġ51":3999,"Ġvariety":4000,"Ġcombat":4001,"Ġgenus":4002,"Ġconditions":4003,"Ġmeeting":4004,"Ġseparate":4005,"ĠSmith":4006,"Ġpurp":4007,"ĠJoseph":4008,"Ġtask":4009,"eds":4010,"ĠAlex":4011,"ams":4012,"Ġpeace":4013,"Ġtransl":4014,"ĠConf":4015,"ĠSpec":4016,"chester":4017,"house":4018,"Ġcrowd":4019,"Ġhusband":4020,"iles":4021,"ĠFin":4022,"ĠNix":4023,"Ġplant":4024,"ecting":4025,"Ġ76":4026,"ĠPolish":4027,"Ġhigher":4028,"ĠHighway":4029,"Ġdeclared":4030,"Ġpeaked":4031,"Ġsource":4032,"Ġhouses":4033,"Ġeducation":4034,"Ġslightly":4035,"ylvania":4036,"ees":4037,"ĠMey":4038,"ĠMidd":4039,"ols":4040,"ushed":4041,"ĠFour":4042,"ĠLo":4043,"perial":4044,"Ġproducer":4045,"Ġpresented":4046,"Ġhands":4047,"Ġreduced":4048,"Ġrespectively":4049,"uated":4050,"yph":4051,"Ġple":4052,"icip":4053,"ĠCivil":4054,"omer":4055,"Ġnative":4056,"ĠPost":4057,"ĠDj":4058,"ĠNations":4059,"ĠLiver":4060,"odon":4061,"ĠKn":4062,"Ġresidents":4063,"Ġ44":4064,"ribution":4065,"Ġsecurity":4066,"Ġ1992":4067,"Ġstudies":4068,"Ġextre":4069,"Ġofficer":4070,"Ġsixth":4071,"Ġcollection":4072,"ĠPenns":4073,"Ġcelebr":4074,"ka":4075,"iny":4076,"anas":4077,"Ġthr":4078,"Ġhero":4079,"ĠLittle":4080,"ĠCont":4081,"Ġconstit":4082,"Ġfriends":4083,"arrow":4084,"rol":4085,"ĠSir":4086,"ĠCast":4087,"ĠCapt":4088,"ĠBurn":4089,"ĠFinal":4090,"ĠWash":4091,"Ġchampionship":4092,"Ġspace":4093,"rance":4094,"irection":4095,"ension":4096,"ĠYoung":4097,"Ġprec":4098,"Ġprincip":4099,"Ġnorthwest":4100,"arents":4101,"Ġcompletely":4102,"Ġwounded":4103,"bon":4104,"Åį":4105,"Ġsaf":4106,"ĠTime":4107,"Ġgrand":4108,"iral":4109,"Ġbeat":4110,"estival":4111,"pted":4112,"ĠAlkan":4113,"Ġtext":4114,"athan":4115,"Ġmeans":4116,"Ġwriters":4117,"ĠRev":4118,"ĠCommon":4119,"ĠChris":4120,"Ġbridge":4121,"Ġcombined":4122,"Ġactivity":4123,"ĠSomers":4124,"Ġeye":4125,"Ġintern":4126,"ĠFam":4127,"ĠLand":4128,"oses":4129,"andid":4130,"illed":4131,"Ġ34":4132,"Ġdisplay":4133,"Ġsinger":4134,"Ġcontinues":4135,"Ġrespond":4136,"Ġdistance":4137,"Ġcountries":4138,"ĠDef":4139,"Ġmarriage":4140,"Ġarchitect":4141,"Ġadminist":4142,"Ġcopies":4143,"Ġcontrast":4144,"ĠLiverpool":4145,"ket":4146,"Ġir":4147,"alist":4148,"oura":4149,"ĠBet":4150,"tered":4151,"ĠGames":4152,"ift":4153,"ogue":4154,"Ġ48":4155,"Ġdisapp":4156,"Ġsymb":4157,"Ġexpected":4158,"ĠParis":4159,"orpedo":4160,"ĠSomal":4161,"Ġveh":4162,"ĠVirginia":4163,"Ġreinfor":4164,"ĠFootball":4165,"ĠNixon":4166,"ĠWashington":4167,"Ġcam":4168,"Ġborder":4169,"Ġdraft":4170,"stone":4171,"emic":4172,"Ġsust":4173,"Ġdispl":4174,"Ġinteract":4175,"Ġinches":4176,"ĠIndepend":4177,"Ġissues":4178,"Ġlevels":4179,"Ġwidely":4180,"ĠHistor":4181,"Ġtransferred":4182,"ĠBusch":4183,"Ġconcluded":4184,"track":4185,"ĠSomerset":4186,"ware":4187,"inth":4188,"Ġpow":4189,"ĠSouthern":4190,"ĠCor":4191,"ĠCons":4192,"ĠBre":4193,"ĠBook":4194,"ĠWater":4195,"ĠJul":4196,"Ġang":4197,"Ġrelief":4198,"Ġactually":4199,"ĠAustralians":4200,"Ġcathedral":4201,"Ġactivities":4202,"Ġstrike":4203,"Ġterritory":4204,"ĠPennsylvania":4205,"iated":4206,"Ġbene":4207,"ems":4208,"ĠFow":4209,"ĠLock":4210,"umber":4211,"ĠSpain":4212,"Ġefforts":4213,"Ġboard":4214,"while":4215,"ĠQueen":4216,"ĠMosley":4217,"Ġenjoy":4218,"lam":4219,"Ã¼":4220,"Ġtoward":4221,"iled":4222,"ĠCat":4223,"ĠDes":4224,"ulations":4225,"ĠGreen":4226,"ĠJos":4227,"ĠEs":4228,"asty":4229,"Ġactions":4230,"Ġsuppl":4231,"annel":4232,"Ġdescribes":4233,"ĠColon":4234,"Ġeffort":4235,"Ġelev":4236,"ĠFranc":4237,"Ġsexual":4238,"Ġwithdraw":4239,"Ġancient":4240,"ĠLouis":4241,"bour":4242,"ij":4243,"ufact":4244,"Ġrough":4245,"Ġtorpedo":4246,"inus":4247,"onic":4248,"isher":4249,"anz":4250,"anes":4251,"Ġinh":4252,"Ġpun":4253,"Ġreign":4254,"ĠDam":4255,"ĠNaz":4256,"ĠLi":4257,"ĠLike":4258,"anded":4259,"bery":4260,"Ġexhib":4261,"Ġadult":4262,"ibr":4263,"Ġmanaged":4264,"Ġoffensive":4265,"Ġattention":4266,"ocks":4267,"Ġqual":4268,"Ġbackground":4269,"Ġ1942":4270,"Ġironcl":4271,"Ġrainfall":4272,"Ġrevealed":4273,"mark":4274,"Ġtur":4275,"Ġtoday":4276,"Ġmission":4277,"oured":4278,"irit":4279,"utch":4280,"ĠDer":4281,"ersh":4282,"ĠInn":4283,"Ġ49":4284,"Ġ52":4285,"Ġ182":4286,"ĠArm":4287,"Ġdefense":4288,"Ġblue":4289,"iami":4290,"Ġdistinct":4291,"Ġcounty":4292,"Ġresulting":4293,"Ġrights":4294,"Ġprimarily":4295,"Ġbecomes":4296,"Ġaccepted":4297,"Ġsequence":4298,"ĠVietnam":4299,"hood":4300,"tation":4301,"yr":4302,"Ġsays":4303,"Ġmel":4304,"Ġhabit":4305,"ĠTri":4306,"idian":4307,"imony":4308,"Ġmainly":4309,"Ġalongside":4310,"Ġdesignated":4311,"Ġopportun":4312,"Ġmountain":4313,"ĠGovernment":4314,"ĠBecause":4315,"Ġsquadron":4316,"Ġsquare":4317,"Ġfaced":4318,"ĠBon":4319,"usion":4320,"Ġkick":4321,"Ġrecent":4322,"Ġ181":4323,"Ġdise":4324,"ampion":4325,"ĠClass":4326,"Ġconcent":4327,"Ġdemonst":4328,"Ġpattern":4329,"Ġtrees":4330,"ĠKorean":4331,"ĠFowler":4332,"cy":4333,"Ġwear":4334,"Ġpound":4335,"room":4336,"ĠMiami":4337,"ĠFer":4338,"ĠWW":4339,"Ġprint":4340,"ledge":4341,"Ġfeaturing":4342,"Ġappearances":4343,"ĠAdd":4344,"Ġprogress":4345,"ĠMinnes":4346,"ĠAngeles":4347,"Ġquestion":4348,"ĠMinnesota":4349,"kin":4350,"enant":4351,"ingu":4352,"Ġpiano":4353,"Ġonto":4354,"ĠBol":4355,"use":4356,"ĠPen":4357,"Ġability":4358,"Ġroles":4359,"Ġjump":4360,"Ġ64":4361,"echan":4362,"Ġtrue":4363,"hold":4364,"itness":4365,"Ġcorn":4366,"Ġpaper":4367,"ĠTod":4368,"ela":4369,"acher":4370,"ĠKent":4371,"apo":4372,"Ġcompos":4373,"Ġ46":4374,"Ġplays":4375,"Ġdepart":4376,"Ġorganization":4377,"Ġcondoms":4378,"Ġfederal":4379,"bed":4380,"cle":4381,"Ġsense":4382,"ena":4383,"Ġbott":4384,"Ġparents":4385,"adm":4386,"Ġaltern":4387,"ĠOf":4388,"Ġcoming":4389,"Ġvess":4390,"Ġyoun":4391,"Ġresc":4392,"Ġroy":4393,"Ġ55":4394,"Ġrecomm":4395,"Ġscoring":4396,"Ġseasons":4397,"Ġquality":4398,"Ġcalling":4399,"Ġshowed":4400,"ĠManchester":4401,"Ġportion":4402,"shire":4403,"Ġobserved":4404,"ceeded":4405,"Ġpractice":4406,"ĠAcademy":4407,"ĠScotland":4408,"BA":4409,"ãĥ":4410,"Ġhol":4411,"Ġlot":4412,"ĠBint":4413,"Ġrhy":4414,"ĠAnn":4415,"Ġrelatively":4416,"airs":4417,"Ġinstit":4418,"ĠMean":4419,"Ġelected":4420,"ironment":4421,"Ġhistorical":4422,"yphoon":4423,"ĠBintulu":4424,"mun":4425,"Ġwords":4426,"Ġlosing":4427,"ĠRam":4428,"essa":4429,"Ġuniversity":4430,"Ġremark":4431,"ologists":4432,"ĠNews":4433,"Ġinvasion":4434,"Ġreception":4435,"Ġbrown":4436,"ervation":4437,"Ġowned":4438,"Ġ1920":4439,"Ġencoun":4440,"Ġstrugg":4441,"Ġultimately":4442,"cript":4443,"kn":4444,"ĠMog":4445,"ĠField":4446,"estic":4447,"Ġrang":4448,"Ġsuc":4449,"Ġarmed":4450,"Ġscale":4451,"Ġapparent":4452,"Ġ1941":4453,"Ġedge":4454,"ĠRussian":4455,"ĠSociety":4456,"ĠMeyer":4457,"ĠCaptain":4458,"gal":4459,"pole":4460,"Ġathlet":4461,"Ġfast":4462,"icles":4463,"ĠCap":4464,"Ġnation":4465,"ĠMat":4466,"ĠMass":4467,"ĠMatt":4468,"Ġheart":4469,"osen":4470,"ĠGar":4471,"udd":4472,"essions":4473,"Ġenemy":4474,"Ġdefence":4475,"Ġlegal":4476,"Ġtwenty":4477,"Ġinfluenced":4478,"ĠMeridian":4479,"Ġexcav":4480,"elligence":4481,"ĠBeyonc":4482,"ĠBeyoncÃ©":4483,"che":4484,"Ġfully":4485,"ications":4486,"Ġmile":4487,"ĠTik":4488,"Ġthous":4489,"ĠChe":4490,"Ġnarr":4491,"ĠDou":4492,"ĠUl":4493,"Ġspl":4494,"ĠThough":4495,"Ġagg":4496,"Ġoffer":4497,"Ġprepar":4498,"Ġexpressed":4499,"Ġinstr":4500,"ĠColumb":4501,"ĠAnderson":4502,"Ġtypically":4503,"ricket":4504,"Ġproteins":4505,"Ġsurrounding":4506,"Ġcannot":4507,"ĠHawai":4508,"town":4509,"onents":4510,"Ġchem":4511,"Ġmem":4512,"Ġmole":4513,"ĠSum":4514,"Ġnarrow":4515,"utions":4516,"Ġstep":4517,"ĠPit":4518,"oper":4519,"pping":4520,"Ġspread":4521,"Ġproduce":4522,"Ġprison":4523,"Ġsets":4524,"Ġemph":4525,"Ġportray":4526,"ĠChurchill":4527,"Ġrepresented":4528,"Ġmagn":4529,"Ġhomes":4530,"Ġdissip":4531,"uzz":4532,"Ġadopted":4533,"alysis":4534,"eption":4535,"the":4536,"Ġwing":4537,"ala":4538,"asc":4539,"road":4540,"acement":4541,"ĠPop":4542,"ĠFar":4543,"ĠWels":4544,"Ġcontact":4545,"orship":4546,"Ġemot":4547,"Ġ1986":4548,"Ġorganized":4549,"Ġlegisl":4550,"ĠRichmond":4551,"Ġreaction":4552,"ĠTemple":4553,"Ġadvantage":4554,"Ġmaximum":4555,"burg":4556,"gs":4557,"mes":4558,"ona":4559,"Ġsen":4560,"Ġinch":4561,"Ġdu":4562,"ĠHal":4563,"ends":4564,"Ġwebs":4565,"Ġneigh":4566,"ugby":4567,"Ġfloor":4568,"Ġartists":4569,"Ġextra":4570,"Ġbroken":4571,"Ġtried":4572,"ĠPrince":4573,"Ġofficials":4574,"Ġnuclear":4575,"admium":4576,"ĠWelsh":4577,"rical":4578,"Ġaid":4579,"Ġpal":4580,"ĠSil":4581,"ĠDirect":4582,"ĠGall":4583,"ĠOx":4584,"ĠOcean":4585,"Ġvo":4586,"astic":4587,"Ġmanufact":4588,"Ġthemes":4589,"ĠCommun":4590,"Ġedition":4591,"Ġreports":4592,"ĠAndrew":4593,"Ġpersonnel":4594,"Ġtypes":4595,"ĠWeek":4596,"Ġearliest":4597,"Ġpaint":4598,"mitted":4599,"ply":4600,"rong":4601,"enge":4602,"Ġmis":4603,"ĠHome":4604,"ĠRo":4605,"ĠKa":4606,"ĠThunder":4607,"ĠMarine":4608,"ĠBlue":4609,"Ġcapture":4610,"ĠOrig":4611,"Ġdivided":4612,"Ġsources":4613,"Ġhyd":4614,"ĠOpen":4615,"Ġtower":4616,"Ġabandoned":4617,"ĠDistrict":4618,"Ġfinancial":4619,"aen":4620,"lim":4621,"pre":4622,"rate":4623,"ux":4624,"writ":4625,"Ġsister":4626,"Ġwa":4627,"Ġmouth":4628,"Ġhorse":4629,"ĠAv":4630,"etts":4631,"Ġalone":4632,"issipp":4633,"Ġacting":4634,"Ġ1988":4635,"Ġmodel":4636,"ĠProt":4637,"Ġtitled":4638,"ĠMississipp":4639,"Ġsoundtrack":4640,"Ġachieved":4641,"ĠIllino":4642,"ĠTikal":4643,"Ġemphas":4644,"nospondyl":4645,"Ġsn":4646,"Ġdirection":4647,"ĠBoy":4648,"ĠBalt":4649,"Ġstopp":4650,"unction":4651,"ĠLie":4652,"izes":4653,"Ġactor":4654,"Ġspecim":4655,"Ġrepe":4656,"Ġprominent":4657,"Ġshortly":4658,"Ġviewers":4659,"ĠEdward":4660,"Ġaffected":4661,"ĠSecret":4662,"ĠTurk":4663,"ĠMiddle":4664,"Ġroyal":4665,"ĠMogad":4666,"wen":4667,"Ġthir":4668,"ĠFred":4669,"ĠFleet":4670,"acks":4671,"send":4672,"Ġdefensive":4673,"Ġmovie":4674,"Ġwrite":4675,"Ġfounded":4676,"Ġbasis":4677,"ĠRecords":4678,"ĠRhodes":4679,"Ġnewspaper":4680,"ĠMississippi":4681,"Ġcities":4682,"Ġcandid":4683,"alions":4684,"Ġmind":4685,"ĠAvenue":4686,"ura":4687,"ĠBall":4688,"Ġgirl":4689,"ĠNes":4690,"ĠKir":4691,"ograp":4692,"Ġ41":4693,"Ġattended":4694,"Ġweak":4695,"ĠArg":4696,"ĠReview":4697,"Ġdoing":4698,"ĠJohnson":4699,"Ġoperated":4700,"Ġstructures":4701,"ĠBraat":4702,"Ġflooding":4703,"Ġmentioned":4704,"Ġsac":4705,"Ġfruit":4706,"Ġpaid":4707,"Ġhospital":4708,"ette":4709,"ĠGib":4710,"ipment":4711,"claim":4712,"Ġofficially":4713,"Ġcouple":4714,"Ġpotential":4715,"Ġdedicated":4716,"Ġtournament":4717,"Ġxenon":4718,"known":4719,"bit":4720,"hu":4721,"uous":4722,"wide":4723,"orus":4724,"Ġmechan":4725,"irm":4726,"ĠWild":4727,"Ġcomedy":4728,"Ġplaces":4729,"Ġshape":4730,"ector":4731,"Ġyour":4732,"eller":4733,"Ġ43":4734,"anger":4735,"ĠEngine":4736,"prise":4737,"Ġauthorities":4738,"Ġcultural":4739,"ĠTurner":4740,"FA":4741,"bird":4742,"iro":4743,"ãģ":4744,"ora":4745,"Ġlives":4746,"ĠBh":4747,"ĠHMS":4748,"Ġproved":4749,"akapo":4750,"Ġarrest":4751,"Ġcompound":4752,"Ġperman":4753,"Ġscient":4754,"Ġconsisted":4755,"Ġbroke":4756,"inkel":4757,"Ġpassing":4758,"Ġtitles":4759,"Ġtrial":4760,"Ġbasket":4761,"ĠNicole":4762,"ĠMogadish":4763,"inem":4764,"Ġsens":4765,"edd":4766,"Ġmess":4767,"Ġlb":4768,"ĠMore":4769,"ĠBost":4770,"Ġrat":4771,"ĠInt":4772,"Ġroll":4773,"Ġ56":4774,"Ġappeal":4775,"athus":4776,"orney":4777,"Ġenter":4778,"fully":4779,"Ġ179":4780,"Ġoccasion":4781,"Ġcausing":4782,"Ġsociety":4783,"ĠTownsend":4784,"Ġpiece":4785,"ĠRosebery":4786,"ĠMeyerbe":4787,"VD":4788,"right":4789,"inary":4790,"rect":4791,"Ġsales":4792,"Ġoil":4793,"alle":4794,"Ġhun":4795,"lection":4796,"ĠCra":4797,"ĠBond":4798,"Ġgrew":4799,"ĠFurther":4800,"ĠWay":4801,"ĠLar":4802,"istry":4803,"ricult":4804,"Ġ93":4805,"Ġcolumn":4806,"ĠAmericans":4807,"Ġlanding":4808,"ĠClark":4809,"Ġolder":4810,"Äģd":4811,"Ġindividuals":4812,"Ġillust":4813,"ĠWalpole":4814,"Ġdetermined":4815,"Ġstraight":4816,"Ġweapons":4817,"ĠMogadishu":4818,"ĠMeyerbeer":4819,"Ġut":4820,"Ġtry":4821,"Ġcore":4822,"Ġpan":4823,"Ġdut":4824,"ĠMort":4825,"ĠRaj":4826,"ĠFinkel":4827,"resh":4828,"iana":4829,"Ġunivers":4830,"Ġimages":4831,"ĠYue":4832,"Ġincorpor":4833,"Ġseconds":4834,"aha":4835,"Ġletter":4836,"ĠApple":4837,"ĠFinkelstein":4838,"sy":4839,"inn":4840,"isters":4841,"Ġbank":4842,"ĠTessa":4843,"ĠMax":4844,"ĠHy":4845,"Ġsport":4846,"Ġunknown":4847,"Ġcontain":4848,"Ġadj":4849,"duction":4850,"Ġ97":4851,"Ġconsecutive":4852,"Ġformation":4853,"Ġmonument":4854,"ĠShort":4855,"ĠShiva":4856,"Ġ1985":4857,"Ġ1944":4858,"ancy":4859,"Ġpossibly":4860,"Ġorders":4861,"Ġprojects":4862,"Ġsites":4863,"Ġdoub":4864,"Ġphysical":4865,"Ġkilometres":4866,"Ġschedul":4867,"ĠOttoman":4868,"iti":4869,"Ġfired":4870,"Ġfiction":4871,"Ġhair":4872,"ĠSo":4873,"ĠMD":4874,"ĠHorn":4875,"Ġstop":4876,"Ġ53":4877,"Ġimag":4878,"Ġfollows":4879,"Ġleader":4880,"Ġsuggests":4881,"Ġcriticized":4882,"Ġrapidly":4883,"Ġcerem":4884,"gn":4885,"uff":4886,"Ġfrag":4887,"omy":4888,"ĠHorse":4889,"ĠDVD":4890,"ĠWat":4891,"abama":4892,"ĠAlabama":4893,"Ġworkers":4894,"Ġpoly":4895,"Ġflank":4896,"Ġ120":4897,"Ġclaims":4898,"Ġforeign":4899,"Ġkept":4900,"Ġidentified":4901,"Ġhonor":4902,"ĠPortugues":4903,"ĠMeanwhile":4904,"ĠIllinois":4905,"aith":4906,"uan":4907,"win":4908,"orter":4909,"Ġlaid":4910,"Ġgained":4911,"ĠDue":4912,"unte":4913,"ĠWrit":4914,"aine":4915,"ĠEastern":4916,"ĠOm":4917,"Ġseek":4918,"Ġchief":4919,"Ġrow":4920,"Ġsupply":4921,"Ġkilling":4922,"Ġrequire":4923,"Ġequipment":4924,"Ġmanagement":4925,"Ġprotein":4926,"ĠPhilippines":4927,"ĠBraathens":4928,"ĠPortuguese":4929,"uct":4930,"ãĤ":4931,"Ġahead":4932,"Ġwild":4933,"ĠTru":4934,"ĠBul":4935,"ĠBBC":4936,"antly":4937,"gend":4938,"Ġattend":4939,"Ġacad":4940,"Ġentrance":4941,"Ġ1964":4942,"Ġtemple":4943,"Ġbehav":4944,"fficient":4945,"ĠBackground":4946,"Ġdisease":4947,"bitt":4948,"Ġtim":4949,"Ġsought":4950,"ĠTim":4951,"Ġreaching":4952,"Ġhere":4953,"ĠRet":4954,"ĠGood":4955,"ighth":4956,"ĠStone":4957,"Ġyellow":4958,"Ġadvert":4959,"Ġenergy":4960,"ĠLeg":4961,"ĠBridge":4962,"ĠAssembly":4963,"Ġwalls":4964,"Ġsustained":4965,"born":4966,"more":4967,"Ġsand":4968,"Ġwor":4969,"Ġfought":4970,"ishes":4971,"Ġhors":4972,"ĠTint":4973,"adel":4974,"ĠDen":4975,"ĠFey":4976,"ĠGre":4977,"Ġspirit":4978,"ella":4979,"Ġ54":4980,"Ġ57":4981,"Ġ62":4982,"Ġweight":4983,"Ġnewly":4984,"Ġcharge":4985,"Ġlandfall":4986,"Ġgrass":4987,"Ġdebuted":4988,"arrison":4989,"ushing":4990,"Ġpieces":4991,"Ġenvironment":4992,"Ġtarget":4993,"Ġconfirmed":4994,"eg":4995,"Ġwars":4996,"asure":4997,"Ġmaster":4998,"ĠSat":4999,"ilies":5000,"Ġload":5001,"ĠMend":5002,"ĠFox":5003,"ĠLl":5004,"ĠLord":5005,"ĠEnd":5006,"ĠKar":5007,"Ġchosen":5008,"Ġexec":5009,"Ġspot":5010,"Ġsports":5011,"ĠVan":5012,"outs":5013,"Ġmuseum":5014,"Ġemperor":5015,"Ġ1987":5016,"Ġsimply":5017,"Ġwinter":5018,"ĠReception":5019,"Ġreference":5020,"Ġelim":5021,"Ġauthority":5022,"Ġpitched":5023,"Ġpromoted":5024,"Ġletters":5025,"Ġmeasure":5026,"ĠOlympic":5027,"Ġmoment":5028,"Ġdismiss":5029,"onymous":5030,"iate":5031,"mission":5032,"Ġrom":5033,"Ġtact":5034,"Ġmob":5035,"Ġdiam":5036,"ĠSub":5037,"ador":5038,"ĠPublic":5039,"Ġheight":5040,"Ġneut":5041,"Ġ95":5042,"Ġregions":5043,"Ġalbums":5044,"ĠUSA":5045,"Ġreturning":5046,"Ġpasses":5047,"Ġadvanced":5048,"ĠProv":5049,"Ġtwice":5050,"Ġcases":5051,"Ġfunction":5052,"Ġcondition":5053,"Ġburied":5054,"ĠValley":5055,"Ġgranted":5056,"Ġdomestic":5057,"aud":5058,"lings":5059,"uge":5060,"Ġtun":5061,"inet":5062,"Ġsay":5063,"Ġwave":5064,"ĠSarn":5065,"ĠMel":5066,"utenant":5067,"ĠEach":5068,"ĠZhou":5069,"ertain":5070,"ĠIndust":5071,"Ġbrigade":5072,"helm":5073,"heless":5074,"Ġvisited":5075,"Ġplanet":5076,"Ġfreeway":5077,"Ġseems":5078,"Ġinjury":5079,"Ġnominated":5080,"Ġdropped":5081,"Ġeconomic":5082,"Ġdocument":5083,"Ġplatform":5084,"ĠBoston":5085,"ef":5086,"iot":5087,"ya":5088,"rete":5089,"Ġsail":5090,"ĠAD":5091,"ental":5092,"ĠRos":5093,"ĠRome":5094,"ĠFre":5095,"ulate":5096,"ĠEven":5097,"Ġridge":5098,"Ġsend":5099,"ĠUN":5100,"Ġcontaining":5101,"ĠYank":5102,"Ġ600":5103,"Ġremix":5104,"Ġcolor":5105,"Ġtherefore":5106,"azz":5107,"Ġ1984":5108,"Ġstudent":5109,"Ġ1972":5110,"Ġdeliver":5111,"Ġpitcher":5112,"ĠMountain":5113,"urban":5114,"Ġgrowing":5115,"auty":5116,"Ġpoetry":5117,"Ġscholars":5118,"ĠForest":5119,"ĠTintin":5120,"Ã¨":5121,"Ġfear":5122,"Ġfix":5123,"Ġmort":5124,"ola":5125,"ĠNight":5126,"ĠLew":5127,"ĠGra":5128,"ĠGreek":5129,"ocated":5130,"Ġshare":5131,"Ġkg":5132,"ĠOnly":5133,"Ġweather":5134,"Ġactors":5135,"Ġdepth":5136,"Ġ1947":5137,"Ġresults":5138,"ĠBefore":5139,"Ġspeak":5140,"Ġmounted":5141,"Ġmaintained":5142,"Ġflying":5143,"ĠVaranas":5144,"Ġnecessary":5145,"ĠCeres":5146,"Ġmultiple":5147,"ĠAddition":5148,"ĠVaranasi":5149,"de":5150,"mosp":5151,"Ġhor":5152,"olved":5153,"ivity":5154,"ayer":5155,"resp":5156,"ovic":5157,"ipl":5158,"Ġcontent":5159,"Ġserve":5160,"ĠAsia":5161,"Ġfilmed":5162,"Ġopin":5163,"Ġstarts":5164,"Ġstanding":5165,"Ġhistorian":5166,"ĠEva":5167,"Ġlooking":5168,"Ġcouncil":5169,"Ġknowledge":5170,"Ġcurrently":5171,"ĠOdaen":5172,"Ġlabel":5173,"ĠNesbitt":5174,"ĠArgent":5175,"ao":5176,"bl":5177,"Ġbul":5178,"Ġboy":5179,"Ġpict":5180,"ĠMur":5181,"thur":5182,"Ġven":5183,"alls":5184,"ĠUs":5185,"Ġcompr":5186,"Ġ61":5187,"ĠAnth":5188,"Ġexped":5189,"Ġbelong":5190,"Ġguest":5191,"ĠDevelop":5192,"Ġphil":5193,"Ġboat":5194,"ĠTeam":5195,"ĠAmong":5196,"ĠWilliams":5197,"Ġreligion":5198,"Ġvocal":5199,"Ġproblem":5200,"Ġargued":5201,"ĠTorres":5202,"Ġindependent":5203,"Ġcontrolled":5204,"Ġversions":5205,"Ġwebsite":5206,"ĠOdaenathus":5207,"Mont":5208,"TC":5209,"Ġtank":5210,"Ġtanks":5211,"ider":5212,"ĠDream":5213,"ĠGord":5214,"ĠJup":5215,"ĠJourn":5216,"Ġspect":5217,"Ġ72":5218,"Ġassass":5219,"Ġ1989":5220,"Ġ1969":5221,"Ġsupporting":5222,"Ġelement":5223,"Ġsettlement":5224,"ĠDuMont":5225,"Ġanimal":5226,"ĠOffice":5227,"Ġrejected":5228,"ĠSarnia":5229,"ridge":5230,"iner":5231,"edar":5232,"Ġfolk":5233,"Ġham":5234,"enture":5235,"Ġnest":5236,"ĠIron":5237,"iments":5238,"ĠFant":5239,"ĠWork":5240,"ĠGulf":5241,"ĠJon":5242,"umes":5243,"agement":5244,"Ġseg":5245,"iance":5246,"ĠChild":5247,"Ġarrang":5248,"Ġnews":5249,"Ġretired":5250,"Ġwrites":5251,"ĠGuard":5252,"Ġexplained":5253,"Ġmedical":5254,"ĠPerÃ³n":5255,"Ġavoid":5256,"ĠExp":5257,"ĠPalest":5258,"Ġcollabor":5259,"ĠSlam":5260,"ĠPrem":5261,"Ġincreasingly":5262,"Ġtemperature":5263,"Ġfle":5264,"Ġbit":5265,"ĠBir":5266,"oted":5267,"ĠDest":5268,"ĠEll":5269,"Ġrival":5270,"ĠKey":5271,"Ġoverl":5272,"ĠOnce":5273,"Ġ96":5274,"insula":5275,"ĠConference":5276,"ĠConstant":5277,"ĠCarl":5278,"Ġ130":5279,"Ġreflect":5280,"ĠAirport":5281,"ĠMinister":5282,"Ġstrik":5283,"ĠEntertain":5284,"ĠOxford":5285,"ĠThunderbird":5286,"ographer":5287,"pass":5288,"ĠSR":5289,"ĠBan":5290,"Ġge":5291,"Ġrisk":5292,"Ġkakapo":5293,"Ġunique":5294,"Ġ73":5295,"Ġbattalions":5296,"Ġguard":5297,"ĠCongress":5298,"haps":5299,"Ġcadmium":5300,"arian":5301,"stream":5302,"add":5303,"ĠMod":5304,"imore":5305,"ote":5306,"ĠDar":5307,"ĠFA":5308,"Ġring":5309,"Ġresemb":5310,"Ġperfect":5311,"Ġscience":5312,"ĠAlbum":5313,"ĠItaly":5314,"awa":5315,"Ġconsp":5316,"Ġ81":5317,"Ġflag":5318,"Ġsetting":5319,"Ġsingles":5320,"ĠAllied":5321,"Ġprotest":5322,"ancing":5323,"Ġbelieve":5324,"ĠSystem":5325,"Ġconnected":5326,"Ġgrowth":5327,"Ġemployed":5328,"Ġsynt":5329,"ĠScottish":5330,"Ġfailure":5331,"Ġaccompan":5332,"Ġpolicy":5333,"ĠBowl":5334,"Ġweakened":5335,"Ġbasketball":5336,"Ġscheduled":5337,"ĠJupiter":5338,"cel":5339,"met":5340,"och":5341,"Ġáĥ":5342,"heastern":5343,"inity":5344,"Ġfung":5345,"Ġbass":5346,"ĠCa":5347,"ĠCole":5348,"ĠRog":5349,"ĠDom":5350,"ĠDutch":5351,"ĠNorm":5352,"oren":5353,"ĠVen":5354,"Ġherself":5355,"Ġcolony":5356,"Ġends":5357,"Ġsubmar":5358,"Ġincident":5359,"Ġmatter":5360,"Ġfamilies":5361,"Ġcampus":5362,"Ġideas":5363,"Ġentirely":5364,"Ġsubsequent":5365,"ĠHelms":5366,"ĠFamily":5367,"ĠOmaha":5368,"Station":5369,"bo":5370,"eed":5371,"onent":5372,"Ġcust":5373,"Ġdated":5374,"ĠSpr":5375,"ading":5376,"ĠLis":5377,"ifying":5378,"ĠInstitute":5379,"Ġunf":5380,"Ġcompar":5381,"Ġcontained":5382,"Ġcontributed":5383,"izations":5384,"Ġdescend":5385,"Ġ85":5386,"Ġsinging":5387,"Ġfamous":5388,"Ġbelief":5389,"Ġjoin":5390,"Ġsolo":5391,"Ġvalue":5392,"Ġcreating":5393,"Ġwooden":5394,"ĠPlayStation":5395,"ĠWilhelm":5396,"Ġparticipated":5397,"ĠVictoria":5398,"Ġsenior":5399,"oe":5400,"render":5401,"Ġwitness":5402,"itable":5403,"ĠAp":5404,"ĠSky":5405,"aming":5406,"ĠBas":5407,"ĠBishop":5408,"ĠDis":5409,"ĠLine":5410,"Ġanalysis":5411,"Ġrise":5412,"Ġchose":5413,"Ġchair":5414,"ĠStep":5415,"Ġ700":5416,"ocked":5417,"Ġ1981":5418,"Ġopposed":5419,"Ġsignificantly":5420,"Ġliterature":5421,"ĠJeff":5422,"Ġpremi":5423,"Ġbattery":5424,"Ġprepared":5425,"ĠAdmiral":5426,"Ġseventh":5427,"ĠInnis":5428,"Ġbottom":5429,"cers":5430,"eer":5431,"kare":5432,"load":5433,"upp":5434,"rot":5435,"ĠAst":5436,"ĠMong":5437,"ĠMike":5438,"uting":5439,"ĠPress":5440,"ĠRy":5441,"ĠGard":5442,"ĠStan":5443,"Ġunus":5444,"phia":5445,"ressive":5446,"Ġtemnospondyl":5447,"ĠImag":5448,"ĠMcCall":5449,"Ġanimals":5450,"clusion":5451,"Ġfrequently":5452,"Ġsoutheast":5453,"adelphia":5454,"ĠGordon":5455,"MA":5456,"sw":5457,"Ã¶":5458,"Ġaired":5459,"Ġawards":5460,"Ġswe":5461,"stead":5462,"ĠBart":5463,"ĠHart":5464,"ĠRif":5465,"ĠNever":5466,"Ġshaped":5467,"ips":5468,"usted":5469,"ĠChap":5470,"ĠVill":5471,"Ġroof":5472,"issance":5473,"Ġ800":5474,"Ġdefin":5475,"ashion":5476,"Ġdrive":5477,"Ġroads":5478,"Ġcommonly":5479,"Ġpopularity":5480,"ĠLester":5481,"Ġcollege":5482,"Ġlosses":5483,"Ġoccupied":5484,"ĠCardiff":5485,"Ġinnings":5486,"Ġunsu":5487,"ĠBaltimore":5488,"atus":5489,"Ġbud":5490,"Ġmist":5491,"Ġdress":5492,"ĠERA":5493,"aph":5494,"ansas":5495,"Ġtrav":5496,"ulls":5497,"ructure":5498,"Ġ1918":5499,"Ġsouthwest":5500,"Ġsystems":5501,"Ġparalle":5502,"Ġcriticism":5503,"Ġsuccessfully":5504,"ĠMorr":5505,"Ġrecognized":5506,"ĠEgyptian":5507,"Ġproperty":5508,"Ġexperienced":5509,"Ġsupplies":5510,"iable":5511,"jo":5512,"Äĩ":5513,"erts":5514,"Ġfresh":5515,"isers":5516,"Ġreform":5517,"ĠSund":5518,"ĠMov":5519,"lywood":5520,"ety":5521,"ĠRih":5522,"rait":5523,"Ġatmosp":5524,"ĠGi":5525,"ersey":5526,"Ġvirt":5527,"Ġrating":5528,"Ġspring":5529,"Ġagricult":5530,"Ġ98":5531,"Ġremn":5532,"Ġsevere":5533,"Ġminer":5534,"Ġpublication":5535,"Ġserving":5536,"Ġdeaths":5537,"Ġpainting":5538,"ĠImperial":5539,"Ġdeclined":5540,"Ġfacilities":5541,"ĠHamels":5542,"Ġbriefly":5543,"ĠDemocr":5544,"Ġpurchased":5545,"ĠRihanna":5546,"hat":5547,"rig":5548,"set":5549,"zo":5550,"Ġtheory":5551,"Ġselling":5552,"ato":5553,"Ġfict":5554,"Ġpet":5555,"Ġdim":5556,"Ġdates":5557,"ĠAM":5558,"Ġec":5559,"ĠMen":5560,"ĠMas":5561,"lys":5562,"Ġbey":5563,"unicip":5564,"ĠFive":5565,"Ġcomes":5566,"Ġchoice":5567,"Ġ59":5568,"Ġrecently":5569,"ĠAlso":5570,"aret":5571,"wealth":5572,"Ġteacher":5573,"Ġ77":5574,"Ġsecondary":5575,"Ġ1943":5576,"Ġdescription":5577,"Ġ1968":5578,"Ġextensive":5579,"Ġoccas":5580,"Ġeditor":5581,"Ġeffective":5582,"ĠMounted":5583,"Ġpoems":5584,"Ġtechnique":5585,"ĠCoast":5586,"ĠSwed":5587,"ĠPeople":5588,"Ġnegot":5589,"Ġslowly":5590,"Ġregarded":5591,"ĠMartin":5592,"ĠDaniel":5593,"ĠCroatia":5594,"ĠRAAF":5595,"ĠDjed":5596,"ĠRevolution":5597,"ĠBetween":5598,"ibrary":5599,"ĠLieutenant":5600,"ĠEntertainment":5601,"han":5602,"Ġtheat":5603,"Ġcited":5604,"Ġfan":5605,"ano":5606,"iced":5607,"Ġmic":5608,"Ġgas":5609,"Ġgives":5610,"Ġstations":5611,"Ġstages":5612,"ĠRail":5613,"ules":5614,"Ġnotable":5615,"Ġarms":5616,"ube":5617,"Ġ66":5618,"Ġ82":5619,"Ġcollected":5620,"Ġexpanded":5621,"Ġcreation":5622,"Ġ1965":5623,"espread":5624,"Ġturns":5625,"Ġarmor":5626,"Ġfarm":5627,"Ġsteel":5628,"ĠPhiladelphia":5629,"ĠMcCart":5630,"Ġdegree":5631,"Ġaspects":5632,"ĠToday":5633,"ĠSummer":5634,"Ġbeyond":5635,"ĠDjedkare":5636,"iences":5637,"rine":5638,"ycl":5639,"Ġcricket":5640,"Ġfur":5641,"Ġfox":5642,"roph":5643,"ĠHon":5644,"ĠHib":5645,"ĠDun":5646,"Ġisol":5647,"ĠNative":5648,"Ġru":5649,"Ġexecutive":5650,"Ġ71":5651,"Ġfinals":5652,"Ġsimple":5653,"Ġ1939":5654,"Ġprotection":5655,"Ġworldwide":5656,"Ġengaged":5657,"Ġcells":5658,"Ġsemi":5659,"Ġsilver":5660,"ias":5661,"uate":5662,"Ġtall":5663,"inate":5664,"Ġbid":5665,"Ġpul":5666,"Ġdaily":5667,"Ġeth":5668,"ĠBru":5669,"Ġgain":5670,"idges":5671,"ĠLuc":5672,"ager":5673,"Ġrac":5674,"Ġseat":5675,"Ġcoal":5676,"ĠDev":5677,"Ġphase":5678,"ĠAdv":5679,"Ġtrip":5680,"Ġallows":5681,"Ġoldest":5682,"Ġarrival":5683,"Ġcrossing":5684,"Ġpromotion":5685,"ĠGovernor":5686,"white":5687,"Ġtreatment":5688,"Ġbillion":5689,"Ġclean":5690,"ĠArea":5691,"Ġresponded":5692,"Ġunsuccess":5693,"ca":5694,"ez":5695,"fort":5696,"ini":5697,"reets":5698,"itan":5699,"Ġmales":5700,"Ġdrop":5701,"standing":5702,"ĠCD":5703,"ĠCre":5704,"ĠCle":5705,"ĠMic":5706,"ĠMot":5707,"ĠTheatre":5708,"ĠBand":5709,"ĠId":5710,"eton":5711,"imet":5712,"Ġheard":5713,"ĠDown":5714,"rak":5715,"ĠLiber":5716,"aved":5717,"ĠOh":5718,"illo":5719,"ogen":5720,"ieval":5721,"Ġdecades":5722,"iversary":5723,"Ġdistrict":5724,"Ġ1914":5725,"Ġprotect":5726,"Ġparliament":5727,"ĠSteve":5728,"Ġdelay":5729,"Ġfinds":5730,"graded":5731,"Ġimproved":5732,"Ġroughly":5733,"ĠWWE":5734,"Ġmolec":5735,"ĠApplewhite":5736,"Ġhorses":5737,"Ġphilos":5738,"hi":5739,"mit":5740,"Ġi":5741,"rel":5742,"itors":5743,"ĠAthlet":5744,"ĠSAF":5745,"Ġeas":5746,"lying":5747,"ivered":5748,"ĠFu":5749,"ĠFestival":5750,"ĠNBA":5751,"ĠGreg":5752,"ĠJur":5753,"ĠJud":5754,"Ġ94":5755,"Ġfilming":5756,"Ġactress":5757,"Ġaccident":5758,"Ġ1946":5759,"Ġdeveloping":5760,"Ġheaded":5761,"Ġrestaur":5762,"ĠAndy":5763,"Ġplanning":5764,"Ġfinding":5765,"Ġfocused":5766,"ĠBelg":5767,"Ġgradually":5768,"Ġconverted":5769,"ĠThroughout":5770,"ĠCommonwealth":5771,"ĠDevelopment":5772,"Ġbudget":5773,"ĠSAFE":5774,"OT":5775,"rum":5776,"tav":5777,"Ġfat":5778,"arp":5779,"rog":5780,"Ġmo":5781,"Ġdance":5782,"ĠTen":5783,"ĠHung":5784,"ĠRel":5785,"ĠRod":5786,"ĠDod":5787,"ĠDomin":5788,"ĠLu":5789,"ĠObs":5790,"aka":5791,"ĠVideo":5792,"Ġarc":5793,"Ġintelligence":5794,"assy":5795,"ĠAlf":5796,"Ġcenturies":5797,"Ġcool":5798,"Ġ110":5799,"Ġ177":5800,"Ġ1971":5801,"Ġgovernor":5802,"ĠProduction":5803,"Ġclassified":5804,"Ġturning":5805,"Ġexplos":5806,"Ġsteam":5807,"Ġwidespread":5808,"ÃŃa":5809,"Ġvolunte":5810,"Ġexisting":5811,"Ġcommissioned":5812,"Ġstopped":5813,"Le":5814,"lines":5815,"Ġtail":5816,"Ġaim":5817,"inj":5818,"eratops":5819,"Ġouter":5820,"ati":5821,"esh":5822,"ĠCold":5823,"Ġnor":5824,"urches":5825,"Ġstreet":5826,"ĠWind":5827,"anda":5828,"ava":5829,"ifically":5830,"Ġarran":5831,"phib":5832,"Ġprefer":5833,"Ġneither":5834,"icted":5835,"Ġproducers":5836,"Ġreceiving":5837,"Ġconcrete":5838,"ĠBroad":5839,"Ġdelivered":5840,"ĠBarb":5841,"Ġeyes":5842,"Ġbegun":5843,"Ġburns":5844,"Ġcolonial":5845,"SB":5846,"cop":5847,"cription":5848,"ym":5849,"Ġton":5850,"Ġsave":5851,"Ġcraft":5852,"Ġdial":5853,"Ġegg":5854,"Ġstret":5855,"rier":5856,"Ġdeities":5857,"Ġnote":5858,"Ġcontrib":5859,"Ġoverse":5860,"ropol":5861,"Ġundert":5862,"Ġsole":5863,"ifications":5864,"Ġ1975":5865,"ĠWhat":5866,"ĠBrig":5867,"Ġfinish":5868,"ĠProject":5869,"Ġcapable":5870,"Ġbreeding":5871,"ĠBarrow":5872,"Ġfemales":5873,"Ġvolume":5874,"Ġnegative":5875,"Ġdominated":5876,"ĠUpon":5877,"Ġsculpture":5878,"ĠLewis":5879,"iations":5880,"yles":5881,"Ġice":5882,"Ġfellow":5883,"ĠMu":5884,"ĠMir":5885,"Ġgreen":5886,"ĠRow":5887,"ĠNathan":5888,"ĠJac":5889,"Ġpros":5890,"Ġexclus":5891,"ĠUB":5892,"Ġresident":5893,"Ġreserv":5894,"weight":5895,"Ġsubt":5896,"Ġexpress":5897,"Ġdistingu":5898,"Ġanything":5899,"Ġlasted":5900,"Ġvisual":5901,"Ġdrawn":5902,"Ġintroduction":5903,"ĠKeats":5904,"ĠMagazine":5905,"Ġescape":5906,"Ġindependence":5907,"ĠCambod":5908,"Ġvehicles":5909,"Ġaccompanied":5910,"kins":5911,"Ã¤":5912,"Ġtend":5913,"Ġtrying":5914,"rell":5915,"ingly":5916,"iling":5917,"Ġneck":5918,"ĠBase":5919,"ĠBoard":5920,"ĠHor":5921,"ĠRon":5922,"ĠFriend":5923,"andy":5924,"Ġrit":5925,"ections":5926,"sea":5927,"Ġcomputer":5928,"rence":5929,"ropri":5930,"Ġdecre":5931,"Ġcharges":5932,"amese":5933,"Ġadding":5934,"Ġ160":5935,"ĠConst":5936,"restling":5937,"Ġagreement":5938,"Ġholding":5939,"ĠCardinal":5940,"Ġadapted":5941,"Ġnormal":5942,"ĠDougl":5943,"Ġpaintings":5944,"Ġtree":5945,"erc":5946,"Ġfuel":5947,"Ġbought":5948,"Ġmig":5949,"Ġdata":5950,"Ġhired":5951,"ĠCook":5952,"utation":5953,"ĠPers":5954,"ewhere":5955,"essed":5956,"Ġnothing":5957,"Ġrose":5958,"angers":5959,"ilding":5960,"ĠMario":5961,"Ġ1966":5962,"Ġopera":5963,"Ġstrateg":5964,"Ġserves":5965,"Ġpossibility":5966,"Ġhumans":5967,"Ġviewed":5968,"ographic":5969,"Ġcombination":5970,"Ġsurviv":5971,"Ġsurvey":5972,"Ġcrossed":5973,"Ġencoura":5974,"Ġrebu":5975,"Ġviolence":5976,"Ġtells":5977,"Ġfictional":5978,"come":5979,"Ġtrou":5980,"Ġfaith":5981,"isy":5982,"Ġlabor":5983,"ĠHan":5984,"ĠHard":5985,"ĠWall":5986,"ĠLy":5987,"ĠLow":5988,"istan":5989,"ighter":5990,"ĠChart":5991,"Ġcomposition":5992,"Ġ69":5993,"Ġ87":5994,"icks":5995,"Ġunderground":5996,"Ġacres":5997,"Ġtrain":5998,"Ġ164":5999,"Ġ1945":6000,"Ġdisturb":6001,"ĠColor":6002,"ĠJuan":6003,"Ġ1916":6004,"Ġcaptain":6005,"ĠAbu":6006,"Ġimportance":6007,"Ġsurvived":6008,"Ġglob":6009,"ĠCrown":6010,"Ġclosely":6011,"Ġexistence":6012,"borough":6013,"Ġreasons":6014,"Ġcalc":6015,"ĠVietnamese":6016,"Ġrif":6017,"Ġlearned":6018,"ĠColonel":6019,"respond":6020,"aver":6021,"aire":6022,"then":6023,"Ġcem":6024,"ĠSus":6025,"Ġthing":6026,"Ġstream":6027,"ĠNH":6028,"ĠLate":6029,"opher":6030,"abil":6031,"rupt":6032,"Ġresist":6033,"Ġperhaps":6034,"Ġconsists":6035,"Ġdecline":6036,"ĠMarc":6037,"Ġsubstant":6038,"Ġ1973":6039,"Ġ1967":6040,"Ġcarry":6041,"Ġinstruct":6042,"Ġprovides":6043,"Ġowners":6044,"Ġ1915":6045,"Ġinvolvement":6046,"ĠSongs":6047,"Ġcastle":6048,"ĠIslands":6049,"ĠWalter":6050,"Ġsections":6051,"Ġintersection":6052,"Ġ#":6053,"Ġaer":6054,"erted":6055,"Ġwins":6056,"Ġopt":6057,"ĠAri":6058,"ĠSound":6059,"ĠCub":6060,"ĠBor":6061,"ĠIG":6062,"iration":6063,"irls":6064,"ĠDet":6065,"uli":6066,"illing":6067,"ĠInstead":6068,"ĠKersh":6069,"Ġchorus":6070,"ĠUTC":6071,"Ġroutes":6072,"Ġagent":6073,"Ġdecor":6074,"ĠArthur":6075,"Ġdefined":6076,"Ġsubs":6077,"ĠLee":6078,"Ġmush":6079,"ĠJoe":6080,"Ġdoor":6081,"Ġemp":6082,"Ġperforming":6083,"Ġ1974":6084,"Ġdidn":6085,"Ġairport":6086,"ĠCommittee":6087,"Ġdetails":6088,"ĠPho":6089,"Ġcommanded":6090,"Ġstoryline":6091,"Ġprograms":6092,"Ġcougar":6093,"Ġhousehold":6094,"Ġaccompl":6095,"Ġmissing":6096,"ĠCommander":6097,"ĠStudios":6098,"Ġshooting":6099,"Ġnucleus":6100,"Ġenjoyed":6101,"sych":6102,"chen":6103,"hm":6104,"Ġster":6105,"arm":6106,"Ġbats":6107,"Ġhill":6108,"ĠType":6109,"ĠRay":6110,"eman":6111,"Ġwhy":6112,"ĠNap":6113,"Ġitems":6114,"sey":6115,"Ġenl":6116,"Ġ63":6117,"ooking":6118,"Ġtransform":6119,"Ġlongest":6120,"Ġ1978":6121,"Ġlanded":6122,"Ġ1952":6123,"Ġ1919":6124,"Ġevening":6125,"Ġsurviving":6126,"Ġlaws":6127,"Ġmassive":6128,"ĠBraz":6129,"Ġruled":6130,"Ġarchaeological":6131,"hetic":6132,"onnaissance":6133,"Ġconsisting":6134,"Ġdrama":6135,"Ġpurpose":6136,"ĠFrancisc":6137,"Ġathletes":6138,"Ġrepeated":6139,"ĠMendes":6140,"Ġtemnospondyls":6141,"ĠDouglas":6142,"ĠKershaw":6143,"AA":6144,"war":6145,"Å¡":6146,"Ġsle":6147,"Ġsom":6148,"Ġways":6149,"itiz":6150,"Ġcaught":6151,"Ġfirm":6152,"Ġfashion":6153,"ĠSnow":6154,"acity":6155,"ĠHaven":6156,"ĠRidge":6157,"ĠWin":6158,"ĠKenn":6159,"ĠStadium":6160,"Ġleaves":6161,"Ġattached":6162,"Ġdecade":6163,"ĠMarines":6164,"Ġinterior":6165,"Ġinterchange":6166,"Ġcalls":6167,"Ġ1976":6168,"Ġ250":6169,"Ġviews":6170,"Ġpropos":6171,"Ġislands":6172,"Ġcorrespond":6173,"Ġearthqu":6174,"Ġdeployed":6175,"Ġsynthes":6176,"gers":6177,"vis":6178,"Ġtomb":6179,"Ġmemorial":6180,"Ġdrew":6181,"ĠAer":6182,"entially":6183,"Ġlane":6184,"ĠBaby":6185,"imeter":6186,"Ġbeach":6187,"ĠRol":6188,"ĠRick":6189,"uma":6190,"iful":6191,"Ġcontest":6192,"Ġassemb":6193,"Ġ175":6194,"Ġmoder":6195,"Ġsentence":6196,"Ġmyth":6197,"Ġsettlers":6198,"Ġrenamed":6199,"Ġpenal":6200,"Ġsector":6201,"ĠSurv":6202,"Ġpilot":6203,"ĠSpecial":6204,"Ġopportunity":6205,"Ġdissipated":6206,"ĠTurkish":6207,"Ġpermanent":6208,"Äģda":6209,"ĠShortly":6210,"ĠThunderbirds":6211,"lik":6212,"à¸":6213,"Ġcateg":6214,"icop":6215,"ĠChel":6216,"amin":6217,"etery":6218,"iminal":6219,"ĠFree":6220,"ĠNick":6221,"iston":6222,"Ġrural":6223,"Ġselect":6224,"apes":6225,"iege":6226,"Ġreconst":6227,"achus":6228,"Ġ68":6229,"Ġsecure":6230,"ĠMarsh":6231,"ĠArts":6232,"Ġmoves":6233,"hess":6234,"Ġpopulations":6235,"Ġ1979":6236,"ĠConn":6237,"ĠSpace":6238,"Ġ1917":6239,"Ġ1936":6240,"Ġopposition":6241,"Ġtowns":6242,"ĠBoise":6243,"Ġdigital":6244,"Ġsymbol":6245,"edding":6246,"ĠPremier":6247,"Ġconspir":6248,"ii":6249,"la":6250,"yson":6251,"eda":6252,"Ġfilled":6253,"Ġha":6254,"Ġones":6255,"ĠBern":6256,"otes":6257,"Ġstore":6258,"ĠRox":6259,"ĠLife":6260,"osa":6261,"Ġsufficient":6262,"Ġcho":6263,"Ġchurches":6264,"elli":6265,"ĠChief":6266,"ĠAlbert":6267,"Ġimpr":6268,"Ġcommittee":6269,"iously":6270,"Ġknew":6271,"ĠLeon":6272,"Ġsupposed":6273,"Ġlocations":6274,"Ġinvited":6275,"Ġexpans":6276,"Ġproviding":6277,"Ġprotagon":6278,"Ġconvection":6279,"Ġskin":6280,"Ġassociation":6281,"Ġmissions":6282,"ĠEmperor":6283,"ĠGolden":6284,"Ġestablishment":6285,"Ġjourney":6286,"Ġderived":6287,"Ġadministration":6288,"Ġbenef":6289,"ĠCrazy":6290,"ĠAdditionally":6291,"RE":6292,"rist":6293,"Ġsun":6294,"Ġsort":6295,"Ġbranch":6296,"Ġdry":6297,"elve":6298,"uration":6299,"ĠBly":6300,"ĠBeck":6301,"iders":6302,"usal":6303,"Ġconference":6304,"ĠGab":6305,"Ġshared":6306,"Ġyouth":6307,"okes":6308,"ĠYe":6309,"ĠAnton":6310,"Ġknots":6311,"ublin":6312,"ĠScience":6313,"Ġsurrender":6314,"Ġ1982":6315,"Ġ1948":6316,"Ġarticle":6317,"Ġobt":6318,"ĠIsab":6319,"Ġfinishing":6320,"ipping":6321,"Ġreplace":6322,"Ġreplacement":6323,"Ġgreatly":6324,"ĠWithin":6325,"ĠAbout":6326,"Ġspeaking":6327,"Ġclubs":6328,"idden":6329,"Ġcoastal":6330,"Ġregarding":6331,"ĠHollywood":6332,"Ġeconomy":6333,"Ġdepicted":6334,"Ġapplied":6335,"Ġdynasty":6336,"ĠBono":6337,"Ġsucceeded":6338,"ĠDirector":6339,"Ġhydro":6340,"Ġign":6341,"Ġtied":6342,"Ġtable":6343,"err":6344,"Ġsan":6345,"Ġfer":6346,"Ġfil":6347,"Ġbat":6348,"Ġdating":6349,"ĠAge":6350,"ĠSor":6351,"ĠSanta":6352,"ilton":6353,"stances":6354,"Ġla":6355,"acon":6356,"ĠMid":6357,"ĠMTV":6358,"ĠJay":6359,"ĠJones":6360,"ĠOffic":6361,"Ġspons":6362,"apers":6363,"Ġjoint":6364,"aws":6365,"Ġdeck":6366,"Ġvert":6367,"Ġproducing":6368,"Ġsoft":6369,"Ġsuccessor":6370,"Ġantimony":6371,"Ġhistoric":6372,"regon":6373,"Ġglass":6374,"Ġcertified":6375,"chers":6376,"Ġzone":6377,"Ġmotion":6378,"Ġremainder":6379,"ĠMilitary":6380,"ĠRadio":6381,"Ġconsiderable":6382,"Ġacquired":6383,"ĠAttorney":6384,"ĠDoctor":6385,"ĠColorado":6386,"ĠBrazil":6387,"AG":6388,"ture":6389,"Ġurban":6390,"Ġcrop":6391,"Ġhyp":6392,"ĠSi":6393,"eld":6394,"omp":6395,"ĠIra":6396,"ĠDublin":6397,"ĠJain":6398,"agre":6399,"ĠOregon":6400,"ĠKang":6401,"Ġchampion":6402,"Ġexact":6403,"pty":6404,"ĠVol":6405,"assador":6406,"mann":6407,"ĠMaria":6408,"Ġunderw":6409,"Ġflu":6410,"Ġentering":6411,"anny":6412,"Ġreceive":6413,"Ġ1963":6414,"Ġhelicop":6415,"Ġcourts":6416,"engers":6417,"Ġhistorians":6418,"ĠSimilar":6419,"Ġfavour":6420,"ĠButler":6421,"Ġbaseball":6422,"Ġassistance":6423,"Ġchapel":6424,"Ġconcerns":6425,"Ã¡nh":6426,"ĠCharlie":6427,"ĠAnthony":6428,"ĠSunday":6429,"ĠIGN":6430,"ĠBlythe":6431,"SA":6432,"eor":6433,"host":6434,"Ġaware":6435,"Ġmut":6436,"ĠCop":6437,"ĠML":6438,"ĠBert":6439,"ĠBrian":6440,"ĠIgu":6441,"idae":6442,"ĠHin":6443,"Ġstem":6444,"ĠFire":6445,"opes":6446,"ichol":6447,"Ġchance":6448,"Ġunp":6449,"Ġarts":6450,"Ġ58":6451,"Ġcommit":6452,"Ġ78":6453,"Ġshel":6454,"attle":6455,"Ġtruth":6456,"Ġprotected":6457,"Ġiniti":6458,"Ġspeech":6459,"imental":6460,"sequently":6461,"ĠEvita":6462,"Ġtechnical":6463,"Ġtechnology":6464,"Ġgetting":6465,"Ġ1890":6466,"Ġfunding":6467,"ĠHoward":6468,"ĠCroatian":6469,"ranean":6470,"ba":6471,"break":6472,"die":6473,"theless":6474,"rets":6475,"Ġod":6476,"itled":6477,"Ġcold":6478,"Ġdru":6479,"ĠHell":6480,"ĠLenn":6481,"ĠGram":6482,"ĠJes":6483,"Ġcomic":6484,"Ġvon":6485,"Ġrub":6486,"Ġplum":6487,"Ġlegend":6488,"Ġcloud":6489,"Ġreserve":6490,"Ġrob":6491,"Ġteeth":6492,"Ġ74":6493,"ribed":6494,"Ġflights":6495,"Ġcolour":6496,"Ġverte":6497,"Ġacid":6498,"Ġtransit":6499,"Ġgoes":6500,"Ġattacking":6501,"Ġtries":6502,"Ġauthors":6503,"ĠMacLe":6504,"ĠKhÃ¡nh":6505,"ĠTransport":6506,"ĠJamal":6507,"Ġarranged":6508,"rant":6509,"ĠÎ":6510,"edom":6511,"Ġdog":6512,"entions":6513,"ĠCorn":6514,"Ġlob":6515,"eless":6516,"ĠHit":6517,"ĠPoint":6518,"Ġaltar":6519,"Ġvic":6520,"Ġsud":6521,"pton":6522,"ells":6523,"ĠHeavy":6524,"Ġresour":6525,"ĠAlan":6526,"ibbe":6527,"aware":6528,"Ġ91":6529,"Ġ89":6530,"Ġmeets":6531,"ĠSha":6532,"Ġfoundation":6533,"Ġdowntown":6534,"Ġdownload":6535,"Ġ1953":6536,"Ġcharacteristics":6537,"ĠPhill":6538,"encies":6539,"Ġwatched":6540,"Ġcorrect":6541,"Ġliterary":6542,"Ġdenied":6543,"Ġancest":6544,"Ġcontroversy":6545,"ĠTennyson":6546,"ĠAlexander":6547,"ĠLiu":6548,"ĠFreder":6549,"Ġoccasionally":6550,"Ġopinion":6551,"ĠStephen":6552,"pson":6553,"Ġtyphoon":6554,"Ġcab":6555,"Ġfair":6556,"Ġfiring":6557,"Ġdub":6558,"Ġhat":6559,"ĠTop":6560,"amy":6561,"ĠIV":6562,"ĠHomer":6563,"ĠRun":6564,"Ġcong":6565,"rake":6566,"ĠGA":6567,"agle":6568,"Ġrich":6569,"Ġchannel":6570,"ears":6571,"ĠAli":6572,"ĠMarl":6573,"Ġshowing":6574,"Ġ1913":6575,"Ġcapacity":6576,"Ġtypical":6577,"Ġterminus":6578,"ivalent":6579,"Ġpolitics":6580,"Ġpitch":6581,"Ġvalley":6582,"Ġstrengthen":6583,"Ġchapter":6584,"Ġimmig":6585,"Ġexamples":6586,"Ġdollar":6587,"Ġpowers":6588,"Ġsplit":6589,"borne":6590,"ĠIraq":6591,"nest":6592,"Ġtal":6593,"Ġmine":6594,"ĠAk":6595,"state":6596,"adow":6597,"ĠBi":6598,"ĠWars":6599,"ĠWalk":6600,"osis":6601,"Ġ1900":6602,"agn":6603,"ĠIng":6604,"Ġexerc":6605,"onder":6606,"Ġjack":6607,"Ġcommemor":6608,"Ġdepartment":6609,"Ġreputation":6610,"Ġgeneration":6611,"Ġreferences":6612,"Ġeverything":6613,"Ġfields":6614,"ĠSimon":6615,"ĠSimone":6616,"iece":6617,"Ġfacing":6618,"Ġ1880":6619,"Ġcircum":6620,"Ġlaunch":6621,"Ġresponsibility":6622,"Ġmotor":6623,"Ġmaintain":6624,"Ġextrem":6625,"Ġsafety":6626,"Ġinhabit":6627,"Ġhabitat":6628,"ĠColumbia":6629,"Ġportrayed":6630,"ĠSpring":6631,"ĠIguan":6632,"ban":6633,"min":6634,"oly":6635,"ta":6636,"Ġcorp":6637,"Ġpy":6638,"Ġdin":6639,"Ġhits":6640,"ĠTam":6641,"adal":6642,"ĠRem":6643,"ĠRoy":6644,"ĠLoren":6645,"Ġvary":6646,"ĠInc":6647,"ardo":6648,"Ġnoting":6649,"Ġoffers":6650,"Ġattributed":6651,"Ġgameplay":6652,"Ġretreat":6653,"Ġsomeone":6654,"Ġquite":6655,"Ġspecifically":6656,"Ġaddress":6657,"Ġ176":6658,"ĠCaribbe":6659,"Ġdetail":6660,"Ġcrime":6661,"Ġsolid":6662,"Ġdestroyers":6663,"Ġdiscovery":6664,"Ġrevolution":6665,"Ġindustrial":6666,"Ġembassy":6667,"Ġmeasures":6668,"ĠDepression":6669,"Ġcredited":6670,"Ġrecovered":6671,"Ġthousands":6672,"Ġinstrument":6673,"ĠModern":6674,"ĠMacLeod":6675,"eenth":6676,"iÄĩ":6677,"mod":6678,"Ġsquad":6679,"Ġworth":6680,"Ġcrown":6681,"ĠTs":6682,"ĠTetr":6683,"ĠSav":6684,"ĠSquare":6685,"ĠCas":6686,"Ġlov":6687,"ĠBat":6688,"Ġgross":6689,"ĠHun":6690,"ĠHere":6691,"ussion":6692,"ĠNether":6693,"ĠGil":6694,"estone":6695,"allow":6696,"Ġplants":6697,"ĠUlys":6698,"Ġshut":6699,"ĠStew":6700,"ĠChains":6701,"Ġju":6702,"intend":6703,"Ġwealth":6704,"raltar":6705,"Ġflo":6706,"Ġaccur":6707,"aza":6708,"Ġ1949":6709,"Ġcontinuing":6710,"Ġleads":6711,"Ġcarrying":6712,"Ġoccurs":6713,"Ġ1951":6714,"Ġ1956":6715,"Ġwindow":6716,"ĠBrook":6717,"ĠPerry":6718,"Ġpatron":6719,"Ġcompetitions":6720,"Äģn":6721,"Ġrecognition":6722,"Ġseparated":6723,"going":6724,"Ġdiscussed":6725,"ĠHoly":6726,"Ġvessels":6727,"Ġyounger":6728,"ĠSecretary":6729,"ĠGibraltar":6730,"Ġworst":6731,"unicipal":6732,"ĠCaribbean":6733,"ĠUlysses":6734,"eper":6735,"ients":6736,"know":6737,"ns":6738,"tty":6739,"Ġcard":6740,"Ġfranch":6741,"Ġbal":6742,"Ġinner":6743,"Ġpsych":6744,"ĠAy":6745,"Ġlit":6746,"amber":6747,"ĠMaster":6748,"ĠHospital":6749,"ĠDaily":6750,"ceived":6751,"ĠJersey":6752,"agu":6753,"agues":6754,"avia":6755,"ĠEdu":6756,"Ġshore":6757,"Ġcommitted":6758,"Ġ79":6759,"Ġpool":6760,"Ġflat":6761,"Ġ123":6762,"Ġstudied":6763,"Ġdescribing":6764,"Ġapproached":6765,"Ġopponents":6766,"Ġerected":6767,"Ġdifficulty":6768,"ĠDuke":6769,"Ġpredecess":6770,"iffe":6771,"Ġrules":6772,"Ġveget":6773,"ĠMoz":6774,"Ġindicate":6775,"ĠArchae":6776,"ĠSenate":6777,"ĠCritical":6778,"Ġconstitution":6779,"ĠHistoric":6780,"Ġdismissed":6781,"Ġearthquake":6782,"Ġpenalty":6783,"oh":6784,"rations":6785,"ÅĤ":6786,"Ġfit":6787,"ician":6788,"ĠAround":6789,"ĠAston":6790,"Ġthin":6791,"Ġeighth":6792,"ĠMah":6793,"ĠImp":6794,"ivals":6795,"ĠPerson":6796,"ĠPagan":6797,"ĠRio":6798,"aked":6799,"ĠStory":6800,"ĠStarr":6801,"ĠChan":6802,"ountain":6803,"Ġaftern":6804,"Ġ67":6805,"ĠAnonymous":6806,"Ġ88":6807,"Ġamphib":6808,"Ġaccused":6809,"ĠShow":6810,"Ġ1983":6811,"Ġdesignation":6812,"ossible":6813,"inking":6814,"erva":6815,"Ġwinner":6816,"ĠForces":6817,"Ġattempting":6818,"Ġorganizations":6819,"Ġbasin":6820,"Ġbasic":6821,"Ġdemol":6822,"Ġconvoy":6823,"ĠRecording":6824,"Ġcrosses":6825,"Ġhosted":6826,"Ġcreator":6827,"Ġbrothers":6828,"ĠOde":6829,"Ġapart":6830,"ĠCampb":6831,"ĠOlympics":6832,"Ġmethods":6833,"ĠGeorgian":6834,"Ġpicked":6835,"Ġastron":6836,"Ġrecommended":6837,"Ġrhyth":6838,"Ġduties":6839,"ĠHornung":6840,"Ġceremony":6841,"Ġacademic":6842,"Ġsudden":6843,"var":6844,"zz":6845,"rec":6846,"orer":6847,"Ġfant":6848,"Ġhang":6849,"Ġlic":6850,"aments":6851,"ĠMemorial":6852,"othes":6853,"ĠWy":6854,"ĠLess":6855,"aga":6856,"istol":6857,"Ġvan":6858,"Ġunn":6859,"ender":6860,"Ġdesire":6861,"Ġmanner":6862,"Ġsecured":6863,"oba":6864,"Ġretained":6865,"Ġregime":6866,"Ġ112":6867,"Ġ1961":6868,"Ġappearing":6869,"Ġcamps":6870,"Ġstarred":6871,"Ġbelieves":6872,"ĠTelevision":6873,"Ġstrongly":6874,"Ġreality":6875,"Ġstatement":6876,"ĠSimps":6877,"Ġdivisions":6878,"Ġcharts":6879,"Ġinterested":6880,"ĠTownship":6881,"Ġmissed":6882,"stitution":6883,"Ġfrig":6884,"Ġblocks":6885,"Ġexception":6886,"Ġfavorite":6887,"Ġemerged":6888,"Ġdollars":6889,"Ġchallenge":6890,"Ġbattleships":6891,"Ġleadership":6892,"ĠFantasy":6893,"Ġatmosphere":6894,"ĠAML":6895,"Ġisolated":6896,"Ġphilosoph":6897,"ĠFrancisco":6898,"ĠChelsea":6899,"Ġextremely":6900,"ĠSimpsons":6901,"gÃ©":6902,"key":6903,"nic":6904,"nell":6905,"ooth":6906,"Ġwedding":6907,"aton":6908,"orters":6909,"Ġinland":6910,"inger":6911,"ĠCru":6912,"Ġgal":6913,"igation":6914,"Ġstones":6915,"ĠDota":6916,"ĠFame":6917,"Ġalleg":6918,"Ġconqu":6919,"ĠGore":6920,"rif":6921,"oca":6922,"ĠKurt":6923,"ensus":6924,"Ġoutf":6925,"Ġpregn":6926,"Ġhighlight":6927,"Ġoperating":6928,"Ġprovince":6929,"Ġadvis":6930,"Ġbreaking":6931,"ĠOrgan":6932,"ĠOrder":6933,"ĠAmb":6934,"Ġstands":6935,"Ġconvin":6936,"Ġequipped":6937,"Ġholds":6938,"Ġsuperior":6939,"Ġintensified":6940,"Ġaccounts":6941,"Ġtribes":6942,"Ġassistant":6943,"ĠPatrick":6944,"ĠCambridge":6945,"Ġrarely":6946,"Ġprincipal":6947,"Ġironclads":6948,"Ġthirty":6949,"Ġdiameter":6950,"Ġunusual":6951,"Ġparallel":6952,"ĠPhoen":6953,"ĠTetrarch":6954,"Ġafternoon":6955,"VN":6956,"aft":6957,"cement":6958,"pret":6959,"zen":6960,"ĪĴ":6961,"organ":6962,"Ġfal":6963,"Ġfish":6964,"Ġbes":6965,"Ġble":6966,"ĠAld":6967,"elly":6968,"Ġeu":6969,"uri":6970,"aya":6971,"ĠPatt":6972,"ĠDi":6973,"ĠDisc":6974,"ĠDesc":6975,"ĠJenn":6976,"ĠEc":6977,"ĠElect":6978,"ĠKat":6979,"ĠKil":6980,"ĠâĪĴ":6981,"Ġshif":6982,"Ġshots":6983,"ĠStation":6984,"Ġintention":6985,"Ġoverw":6986,"Ġprey":6987,"Ġteaching":6988,"Ġdefended":6989,"Ġregional":6990,"Ġdoct":6991,"Ġcarved":6992,"Ġpassage":6993,"ĠPlot":6994,"Ġanniversary":6995,"Ġ1910":6996,"Ġreviewer":6997,"ĠPrime":6998,"Ġcovers":6999,"Ġcriminal":7000,"ĠTrack":7001,"Ġvictims":7002,"ĠRomani":7003,"ĠMountains":7004,"ĠHaiti":7005,"ĠHamilton":7006,"ĠMadonna":7007,"Ġnomination":7008,"ĠMaeda":7009,"Ġforests":7010,"ĠEngineer":7011,"ĠWriting":7012,"iplom":7013,"Ġexpedition":7014,"ĠConstantine":7015,"ĠHibari":7016,"Ġobtained":7017,"ĠHindu":7018,"LI":7019,"gie":7020,"ois":7021,"ruli":7022,"wise":7023,"yard":7024,"Ġtheatre":7025,"real":7026,"atures":7027,"ori":7028,"anth":7029,"Ġbond":7030,"Ġbaby":7031,"Ġpushed":7032,"Ġpuzz":7033,"Ġdie":7034,"ĠSports":7035,"ĠCam":7036,"oming":7037,"Ġnob":7038,"acent":7039,"Ġgall":7040,"ĠRÃ©":7041,"ĠRangers":7042,"ĠNC":7043,"ĠGang":7044,"Ġvision":7045,"ateur":7046,"ables":7047,"abled":7048,"earch":7049,"Ġspacing":7050,"oked":7051,"Ġpartly":7052,"Ġ99":7053,"ockey":7054,"Ġretire":7055,"Ġverse":7056,"Ġentry":7057,"Ġsym":7058,"Ġtransition":7059,"Ġpassengers":7060,"ception":7061,"ĠBeach":7062,"ĠQedar":7063,"Ġclasses":7064,"Ġapproved":7065,"Ġvisible":7066,"Ġmedieval":7067,"attered":7068,"istered":7069,"Ġwatch":7070,"Ġseeing":7071,"Ġsettle":7072,"Ġimprove":7073,"ĠQueens":7074,"Ġimmediate":7075,"glades":7076,"Ġattracted":7077,"senal":7078,"evo":7079,"ĠPeninsula":7080,"ĠMassachus":7081,"ĠIndustry":7082,"ĠVenus":7083,"Ġremnants":7084,"ĠFriends":7085,"ĠMassachusetts":7086,"body":7087,"cape":7088,"ext":7089,"point":7090,"Ġic":7091,"Ġsession":7092,"Ġwick":7093,"Ġfitted":7094,"Ġmart":7095,"lete":7096,"ĠTrib":7097,"ĠCape":7098,"ĠPot":7099,"ĠFront":7100,"osure":7101,"Ġproceed":7102,"ĠChronic":7103,"ogether":7104,"Ġreconnaissance":7105,"ultane":7106,"Ġparties":7107,"ĠUnlike":7108,"Ġdefences":7109,"Ġwhereas":7110,"Ġincome":7111,"Ġindig":7112,"Ġ1977":7113,"Ã©t":7114,"quez":7115,"ĠAbb":7116,"Ġtwelve":7117,"Ġelectric":7118,"ĠEliz":7119,"Ġequal":7120,"Ġadmitted":7121,"ucky":7122,"ĠRepublican":7123,"ĠOslo":7124,"ĠSingles":7125,"Ġhotel":7126,"ĠIndependent":7127,"Ġironclad":7128,"ĠWeekly":7129,"ĠRoger":7130,"Ġsurvivors":7131,"ĠIguanodon":7132,"FC":7133,"aug":7134,"fare":7135,"lan":7136,"math":7137,"pective":7138,"worth":7139,"Ġsed":7140,"isis":7141,"ĠTu":7142,"ĠCB":7143,"ĠChen":7144,"amar":7145,"Ġnav":7146,"Ġnone":7147,"Ġgather":7148,"ima":7149,"imal":7150,"Ġconvers":7151,"ewhat":7152,"anti":7153,"ocal":7154,"Ġplain":7155,"acked":7156,"cles":7157,"cliffe":7158,"Ġoffense":7159,"Ġupd":7160,"ĠAsh":7161,"Ġacknow":7162,"Ġ05":7163,"Ġ06":7164,"Ġpublisher":7165,"Ġdistribution":7166,"Ġreturns":7167,"Ġ1955":7168,"Ġ1937":7169,"aurus":7170,"Ġdriving":7171,"Ġcommunities":7172,"iterranean":7173,"Ġpainted":7174,"Ġpromote":7175,"Ġconnection":7176,"Ġsuffering":7177,"Ġfalling":7178,"ĠMediterranean":7179,"Ġcivilian":7180,"Ġseemed":7181,"Ġwithdrew":7182,"Ġcompletion":7183,"ASA":7184,"Ġfeeling":7185,"ĠHotel":7186,"ĠSamuel":7187,"ĠBradford":7188,"Ġrescue":7189,"Ġarrested":7190,"Ġutil":7191,"Ġarrangement":7192,"ĠMongol":7193,"ĠRolling":7194,"Ġexpansion":7195,"ĠFrederick":7196,"OC":7197,"bur":7198,"rast":7199,"va":7200,"wa":7201,"onica":7202,"Ġcul":7203,"Ġcart":7204,"Ġcinem":7205,"Ġbrick":7206,"eline":7207,"Ġninth":7208,"ĠMain":7209,"urrent":7210,"ĠHug":7211,"uses":7212,"ĠPict":7213,"verse":7214,"ĠDNA":7215,"ĠFish":7216,"ĠGully":7217,"Ġvac":7218,"Ġvide":7219,"Ġraces":7220,"Ġrugby":7221,"ĠInit":7222,"abeth":7223,"angerous":7224,"Ġpreced":7225,"ĠAnc":7226,"Ġshear":7227,"Ġcharter":7228,"Ġfollowers":7229,"Ġindicated":7230,"Ġ07":7231,"Ġdepos":7232,"Ġsigning":7233,"Ġcarbon":7234,"Ġwarm":7235,"Ġimplement":7236,"ĠDeath":7237,"Ġoppos":7238,"Ġlegs":7239,"Ġcloser":7240,"Ġregularly":7241,"Ġframe":7242,"Ġthreatened":7243,"ĠMaryland":7244,"ĠMontana":7245,"ĠTerrit":7246,"ĠEverglades":7247,"ĠJerusal":7248,"Ġdrums":7249,"ĠHuman":7250,"Ġemotional":7251,"Ġspecimens":7252,"ĠMorrison":7253,"Ġmushroom":7254,"ĠRoxas":7255,"ĠLorenzo":7256,"ĠJerusalem":7257,"bles":7258,"dal":7259,"Ġske":7260,"Ġwrong":7261,"Ġpup":7262,"ĠTel":7263,"ĠSher":7264,"ĠSup":7265,"ĠMul":7266,"urd":7267,"ĠBank":7268,"using":7269,"ĠPan":7270,"ĠPower":7271,"Ġhear":7272,"ĠNBC":7273,"ĠNerva":7274,"rage":7275,"ĠLab":7276,"ctions":7277,"ĠJun":7278,"Ġanth":7279,"Ġrum":7280,"Ġorn":7281,"Ġpartners":7282,"Ġimpl":7283,"amps":7284,"Ġassumed":7285,"Ġcoord":7286,"ĠLev":7287,"inson":7288,"Ġmonuments":7289,"Ġnoisy":7290,"ĠMaya":7291,"Ġ1954":7292,"ĠAdams":7293,"Ġpointed":7294,"Ġ1938":7295,"Ġ1927":7296,"iveness":7297,"ĠStef":7298,"Ġmarks":7299,"ĠEddie":7300,"Ġcirculation":7301,"Ġcollaps":7302,"Ġtreaty":7303,"Ġscholar":7304,"hews":7305,"ĠGeorgia":7306,"Ġcontroversial":7307,"ĠSomali":7308,"Ġalternative":7309,"ĠTruj":7310,"Ġeasily":7311,"Ġeggs":7312,"Ġsomewhat":7313,"30":7314,"iary":7315,"ni":7316,"Ã¸":7317,"Ġtaught":7318,"Ġworship":7319,"oral":7320,"itals":7321,"Ġbay":7322,"Ġmap":7323,"Ġhall":7324,"lease":7325,"entional":7326,"ĠCE":7327,"amic":7328,"Ġnick":7329,"oli":7330,"Ġgard":7331,"Ġforcing":7332,"igg":7333,"Ġstead":7334,"Ġstreak":7335,"ĠPope":7336,"ĠNintend":7337,"rapped":7338,"rien":7339,"Ġaged":7340,"Ġenfor":7341,"Ġsoil":7342,"Ġmonarch":7343,"Ġ178":7344,"Ġ1962":7345,"ĠProf":7346,"Ġdriven":7347,"Ġdestruction":7348,"Ġdebate":7349,"Ġposted":7350,"Ġinvolving":7351,"ĠAngle":7352,"Ġarmour":7353,"Ġnovels":7354,"Ġstrip":7355,"ĠRoberts":7356,"Ġ1870":7357,"Ġdrawing":7358,"Ġsurrounded":7359,"Ġabsor":7360,"Ġpurchase":7361,"Ġshells":7362,"Ġcamera":7363,"Ġinstitutions":7364,"Ġromantic":7365,"Ġdocumentary":7366,"Ġfranchise":7367,"ĠMozamb":7368,"ĠTrujillo":7369,"ĠNintendo":7370,"20":7371,"cements":7372,"ker":7373,"ris":7374,"rich":7375,"Ġur":7376,"Ġsnow":7377,"Ġocean":7378,"orous":7379,"itated":7380,"Ġcitiz":7381,"Ġfaces":7382,"Ġbed":7383,"Ġbones":7384,"icate":7385,"icide":7386,"Ġdivers":7387,"Ġdream":7388,"Ġdiplom":7389,"Ġhope":7390,"lets":7391,"ĠBang":7392,"ĠISB":7393,"ĠHong":7394,"uts":7395,"Ġstadium":7396,"ĠRain":7397,"emed":7398,"ĠFlow":7399,"ĠNar":7400,"ĠOwen":7401,"Ġexisted":7402,"Ġexha":7403,"range":7404,"ĠThird":7405,"Ġjazz":7406,"ĠAniston":7407,"Ġfled":7408,"ĠShak":7409,"itsune":7410,"Ġdepend":7411,"Ġestate":7412,"ĠUSS":7413,"Ġinstalled":7414,"ĠCarter":7415,"Ġconcerts":7416,"Ġ1958":7417,"Ġstorms":7418,"Ġmedium":7419,"ĠFlight":7420,"aska":7421,"Ġcatch":7422,"ĠHarry":7423,"autiful":7424,"Ġsequel":7425,"Ġrailway":7426,"Ġterritories":7427,"ĠJean":7428,"Ġvoted":7429,"Ġstayed":7430,"Ġbringing":7431,"Ġbadly":7432,"ĠCastle":7433,"munition":7434,"ĠRhodesian":7435,"Ġcandidate":7436,"ĠArgentina":7437,"Ġfungus":7438,"Ġsubmarine":7439,"Ġunsuccessful":7440,"Ġrestaurant":7441,"Ġpyram":7442,"bishop":7443,"Ã§":7444,"Ġtie":7445,"inally":7446,"rees":7447,"Ġwants":7448,"enburg":7449,"Ġfold":7450,"Ġpric":7451,"ĠTig":7452,"ĠAR":7453,"ĠSap":7454,"ĠSonic":7455,"ĠCab":7456,"amm":7457,"ĠBos":7458,"iday":7459,"otic":7460,"ĠHay":7461,"ĠRom":7462,"ĠDC":7463,"ĠDur":7464,"ĠDiv":7465,"ĠDanny":7466,"iform":7467,"Ġproport":7468,"Ġrecalled":7469,"Ġpartial":7470,"Ġpartially":7471,"Ġconsum":7472,"Ġconsult":7473,"Ġ86":7474,"Ġammunition":7475,"Ġ08":7476,"Ġ121":7477,"Ġentitled":7478,"Ġpreserved":7479,"Ġextension":7480,"Ġdistributed":7481,"ĠPlunk":7482,"Ġ140":7483,"ĠBeat":7484,"Ġclassic":7485,"Ġskull":7486,"Ġlimit":7487,"Ġsettled":7488,"ĠActivision":7489,"Ġaccommod":7490,"Ġreduce":7491,"ĠKorea":7492,"Ġtraveled":7493,"Ġmulti":7494,"ĠPrior":7495,"Ġconcerned":7496,"Ġlinked":7497,"Ġhoped":7498,"ĠDesign":7499,"claimed":7500,"Ġmessage":7501,"ĠLisa":7502,"ĠIsabella":7503,"ĠLennon":7504,"ĠISBN":7505,"kh":7506,"rative":7507,"Ġtone":7508,"Ġsulf":7509,"Ġpage":7510,"ashed":7511,"Ġdock":7512,"ĠTower":7513,"Ġlap":7514,"ĠBranch":7515,"ĠFair":7516,"ĠNaval":7517,"ĠKen":7518,"ĠKong":7519,"Ġkings":7520,"ĠâĢĳ":7521,"ĠStrand":7522,"Ġspin":7523,"apa":7524,"ĠVII":7525,"Ġcontext":7526,"Ġrecre":7527,"Ġrecru":7528,"Ġupgraded":7529,"weet":7530,"ternal":7531,"Ġsongwrit":7532,"Ġrelative":7533,"Ġ127":7534,"ĠUSD":7535,"Ġdesigns":7536,"ĠGermans":7537,"ennis":7538,"Ġbright":7539,"Ġ1959":7540,"Ġpossession":7541,"Ġcovering":7542,"Ġeffectively":7543,"ĠEarl":7544,"Ġfootage":7545,"Ġprogramme":7546,"ĠCalvert":7547,"ĠFederal":7548,"Ġtreated":7549,"offman":7550,"Ġrenew":7551,"Ġengineering":7552,"Ġgrav":7553,"Ġinjured":7554,"ĠPlayer":7555,"Ġbombard":7556,"Ġproducts":7557,"Ġinvestigation":7558,"Ġratings":7559,"ĠRyan":7560,"Ġagricultural":7561,"ĠConstruction":7562,"Ġresources":7563,"AC":7564,"bb":7565,"cation":7566,"gra":7567,"Ġels":7568,"Ġtick":7569,"onia":7570,"Ġsell":7571,"itian":7572,"arning":7573,"Ġloyal":7574,"Ġet":7575,"Ġgro":7576,"ĠHud":7577,"Ġstreets":7578,"ĠPul":7579,"Ġalle":7580,"ĠWhere":7581,"ĠLanc":7582,"Ġansw":7583,"Ġorchest":7584,"ĠKansas":7585,"Ġplane":7586,"ĠStock":7587,"Ġserial":7588,"teenth":7589,"arked":7590,"Ġacts":7591,"Ġreleg":7592,"Ġinterpret":7593,"ajevo":7594,"ĠBeauty":7595,"Ġclassical":7596,"Ġprotests":7597,"Ġrefers":7598,"ĠMuslim":7599,"Ġreviewers":7600,"Ġengines":7601,"Ġvictories":7602,"Ġmeetings":7603,"Ġidentity":7604,"Ġinspiration":7605,"Ġfunds":7606,"Ġescort":7607,"Ġcruiser":7608,"Ġcolonies":7609,"Ġhappy":7610,"ĠResearch":7611,"Ġloan":7612,"Ġdegrees":7613,"ĠSarajevo":7614,"ĠSomalia":7615,"Ġwearing":7616,"Ġapparently":7617,"Ġchemical":7618,"Ġincorporated":7619,"Ġoverseas":7620,"Ġresistance":7621,"ĠNetherlands":7622,"Ġelsewhere":7623,"iy":7624,"iour":7625,"night":7626,"oom":7627,"vention":7628,"wich":7629,"yer":7630,"Ġau":7631,"Ġfine":7632,"Ġblow":7633,"Ġbone":7634,"rose":7635,"ĠTest":7636,"ĠTreat":7637,"ĠSa":7638,"ĠSab":7639,"ĠCult":7640,"ĠBal":7641,"union":7642,"ĠFern":7643,"ĠNow":7644,"ĠGun":7645,"ĠJif":7646,"Ġprohib":7647,"Ġsees":7648,"udes":7649,"ĠKaw":7650,"Ġchronic":7651,"ĠUr":7652,"ĠUt":7653,"Ġlearning":7654,"ellite":7655,"ĠVice":7656,"ignment":7657,"Ġagree":7658,"enses":7659,"ensis":7660,"inton":7661,"Ġ900":7662,"Ġrelie":7663,"Ġ09":7664,"Ġexposed":7665,"rows":7666,"uchi":7667,"Ġbelt":7668,"ĠWho":7669,"Ġimpossible":7670,"ĠBlood":7671,"Ġgenerated":7672,"Ġmodified":7673,"Ġdetailed":7674,"Ġelabor":7675,"Ġlowest":7676,"Ġequivalent":7677,"Ġchanging":7678,"Ġarmored":7679,"Ġlooked":7680,"Ġrelationships":7681,"Ġreveals":7682,"Ġmerch":7683,"Ġabsence":7684,"Ġsatis":7685,"ĠVeronica":7686,"ĠYankovic":7687,"ĠDestiny":7688,"ĠNorman":7689,"ĠStanley":7690,"Ġoccasions":7691,"Ġrhythm":7692,"Ġeurop":7693,"Ġvideos":7694,"bra":7695,"hol":7696,"iÅ":7697,"wan":7698,"à¤":7699,"ĠÅ":7700,"Ġsight":7701,"Ġow":7702,"arth":7703,"anning":7704,"Ġdens":7705,"ĠTon":7706,"Ġrepr":7707,"Ġlies":7708,"ĠBad":7709,"otton":7710,"Ġash":7711,"ĠPass":7712,"ĠRugby":7713,"ĠDie":7714,"ĠDark":7715,"chang":7716,"ĠNak":7717,"ĠLabor":7718,"agi":7719,"agas":7720,"Ġray":7721,"Ġselection":7722,"uda":7723,"Ġexchange":7724,"ureau":7725,"Ġappropri":7726,"Ġafterwards":7727,"ĠYour":7728,"ĠComb":7729,"Ġ165":7730,"Ġminister":7731,"ĠIslam":7732,"Ġoffices":7733,"ĠAdam":7734,"Ġ1935":7735,"Ġrestored":7736,"Ġ1929":7737,"Ġwestward":7738,"Ġdivine":7739,"Ġlanguages":7740,"Ġ1860":7741,"Ġburned":7742,"Ġpractices":7743,"Ġtransportation":7744,"Ġstationed":7745,"Ġtribute":7746,"ĠDonald":7747,"ĠVictorian":7748,"Ġrequested":7749,"Ġchalleng":7750,"Ġmoral":7751,"Ġextreme":7752,"Ġadults":7753,"ĠClarkson":7754,"ĠDemocratic":7755,"Ġencouraged":7756,"Ġprotagonist":7757,"ĠBeckham":7758,"Ġcongreg":7759,"Ġinhabitants":7760,"Ġopposite":7761,"Ġalleged":7762,"Brien":7763,"rates":7764,"ugh":7765,"wick":7766,"á»":7767,"orial":7768,"Ġcry":7769,"isp":7770,"ingale":7771,"Ġpin":7772,"ĠTok":7773,"ĠAP":7774,"entures":7775,"ĠCR":7776,"ĠCory":7777,"Ġliber":7778,"Ġonline":7779,"emia":7780,"ĠDyn":7781,"ĠLords":7782,"ifer":7783,"ĠKim":7784,"Ġleuk":7785,"ĠChannel":7786,"Ġcloth":7787,"Ġmovements":7788,"Ġenters":7789,"annah":7790,"Ġoperate":7791,"Ġ1911":7792,"Ġ1932":7793,"Ġ1921":7794,"Ġstandards":7795,"Ġdeliber":7796,"Ġsuggesting":7797,"Ġ1909":7798,"Ġreading":7799,"Ġpraise":7800,"Ġgenre":7801,"Ġmountains":7802,"Ġdifficulties":7803,"ĠÃĹ":7804,"Ġhappened":7805,"ĠRadcliffe":7806,"ĠEvery":7807,"Ġemerg":7808,"Ġunderstand":7809,"Ġaccompany":7810,"iques":7811,"Ġvessel":7812,"Ġyoungest":7813,"ĠWilde":7814,"Ġpanel":7815,"Ġadjacent":7816,"Ġassassination":7817,"ĠSkye":7818,"ĠAthletic":7819,"Ġritual":7820,"ĠJifna":7821,"vements":7822,"Ġå":7823,"Ġille":7824,"hered":7825,"reme":7826,"Ġsunk":7827,"Ġsiege":7828,"aled":7829,"ilation":7830,"otype":7831,"Ġstable":7832,"Ġheat":7833,"ĠFound":7834,"ĠFras":7835,"Ġalien":7836,"ĠLower":7837,"Ġrated":7838,"aste":7839,"ĠChang":7840,"Ġconsol":7841,"Ġactual":7842,"Ġenth":7843,"ĠAustrian":7844,"Ġtrail":7845,"Ġexpensive":7846,"ĠIndones":7847,"Ġcrest":7848,"Ġinfrast":7849,"Ġbrig":7850,"Ġannually":7851,"Ġ1912":7852,"encing":7853,"Ġdefeating":7854,"spec":7855,"Ġready":7856,"ĠKevin":7857,"Ġpredomin":7858,"Ġrepresenting":7859,"avalry":7860,"Ġburial":7861,"ĠRussia":7862,"ĠWilson":7863,"Ġensure":7864,"Ġvisitors":7865,"Ġjudge":7866,"Ġhundreds":7867,"ĠConfeder":7868,"Ġthrone":7869,"Ġpreparation":7870,"Ġcustom":7871,"ĠGrammy":7872,"ĠElizabeth":7873,"Hg":7874,"uv":7875,"yo":7876,"Ġsam":7877,"Ġsqu":7878,"Ġsessions":7879,"Ġbrand":7880,"Ġpure":7881,"Ġpale":7882,"icit":7883,"leton":7884,"elle":7885,"Ġgone":7886,"terbury":7887,"usad":7888,"ĠProm":7889,"Ġcomments":7890,"Ġvul":7891,"Ġexit":7892,"Ġexcess":7893,"Ġshark":7894,"ĠStra":7895,"apse":7896,"Ġintense":7897,"Ġresumed":7898,"Ġtele":7899,"Ġraid":7900,"Ġraise":7901,"Ġforming":7902,"Ġwritings":7903,"Ġmuscar":7904,"Ġ122":7905,"ĠWarren":7906,"Ġpoll":7907,"Ġcarri":7908,"Ġowner":7909,"Ġmusicians":7910,"ĠProg":7911,"Ġ1931":7912,"ĠGuy":7913,"Ġwilling":7914,"ĠCanterbury":7915,"espe":7916,"Ġclaiming":7917,"Ġelse":7918,"itarian":7919,"Ġcycle":7920,"Ġinfluential":7921,"Ġgrounds":7922,"Ġcoup":7923,"Ġinterests":7924,"ĠPalace":7925,"ĠMexican":7926,"Ġrebels":7927,"Ġinjuries":7928,"itzer":7929,"Ġmaterials":7930,"Ġgrey":7931,"Ġabsol":7932,"ĠLawrence":7933,"Ġnormally":7934,"Ġessential":7935,"Ġpurposes":7936,"ĠBurns":7937,"Ġdisappoint":7938,"ĠClassic":7939,"Ġmemory":7940,"Ġexecuted":7941,"Ġfixed":7942,"ĠBanai":7943,"Ġchairman":7944,"Ġstere":7945,"Ġeuropium":7946,"AT":7947,"DS":7948,"aired":7949,"sch":7950,"zac":7951,"Ã±":7952,"Ġib":7953,"Ġoption":7954,"Ġfram":7955,"ĠinHg":7956,"illy":7957,"ĠMack":7958,"ĠBed":7959,"ĠBass":7960,"ĠBron":7961,"ĠBah":7962,"ira":7963,"otal":7964,"owitz":7965,"ĠPine":7966,"uls":7967,"Ġalter":7968,"Ġdeleg":7969,"ĠâĤ":7970,"Ġshipping":7971,"Ġspaces":7972,"Ġunion":7973,"Ġherd":7974,"Ġteach":7975,"formation":7976,"ĠComple":7977,"Ġsubst":7978,"Ġformally":7979,"ĠReal":7980,"Ġsurpr":7981,"Ġminimum":7982,"Ġobl":7983,"Ġcarries":7984,"Ġcargo":7985,"Ġairline":7986,"Ġtwin":7987,"ĠPoland":7988,"ombat":7989,"Ġwatching":7990,"Ġmixture":7991,"Ġrevol":7992,"Ġrecognised":7993,"Ġclearly":7994,"Ġobjective":7995,"Ġvote":7996,"ĠNorway":7997,"Ġwatershed":7998,"Ġturrets":7999,"ĠProtest":8000,"Ġspecimen":8001,"Ġlbw":8002,"Ġbulk":8003,"ĠColeman":8004,"Ġresidential":8005,"Ġinitiative":8006,"ĠJesus":8007,"Ġoverwhel":8008,"ĠShakespe":8009,"ĠShakespeare":8010,"fire":8011,"nal":8012,"rinth":8013,"Å«":8014,"Ġtack":8015,"Ġtight":8016,"heim":8017,"heme":8018,"Ġtheater":8019,"Ġsons":8020,"Ġinaug":8021,"aling":8022,"alog":8023,"ĠTechn":8024,"ĠTyphoon":8025,"ĠSem":8026,"ĠSand":8027,"ĠSweet":8028,"sta":8029,"Ġeasy":8030,"utz":8031,"ĠDick":8032,"ĠFel":8033,"ĠNL":8034,"ĠNeb":8035,"ĠWolf":8036,"rawn":8037,"ĠGoffman":8038,"ĠJoy":8039,"Ġorb":8040,"ĠChampion":8041,"ĠAlong":8042,"Ġenh":8043,"Ġevil":8044,"Ġformal":8045,"Ġ02":8046,"Ġtrained":8047,"Ġ161":8048,"ĠGerard":8049,"ĠJohnston":8050,"Ġobst":8051,"Ġinstall":8052,"Ġinstance":8053,"Ġprevented":8054,"ossal":8055,"Ġsimultane":8056,"ĠMega":8057,"Ġ1933":8058,"ĠHergÃ©":8059,"ĠGeoff":8060,"Ġtemples":8061,"Ġwindows":8062,"Ġavo":8063,"ĠSupp":8064,"ĠPolice":8065,"Ġneeds":8066,"ÃŃvar":8067,"Ġargues":8068,"ĠAgain":8069,"Ġkingdom":8070,"Ġobjects":8071,"abyrinth":8072,"Ġautom":8073,"Ġcheck":8074,"Ġjournal":8075,"ĠJaneiro":8076,"Ġreinforcements":8077,"ĠBolÃŃvar":8078,"Ġcomposer":8079,"criptions":8080,"Ġdoubt":8081,"Ġpicture":8082,"ĠJournal":8083,"Ġsegment":8084,"Ġpreferred":8085,"ĠJacob":8086,"ĠCambodia":8087,"Ġglobal":8088,"Ġcircumstances":8089,"Ġconvinced":8090,"ĠKilmer":8091,"ĠQueensland":8092,"ĠSaprang":8093,"CC":8094,"OK":8095,"after":8096,"cribed":8097,"eo":8098,"oes":8099,"Ġtip":8100,"Ġturb":8101,"erog":8102,"Ġsailed":8103,"rous":8104,"Ġmask":8105,"Ġmunicipal":8106,"ĠTro":8107,"ĠSn":8108,"urst":8109,"ĠBudd":8110,"ĠBureau":8111,"emies":8112,"ĠWard":8113,"ĠWimb":8114,"ĠLang":8115,"ĠJMA":8116,"ifies":8117,"Ġprol":8118,"Ġdeemed":8119,"Ġplate":8120,"iang":8121,"ishment":8122,"uez":8123,"ĠHearts":8124,"Ġrooms":8125,"ĠAlb":8126,"Ġdesert":8127,"Ġ84":8128,"ekÄģn":8129,"ledon":8130,"Ġextent":8131,"ĠClinton":8132,"Ġanyone":8133,"axon":8134,"ĠMcG":8135,"Ġperiods":8136,"Ġlisting":8137,"Ġcauses":8138,"Ġmyst":8139,"Ġrepresents":8140,"Ġsurvive":8141,"coming":8142,"Ġrebell":8143,"Ġrepresentative":8144,"ĠMedia":8145,"ĠKoreans":8146,"ĠMoore":8147,"ĠLawton":8148,"Ġadopt":8149,"Ġmoments":8150,"ĠBCE":8151,"oirs":8152,"ĠJustice":8153,"Ġinternal":8154,"Ġdisplays":8155,"Ġinteraction":8156,"ĠNazi":8157,"Ġdeparture":8158,"ĠGarc":8159,"Ġnarrative":8160,"ĠPalestine":8161,"uppet":8162,"Ġtravelled":8163,"Ġdialogue":8164,"Ġproposal":8165,"eorological":8166,"ĠProfess":8167,"ĠFraser":8168,"ĠWimbledon":8169,"MO":8170,"gets":8171,"mat":8172,"Ê»":8173,"Ġsoul":8174,"Ġcreek":8175,"icity":8176,"Ġhip":8177,"ilty":8178,"ĠCelt":8179,"Ġlibrary":8180,"acle":8181,"urse":8182,"ĠBark":8183,"ĠHob":8184,"ĠHarrison":8185,"Ġbearing":8186,"ĠLet":8187,"rik":8188,"rior":8189,"rift":8190,"uster":8191,"Ġago":8192,"Ġoutl":8193,"rene":8194,"Ġtex":8195,"inals":8196,"Ġfeed":8197,"ĠMarg":8198,"ĠLead":8199,"Ġextrat":8200,"Ġdiscip":8201,"Ġbridges":8202,"Ġprompted":8203,"Ġrestoration":8204,"Ġportrait":8205,"ĠChristopher":8206,"Ġstarling":8207,"Ġbases":8208,"Ġdemand":8209,"Ġformerly":8210,"ĠXe":8211,"Ġinfluences":8212,"Ġcriticised":8213,"Ġrounds":8214,"Ġdevot":8215,"Ġpersu":8216,"Ġpoorly":8217,"ĠRichardson":8218,"ĠMalays":8219,"Ġtowers":8220,"Ġobservations":8221,"Ġdramatic":8222,"ĠDelaware":8223,"ĠFormula":8224,"Ġthrowing":8225,"Ġdefenders":8226,"Ġarchitecture":8227,"Ġthousand":8228,"Ġinstruments":8229,"Ġlegislation":8230,"ĠOriginally":8231,"Ġcompounds":8232,"Ġbehaviour":8233,"Ġtactics":8234,"ĠGuardian":8235,"Ġethnic":8236,"Ġdelayed":8237,"Ġdecorated":8238,"Ġreconstruction":8239,"Ġimprison":8240,"ĠEducation":8241,"Ġacknowled":8242,"Ġextratropical":8243,"bound":8244,"burn":8245,"dess":8246,"dney":8247,"mel":8248,"zi":8249,"Ġtrick":8250,"inery":8251,"Ġciting":8252,"enous":8253,"icul":8254,"Ġdiet":8255,"ĠSb":8256,"ilst":8257,"ĠCob":8258,"ĠThen":8259,"ĠBell":8260,"olith":8261,"ĠHind":8262,"uscript":8263,"Ġstood":8264,"ĠDak":8265,"Ġconsequ":8266,"ĠNCA":8267,"ĠWing":8268,"osl":8269,"osm":8270,"ĠEp":8271,"ĠOur":8272,"ategy":8273,"ĠKy":8274,"ĠKombat":8275,"ĠUpper":8276,"oven":8277,"Ġjunction":8278,"Ġpoets":8279,"Ġ92":8280,"Ġremember":8281,"ĠSee":8282,"obile":8283,"Ġdefending":8284,"Ġregiment":8285,"roscop":8286,"ificial":8287,"Ġ03":8288,"Ġseverely":8289,"athers":8290,"Ġsmooth":8291,"ullen":8292,"ĠManagement":8293,"Ġuseful":8294,"Ġmodels":8295,"Ġphr":8296,"Ġconsiders":8297,"Ġstrategy":8298,"ĠCanal":8299,"Ġpossess":8300,"Ġorganised":8301,"Ġtemporary":8302,"Ġengage":8303,"ĠRecord":8304,"Ġelectronic":8305,"Ġarrive":8306,"Ġdivor":8307,"ĠKeamy":8308,"Ġvillages":8309,"ĠAtlanta":8310,"Ġcrews":8311,"ĠBerlin":8312,"Ġbiography":8313,"enesis":8314,"Ġthinking":8315,"Ġestablishing":8316,"Ġproperties":8317,"Ġfeelings":8318,"Ġdocuments":8319,"Ġjournalist":8320,"Ġunderstanding":8321,"Ġpursue":8322,"ĠAdminist":8323,"ĠCathedral":8324,"ĠMortal":8325,"Ġrebuilt":8326,"Ġsubstantial":8327,"ĠHitler":8328,"Ġnickn":8329,"ĠFernand":8330,"van":8331,"Ġrib":8332,"Ġtailed":8333,"inating":8334,"Ġsisters":8335,"Ġcars":8336,"Ġbon":8337,"roit":8338,"ĠSuch":8339,"Ġlie":8340,"Ġnom":8341,"ĠMach":8342,"idation":8343,"ĠHou":8344,"Ġstock":8345,"ĠRest":8346,"thosaurus":8347,"ĠNichol":8348,"ĠWright":8349,"rabs":8350,"ĠGary":8351,"ĠEle":8352,"Ġsure":8353,"ĠVi":8354,"Ġwheel":8355,"Ġresigned":8356,"Ġagents":8357,"ricted":8358,"overs":8359,"Ġattained":8360,"Ġconsc":8361,"ĠArj":8362,"Ġinterpre":8363,"Ġamateur":8364,"Ġ162":8365,"atherine":8366,"Ġartwork":8367,"Ġcounties":8368,"uthor":8369,"Ġ1957":8370,"Ġ1928":8371,"Ġtrading":8372,"Ġcompete":8373,"ĠMinor":8374,"ĠMinistry":8375,"Ġtechniques":8376,"Ġdoesn":8377,"Ġsequences":8378,"Ġengineer":8379,"Ġachieve":8380,"ĠFIA":8381,"ĠArabic":8382,"Ġcorner":8383,"Ġencountered":8384,"Ġneighbor":8385,"ĠSilver":8386,"ĠRajne":8387,"Ġwarships":8388,"Ġtunnel":8389,"ĠAlbums":8390,"ĠDetroit":8391,"Ġfalse":8392,"ĠPlunketts":8393,"ĠCorythosaurus":8394,"book":8395,"dale":8396,"fl":8397,"hl":8398,"mate":8399,"nings":8400,"pent":8401,"rim":8402,"uable":8403,"water":8404,"wald":8405,"Ġbor":8406,"Ġbom":8407,"ĠAz":8408,"ĠSoon":8409,"Ġlists":8410,"oma":8411,"ĠMand":8412,"ĠMother":8413,"Ġwasn":8414,"ĠBa":8415,"olay":8416,"ĠHed":8417,"Ġbeautiful":8418,"ĠDal":8419,"ĠFall":8420,"ĠNatives":8421,"ĠWrestling":8422,"ĠLamb":8423,"ĠJr":8424,"ĠâĢľ":8425,"ipe":8426,"Ġspr":8427,"Ġspoke":8428,"apore":8429,"Ġunlike":8430,"rupted":8431,"Ġclock":8432,"Ġclimate":8433,"Ġrecur":8434,"Ġotherwise":8435,"Ġoutbreak":8436,"inder":8437,"ĠUnivers":8438,"ĠAnzac":8439,"Ġpoison":8440,"Ġquant":8441,"Ġ125":8442,"Ġsymp":8443,"rams":8444,"Ġ166":8445,"Ġ155":8446,"Ġnorthward":8447,"Ġguilty":8448,"ĠAllah":8449,"Ġeleven":8450,"Ġprompt":8451,"Ġtriple":8452,"Ġ1926":8453,"incess":8454,"Ġcrisis":8455,"Ġoriginated":8456,"Ġarmament":8457,"Ġreaders":8458,"ĠOlm":8459,"Ġfuner":8460,"ĠPalmy":8461,"Ġcondem":8462,"Ġaudiences":8463,"ĠJews":8464,"Ġcivilians":8465,"Ġbiographer":8466,"Ġengineers":8467,"Ġfrust":8468,"Ġtribut":8469,"Ġdetermine":8470,"Ġdepicts":8471,"ĠSingapore":8472,"Ġsatellite":8473,"Ġinnov":8474,"rorist":8475,"Ġindicating":8476,"Ġschedule":8477,"Ġexperiences":8478,"Ġsafe":8479,"ĠDefence":8480,"Ġdemonstrated":8481,"Ġremarked":8482,"hua":8483,"ĠExpress":8484,"ĠMarlborough":8485,"Ġpyramid":8486,"Ġinfrastructure":8487,"erogative":8488,"pe":8489,"western":8490,"Ġsq":8491,"orph":8492,"Ġfault":8493,"Ġfestival":8494,"Ġpack":8495,"Ġrect":8496,"Ġrender":8497,"ĠSin":8498,"ĠCec":8499,"ĠCass":8500,"Ġlose":8501,"elin":8502,"ĠMes":8503,"ĠBath":8504,"ĠBorn":8505,"Ġgarrison":8506,"irid":8507,"ĠPA":8508,"ĠDave":8509,"ĠLink":8510,"Ġprove":8511,"Ġrivers":8512,"Ġorbit":8513,"Ġkitsune":8514,"Ġnotably":8515,"usts":8516,"Ġclimb":8517,"Ġscattered":8518,"Ġpartner":8519,"Ġplayoff":8520,"Ġoutp":8521,"ĠSeason":8522,"ologies":8523,"Ġassisted":8524,"Ġ101":8525,"Ġwarning":8526,"Ġimpressed":8527,"Ġdescribe":8528,"isms":8529,"ĠPlat":8530,"Ġ1934":8531,"Ġrefuge":8532,"ĠMcD":8533,"Ġdifferences":8534,"Ġsky":8535,"Ġlooks":8536,"ĠChampionships":8537,"Ġtests":8538,"Ġclosest":8539,"Ġ1850":8540,"Ġinformed":8541,"Ġburning":8542,"ĠCorporation":8543,"Ġoccupation":8544,"Ġdrove":8545,"ĠFei":8546,"Ġweapon":8547,"Ġphotograph":8548,"Ġevacuation":8549,"Ġgraphics":8550,"Ġtouchdowns":8551,"ĠMiller":8552,"Ġranging":8553,"ĠUlt":8554,"ĠPitman":8555,"ĠGallery":8556,"Ġvoiced":8557,"Ġbehavior":8558,"ĠNevertheless":8559,"ĠBaseball":8560,"ĠRicky":8561,"ĠPhillies":8562,"Ġpredecessor":8563,"ĠTerritory":8564,"ĠSupreme":8565,"ĠStefani":8566,"ĠGarcÃŃa":8567,"EC":8568,"cru":8569,"friend":8570,"har":8571,"hist":8572,"hire":8573,"lock":8574,"life":8575,"rants":8576,"vious":8577,"Ġax":8578,"Ġsad":8579,"Ġsale":8580,"Ġwine":8581,"Ġori":8582,"Ġban":8583,"Ġbord":8584,"Ġpine":8585,"Ġmoon":8586,"Ġmamm":8587,"Ġdiver":8588,"ĠTai":8589,"Ġlat":8590,"Ġlanes":8591,"ĠMuch":8592,"ĠBou":8593,"ivan":8594,"ivated":8595,"oto":8596,"ĠHom":8597,"ĠHok":8598,"ĠHaving":8599,"utt":8600,"Ġstyl":8601,"ĠRa":8602,"ĠRu":8603,"ĠRace":8604,"ĠDig":8605,"Ġconclusion":8606,"ĠNetwork":8607,"ĠWic":8608,"ĠWeb":8609,"Ġvast":8610,"Ġrates":8611,"oceratops":8612,"iped":8613,"Ġuniform":8614,"oko":8615,"ĠHend":8616,"Ġresidence":8617,"ricts":8618,"Ġjun":8619,"Ġmanuscript":8620,"Ġcanc":8621,"Ġcharged":8622,"Ġcooper":8623,"Ġsupporters":8624,"ĠShik":8625,"Ġsurg":8626,"Ġreprodu":8627,"ĠShel":8628,"Ġgenerals":8629,"Ġmusician":8630,"Ġconsidering":8631,"Ġtrials":8632,"apped":8633,"Ġparish":8634,"Ġtempor":8635,"Ġopponent":8636,"alky":8637,"Ġelections":8638,"Ġterrain":8639,"Ġfactors":8640,"ĠEvent":8641,"ĠGlob":8642,"ĠMonument":8643,"Ġliked":8644,"Ġgoddess":8645,"ĠSydney":8646,"Ġranking":8647,"Ġrailroad":8648,"ĠOverall":8649,"Ġcleared":8650,"ĠFIFA":8651,"Ġsuspended":8652,"ĠEnterprise":8653,"Ġprepare":8654,"Ġdisplayed":8655,"Ġvehicle":8656,"Ġranges":8657,"Ġscientific":8658,"Ġbatsman":8659,"Ġmoderate":8660,"Ġmartial":8661,"ĠInitially":8662,"Ġcollapsed":8663,"ĠTreaty":8664,"species":8665,"SP":8666,"boy":8667,"gam":8668,"ji":8669,"xual":8670,"za":8671,"Ġsaved":8672,"Ġwrest":8673,"Ġfoss":8674,"Ġfishing":8675,"alf":8676,"Ġdangerous":8677,"acter":8678,"ĠMoon":8679,"ĠBush":8680,"ĠBaker":8681,"Ġgar":8682,"usic":8683,"ĠRaff":8684,"ĠFurt":8685,"Ġalt":8686,"ĠNob":8687,"ĠWomen":8688,"ĠLinc":8689,"osh":8690,"ĠJT":8691,"ĠEight":8692,"Ġprosp":8693,"ocy":8694,"ĠKann":8695,"Ġspur":8696,"Ġresign":8697,"Ġabund":8698,"Ġscheme":8699,"ensions":8700,"Ġimperial":8701,"Ġteen":8702,"ĠUntil":8703,"rible":8704,"away":8705,"Ġearning":8706,"Ġamino":8707,"Ġ105":8708,"Ġexposure":8709,"Ġmainland":8710,"Ġoperates":8711,"Ġlandings":8712,"ĠGuide":8713,"Ġrestrict":8714,"Ġdeter":8715,"apping":8716,"Ġ1000":8717,"Ġdemands":8718,"Ġbands":8719,"Ã¡r":8720,"Ġsituated":8721,"Ġsteep":8722,"ĠCooper":8723,"Ġhousing":8724,"Ġlayer":8725,"Ġhunting":8726,"ĠLegacy":8727,"Ġspiritual":8728,"ĠCaes":8729,"Ġpremiere":8730,"ĠMcCarty":8731,"ĠOhio":8732,"ĠAlfred":8733,"Ġexclusively":8734,"ĠPersian":8735,"ĠAerith":8736,"ĠGilbert":8737,"ĠCBS":8738,"Ġpupils":8739,"ĠHudson":8740,"ĠOlmec":8741,"WC":8742,"lie":8743,"ng":8744,"no":8745,"rating":8746,"inian":8747,"inations":8748,"reck":8749,"Ġsaves":8750,"Ġfill":8751,"Ġbell":8752,"Ġmode":8753,"Ġrevers":8754,"ĠSid":8755,"ĠSull":8756,"Ġninet":8757,"acles":8758,"urday":8759,"Ġgiant":8760,"ĠHope":8761,"uty":8762,"Ġstyles":8763,"ĠNear":8764,"ĠLast":8765,"Ġanaly":8766,"agogue":8767,"odore":8768,"ĠEy":8769,"Ġrig":8770,"Ġsuit":8771,"Ġsuitable":8772,"ĠKrak":8773,"ruz":8774,"Ġcontribution":8775,"Ġdisaster":8776,"ĠYug":8777,"Ġcancer":8778,"ĠRelease":8779,"Ġ01":8780,"Ġfounder":8781,"Ġexpect":8782,"azines":8783,"Ġconstant":8784,"Ġorganisation":8785,"Ġexplo":8786,"Ġcrash":8787,"Ġstatistics":8788,"Ġinteresting":8789,"rapy":8790,"Ġcollapse":8791,"Ġruling":8792,"Ġcosts":8793,"Ġrespective":8794,"ĠMarkgra":8795,"Ġperspective":8796,"Ġsubjects":8797,"ĠGrade":8798,"Ġdispat":8799,"ĠCampaign":8800,"ĠPortugal":8801,"Ġbiggest":8802,"Ġsoutheastern":8803,"Ġcelebrated":8804,"Ġopportunities":8805,"Ġstruggle":8806,"ĠFurthermore":8807,"ĠSaturday":8808,"Ġneutral":8809,"Ġstriking":8810,"Ġpremiered":8811,"ĠSwedish":8812,"ĠDominican":8813,"inje":8814,"Ġtrouble":8815,"Ġrifle":8816,"Ġcrops":8817,"Ġunderwent":8818,"Ġtemporarily":8819,"ĠRaffles":8820,"ĠFurtado":8821,"ĠJTWC":8822,"ĠMarkgraf":8823,"NL":8824,"power":8825,"piece":8826,"ti":8827,"time":8828,"zing":8829,"Ġtrough":8830,"Ġtenth":8831,"Ġfert":8832,"arant":8833,"Ġbanned":8834,"asters":8835,"Ġhull":8836,"Ġhuge":8837,"ĠTan":8838,"ĠTal":8839,"ĠCO":8840,"ĠCome":8841,"Ġlake":8842,"Ġnit":8843,"Ġnations":8844,"ecraft":8845,"Ġgets":8846,"Ġgrown":8847,"ĠPow":8848,"ĠPier":8849,"ĠRen":8850,"ĠDAG":8851,"ulating":8852,"ĠLith":8853,"ĠGa":8854,"ĠGen":8855,"ersed":8856,"oda":8857,"ewise":8858,"udo":8859,"Ġchamber":8860,"ĠUsta":8861,"ĠâĢĿ":8862,"ĠStu":8863,"ĠValky":8864,"Ġattrib":8865,"ĠArk":8866,"Ġcharity":8867,"Ġprerogative":8868,"Ġformat":8869,"Ġhighways":8870,"ĠSholay":8871,"tenance":8872,"Ġdepending":8873,"Ġ115":8874,"Ġrepair":8875,"ervative":8876,"ĠAllen":8877,"onto":8878,"Ġrefere":8879,"Ġparas":8880,"Ġdifference":8881,"Ġlisten":8882,"shore":8883,"Ġrealized":8884,"Ġelectron":8885,"Ġmagazines":8886,"Ġerr":8887,"ĠSimpson":8888,"osaurs":8889,"Ġrenov":8890,"Ġmeasured":8891,"Ġresearchers":8892,"Ġviolent":8893,"Ġtruck":8894,"ĠYears":8895,"ĠSocial":8896,"Ġdominant":8897,"Ġamounts":8898,"ĠInterstate":8899,"Ġfavorable":8900,"ĠHeadquarters":8901,"Ġproductions":8902,"iliar":8903,"Ġoxy":8904,"ĠCorb":8905,"Ġelevation":8906,"Ġwithdrawal":8907,"Ġencounter":8908,"Ġsucceed":8909,"ĠHawaii":8910,"Ġseeking":8911,"Ġadvertising":8912,"Ġeliminated":8913,"ĠNHL":8914,"Ġconspiracy":8915,"ĠStewart":8916,"ĠCampbell":8917,"Ġretirement":8918,"ĠMozambique":8919,"Ġmuscaria":8920,"ĠNCAA":8921,"ĠArjona":8922,"ĠUstaÅ¡":8923,"DH":8924,"box":8925,"don":8926,"ean":8927,"egr":8928,"mouth":8929,"vati":8930,"Ľni":8931,"Ġtiss":8932,"Ġwings":8933,"orious":8934,"Ġtoll":8935,"icus":8936,"Ġmbar":8937,"Ġdwar":8938,"ĠCy":8939,"omic":8940,"Ġeat":8941,"ĠMun":8942,"ĠBoys":8943,"Ġgam":8944,"idel":8945,"ĠHamp":8946,"ĠHans":8947,"owiec":8948,"Ġbear":8949,"Ġhem":8950,"ĠNiel":8951,"ĠNash":8952,"ĠWander":8953,"ĠWiÅ":8954,"Ġanch":8955,"ĠEst":8956,"ĠExt":8957,"Ġvice":8958,"ongs":8959,"Ġexists":8960,"ryce":8961,"Ġclim":8962,"ĠThus":8963,"pled":8964,"Ġmanga":8965,"Ġpref":8966,"ints":8967,"inds":8968,"Ġweigh":8969,"Ġsubspecies":8970,"Ġprime":8971,"Ġreleases":8972,"ĠAustria":8973,"Ġnumbered":8974,"Ġ113":8975,"Ġdirectors":8976,"Ġdesigner":8977,"Ġadvancing":8978,"ĠDean":8979,"Ġcharacterized":8980,"Ġpromised":8981,"Ġpublications":8982,"Ġclassification":8983,"ĠMcL":8984,"ĠMcM":8985,"Ġchildhood":8986,"Ġdriver":8987,"Ġexplains":8988,"Ġcommunications":8989,"Ġeveryone":8990,"Ġelder":8991,"Ġfreedom":8992,"Ġprofile":8993,"ĠBarry":8994,"Ġ1908":8995,"Ġputting":8996,"ĠPhilip":8997,"ĠMaggie":8998,"Ġcyclones":8999,"Ġemployees":9000,"Ġwithdrawn":9001,"Ġnominations":9002,"ĠToronto":9003,"ĠSchm":9004,"Ġharbour":9005,"Ġcruisers":9006,"Ġfrequent":9007,"ĠIsraeli":9008,"Ġaspect":9009,"Ġinstitution":9010,"ĠCommunist":9011,"Ġcolumns":9012,"ĠWatson":9013,"ĠGraves":9014,"ĠBelgium":9015,"Ġfatal":9016,"ĠHungarian":9017,"Ġdistinguished":9018,"Ġstrategic":9019,"ĠNapole":9020,"Ġdrug":9021,"ĠHeavyweight":9022,"Ġjackrab":9023,"ĠLabour":9024,"Ġcitizens":9025,"ĠProtestant":9026,"ĠBarker":9027,"ĠLincol":9028,"ĠSullivan":9029,"ĠYugosl":9030,"Ġdwarf":9031,"Pa":9032,"itively":9033,"Ġchess":9034,"enic":9035,"Ġbod":9036,"ĠAT":9037,"ĠSans":9038,"ellect":9039,"ecution":9040,"ĠBab":9041,"ĠBoss":9042,"ĠBenn":9043,"olis":9044,"Ġbears":9045,"Ġbeauty":9046,"ĠRaw":9047,"unes":9048,"ĠWag":9049,"ĠGate":9050,"ĠEagle":9051,"aks":9052,"aku":9053,"ĠUFC":9054,"Ġshaft":9055,"geon":9056,"Ġspac":9057,"Ġspend":9058,"Ġspores":9059,"ishn":9060,"Ġenemies":9061,"Ġcenters":9062,"eping":9063,"Ġfeud":9064,"ĠArsenal":9065,"Ġsubmitted":9066,"Ġpeaking":9067,"Ġcoins":9068,"Ġthereafter":9069,"arsh":9070,"Ġ163":9071,"Ġmetre":9072,"Ġ117":9073,"ĠConc":9074,"Ġairfield":9075,"ashi":9076,"Ġguerr":9077,"Ġrestricted":9078,"Ġslide":9079,"ĠParaly":9080,"ĠParvati":9081,"Ġ1923":9082,"urricanes":9083,"Ġinitiated":9084,"Ġdrain":9085,"Ġstrongest":9086,"ĠTracy":9087,"ĠPerform":9088,"Ġskills":9089,"ĠPolit":9090,"Ġ1905":9091,"Ġsounds":9092,"ĠGlad":9093,"oof":9094,"Ġfalls":9095,"ĠHills":9096,"ĠRocky":9097,"Ġbusinesses":9098,"ĠBusiness":9099,"ĠTurks":9100,"ĠMrs":9101,"Ġtargets":9102,"ĠBuilding":9103,"Ġbatteries":9104,"ĠDerry":9105,"Ġconcentrated":9106,"Ġholiday":9107,"Ġexcavation":9108,"Ġaggressive":9109,"Ġemphasis":9110,"ĠBulgar":9111,"Ã¶n":9112,"Ġcemetery":9113,"Ġassembled":9114,"Ġbenefit":9115,"Ġstrengthened":9116,"ĠOrganization":9117,"ĠPhoenix":9118,"ĠRÃ©union":9119,"ĠAncient":9120,"ekÄģntav":9121,"Ġtexts":9122,"Ľniowiec":9123,"ĠWiÅĽniowiec":9124,"ĠParalymp":9125,"cour":9126,"gov":9127,"mont":9128,"nie":9129,"yc":9130,"heera":9131,"atur":9132,"isler":9133,"asm":9134,"Ġtopped":9135,"Ġmines":9136,"Ġhorn":9137,"ĠAA":9138,"ĠAce":9139,"ĠSk":9140,"adier":9141,"urance":9142,"ĠBrand":9143,"Ġstrict":9144,"Ġhearing":9145,"ĠRoth":9146,"Ġalive":9147,"Ġaltered":9148,"ĠWisc":9149,"ĠGro":9150,"ĠGwen":9151,"ĠJason":9152,"aints":9153,"ĠEaton":9154,"Ġcomed":9155,"aki":9156,"ĠKelly":9157,"essee":9158,"ĠStaff":9159,"asts":9160,"Ġyield":9161,"oster":9162,"Ġunlik":9163,"Ġjury":9164,"Ġfeels":9165,"ĠAsian":9166,"Ġdecides":9167,"onsin":9168,"Ġartificial":9169,"Ġdistricts":9170,"Ġinscription":9171,"Ġinscriptions":9172,"ĠPlan":9173,"Ã©e":9174,"Ġvariation":9175,"Ġgray":9176,"Ġlatex":9177,"raction":9178,"Ġstarlings":9179,"Ġbelieving":9180,"Ġcommunication":9181,"Ġamongst":9182,"Ġpatrol":9183,"ĠAnglo":9184,"Ġjoining":9185,"Ġarmoured":9186,"Ġradiation":9187,"ĠSym":9188,"Ġfifty":9189,"Ġfifteen":9190,"Ġtesting":9191,"Ġfallen":9192,"Ġasks":9193,"Ġhonour":9194,"ĠSlayer":9195,"Ġmerely":9196,"Ġfundament":9197,"Ġremoval":9198,"ĠKhand":9199,"ĠPoly":9200,"ĠTrail":9201,"Ġadaptation":9202,"Ġvotes":9203,"Ġboundary":9204,"Ġconversion":9205,"ĠTennessee":9206,"ĠCritics":9207,"Ġarchitectural":9208,"ĠRhodesia":9209,"ĠKirk":9210,"Ġdelivery":9211,"ĠMurray":9212,"ĠJonathan":9213,"Ġaimed":9214,"ropolitan":9215,"ĠKannada":9216,"ĠUstaÅ¡e":9217,"ekÄģntavÄģda":9218,"ĠWisconsin":9219,"jan":9220,"pan":9221,"taker":9222,"zed":9223,"rep":9224,"Ġsung":9225,"Ġwet":9226,"itia":9227,"Ġfate":9228,"Ġfasc":9229,"Ġfountain":9230,"Ġped":9231,"Ġdies":9232,"ĠCateg":9233,"amount":9234,"Ġnurse":9235,"ĠMidge":9236,"ĠMÃ¡r":9237,"ĠBulls":9238,"olen":9239,"otten":9240,"Ġstores":9241,"ĠDum":9242,"ĠFle":9243,"ĠFalls":9244,"char":9245,"ĠLost":9246,"ĠGray":9247,"Ġvault":9248,"Ġsuicide":9249,"ĠKam":9250,"Ġnotice":9251,"ĠVI":9252,"ĠVul":9253,"Ġintellect":9254,"Ġusage":9255,"achute":9256,"Ġapprec":9257,"ensively":9258,"Ġupset":9259,"inding":9260,"oyage":9261,"Ġconservation":9262,"Ġflash":9263,"Ġsubstitute":9264,"Ġentertain":9265,"Ġsurprise":9266,"Ġimpression":9267,"ennium":9268,"Ġgenera":9269,"Ġhelmet":9270,"Ġapproval":9271,"Ġ1925":9272,"Ġengagement":9273,"neath":9274,"Ġexpert":9275,"ĠPerfect":9276,"Ġarriving":9277,"ĠDavis":9278,"ĠNext":9279,"Ġpredators":9280,"atinum":9281,"Ġharm":9282,"Ġantiqu":9283,"Ġpotentially":9284,"Ġuncertain":9285,"Ġapplication":9286,"ĠHowe":9287,"Ġconflicts":9288,"Ġtalking":9289,"Ġdistinctive":9290,"Ġpounder":9291,"Ġdeparted":9292,"Ġsteps":9293,"Ġmagnitude":9294,"Ġenvironmental":9295,"Ġcomparison":9296,"ĠMasters":9297,"Ġtheatrical":9298,"ĠRailway":9299,"Ġpulled":9300,"Ġempire":9301,"Ġdemolished":9302,"Ġillegal":9303,"ĠFoundation":9304,"ĠRajneesh":9305,"ĠEventually":9306,"ĠStuart":9307,"ĠKhandoba":9308,"ĠCategory":9309,"ĠMÃ¡rquez":9310,"dress":9311,"jamin":9312,"ua":9313,"vor":9314,"yll":9315,"Ã£":9316,"Ġtub":9317,"nda":9318,"ester":9319,"ashes":9320,"Ġtoured":9321,"Ġtoler":9322,"Ġmir":9323,"Ġdense":9324,"Ġhills":9325,"Ġrend":9326,"ĠSM":9327,"ĠSS":9328,"ĠSle":9329,"Ġthrew":9330,"ĠCirc":9331,"omura":9332,"ami":9333,"Ġnet":9334,"Ġnavy":9335,"ĠMk":9336,"Ġongoing":9337,"ĠBacon":9338,"imer":9339,"Ġforty":9340,"ige":9341,"Ġhen":9342,"ĠRaid":9343,"unc":9344,"unch":9345,"ĠFRE":9346,"ĠNon":9347,"ĠGirls":9348,"ods":9349,"ĠEric":9350,"opl":9351,"Ġvs":9352,"illas":9353,"akers":9354,"arte":9355,"Ġchoir":9356,"ĠStories":9357,"iao":9358,"ĠVik":9359,"Ġrot":9360,"Ġpermission":9361,"Ġrecon":9362,"Ġdisagre":9363,"Ġencl":9364,"Ġevident":9365,"Ġpole":9366,"Ġ83":9367,"Ġtrust":9368,"Ġrelation":9369,"Ġcoinc":9370,"Ġcoaching":9371,"Ġmaintenance":9372,"Ġ114":9373,"Ġcompleting":9374,"Ġinflict":9375,"Ġeffic":9376,"Ġadvice":9377,"Ġadventure":9378,"Ġedges":9379,"ĠBeh":9380,"Ġconfront":9381,"Ġmarch":9382,"echism":9383,"Ġvisiting":9384,"Ġbreed":9385,"Ġhandled":9386,"Ġreferring":9387,"Ġarmies":9388,"Ġ1901":9389,"Ġfriendly":9390,"Ġwider":9391,"ĠHarv":9392,"Ġswim":9393,"ĠKeith":9394,"ĠSwiss":9395,"Ġreducing":9396,"ĠMadison":9397,"Ġcircle":9398,"Ġ1861":9399,"Ġsynagogue":9400,"Ġ1830":9401,"ĠPeters":9402,"ĠStudio":9403,"ĠBenjamin":9404,"ĠFrancis":9405,"chell":9406,"Ġ978":9407,"ĠReturn":9408,"ĠJourney":9409,"ĠVillage":9410,"ĠMcCartney":9411,"imetres":9412,"ĠJurchen":9413,"Ġhelicopters":9414,"ĠSimilarly":9415,"LIMO":9416,"Ġsettlements":9417,"ĠMulder":9418,"Ġemergency":9419,"Ġenthus":9420,"ĠProgram":9421,"ĠCeltic":9422,"ĠHouston":9423,"Ġunlikely":9424,"ĠFRELIMO":9425,"IA":9426,"PA":9427,"father":9428,"iac":9429,"mn":9430,"nels":9431,"vant":9432,"Ġid":9433,"Ġsang":9434,"Ġwel":9435,"atically":9436,"orage":9437,"Ġcaves":9438,"Ġcotton":9439,"Ġbanks":9440,"Ġinning":9441,"Ġpap":9442,"icia":9443,"Ġmac":9444,"Ġhook":9445,"ĠTree":9446,"ĠAuthor":9447,"ĠSour":9448,"ĠSout":9449,"ĠSAS":9450,"ĠCP":9451,"Ġgap":9452,"owa":9453,"ĠPC":9454,"Ġbeating":9455,"ĠDa":9456,"ĠNav":9457,"ĠLud":9458,"ĠEsh":9459,"oples":9460,"Ġrushing":9461,"Ġplus":9462,"Ġkit":9463,"ĠStal":9464,"Ġspending":9465,"ellar":9466,"ĠHealth":9467,"ĠThose":9468,"Ġoffs":9469,"angel":9470,"ĠOntar":9471,"osexual":9472,"Ġfeathers":9473,"Ġassess":9474,"Ġrecordings":9475,"anyon":9476,"ĠScully":9477,"yline":9478,"ieth":9479,"ieties":9480,"Ġ170":9481,"ernon":9482,"ĠSheff":9483,"Ġheaddress":9484,"Ġobtain":9485,"ĠColl":9486,"ĠGuine":9487,"Ġweekend":9488,"Ġstarring":9489,"Ġ1924":9490,"Ġcapturing":9491,"Ġnortheastern":9492,"Ġsimilarly":9493,"Ġpropag":9494,"Ġcontrols":9495,"ĠLeslie":9496,"Ġstructural":9497,"Ġ1907":9498,"ĠNev":9499,"Ġsumm":9500,"ĠMagn":9501,"Ġpriest":9502,"Ġcreative":9503,"ĠOscar":9504,"Ġnetworks":9505,"Ġkeeping":9506,"Ġdiagn":9507,"Ġbattleship":9508,"ĠOutstanding":9509,"Ġsecretary":9510,"ĠErnest":9511,"Ġpowered":9512,"Ġstrikeouts":9513,"ĠLouisiana":9514,"Ġmelody":9515,"ĠOriginal":9516,"Ġsacred":9517,"Ġceremon":9518,"Ġmobile":9519,"Ġvenues":9520,"Ġcollaboration":9521,"ĠRifles":9522,"Ġdefinition":9523,"Ġnegotiations":9524,"ĠObser":9525,"ĠMLB":9526,"Ġphilosophy":9527,"Ġelaborate":9528,"Ġsatisf":9529,"Ġsimultaneously":9530,"ĠCaesar":9531,"ĠLincoln":9532,"ĠWagner":9533,"Ġspacecraft":9534,"ĠWiÅĽniowiecki":9535,"ĠOntario":9536,"Ch":9537,"bre":9538,"fe":9539,"hang":9540,"nik":9541,"po":9542,"raska":9543,"tong":9544,"zhou":9545,"Ġtelling":9546,"itage":9547,"Ġcup":9548,"Ġcrake":9549,"Ġfro":9550,"Ġbran":9551,"Ġbare":9552,"alley":9553,"rols":9554,"Ġhidden":9555,"oux":9556,"ĠTit":9557,"ĠTogether":9558,"ĠSon":9559,"ĠSign":9560,"sters":9561,"ĠMem":9562,"ĠMall":9563,"ĠMaur":9564,"ĠBeth":9565,"iger":9566,"otyp":9567,"otilla":9568,"Ġbeats":9569,"ĠRap":9570,"ĠDD":9571,"cho":9572,"ĠNatural":9573,"estyle":9574,"Ġride":9575,"Ġsharp":9576,"iper":9577,"ogy":9578,"ĠVand":9579,"oken":9580,"endar":9581,"Ġperimeter":9582,"Ġremove":9583,"Ġ04":9584,"ĠAustro":9585,"Ġtrapped":9586,"Ġmeters":9587,"Ġpromin":9588,"Ġpersonality":9589,"Ġhanded":9590,"Ġanticip":9591,"Ġhelping":9592,"Ġbattlecru":9593,"umps":9594,"ĠMagdal":9595,"Ġvalues":9596,"ĠSwitzer":9597,"Ġfacility":9598,"Ġrocks":9599,"Ġlacked":9600,"Ġprofessor":9601,"Ġruler":9602,"ĠKhan":9603,"Ġdonated":9604,"Ġparticipate":9605,"ĠMeteorological":9606,"Ġ1840":9607,"Ġbombing":9608,"Ġpercentage":9609,"Ġbirthday":9610,"ĠTrek":9611,"Ġcredit":9612,"Ġjobs":9613,"Ġsculptures":9614,"Ġplatoon":9615,"ĠHugh":9616,"Ġnewspapers":9617,"Ġtasked":9618,"Ġturret":9619,"Ġstruggled":9620,"ĠMathews":9621,"ĠMatthew":9622,"Ġexcavations":9623,"Ġmanufactur":9624,"Ġwaiting":9625,"Ġscientists":9626,"Ġduty":9627,"ĠChapel":9628,"ĠBroadway":9629,"ĠSurvey":9630,"Ġvertical":9631,"ĠWalker":9632,"minster":9633,"Ġvegetation":9634,"Ġastronom":9635,"ocaust":9636,"ĠNaktong":9637,"ĠNebraska":9638,"olithic":9639,"ĠHokies":9640,"Ġsurgery":9641,"ES":9642,"Malley":9643,"eign":9644,"gas":9645,"rad":9646,"ski":9647,"uki":9648,"inction":9649,"Ġcake":9650,"Ġbrain":9651,"Ġinclusion":9652,"Ġtooth":9653,"Ġmemb":9654,"Ġmemor":9655,"oust":9656,"ĠTa":9657,"ĠTony":9658,"Ġreass":9659,"ĠAut":9660,"ĠABC":9661,"ĠSony":9662,"ĠCall":9663,"ĠCanyon":9664,"amer":9665,"aman":9666,"acre":9667,"ĠMit":9668,"ĠBible":9669,"ĠBarn":9670,"ĠBanks":9671,"ĠIan":9672,"etime":9673,"Ġgates":9674,"imented":9675,"iri":9676,"ĠHop":9677,"ayan":9678,"ĠPur":9679,"ĠFil":9680,"ĠFem":9681,"Ġconj":9682,"ĠGhost":9683,"Ġanime":9684,"umin":9685,"oded":9686,"Ġrid":9687,"ĠInvest":9688,"Ġshares":9689,"ĠChagas":9690,"Ġabol":9691,"active":9692,"overeign":9693,"phy":9694,"ĠAnne":9695,"Ġassembly":9696,"Ġcoin":9697,"Ġmonit":9698,"Ġexpression":9699,"Ġreceives":9700,"Ġextensively":9701,"Ġwarfare":9702,"Ġoperational":9703,"Ġmayor":9704,"Ġdiscussion":9705,"Ġsimpl":9706,"Ġrestore":9707,"ĠHerze":9708,"ĠChristians":9709,"Ġreflected":9710,"Ġcommandment":9711,"Ġparody":9712,"ĠWithout":9713,"ĠAbby":9714,"Ġconventional":9715,"ĠTrust":9716,"arris":9717,"Ġprofit":9718,"Ġcyt":9719,"ĠRegister":9720,"Ġprogramming":9721,"Ġshoulder":9722,"Ġgoods":9723,"ĠHarold":9724,"Ġrevised":9725,"ĠMagad":9726,"Ġcolleagues":9727,"Ġsupern":9728,"Ġsuperv":9729,"ĠActor":9730,"Ġ350":9731,"ĠEmmy":9732,"ĠAgency":9733,"Ġexcell":9734,"Ġgrave":9735,"ĠAngela":9736,"Ġdispute":9737,"Ġquarterback":9738,"Ġbowl":9739,"Ġtalks":9740,"Ġtournaments":9741,"Ġevacuated":9742,"Ġwalking":9743,"Ġtranslation":9744,"ĠFinals":9745,"ĠIndependence":9746,"Ġexhibition":9747,"Ġpounds":9748,"ĠKentucky":9749,"Ġneighb":9750,"Ġimagery":9751,"Ġexecution":9752,"ĠYankees":9753,"ĠChildren":9754,"ĠGiants":9755,"Ġvirtually":9756,"ĠMichel":9757,"Ġundertaken":9758,"ĠTransportation":9759,"Ġaccurate":9760,"ĠBrooks":9761,"amaru":9762,"ĠDakota":9763,"ĠShikamaru":9764,"ĠValkyria":9765,"ĠNielsen":9766,"ĠWanderers":9767,"govina":9768,"ĠSheffield":9769,"ĠSwitzerland":9770,"CO":9771,"EFA":9772,"NC":9773,"bing":9774,"ci":9775,"equ":9776,"gon":9777,"gars":9778,"ht":9779,"hum":9780,"kes":9781,"Ġtor":9782,"Ġtale":9783,"Ġaf":9784,"erg":9785,"Ġcave":9786,"enz":9787,"aria":9788,"Ġbra":9789,"Ġboss":9790,"Ġboys":9791,"Ġinfer":9792,"Ġdict":9793,"lee":9794,"ĠSant":9795,"ĠCond":9796,"Ġnurs":9797,"acruz":9798,"irates":9799,"ĠPryce":9800,"ĠRivers":9801,"ĠDog":9802,"ĠDram":9803,"ĠDiam":9804,"ĠFace":9805,"ĠLibrary":9806,"osom":9807,"illiant":9808,"Ġdeity":9809,"Ġrising":9810,"Ġracing":9811,"berry":9812,"ĠKit":9813,"Ġchrom":9814,"ĠUEFA":9815,"ĠStr":9816,"sex":9817,"ipes":9818,"Ġclin":9819,"ĠHeart":9820,"ĠHeaven":9821,"Ġresolution":9822,"enden":9823,"Ġroots":9824,"Ġmanip":9825,"Ġoffering":9826,"angular":9827,"Ġevolved":9828,"inted":9829,"Ġdecay":9830,"Ġretain":9831,"Ġsupplement":9832,"ahi":9833,"Ġobvious":9834,"Ġdiff":9835,"Ġinsurg":9836,"Ġweekly":9837,"Ġkills":9838,"Ġpersonally":9839,"Ġfewer":9840,"ĠPriv":9841,"ĠAbd":9842,"Ġpatrols":9843,"Ġcompeted":9844,"Ġfactory":9845,"ĠEvans":9846,"Ġtrend":9847,"Ġidentify":9848,"ĠMadrid":9849,"Ġclosing":9850,"Ġappointment":9851,"Ġmotif":9852,"Ġdevast":9853,"Ġgraves":9854,"Ġmachines":9855,"ĠÃī":9856,"Ġcontrad":9857,"ĠHolocaust":9858,"Ġ360":9859,"ĠPriest":9860,"ĠVeracruz":9861,"underst":9862,"Ġintersects":9863,"Ġtemperatures":9864,"ĠConservation":9865,"ĠWaterfall":9866,"Ġsquadrons":9867,"ĠCheval":9868,"Ġprisoners":9869,"Ġmechanical":9870,"ĠProvince":9871,"Ġaccomplish":9872,"ĠBertin":9873,"burgh":9874,"Ġappropriate":9875,"ĠTokyo":9876,"ĠHerzegovina":9877,"ĠMagadheera":9878,"ko":9879,"where":9880,"ËĪ":9881,"Ġtut":9882,"Ġtort":9883,"Ġwish":9884,"Ġwreck":9885,"atch":9886,"Ġcook":9887,"enged":9888,"enger":9889,"Ġfulf":9890,"aration":9891,"Ġbishop":9892,"Ġpion":9893,"Ġpace":9894,"Ġphen":9895,"Ġparent":9896,"asp":9897,"ĠTat":9898,"ĠTag":9899,"ĠAh":9900,"entle":9901,"Ġloud":9902,"Ġliqu":9903,"omtav":9904,"Ġforth":9905,"otte":9906,"ĠHave":9907,"usan":9908,"ĠPubl":9909,"ĠDub":9910,"ĠDah":9911,"una":9912,"Ġwhilst":9913,"Ġalph":9914,"ĠLas":9915,"ĠGirl":9916,"agen":9917,"resent":9918,"Ġveter":9919,"ĠIntern":9920,"ighters":9921,"ocation":9922,"ĠKu":9923,"Ġplacing":9924,"Ġyd":9925,"iney":9926,"ĠCharts":9927,"ogan":9928,"Ġcomponents":9929,"oking":9930,"okovic":9931,"Ġrouting":9932,"Ġperp":9933,"ultan":9934,"Ġagency":9935,"Ġovert":9936,"ĠYo":9937,"ĠYouth":9938,"Ġevolution":9939,"Ġfee":9940,"ĠAsomtav":9941,"Ġdecisions":9942,"ugu":9943,"ĠMars":9944,"ĠMarie":9945,"Ġproduces":9946,"Ġraising":9947,"Ġraids":9948,"Ġincom":9949,"Ġ129":9950,"ĠJoh":9951,"azirid":9952,"Ġorigins":9953,"ĠConstitution":9954,"Ġstring":9955,"Ġapproaching":9956,"Ġexplicit":9957,"Ġsentences":9958,"Ġopposing":9959,"eteries":9960,"ĠCountry":9961,"Ġtwent":9962,"Ġbehalf":9963,"Ġvictim":9964,"Ġsket":9965,"ĠWestminster":9966,"Ġsolar":9967,"Ġdestroyer":9968,"ĠScientologists":9969,"Ġadmin":9970,"ĠGlass":9971,"Ġrede":9972,"grad":9973,"Ġvalid":9974,"Ġfacil":9975,"Ġasking":9976,"Ġflooded":9977,"Ġreactions":9978,"Ġtransported":9979,"Ġmaintaining":9980,"Ġobjectives":9981,"ASP":9982,"ĠCongo":9983,"Ġcredits":9984,"Ġkilometers":9985,"Ġsevent":9986,"ĠDjokovic":9987,"ĠBooks":9988,"ĠCatechism":9989,"Ġinhab":9990,"Ġpatterns":9991,"Ġprinted":9992,"Ġpreparing":9993,"Ġflew":9994,"ĠOfficial":9995,"Ġwealthy":9996,"Ġfrigates":9997,"Ġproportion":9998,"Ġaccompanying":9999,"Ġbrigades":10000,"Ġinterpreted":10001,"Ġneighborhood":10002,"Ġdeterior":10003,"Ġoxygen":10004,"ĠNapoleon":10005,"ĠAsomtavruli":10006,"hous":10007,"Ġsample":10008,"eded":10009,"Ġwishes":10010,"Ġcous":10011,"Ġfles":10012,"esters":10013,"Ġtom":10014,"Ġtouring":10015,"rov":10016,"icians":10017,"Ġdust":10018,"Ġduration":10019,"Ġhosp":10020,"ĠhPa":10021,"ĠTNA":10022,"ĠAle":10023,"ĠAman":10024,"ĠSay":10025,"ĠSomet":10026,"ĠCred":10027,"adi":10028,"ĠMant":10029,"Ġonwards":10030,"Ġgirls":10031,"Ġstim":10032,"ĠRag":10033,"ĠDw":10034,"ĠDin":10035,"ĠDor":10036,"ĠDud":10037,"ĠNS":10038,"ĠNat":10039,"ĠLin":10040,"ĠLane":10041,"ĠJen":10042,"umented":10043,"ĠEug":10044,"ĠOmar":10045,"Ġvel":10046,"arded":10047,"ĠKin":10048,"ĠKon":10049,"Ġshift":10050,"ĠChampions":10051,"Ġunex":10052,"ĠVic":10053,"Ġcompens":10054,"Ġcomponent":10055,"Ġaboard":10056,"Ġdisband":10057,"ibl":10058,"ĠYellow":10059,"aceous":10060,"Ġenroll":10061,"Ġpretty":10062,"Ġcommenced":10063,"oyd":10064,"Ġdece":10065,"ĠMariana":10066,"Ġtrunk":10067,"obi":10068,"Ġrains":10069,"Ġcoff":10070,"Ġfourteen":10071,"Ġindeed":10072,"Ġ128":10073,"Ġrecept":10074,"Ġ118":10075,"Ġrepairs":10076,"emble":10077,"ĠShell":10078,"Ġsignal":10079,"Ġmathem":10080,"ĠCarre":10081,"Ġgovernments":10082,"Ġadvoc":10083,"Ġdams":10084,"yself":10085,"Ġcommanders":10086,"Ġeventual":10087,"Ġexplain":10088,"Ġ1922":10089,"Ġsoldier":10090,"Ġanthem":10091,"Ġexperiment":10092,"Ġordering":10093,"Ġtourist":10094,"Ġcommentary":10095,"Ġ1889":10096,"Ġrepresentation":10097,"Ġescaped":10098,"Ġhoused":10099,"ĠMetro":10100,"Ġdocumented":10101,"Ġarchaeologist":10102,"ĠPrize":10103,"Ġambassador":10104,"Ġceratops":10105,"Ġpolicies":10106,"Ġboxing":10107,"Ġessay":10108,"ĠCharlotte":10109,"Ġastero":10110,"Ġ766":10111,"Ġreinforced":10112,"Ġdisplaced":10113,"ĠJoshua":10114,"bourne":10115,"Ġrhyme":10116,"Ġuniversities":10117,"Ġhoriz":10118,"ĠImagine":10119,"Ġreforms":10120,"Ġvolunteers":10121,"ĠCubs":10122,"Ġhydrogen":10123,"Ġvicinity":10124,"Ġdubbed":10125,"Ġconversation":10126,"arthy":10127,"ĠIslamic":10128,"Ġclothing":10129,"Ġmystery":10130,"Ġphrase":10131,"ĠEshmun":10132,"ĠGuinea":10133,"60":10134,"ME":10135,"gian":10136,"rh":10137,"Ġï":10138,"Ġwors":10139,"aters":10140,"itter":10141,"Ġca":10142,"Ġchest":10143,"Ġcavalry":10144,"Ġinher":10145,"Ġmand":10146,"ĠSyn":10147,"ĠCant":10148,"ĠCyr":10149,"Ġlin":10150,"Ġlad":10151,"elson":10152,"Ġgat":10153,"imon":10154,"ĠHur":10155,"ĠPas":10156,"ĠPle":10157,"Ġbeam":10158,"emen":10159,"Ġbypass":10160,"ĠNi":10161,"ĠNDH":10162,"ĠLim":10163,"aguchi":10164,"Ġvital":10165,"Ġrushed":10166,"ocent":10167,"ĠKings":10168,"Ġplatinum":10169,"Ġshorter":10170,"ĠStav":10171,"astra":10172,"ova":10173,"Ġspots":10174,"class":10175,"Ġcomprom":10176,"Ġcompilation":10177,"orks":10178,"Ġattorney":10179,"Ġfeeding":10180,"ĠSev":10181,"ĠSeven":10182,"Ġcanal":10183,"Ġassert":10184,"Ġpeoples":10185,"Ġbuy":10186,"Ġacids":10187,"Ġintercept":10188,"ĠLeigh":10189,"Ġpublishing":10190,"aho":10191,"Ġartistic":10192,"Ġrunners":10193,"ĠBlu":10194,"ĠBlues":10195,"Ġsixteen":10196,"Ġedited":10197,"Ġcharacteristic":10198,"ĠHerald":10199,"ĠHeritage":10200,"byter":10201,"ometric":10202,"Ġmarry":10203,"Ġapproaches":10204,"ungle":10205,"Ġhumor":10206,"incial":10207,"Ġlegit":10208,"Ġ240":10209,"ĠXenon":10210,"aughters":10211,"ĠCentre":10212,"ĠRomanian":10213,"Ġaffili":10214,"Ġpresentation":10215,"Ġreader":10216,"ĠExper":10217,"ĠFederation":10218,"Ġredes":10219,"Ġconnecting":10220,"ĠMorgan":10221,"ĠMcCarthy":10222,"Ġanimated":10223,"Ġtested":10224,"Ġclosure":10225,"Ġindustries":10226,"ĠPeach":10227,"Ġpoetic":10228,"legraph":10229,"Ġblocked":10230,"Ġdepicting":10231,"ĠInterchange":10232,"Ġobservation":10233,"ĠRobinson":10234,"Ġboundaries":10235,"ĠSpecies":10236,"ĠFinally":10237,"Ġchampionships":10238,"Ġadministrative":10239,"Ġaggreg":10240,"ĠColumbus":10241,"Ġtimber":10242,"Ġadvertis":10243,"Ġcomprised":10244,"Ġhamlet":10245,"ĠWorks":10246,"ropolis":10247,"Ġsolely":10248,"Ġdisturbance":10249,"Ġcemeteries":10250,"Ġsubsid":10251,"Ġchoose":10252,"ĠLeonard":10253,"ĠSorra":10254,"Ġbalance":10255,"Ġsuddenly":10256,"ĠAmbassador":10257,"ĠDescription":10258,"Ġindigenous":10259,"Ġvulner":10260,"ĠWicca":10261,"ĠNevada":10262,"ĠChevaliers":10263,"fly":10264,"mates":10265,"tic":10266,"inces":10267,"Ġsized":10268,"Ġsitting":10269,"aro":10270,"Ġbore":10271,"Ġpse":10272,"Ġpull":10273,"Ġpages":10274,"Ġhi":10275,"ĠSau":10276,"ĠSection":10277,"stal":10278,"ĠCad":10279,"ĠCress":10280,"Ġlamb":10281,"lyn":10282,"ĠBald":10283,"ĠBuck":10284,"Ġgang":10285,"Ġgift":10286,"ĠPam":10287,"ĠPak":10288,"ĠPrest":10289,"ĠFif":10290,"ĠFreak":10291,"Ġisot":10292,"ĠNu":10293,"ĠNett":10294,"ĠWelling":10295,"ĠLocal":10296,"ĠGaz":10297,"ĠJard":10298,"ĠEconom":10299,"ĠOw":10300,"Ġseas":10301,"Ġseats":10302,"ĠKnow":10303,"Ġchain":10304,"mented":10305,"Ġspawn":10306,"Ġcler":10307,"ĠHey":10308,"Ġresol":10309,"Ġabilities":10310,"landers":10311,"ilda":10312,"athy":10313,"Ġthemed":10314,"Ġacted":10315,"Ġacceler":10316,"Ġ106":10317,"Ġepic":10318,"Ġsigns":10319,"Ġmature":10320,"Ġrunway":10321,"ĠClaud":10322,"ĠCarmel":10323,"ĠCommons":10324,"Ġhelium":10325,"Ġdetected":10326,"Ġportions":10327,"ĠChristine":10328,"ĠMcK":10329,"rett":10330,"appy":10331,"Ġtracked":10332,"Ġstarter":10333,"Ġreplacing":10334,"Ġcourses":10335,"Ġ230":10336,"Ġtraded":10337,"Ġstatements":10338,"restrial":10339,"Ġsolution":10340,"Ġobsc":10341,"aski":10342,"Ġpitching":10343,"ĠImm":10344,"Ġfunctions":10345,"Ġprofession":10346,"mediate":10347,"Ġembarked":10348,"ĠRhys":10349,"opping":10350,"ĠPoet":10351,"ĠStudies":10352,"Ġarchaeologists":10353,"ĠCollection":10354,"Ġsemif":10355,"Ġpairs":10356,"Ġindicates":10357,"ĠForeign":10358,"ĠRAR":10359,"ĠPhilippine":10360,"Ġpilots":10361,"Ġtranslated":10362,"Ġpleasure":10363,"Ġpunishment":10364,"Ġrecommend":10365,"ĠHawaiian":10366,"ĠCommunity":10367,"Ġwait":10368,"Ġillustrated":10369,"Ġflagship":10370,"Ġbeliefs":10371,"ĠSweden":10372,"Ġmolecules":10373,"ĠDodgers":10374,"Ġaerial":10375,"Ġunnamed":10376,"ĠAbbey":10377,"ĠPulaski":10378,"ĠDynasty":10379,"Ġrebellion":10380,"ĠMalaysia":10381,"Ġbombs":10382,"Ġjunior":10383,"Ġentertainment":10384,"Grom":10385,"chens":10386,"dict":10387,"eu":10388,"ele":10389,"krit":10390,"lights":10391,"uations":10392,"zer":10393,"zong":10394,"Ġæ":10395,"Ġsin":10396,"Ġwives":10397,"orig":10398,"itic":10399,"Ġcro":10400,"Ġcir":10401,"eness":10402,"esi":10403,"Ġinduct":10404,"Ġpron":10405,"roke":10406,"Ġdual":10407,"Ġdanger":10408,"Ġdaughters":10409,"ĠSisler":10410,"ĠCem":10411,"ĠCater":10412,"ĠCullen":10413,"Ġnaming":10414,"ĠBapt":10415,"Ġforg":10416,"othe":10417,"ĠPanz":10418,"ĠFood":10419,"ĠNag":10420,"ĠNose":10421,"ĠWN":10422,"ĠList":10423,"ĠGill":10424,"umble":10425,"riarch":10426,"odrom":10427,"Ġriding":10428,"ĠIns":10429,"Ġsew":10430,"Ġseized":10431,"ĠKle":10432,"ĠKÅį":10433,"Ġexport":10434,"Ġshrine":10435,"Ġshallow":10436,"Ġkid":10437,"ĠChron":10438,"ĠVel":10439,"Ġintegr":10440,"Ġclay":10441,"Ġclothes":10442,"Ġperceived":10443,"ĠThir":10444,"achment":10445,"Ġattitude":10446,"Ġenzy":10447,"Ġknock":10448,"Ġknocked":10449,"Ġcolossal":10450,"Ġpositively":10451,"Ġcancel":10452,"ansfield":10453,"Ġregistered":10454,"Ġ104":10455,"Ġtrails":10456,"ĠZoo":10457,"Ġtransmission":10458,"ĠIndians":10459,"Ġcontinuous":10460,"ĠJohnny":10461,"Ġpassion":10462,"Ġfamiliar":10463,"Ġphone":10464,"ĠAdela":10465,"Ġvaried":10466,"ĠGuadal":10467,"ĠMcN":10468,"Ġcaps":10469,"Ġrequires":10470,"Ġeastward":10471,"ĠEdge":10472,"Ġconvey":10473,"Ġconvention":10474,"Ġforecast":10475,"ĠParker":10476,"Ġreportedly":10477,"Ġaffairs":10478,"ficial":10479,"Ġcharted":10480,"Ġideal":10481,"hemical":10482,"Ġrevival":10483,"Ġestimates":10484,"Ġreduction":10485,"ĠRepresent":10486,"Ġrulers":10487,"Ġhyg":10488,"ĠValve":10489,"ĠOperations":10490,"Ġarchaeology":10491,"Ġcertainly":10492,"ĠPrix":10493,"ĠBurm":10494,"Ġquestions":10495,"Ġceleb":10496,"ĠWoodhouse":10497,"ĠBobby":10498,"Ġweakening":10499,"Ġsalv":10500,"Ġqualified":10501,"ĠWWF":10502,"Ġcandidates":10503,"ĠIntelligence":10504,"Ġmeasurements":10505,"Ġsubmarines":10506,"ĠGardner":10507,"ĠHonor":10508,"ĠBruce":10509,"ĠBelgian":10510,"Ġtonnes":10511,"Ġjuven":10512,"ĠImpact":10513,"ĠTetrarchs":10514,"Ġupdated":10515,"ĠTigers":10516,"ĠKawaguchi":10517,"Ġashore":10518,"Ġphotographs":10519,"ĠDigital":10520,"Ġcancelled":10521,"ĠSanskrit":10522,"ĠCredits":10523,"ĠDudley":10524,"ĠSorraia":10525,"ĠNosek":10526,"ĠAdelaide":10527,"ED":10528,"FL":10529,"Sh":10530,"budo":10531,"ds":10532,"tz":10533,"á¹":10534,"Ġump":10535,"Ġtet":10536,"Ġaw":10537,"oned":10538,"reated":10539,"Ġcode":10540,"Ġfusion":10541,"isen":10542,"arc":10543,"Ġbarr":10544,"Ġtox":10545,"Ġdod":10546,"ĠTow":10547,"ĠTask":10548,"Ġreward":10549,"Ġreaches":10550,"ĠSel":10551,"ĠSac":10552,"ĠSter":10553,"ĠCart":10554,"Ġliv":10555,"Ġlying":10556,"eling":10557,"ĠMix":10558,"ĠBird":10559,"ĠBidd":10560,"olin":10561,"terior":10562,"uther":10563,"ĠPu":10564,"ĠPole":10565,"ĠRat":10566,"ĠRav":10567,"ĠDover":10568,"ĠDance":10569,"ĠFul":10570,"ĠFord":10571,"ĠWASP":10572,"raid":10573,"ĠLakes":10574,"ĠGot":10575,"andra":10576,"ĠanekÄģntavÄģda":10577,"avor":10578,"odont":10579,"oping":10580,"Ġram":10581,"ante":10582,"ĠKau":10583,"earing":10584,"Ġshop":10585,"ishops":10586,"ĠVis":10587,"ĠVeer":10588,"soft":10589,"Ġcompre":10590,"orms":10591,"Ġusual":10592,"Ġjew":10593,"aceae":10594,"Ġrelatives":10595,"Ġendors":10596,"Ġqueen":10597,"Ġaccum":10598,"ĠJoint":10599,"Ġbacked":10600,"Ġ167":10601,"Ġ168":10602,"Ġdepiction":10603,"Ġminimal":10604,"venge":10605,"Ġextending":10606,"ĠBristol":10607,"ĠPlate":10608,"Ġsuccessive":10609,"Ġfinale":10610,"ĠDead":10611,"ĠDeep":10612,"Ġbrut":10613,"ĠMcE":10614,"Ġslopes":10615,"Ġcommands":10616,"ĠParamount":10617,"Ġreplied":10618,"hester":10619,"Ġroadway":10620,"Ġarchbishop":10621,"ĠXII":10622,"Ġsignificance":10623,"Ġ1902":10624,"Ġ1906":10625,"Ġgenetic":10626,"ĠImbudo":10627,"rieved":10628,"ĠNeves":10629,"Ġtenure":10630,"Ġranks":10631,"Ġcommenting":10632,"Ġsuperst":10633,"Ġaudio":10634,"Ġlacking":10635,"Ġ1888":10636,"Ġzones":10637,"Ġemployment":10638,"Ġillness":10639,"Ġmachinery":10640,"guard":10641,"Ġfailing":10642,"Ġunclear":10643,"Ġunderstood":10644,"ĠTwenty":10645,"Ġpursuit":10646,"Ġrecovery":10647,"Ġdeployment":10648,"Ġsearching":10649,"ĠDefense":10650,"Ġrescued":10651,"Ġfastest":10652,"Ġdissipating":10653,"Ġdiamond":10654,"ĠArgentine":10655,"yclic":10656,"ĠIdaho":10657,"ĠObserv":10658,"ĠBriggs":10659,"Ġenlisted":10660,"ĠSioux":10661,"Ġvertebra":10662,"Ġimmigration":10663,"ĠIngres":10664,"Ġdoctrine":10665,"ĠChronicles":10666,"Ġcinema":10667,"ĠTelugu":10668,"Ġrelieved":10669,"ĠProfessor":10670,"Ġtissue":10671,"Ġtubes":10672,"Ġflesh":10673,"Ġhospitals":10674,"ĠCresswell":10675,"ĠNettles":10676,"ĠJardine":10677,"ĠBiddenden":10678,"AR":10679,"Ar":10680,"Tube":10681,"bie":10682,"ja":10683,"Ġsoci":10684,"Ġwore":10685,"Ġwrestling":10686,"Ġfir":10687,"Ġfame":10688,"isle":10689,"Ġpush":10690,"asa":10691,"Ġmental":10692,"Ġda":10693,"Ġhitting":10694,"Ġrevenue":10695,"ĠSultan":10696,"Ġlover":10697,"Ġgor":10698,"Ġgaining":10699,"Ġghost":10700,"ĠHM":10701,"ĠHem":10702,"ĠRandy":10703,"ĠDersh":10704,"ĠDennis":10705,"rav":10706,"ĠLad":10707,"ĠGround":10708,"herry":10709,"agers":10710,"rip":10711,"Ġcomfort":10712,"Ġproceeded":10713,"Ġrivals":10714,"ocity":10715,"Ġexclud":10716,"Ġexecut":10717,"Ġshru":10718,"ounced":10719,"ĠVisc":10720,"sole":10721,"Ġabroad":10722,"Ġrotation":10723,"Ġpermitted":10724,"place":10725,"Ġ1800":10726,"izal":10727,"ĠAlmost":10728,"Ġjungle":10729,"phant":10730,"ressions":10731,"Ġprefect":10732,"oyle":10733,"Ġacute":10734,"Ġdoctor":10735,"ĠZap":10736,"ĠZanz":10737,"Ġpresents":10738,"Ġbacking":10739,"ylogen":10740,"Ġ169":10741,"azer":10742,"Ġmainstream":10743,"ĠIndies":10744,"Ġsignature":10745,"Ġwarned":10746,"Ġconstantly":10747,"ĠPlaces":10748,"Ġsuccession":10749,"ĠProte":10750,"ĠGuild":10751,"Ġpublicly":10752,"Ġports":10753,"ĠCanning":10754,"ambo":10755,"Ġboil":10756,"Ġdemanded":10757,"ographical":10758,"Ġstronger":10759,"ĠParks":10760,"Ġhistorically":10761,"Ġfactor":10762,"Ġ1903":10763,"regular":10764,"ĠYouTube":10765,"ĠMagic":10766,"Ġ1895":10767,"brace":10768,"Ġhostile":10769,"Ġarguing":10770,"Ġbiological":10771,"Ġcopy":10772,"Ġpersist":10773,"Ġpersons":10774,"ĠValent":10775,"ĠRussell":10776,"Ġheavier":10777,"Ġgolden":10778,"Ġautumn":10779,"Ġflowers":10780,"Ġconsistent":10781,"Ġcontroller":10782,"Ġwalks":10783,"ĠJosÃ©":10784,"ĠTriple":10785,"Ġmagnetic":10786,"Ġmanufacturing":10787,"Ġsailors":10788,"Ġhorror":10789,"Ġvenue":10790,"ĠUsher":10791,"Ġmolecular":10792,"Ġownership":10793,"Ġhouseholds":10794,"Ġrepeatedly":10795,"Ġsynthesis":10796,"Ġcategory":10797,"ĠAlberta":10798,"Ġexactly":10799,"Ġtalent":10800,"Ġpregnant":10801,"ĠPattyc":10802,"Ġshifted":10803,"Ġpuzzles":10804,"Ġexhausted":10805,"ĠARVN":10806,"Ġbombardment":10807,"ĠUtah":10808,"Ġmerchant":10809,"Ġrecurring":10810,"ĠArkansas":10811,"ĠBennett":10812,"ĠMitchell":10813,"Ġphenomen":10814,"ĠAmanita":10815,"ĠWellington":10816,"ĠChrono":10817,"ĠBurmese":10818,"ĠNevesinje":10819,"ĠDershowitz":10820,"ĠZanzib":10821,"ĠPattycake":10822,"EA":10823,"Xe":10824,"bro":10825,"bow":10826,"cut":10827,"cover":10828,"din":10829,"hr":10830,"oons":10831,"uters":10832,"Ġtape":10833,"inaw":10834,"Ġstern":10835,"Ġsick":10836,"Ġwaves":10837,"itely":10838,"Ġcensus":10839,"Ġfru":10840,"ario":10841,"Ġincl":10842,"Ġindu":10843,"Ġpushing":10844,"Ġdressed":10845,"ĠTong":10846,"ĠTak":10847,"ĠTales":10848,"Ġreper":10849,"ĠAud":10850,"Ġnose":10851,"ĠBox":10852,"ĠBatter":10853,"ĠIowa":10854,"ivation":10855,"ĠHad":10856,"ĠHoll":10857,"ĠHannah":10858,"owed":10859,"Ġstabil":10860,"Ġstellar":10861,"ĠPic":10862,"Ġbeings":10863,"Ġheir":10864,"ĠFut":10865,"Ġconce":10866,"ĠWik":10867,"ĠGael":10868,"ested":10869,"atever":10870,"ĠKid":10871,"ĠKrist":10872,"Ġchampions":10873,"Ġshield":10874,"Ġshirt":10875,"ĠStand":10876,"Ġspan":10877,"Ġlect":10878,"Ġintr":10879,"ibilities":10880,"Ġenorm":10881,"awak":10882,"atha":10883,"Ġretail":10884,"Ġspeculation":10885,"Ġaccus":10886,"erto":10887,"Ġ154":10888,"Ġ111":10889,"Ġ174":10890,"Ġmini":10891,"Ġextend":10892,"Ġdistrib":10893,"Ġfinest":10894,"enna":10895,"Ġ131":10896,"linger":10897,"Ġincreases":10898,"Ġmargin":10899,"ĠYorkshire":10900,"ĠAndre":10901,"Ġdrinking":10902,"ospel":10903,"ambia":10904,"Ġreviewed":10905,"Ġcoverage":10906,"ĠWeir":10907,"Ġmyster":10908,"Ġ220":10909,"Ġposts":10910,"atorial":10911,"Ġ1904":10912,"ĠJackets":10913,"ĠNeil":10914,"Ġrevived":10915,"Ġcampaigns":10916,"ĠCoal":10917,"Ġpromotional":10918,"brush":10919,"Ġanimation":10920,"Ġtestified":10921,"Ġcutting":10922,"Ġargument":10923,"Ġpersisted":10924,"ĠPohl":10925,"Ġpeninsula":10926,"Ġbombers":10927,"Ġguitarist":10928,"Ġseriously":10929,"Ġlifetime":10930,"Ġchallenged":10931,"Ġprecip":10932,"Ġgrandfather":10933,"Ġirregular":10934,"Ġprinting":10935,"Ġquestioned":10936,"Ġcompositions":10937,"ĠLloyd":10938,"Ġpictures":10939,"Ġhamper":10940,"Ġarrangements":10941,"Ġresemble":10942,"ĠGarden":10943,"Ġpetition":10944,"Ġoccasional":10945,"Ġfarmers":10946,"Ġsubtropical":10947,"ĠKenneth":10948,"Ġsteadily":10949,"Ġsongwriter":10950,"Ġrenewed":10951,"Ġgravity":10952,"Ġdensity":10953,"Ġpredominantly":10954,"Ġibis":10955,"ĠâĤ¹":10956,"Ġbonus":10957,"Ġfuneral":10958,"ĠPreston":10959,"ĠCemetery":10960,"CE":10961,"CU":10962,"RNA":10963,"VP":10964,"dream":10965,"net":10966,"ss":10967,"xim":10968,"inness":10969,"inÃ¡":10970,"eries":10971,"Ġsings":10972,"oric":10973,"Ġbull":10974,"alo":10975,"Ġtours":10976,"rooms":10977,"Ġmud":10978,"Ġmyself":10979,"Ġreag":10980,"Ġreop":10981,"ĠSag":10982,"ĠShip":10983,"ĠSkin":10984,"ĠCry":10985,"ĠCricket":10986,"Ġnave":10987,"ĠMission":10988,"ĠMembers":10989,"uras":10990,"ĠBour":10991,"ĠIRA":10992,"olly":10993,"iga":10994,"ĠHarris":10995,"Ġstorage":10996,"ĠPound":10997,"ĠRab":10998,"ĠNadal":10999,"ĠNelson":11000,"ĠWol":11001,"ĠLooking":11002,"osph":11003,"agger":11004,"ĠEth":11005,"Ġdeals":11006,"ĠKate":11007,"ĠKiss":11008,"Ġchicks":11009,"Ġexternal":11010,"ipel":11011,"apolis":11012,"Ġunw":11013,"Ġunrest":11014,"Ġintellig":11015,"ĠHeb":11016,"Ġscrap":11017,"Ġagencies":11018,"Ġjet":11019,"Ġjaw":11020,"arest":11021,"Ġovers":11022,"Ġouts":11023,"Ġearn":11024,"Ġacre":11025,"ĠLeeds":11026,"ĠReb":11027,"Ġ108":11028,"aja":11029,"Ġpreserve":11030,"azing":11031,"Ġpopul":11032,"Ġmetall":11033,"Ġdescript":11034,"Ġcontinu":11035,"Ġcontinental":11036,"ĠWarrior":11037,"Ġextinct":11038,"ĠIsesi":11039,"Ġdiscont":11040,"Ġ135":11041,"asha":11042,"Ġadvised":11043,"Ġguide":11044,"Ġguarant":11045,"Ġportr":11046,"Ġexploration":11047,"Ġmarking":11048,"Ġlegacy":11049,"Ġinvolves":11050,"Ġauthorized":11051,"Ġannouncement":11052,"Ġpraising":11053,"Ġsummar":11054,"Ġoccurring":11055,"Ġprocessing":11056,"Ġaudition":11057,"ĠMadero":11058,"Ġvolumes":11059,"mingham":11060,"ĠSerbs":11061,"Ġrepresentatives":11062,"Ġcommerce":11063,"Ġceased":11064,"Ġcease":11065,"ĠDaydream":11066,"Ġmeasuring":11067,"Ġhomosexual":11068,"ĠCrusad":11069,"Ġthreats":11070,"ĠLaure":11071,"ĠGrace":11072,"ĠTommy":11073,"ĠPete":11074,"Ġmurd":11075,"Ġexamination":11076,"ĠEverton":11077,"ĠJeremy":11078,"ĠSenator":11079,"ĠHoover":11080,"Ġmorph":11081,"Ġtaxon":11082,"Ġlandscape":11083,"ĠContem":11084,"Ġconstitu":11085,"Ġangle":11086,"Ġremarkable":11087,"Ġmemories":11088,"Ġmortar":11089,"ĠBirmingham":11090,"ĠRailroad":11091,"Ġruins":11092,"ĠGregory":11093,"Ġexplosive":11094,"ĠCooke":11095,"Ġstreams":11096,"ĠSpacey":11097,"Ġsanct":11098,"Ġhelicopter":11099,"Ġcommitment":11100,"ĠLessing":11101,"Ġpregnancy":11102,"ĠEccl":11103,"Ġabsorbed":11104,"Ġrecruited":11105,"ĠToninÃ¡":11106,"ĠAdministration":11107,"penter":11108,"ĠPerformance":11109,"Ġvelocity":11110,"ĠBaptist":11111,"ĠGaelic":11112,"col":11113,"face":11114,"pur":11115,"wall":11116,"ÉĻ":11117,"Ġath":11118,"Ġsav":11119,"atum":11120,"ito":11121,"itis":11122,"Ġfaster":11123,"anch":11124,"Ġboot":11125,"Ġpp":11126,"asco":11127,"Ġmood":11128,"ĠTar":11129,"ĠTac":11130,"ĠSet":11131,"ĠSud":11132,"stown":11133,"ĠCu":11134,"Ġlumber":11135,"ĠBes":11136,"ĠBog":11137,"ĠBull":11138,"Ġgene":11139,"Ġgusts":11140,"ĠHub":11141,"Ġascend":11142,"ĠPa":11143,"ĠPil":11144,"ĠPra":11145,"ationally":11146,"ĠRic":11147,"ĠRAF":11148,"emi":11149,"ĠDS":11150,"ĠFried":11151,"Ġalignment":11152,"ĠName":11153,"ĠNine":11154,"ĠLam":11155,"ĠLover":11156,"ĠLiving":11157,"ĠLiter":11158,"andal":11159,"ĠOk":11160,"ĠOst":11161,"ework":11162,"ĠStill":11163,"oves":11164,"aping":11165,"ĠVeg":11166,"Ġcompan":11167,"ĠThan":11168,"iley":11169,"Ġscre":11170,"Ġaftermath":11171,"phone":11172,"veland":11173,"Ġconsent":11174,"icking":11175,"ĠSeattle":11176,"ĠCommer":11177,"Ġundergo":11178,"alsa":11179,"ĠNewman":11180,"Ġverses":11181,"Ġacoust":11182,"Ġacyclic":11183,"Ġquiet":11184,"rowed":11185,"Ġdirecting":11186,"Ġdownstream":11187,"ĠWhit":11188,"ĠIsle":11189,"Ġdistant":11190,"Ġdistances":11191,"Ġinsisted":11192,"ĠManuel":11193,"Ġbrilliant":11194,"ĠAllosaurus":11195,"inae":11196,"Ġvariations":11197,"ĠBegin":11198,"issioned":11199,"ĠParachute":11200,"ĠTelegraph":11201,"ĠBrother":11202,"luence":11203,"Ġhelps":11204,"Ġcurved":11205,"Ġspeaker":11206,"Ġtroop":11207,"ĠBarbar":11208,"Ġafford":11209,"Ġdestroying":11210,"ringe":11211,"Ġlimits":11212,"ĠImport":11213,"Ġcougars":11214,"Ġmounts":11215,"Ġblacks":11216,"ĠSecurity":11217,"Ġsummit":11218,"Ġprize":11219,"Ġballad":11220,"Ġrounded":11221,"Ġpredict":11222,"Ġpredicted":11223,"Ġconnections":11224,"Ġvolcan":11225,"ĠBoog":11226,"ĠChristianity":11227,"Ġtraveling":11228,"ĠUndertaker":11229,"Ġcomplicated":11230,"Ġcounterp":11231,"Ġconsistently":11232,"Ġcollections":11233,"Ġlogic":11234,"ĠJustin":11235,"Ġdisappeared":11236,"Ġcamer":11237,"Ġinteractions":11238,"ĠDerff":11239,"Ġ1819":11240,"Ġconcentration":11241,"uzzle":11242,"ĠPopular":11243,"Ġpalace":11244,"Ġroller":11245,"Ġfragments":11246,"Ġsending":11247,"ĠDarwin":11248,"ĠMovie":11249,"Ġagriculture":11250,"ĠCleveland":11251,"Ġparliamentary":11252,"Ġcalculated":11253,"ĠMarshal":11254,"Ġsurrendered":11255,"Ġnoble":11256,"Ġsympt":11257,"urrently":11258,"Ġpreceding":11259,"Ġtickets":11260,"ĠSupport":11261,"Ê»i":11262,"Ġcondemned":11263,"ĠGlobe":11264,"ĠHampshire":11265,"ĠSoutheast":11266,"Ġconjunction":11267,"ĠInternet":11268,"Ġcousin":11269,"ĠDwight":11270,"ĠStavanger":11271,"ĠViscount":11272,"ĠVegas":11273,"IP":11274,"eals":11275,"nh":11276,"pa":11277,"run":11278,"uating":11279,"Ä«":11280,"Ġtorn":11281,"Ġtaste":11282,"Ġcattle":11283,"arov":11284,"Ġpistol":11285,"Ġmal":11286,"Ġmild":11287,"Ġmentions":11288,"Ġdanc":11289,"Ġho":11290,"oub":11291,"Ġreun":11292,"Ġrejo":11293,"ĠAction":11294,"ĠArabs":11295,"Ġthrown":11296,"street":11297,"ĠCN":11298,"ĠCz":11299,"ĠCow":11300,"eland":11301,"acan":11302,"ĠMÄģ":11303,"ĠMorning":11304,"ĠMVP":11305,"Ġgran":11306,"idal":11307,"ĠHNC":11308,"ĠPear":11309,"ĠRing":11310,"ĠFit":11311,"ulates":11312,"ĠWorth":11313,"Ġatop":11314,"ĠLabyrinth":11315,"ĠGran":11316,"romet":11317,"istical":11318,"ĠEg":11319,"ĠOcc":11320,"Ġsupre":11321,"Ġexceed":11322,"ĠStat":11323,"season":11324,"ĠChand":11325,"Ġunst":11326,"oulder":11327,"Ġclar":11328,"Ġresid":11329,"Ġrout":11330,"Ġdisrupt":11331,"Ġdesper":11332,"action":11333,"Ġmaneu":11334,"ikk":11335,"Ġoffshore":11336,"wegian":11337,"Ġnep":11338,"ĠAsahi":11339,"ĠSega":11340,"ĠMarge":11341,"ĠArn":11342,"Ġflies":11343,"Ġcanon":11344,"ĠNewport":11345,"Ġreleasing":11346,"anka":11347,"Ġ102":11348,"ĠZr":11349,"itsu":11350,"ĠAftermath":11351,"Ġheading":11352,"Ġcouldn":11353,"Ġoperas":11354,"Ġmatters":11355,"Ġairborne":11356,"ĠIsles":11357,"Ġguides":11358,"ĠBeau":11359,"Ġgrade":11360,"ĠChristi":11361,"Ġconfusion":11362,"Ġprogressed":11363,"Ġmedal":11364,"ĠCompanies":11365,"ĠEdson":11366,"Ġplanes":11367,"Ġcommunist":11368,"Ġaviation":11369,"iscus":11370,"ĠRomania":11371,"Ġlimestone":11372,"Ġfriendship":11373,"Ġcasem":11374,"ĠMonth":11375,"Ġvaluable":11376,"Ġimprovement":11377,"ĠBoat":11378,"Ġinvestment":11379,"ĠSmall":11380,"ĠAngelou":11381,"ĠCorpus":11382,"ĠLaud":11383,"ĠOpera":11384,"Ġviolation":11385,"Ġpenetr":11386,"Ġdenomin":11387,"ĠTraining":11388,"Ġ1849":11389,"ĠServices":11390,"Ġpresidential":11391,"Ġcounteratt":11392,"Ġbowling":11393,"Ġhoping":11394,"ĠHumph":11395,"itchcraft":11396,"Ġcelebrate":11397,"Ġbeaten":11398,"Ġhabitats":11399,"ĠHawaiÊ»i":11400,"ĠHalo":11401,"Ġvoices":11402,"Ġthirteen":11403,"Ġsensitive":11404,"ĠLarry":11405,"ĠMDOT":11406,"Ġrequirements":11407,"ĠTrue":11408,"Ġtunnels":11409,"ĠNightingale":11410,"ĠGraham":11411,"Ġsegments":11412,"Ġsweet":11413,"ĠRifenburg":11414,"ĠColdrum":11415,"Ġexclusive":11416,"Ġenlar":11417,"Ġtransformed":11418,"Ġignored":11419,"Ġvertex":11420,"Ġamphibious":11421,"ĠWyoming":11422,"Ġicon":11423,"Ġwickets":11424,"Ġpartnership":11425,"Ġdiplomatic":11426,"Ġdependent":11427,"Ġrelegated":11428,"ĠCombat":11429,"Ġleukemia":11430,"Ġdeliberately":11431,"schild":11432,"ĠMargaret":11433,"ĠFernandez":11434,"Ġrestrictions":11435,"ĠSymph":11436,"Ġincomple":11437,"iblical":11438,"ĠXIII":11439,"ĠDerfflinger":11440,"ĠMÄģori":11441,"eh":11442,"fam":11443,"hog":11444,"rink":11445,"Ã¬":11446,"Ġtag":11447,"inished":11448,"atis":11449,"atem":11450,"atra":11451,"itches":11452,"itects":11453,"itudes":11454,"Ġcash":11455,"Ġcosm":11456,"Ġfiled":11457,"Ġpec":11458,"Ġpunt":11459,"icism":11460,"Ġdying":11461,"Ġhind":11462,"ĠTroph":11463,"ĠAff":11464,"ĠAub":11465,"ĠSite":11466,"ĠSora":11467,"Ġlaugh":11468,"omo":11469,"etheless":11470,"olence":11471,"Ġgills":11472,"Ġforb":11473,"irts":11474,"igs":11475,"ayne":11476,"ĠRI":11477,"ĠRul":11478,"ĠRand":11479,"ĠDot":11480,"ĠFiles":11481,"Ġalco":11482,"ĠLÃ¼":11483,"osy":11484,"osity":11485,"ĠJess":11486,"odium":11487,"Ġventure":11488,"iller":11489,"occ":11490,"aba":11491,"abl":11492,"ĠKal":11493,"ĠKem":11494,"ĠKody":11495,"ĠKyle":11496,"quatic":11497,"ĠUP":11498,"ĠUran":11499,"ĠStop":11500,"apur":11501,"Ġunre":11502,"ormal":11503,"Ġscorer":11504,"izers":11505,"ĠAlg":11506,"Ġapply":11507,"Ġmanage":11508,"ĠYam":11509,"phal":11510,"Ġenabled":11511,"anga":11512,"Ġsheep":11513,"Ġdecide":11514,"ĠComedy":11515,"Ġacclaim":11516,"Ġincur":11517,"anya":11518,"Ġlocally":11519,"Ġtrains":11520,"Ġteammate":11521,"Ġaddressed":11522,"aze":11523,"Ġ151":11524,"Ġ152":11525,"Ġsmoke":11526,"Ġshipments":11527,"Ġinfection":11528,"ĠBrun":11529,"ĠSpe":11530,"ĠCloud":11531,"ĠColomb":11532,"ĠCaroly":11533,"tym":11534,"ĠPlaza":11535,"Ġconfron":11536,"Ġtrio":11537,"Ġjustice":11538,"Ġvisits":11539,"Ġdrivers":11540,"eltown":11541,"ĠOrd":11542,"Ġantagon":11543,"Ġexperts":11544,"Ġconvict":11545,"ĠTrond":11546,"Ġ261":11547,"Ġradical":11548,"Ġcasting":11549,"Ġlawyer":11550,"Ġfunny":11551,"ĠMonkey":11552,"Ġcircular":11553,"Ġcircuit":11554,"Ġvocalist":11555,"Ġdevice":11556,"ĠMyc":11557,"Ġtravels":11558,"ĠZealanders":11559,"Ġterritorial":11560,"ĠOlivia":11561,"Ġtruly":11562,"ĠEgyptians":11563,"Ġminority":11564,"Ġchapters":11565,"ĠBurma":11566,"Ġfrequency":11567,"Ġcomplimented":11568,"ĠAntimony":11569,"Ġflows":11570,"ĠTrees":11571,"ĠBradstreet":11572,"ĠNorwegian":11573,"canal":11574,"Ġessentially":11575,"ĠMillennium":11576,"Ġmultipl":11577,"Ġheroes":11578,"Ġtorpedoes":11579,"ĠRoom":11580,"Ġuniversal":11581,"ĠMelbourne":11582,"blazer":11583,"ĠPalestinian":11584,"ĠLucas":11585,"ĠJurchens":11586,"ĠHoriz":11587,"Ġlaboratory":11588,"ĠAriz":11589,"ĠKennedy":11590,"Ġsponsored":11591,"Ġrubber":11592,"Ġcorps":11593,"ĠRemix":11594,"ĠPersonal":11595,"Ġgarden":11596,"Ġprice":11597,"Ġinterpretation":11598,"ĠBedell":11599,"Ġavoided":11600,"Ġdivorce":11601,"ĠCecil":11602,"Ġmanuscripts":11603,"Ġdispatched":11604,"ĠRothschild":11605,"Ġcontradict":11606,"Ġtwentieth":11607,"ĠMantell":11608,"Ġmathemat":11609,"ĠCyrus":11610,"Ġhiatus":11611,"ĠContemporary":11612,"ĠBeginning":11613,"ĠCarolyn":11614,"CW":11615,"Down":11616,"Works":11617,"bal":11618,"case":11619,"lane":11620,"pected":11621,"Æ°":11622,"Ġtel":11623,"Ġarose":11624,"erning":11625,"Ġsib":11626,"Ġsoph":11627,"Ġsaint":11628,"Ġwolf":11629,"Ġwonder":11630,"athetic":11631,"orough":11632,"Ġcrick":11633,"Ġfart":11634,"Ġfires":11635,"Ġing":11636,"Ġpaying":11637,"Ġpuppet":11638,"Ġdawn":11639,"ĠTun":11640,"Ġrever":11641,"ĠAges":11642,"ĠSina":11643,"ilis":11644,"ĠCrab":11645,"Ġliner":11646,"Ġlumin":11647,"Ġnut":11648,"ĠMond":11649,"Ġwaste":11650,"ece":11651,"ĠIA":11652,"ĠIOC":11653,"Ġgarn":11654,"igious":11655,"tering":11656,"ushes":11657,"uto":11658,"Ġherit":11659,"ĠRÃ¤":11660,"ĠData":11661,"ĠLt":11662,"ĠLat":11663,"ĠLyn":11664,"ĠGw":11665,"heric":11666,"eston":11667,"odox":11668,"ĠEtty":11669,"ĠOb":11670,"Ġvir":11671,"Ġrings":11672,"anther":11673,"ĠStars":11674,"ĠStela":11675,"asted":11676,"iph":11677,"aple":11678,"arya":11679,"Ġuncom":11680,"Ġunless":11681,"Ġintact":11682,"Ġadequ":11683,"Ġabuse":11684,"Ġscen":11685,"Ġscream":11686,"overed":11687,"enson":11688,"ikes":11689,"Ġpret":11690,"Ġeval":11691,"Ġallocated":11692,"issions":11693,"ribe":11694,"Ġcentimetres":11695,"Ġknee":11696,"Ġcanals":11697,"Ġretreated":11698,"Ġasserted":11699,"Ġsubord":11700,"Ġmovies":11701,"Ġquoted":11702,"ĠLegend":11703,"ĠLeban":11704,"ĠShim":11705,"Ġdozen":11706,"Ġfounding":11707,"veloped":11708,"Ġinvaded":11709,"ĠZe":11710,"ĠZagre":11711,"Ġexpand":11712,"Ġpopulated":11713,"Ġ116":11714,"Ġinfilt":11715,"ĠBright":11716,"Ġimposed":11717,"Ġlandmark":11718,"ĠClara":11719,"Ġprovincial":11720,"Ġsixty":11721,"Ġadvances":11722,"Ġconcession":11723,"Ġphylogen":11724,"ĠGuatem":11725,"Ġmarched":11726,"Ġprogression":11727,"Ġhalted":11728,"Ġdestination":11729,"ĠStein":11730,"ĠComposition":11731,"Ġstorylines":11732,"ĠPrincip":11733,"Ġpositioned":11734,"Ġcurve":11735,"Ġrealistic":11736,"ĠTristan":11737,"ĠPortland":11738,"Ġarrives":11739,"Ġcompetitive":11740,"Ġskill":11741,"ĠEliot":11742,"ĠAssy":11743,"ĠRegard":11744,"Ġaffair":11745,"Ġradius":11746,"Ġbarrier":11747,"Ġgenu":11748,"ĠExpl":11749,"Ġsword":11750,"Ġ1897":11751,"ÃŃn":11752,"Ġballs":11753,"ĠActress":11754,"ĠSerb":11755,"Ġimprovements":11756,"Ġzomb":11757,"Ġhosts":11758,"ĠMedical":11759,"Ġfunded":11760,"Ġseemingly":11761,"Ġlyrical":11762,"ĠPlayers":11763,"Ġinterviews":11764,"Ġbreaks":11765,"ĠFilming":11766,"Ġauton":11767,"Ġloop":11768,"Ġlinks":11769,"Ġlifted":11770,"ĠBuff":11771,"Ġsalary":11772,"ĠSarah":11773,"Ġmarketing":11774,"ĠSixth":11775,"Ġjumping":11776,"ĠUlster":11777,"Ġemotions":11778,"ĠAviation":11779,"Ġweakness":11780,"Ġsacrif":11781,"Ġuniverse":11782,"Ġsporting":11783,"Ġloading":11784,"Ġneutron":11785,"Ġwitnesses":11786,"ĠMongols":11787,"Ġteachers":11788,"Ġmoist":11789,"Ġstretched":11790,"ĠWallace":11791,"ĠBernard":11792,"Ġhighlighted":11793,"ĠBosn":11794,"Ġoverwhelming":11795,"ĠJoyful":11796,"Ġacknowledged":11797,"ĠMachine":11798,"ĠNicholas":11799,"Ġtributaries":11800,"ĠHomar":11801,"ongsan":11802,"Ġbodyline":11803,"Ġintellectual":11804,"Ġpropaganda":11805,"ĠMaurice":11806,"Ġmembrane":11807,"Ġalphab":11808,"Ġtombs":11809,"Ġhorizont":11810,"Ġgathered":11811,"ĠGuadalcanal":11812,"Ġvertebrae":11813,"ĠZanzibar":11814,"Ġenormous":11815,"ĠHebrew":11816,"Ġathlete":11817,"ĠArizona":11818,"ĠSinai":11819,"Ġheritage":11820,"aos":11821,"cially":11822,"fish":11823,"ioc":11824,"lides":11825,"rin":11826,"uros":11827,"zes":11828,"ĠÄ":11829,"Ġá":11830,"Ġurg":11831,"Ġaided":11832,"inter":11833,"inisc":11834,"onian":11835,"Ġward":11836,"Ġworn":11837,"atters":11838,"orf":11839,"Ġcens":11840,"isa":11841,"isive":11842,"anelli":11843,"Ġbag":11844,"Ġpill":11845,"Ġpink":11846,"Ġmate":11847,"ĠTang":11848,"ĠAqu":11849,"ĠSox":11850,"star":11851,"ĠCS":11852,"ĠCov":11853,"ĠCret":11854,"ĠCurt":11855,"Ġeating":11856,"Ġnic":11857,"ache":11858,"ĠBilly":11859,"olia":11860,"olics":11861,"Ġgay":11862,"Ġgentle":11863,"idated":11864,"ighed":11865,"oting":11866,"Ġaside":11867,"Ġstability":11868,"ĠPast":11869,"ĠRub":11870,"ĠRaf":11871,"thren":11872,"ĠDress":11873,"ĠFur":11874,"ĠFaul":11875,"Ġconsole":11876,"ĠNASA":11877,"ĠNFL":11878,"ĠWa":11879,"ĠWu":11880,"ĠWald":11881,"ĠWrapped":11882,"raits":11883,"agoda":11884,"ifest":11885,"Ġvig":11886,"oret":11887,"Ġrays":11888,"Ġrush":11889,"ĠInside":11890,"alling":11891,"ĠKo":11892,"ĠKer":11893,"ackDown":11894,"ĠStreets":11895,"gehog":11896,"Ġune":11897,"ĠVent":11898,"ĠView":11899,"ĠVerm":11900,"ruption":11901,"uees":11902,"ondo":11903,"Ġdisabled":11904,"overy":11905,"Ġattending":11906,"ĠYongsan":11907,"Ġoutstanding":11908,"Ġallies":11909,"Ġcentered":11910,"isional":11911,"Ġcolors":11912,"Ġdefenses":11913,"Ġintermediate":11914,"Ġamid":11915,"ĠLevel":11916,"ĠReagan":11917,"Ġsurge":11918,"Ġinvent":11919,"Ġdevelopers":11920,"Ġminers":11921,"Ġministers":11922,"ĠBrack":11923,"ĠClay":11924,"Ã©d":11925,"keeper":11926,"ĠBeeton":11927,"ĠEuropa":11928,"Ġparade":11929,"Ġexplore":11930,"ĠÂµ":11931,"ĠCharm":11932,"ĠWeather":11933,"Ġsimilarities":11934,"Ġpoliticians":11935,"Ġmembership":11936,"ĠPeriod":11937,"Ġterr":11938,"Ġradar":11939,"Ġbattlefield":11940,"Ġgenes":11941,"Ġdeclaration":11942,"ĠHaitian":11943,"Ġ1898":11944,"Ġassociate":11945,"Ġcuts":11946,"Ġdevoted":11947,"ihu":11948,"ĠSmackDown":11949,"Ġmerc":11950,"Ġcalm":11951,"Ġdispersed":11952,"Ġgraduate":11953,"hensive":11954,"Ġautobi":11955,"Ġeducational":11956,"Ġdealing":11957,"Ġsatir":11958,"Ġhappen":11959,"Ġuncle":11960,"Ġcannon":11961,"Ġinvestigate":11962,"Ġsculpted":11963,"Ġobservatory":11964,"ĠJimmy":11965,"Ġdynamic":11966,"ĠKnights":11967,"ĠBrenda":11968,"umbered":11969,"Ġsexuality":11970,"Ġexhibited":11971,"Ġkicked":11972,"Ġkickoff":11973,"thening":11974,"ĠFarm":11975,"Ġlegislature":11976,"Ġduet":11977,"Ġneighbour":11978,"Ġpermanently":11979,"Ġloaded":11980,"ĠIndustrial":11981,"Ġplatforms":11982,"Ġopinions":11983,"ĠDestroy":11984,"ĠCreutz":11985,"ĠMotor":11986,"ĠCambodian":11987,"ĠMarcus":11988,"Ġaerodrom":11989,"Ġsufficiently":11990,"ĠOfficer":11991,"ĠHellblazer":11992,"Ġloved":11993,"ĠAyola":11994,"ĠArchaeological":11995,"Ġfrigate":11996,"ĠHughes":11997,"Ġchallenging":11998,"Ġcongregation":11999,"ught":12000,"ĠComplex":12001,"Ġsurprised":12002,"Ġinaugural":12003,"Ġconsequence":12004,"Ġprompting":12005,"ĠPalmyrene":12006,"Ġreversed":12007,"Ġfertil":12008,"Ã¶nen":12009,"Ġfundamental":12010,"ĠNavar":12011,"ĠStaley":12012,"Ġexcellent":12013,"Ġunexpected":12014,"Ġpseud":12015,"Ġinducted":12016,"ĠPlateau":12017,"ĠSkinner":12018,"ĠEcclestone":12019,"ikkÃ¶nen":12020,"ĠTrondheim":12021,"ĠRÃ¤ikkÃ¶nen":12022,"ĠZagreb":12023,"ĠCretaceous":12024,"BI":12025,"eing":12026,"music":12027,"nall":12028,"Ãº":12029,"Ġty":12030,"oni":12031,"Ġsank":12032,"Ġoak":12033,"isons":12034,"Ġbeds":12035,"aloo":12036,"ingray":12037,"Ġmit":12038,"Ġdancing":12039,"Ġdrift":12040,"Ġhier":12041,"ourag":12042,"ĠTres":12043,"ĠTotal":12044,"ĠSuez":12045,"ĠCinem":12046,"Ġlakes":12047,"aduct":12048,"ĠMP":12049,"ĠMing":12050,"ĠBry":12051,"ĠHi":12052,"ĠHair":12053,"Ġstress":12054,"ĠPy":12055,"ĠProp":12056,"ĠPink":12057,"ĠPapa":12058,"ĠRud":12059,"ĠDh":12060,"ĠDays":12061,"ĠDoyle":12062,"ĠFat":12063,"ĠFro":12064,"ĠFight":12065,"ĠFull":12066,"Ġisn":12067,"Ġally":12068,"Ġconceived":12069,"ĠWell":12070,"ĠWrest":12071,"ĠLem":12072,"ĠLiz":12073,"ĠGene":12074,"ripp":12075,"riff":12076,"ĠOak":12077,"illes":12078,"ĠInv":12079,"Ġseed":12080,"abric":12081,"ĠKr":12082,"Ġpled":12083,"Ġplates":12084,"Ġshock":12085,"ĠkW":12086,"ĠStrong":12087,"ĠChad":12088,"Ġunt":12089,"ĠVist":12090,"ĠVick":12091,"Ġclergy":12092,"ĠHein":12093,"Ġusers":12094,"Ġscar":12095,"iki":12096,"Ġenact":12097,"Ġcentres":12098,"Ġreminisc":12099,"formed":12100,"Ġconservative":12101,"Ġdecomm":12102,"Ġcolours":12103,"Ġintervention":12104,"Ġquad":12105,"ĠLeices":12106,"Ġmonitors":12107,"ĠShan":12108,"Ġsurpass":12109,"Ġblues":12110,"Ġsingers":12111,"Ġrepet":12112,"Ġrepaired":12113,"Ġ171":12114,"Ġopens":12115,"Ġstudying":12116,"ĠMayor":12117,"Ġimped":12118,"Ġpassages":12119,"Ġdamaging":12120,"Ġphosph":12121,"Ġvaries":12122,"Ġportraits":12123,"Ġtrium":12124,"Ġpossessed":12125,"Ġexplaining":12126,"ambers":12127,"ĠSteiner":12128,"Ġdemon":12129,"ĠPrincess":12130,"Ġexperimental":12131,"Ġmagical":12132,"ĠAirborne":12133,"Ġsurvival":12134,"Ġlights":12135,"ĠRegiments":12136,"Ġdiscovers":12137,"ĠExit":12138,"Ġ1894":12139,"Ġagrees":12140,"Ġestimate":12141,"Ġidentical":12142,"Ġconnects":12143,"Ġcyclization":12144,"Ġrecognize":12145,"Ġ1854":12146,"Ġ1857":12147,"Ġcorrid":12148,"ĠRockef":12149,"Ġacceptable":12150,"stituted":12151,"Ġ1862":12152,"Ġconducting":12153,"Ġgrazing":12154,"ĠCrash":12155,"Ġ1878":12156,"ĠQuiney":12157,"Ġdraws":12158,"Ġparticipants":12159,"ĠGrant":12160,"Ġdropping":12161,"ĠDrive":12162,"ĠMontreal":12163,"ĠSingh":12164,"Ġriff":12165,"ĠFranklin":12166,"Ġdeeply":12167,"Ġensemble":12168,"nyi":12169,"Ġlearns":12170,"Ġdarkness":12171,"Ġconcepts":12172,"Ġdigit":12173,"ocratic":12174,"ĠSarawak":12175,"Ġhotels":12176,"rolling":12177,"Ġcrowds":12178,"Ġdrafted":12179,"Ġangry":12180,"ĠNazarov":12181,"Ġqualifying":12182,"ĠFerdin":12183,"ĠTodd":12184,"Ġalternate":12185,"Ġencounters":12186,"Ġnarrator":12187,"ĠTurkey":12188,"Ġratio":12189,"ĠDenmark":12190,"Ġspotted":12191,"Ġscholarship":12192,"Ġbelonging":12193,"ĠDreamWorks":12194,"ĠMorris":12195,"Ġunsuccessfully":12196,"Ġvolunteer":12197,"ĠWinds":12198,"Ġreservoirs":12199,"ĠRonald":12200,"Ġrifles":12201,"Ġbatsmen":12202,"ĠRaymond":12203,"Ġcorresponding":12204,"ĠAntonio":12205,"Ġhypothes":12206,"Ġfavourite":12207,"Ġfairly":12208,"Ġrevolutionary":12209,"Ġfantasy":12210,"ĠCruise":12211,"Ġgallery":12212,"Ġculm":12213,"Ġimplemented":12214,"Ġurged":12215,"ĠFlower":12216,"ĠDurham":12217,"Ġconsumption":12218,"Ġaccommodate":12219,"ĠLancaster":12220,"Ġchallenges":12221,"Ġabsolute":12222,"Ġsubstance":12223,"ĠHobbs":12224,"ĠHenderson":12225,"ĠCorbet":12226,"Ġdrainage":12227,"ĠVulcan":12228,"ĠJohann":12229,"Ġadministered":12230,"ipelago":12231,"Ġscreens":12232,"Ġacoustic":12233,"ĠCzech":12234,"Ã¬nh":12235,"ĠTrophy":12236,"Ġcrickets":12237,"ĠFerdinand":12238,"FU":12239,"IS":12240,"gor":12241,"hatt":12242,"iors":12243,"kner":12244,"oids":12245,"Ã¢":12246,"Ġà":12247,"oria":12248,"itime":12249,"Ġfest":12250,"Ġfier":12251,"isations":12252,"anj":12253,"anus":12254,"Ġbin":12255,"Ġbron":12256,"Ġbush":12257,"Ġinver":12258,"Ġtools":12259,"Ġmisc":12260,"Ġmuzzle":12261,"ĠTob":12262,"ĠTaxon":12263,"Ġrework":12264,"ĠAw":12265,"sts":12266,"stones":12267,"ĠCG":12268,"ĠClear":12269,"adic":12270,"ĠMess":12271,"lyph":12272,"ĠBM":12273,"ĠBelt":12274,"ĠBoulder":12275,"olph":12276,"tery":12277,"ĠHak":12278,"ĠHockey":12279,"ĠHurricanes":12280,"Ġstaged":12281,"ĠPf":12282,"ĠRoll":12283,"ĠDian":12284,"unning":12285,"ĠFund":12286,"ĠNa":12287,"ĠWant":12288,"ĠLiao":12289,"ctic":12290,"Ġanger":12291,"umi":12292,"avan":12293,"rix":12294,"Ġdealt":12295,"Ġspore":12296,"ĠChu":12297,"ĠChile":12298,"cler":12299,"ĠVo":12300,"Ġinteg":12301,"outed":12302,"outing":12303,"Ġ202":12304,"Ġclust":12305,"izer":12306,"Ġdisgu":12307,"rice":12308,"ĠYet":12309,"ĠYang":12310,"phan":12311,"Ġprest":12312,"ribi":12313,"ailing":12314,"Ġfeared":12315,"ugg":12316,"Ġrelied":12317,"Ġsubd":12318,"Ġincidents":12319,"ĠRef":12320,"ĠReign":12321,"ĠReines":12322,"inski":12323,"Ġ109":12324,"Ġ1200":12325,"ĠSche":12326,"Ġnoise":12327,"Ġinvitation":12328,"ĠIndeed":12329,"Ġdescent":12330,"Ġdevelopments":12331,"Ġpolar":12332,"Ġextant":12333,"iente":12334,"Ġinsects":12335,"ĠBloom":12336,"Ġprovinces":12337,"ĠCarroll":12338,"ĠCarpenter":12339,"ĠAdri":12340,"ĠAdult":12341,"Ġvariable":12342,"Ġpromise":12343,"Ġlasting":12344,"Ġconfused":12345,"Ġcommanding":12346,"racted":12347,"ĠTherefore":12348,"Ġtempo":12349,"Ġhandle":12350,"Ġhandling":12351,"ĠComputer":12352,"Ġmarkets":12353,"Ġcrater":12354,"Ġtraditions":12355,"Ġplanets":12356,"Ġelite":12357,"Ġelectro":12358,"ĠAircraft":12359,"Ġordinary":12360,"Ġstatue":12361,"Ġequally":12362,"Ġpressed":12363,"Ġtourists":12364,"ĠNeolithic":12365,"ĠGlan":12366,"idding":12367,"ĠCareer":12368,"Ġ1899":12369,"ĠAtlÃ©t":12370,"bridge":12371,"Ġcommentators":12372,"Ġgrows":12373,"Ġ1885":12374,"Ġzinc":12375,"Ġceiling":12376,"ĠPartington":12377,"Ġcivilization":12378,"Ġgrain":12379,"boro":12380,"Ġtribe":12381,"ĠGreatest":12382,"ships":12383,"Ġdrown":12384,"inental":12385,"Ġscripts":12386,"ĠAnti":12387,"Ġintersections":12388,"Ġlifestyle":12389,"ĠAttack":12390,"Ġsuspected":12391,"ĠFormation":12392,"Ġevacuate":12393,"Ġevacuees":12394,"Ġtasks":12395,"Ġprinciples":12396,"Ġinternationally":12397,"Ã¼r":12398,"Ġexhibit":12399,"Ġofferings":12400,"Ġemphasized":12401,"Ġfragment":12402,"Ġattendance":12403,"Ġtargeted":12404,"Ġcomprising":12405,"ĠKeys":12406,"ĠCarlos":12407,"Ġreflecting":12408,"Ġperfectly":12409,"ĠHungary":12410,"Ġdistinguish":12411,"Ġinstructions":12412,"Ġlawsuit":12413,"Ġsleep":12414,"Ġconspirators":12415,"ĠArchaeology":12416,"Ġadvisories":12417,"Ġgathering":12418,"Ġdiverse":12419,"ĠCulture":12420,"ĠCultural":12421,"Ġprohibited":12422,"ĠÅĮ":12423,"Ġdevotion":12424,"ĠKyra":12425,"Ġrectangular":12426,"Ġcooperation":12427,"Ġnineteenth":12428,"htwald":12429,"Ġpione":12430,"aziridines":12431,"Ġdisbanded":12432,"Ġasteroid":12433,"Ġï»":12434,"Ġspawned":12435,"bracelet":12436,"ĠHumphrey":12437,"ĠRuler":12438,"ĠUrania":12439,"Ġgarnered":12440,"ĠFaulkner":12441,"ĠAtlÃ©tico":12442,"IV":12443,"PU":12444,"found":12445,"gud":12446,"ho":12447,"ked":12448,"mo":12449,"mers":12450,"rus":12451,"rines":12452,"ĨĴ":12453,"herent":12454,"Ġther":12455,"onso":12456,"Ġsic":12457,"itious":12458,"Ġcards":12459,"Ġfed":12460,"arius":12461,"Ġbol":12462,"ali":12463,"Ġment":12464,"Ġdug":12465,"Ġhung":12466,"ĠTell":12467,"ĠTank":12468,"ĠTuck":12469,"Ġreorgan":12470,"Ġreverse":12471,"ĠAN":12472,"ĠAS":12473,"ĠSaf":12474,"omon":12475,"omous":12476,"Ġnaked":12477,"ĠMI":12478,"ĠMak":12479,"ĠMole":12480,"ĠBased":12481,"ĠIR":12482,"idia":12483,"terfly":12484,"ĠHav":12485,"ĠHod":12486,"ĠPand":12487,"ĠPirates":12488,"ĠRut":12489,"ĠRound":12490,"ĠDup":12491,"ĠLaur":12492,"ĠGiel":12493,"avian":12494,"ĠEve":12495,"ifeng":12496,"Ġdeer":12497,"Ġchanc":12498,"ques":12499,"ĠâĨĴ":12500,"ĠStart":12501,"oved":12502,"Ġspear":12503,"Ġspoken":12504,"Ġleagues":12505,"idea":12506,"hedruli":12507,"Ġcliff":12508,"Ġresur":12509,"Ġrecruit":12510,"ĠThai":12511,"Ġscope":12512,"Ġages":12513,"Ġdislik":12514,"Ġjur":12515,"Ġplayable":12516,"overning":12517,"ibre":12518,"ensed":12519,"iko":12520,"Ġoutcome":12521,"inda":12522,"ampa":12523,"Ġweighed":12524,"ĠAny":12525,"Ġremote":12526,"icken":12527,"ugs":12528,"Ġsuburb":12529,"ĠScots":12530,"ĠAustin":12531,"ernoot":12532,"Ġmining":12533,"Ġmilitia":12534,"Ġextends":12535,"Ġcarrier":12536,"ĠConsequently":12537,"Ġairports":12538,"Ġimpressive":12539,"enne":12540,"Ġthoughts":12541,"Ġgoverned":12542,"Ġbrings":12543,"ĠForb":12544,"Ġrefuses":12545,"Ġconfidence":12546,"Ġorganic":12547,"Ġparad":12548,"Ġrequiring":12549,"levard":12550,"Ġconvicted":12551,"ĠXbox":12552,"Ġtwins":12553,"Ġinvolve":12554,"Ġmagic":12555,"beat":12556,"Ġterrestrial":12557,"ĠAfricaine":12558,"Ġsituations":12559,"Ġglac":12560,"Ġfrontier":12561,"Ġhumanity":12562,"Ġhumanitarian":12563,"Äģh":12564,"ĠHarbor":12565,"Ġswitch":12566,"Ġlikewise":12567,"Ġpriests":12568,"Ġconnect":12569,"ettes":12570,"Ġ1881":12571,"Ġ1859":12572,"Ġcommercially":12573,"Ġsexually":12574,"ĠMedal":12575,"Ġfloods":12576,"ĠCommando":12577,"Ġmaintains":12578,"ĠSuperman":12579,"ĠÃĨ":12580,"Ġparticipation":12581,"Ġoccupy":12582,"Ġcaliber":12583,"Ġ1832":12584,"Ġapartment":12585,"Ġphysics":12586,"Ġ1848":12587,"backs":12588,"ĠCatholics":12589,"Ġthickness":12590,"Ġlabour":12591,"Ġdedication":12592,"awny":12593,"Ġsuspic":12594,"ĠFormer":12595,"Ġdrummer":12596,"Ġversus":12597,"Ġsymbols":12598,"ĠJulio":12599,"ĠFerr":12600,"Ġchemistry":12601,"ĠKaifeng":12602,"ĠGibson":12603,"Ġmechanism":12604,"ĠIntram":12605,"ĠHyd":12606,"Ġimagination":12607,"Ġhonorary":12608,"ĠRetrieved":12609,"ĠGreece":12610,"Ġboyfriend":12611,"Ġexpeditions":12612,"Ġcollaborated":12613,"Ġrivalry":12614,"Ġdescendants":12615,"ĠApart":12616,"ĠVillaret":12617,"ĠMoving":12618,"Ġremnant":12619,"ĠRevolutionary":12620,"ĠAlfa":12621,"Ġprosecution":12622,"Ġreserves":12623,"ĠBrazilian":12624,"Ġamphibians":12625,"Ġblend":12626,"Ġwicket":12627,"Ġdeposits":12628,"Ġskelet":12629,"Ġexhaust":12630,"Ġanswer":12631,"Ġorchestra":12632,"ĠIndonesian":12633,"ĠConfederate":12634,"ĠTrout":12635,"Ġconscious":12636,"ĠATP":12637,"ĠMkhedruli":12638,"Ġenthusi":12639,"ĠObserver":12640,"Ġbranches":12641,"ĠVandernoot":12642,"Ġmemorable":12643,"ĠBanksia":12644,"ĠCantrell":12645,"Ġlinear":12646,"Ġredesign":12647,"Ġvulnerable":12648,"Ġcomprehensive":12649,"Ġmysterious":12650,"Ġdancers":12651,"ĠCharmbracelet":12652,"ĠNavarro":12653,"Ġreminiscent":12654,"ĠRockefeller":12655,"ĠGlanville":12656,"Ġï»¿":12657,"ĠGielgud":12658,"HS":12659,"OM":12660,"OS":12661,"TA":12662,"UC":12663,"bu":12664,"bard":12665,"bach":12666,"cor":12667,"iency":12668,"mith":12669,"master":12670,"pack":12671,"sis":12672,"Äį":12673,"Æ¡":12674,"Ġtent":12675,"Ġtension":12676,"hears":12677,"Ġtherapy":12678,"erb":12679,"erp":12680,"Ġsacked":12681,"Ġwire":12682,"Ġwished":12683,"Ġoct":12684,"atri":12685,"itus":12686,"itars":12687,"Ġbold":12688,"Ġbath":12689,"Ġine":12690,"Ġinex":12691,"ingham":12692,"icial":12693,"Ġmg":12694,"Ġmad":12695,"leased":12696,"ĠTide":12697,"Ġreh":12698,"ĠSport":12699,"ĠSug":12700,"ĠSMS":12701,"Ġthro":12702,"stage":12703,"ĠCatherine":12704,"Ġlig":12705,"Ġlock":12706,"amics":12707,"Ġeagle":12708,"Ġnaut":12709,"ĠMut":12710,"ĠMaid":12711,"ĠMaj":12712,"ĠBod":12713,"olar":12714,"Ġgren":12715,"Ġgender":12716,"Ġstick":12717,"Ġstair":12718,"Ġsteal":12719,"Ġstaying":12720,"Ġstanz":12721,"ĠRey":12722,"ĠRook":12723,"ĠDE":12724,"ĠFal":12725,"ĠFlying":12726,"Ġconform":12727,"Ġconven":12728,"ĠNK":12729,"ĠNam":12730,"ĠLoy":12731,"ĠLung":12732,"ĠGenesis":12733,"Ġitem":12734,"ĠJas":12735,"ĠEz":12736,"ĠEarn":12737,"onge":12738,"ĠKan":12739,"ghan":12740,"Ġexchang":12741,"pts":12742,"ĠUk":12743,"ĠUy":12744,"ĠâĢ¦":12745,"ogs":12746,"ĠVa":12747,"Ġcomputers":12748,"Ġresolved":12749,"Ġperc":12750,"Ġperception":12751,"lando":12752,"Ġdesired":12753,"Ġoutd":12754,"angle":12755,"awi":12756,"Ġsecular":12757,"ailand":12758,"ĠSean":12759,"Ġrelating":12760,"ĠEnergy":12761,"Ġbuoys":12762,"rosaur":12763,"Ġmusc":12764,"Ġ103":12765,"anyan":12766,"Ġpresbyter":12767,"Ġmetric":12768,"Ġ156":12769,"Ġopined":12770,"ĠWarner":12771,"uedoc":12772,"Ġmaturity":12773,"ĠClocks":12774,"ĠBlock":12775,"Ġadventures":12776,"Ġguid":12777,"ĠDevin":12778,"ĠBeing":12779,"Ġdetect":12780,"Ġprototype":12781,"aiman":12782,"Ġconfident":12783,"Ġslave":12784,"Ġsentiment":12785,"ĠOrlando":12786,"ĠPrim":12787,"ĠAmos":12788,"Ġcrimes":12789,"Ġelig":12790,"ealous":12791,"ĠElgin":12792,"Ġaffect":12793,"Ġnationalist":12794,"Ġentirety":12795,"ĠSyria":12796,"Ġidentification":12797,"ĠMerc":12798,"Ġlacks":12799,"Ġencourag":12800,"Ġ1882":12801,"Ġrebel":12802,"Ġfortifications":12803,"Ġ1856":12804,"Ġhonors":12805,"ĠBerhtwald":12806,"ĠThompson":12807,"ĠCommandos":12808,"ĠMetropolitan":12809,"ĠArtillery":12810,"Ġscreened":12811,"Ġconcludes":12812,"Ġloose":12813,"ĠHeadlam":12814,"Ġconsiderably":12815,"ĠArchitect":12816,"Ġinvestigated":12817,"Ġphotography":12818,"ĠJamie":12819,"ĠJosephine":12820,"ĠConfessions":12821,"ĠFourth":12822,"ĠIndependiente":12823,"ĠBolton":12824,"Ġholes":12825,"Ġprisoner":12826,"Ġportrayal":12827,"ĠPopM":12828,"Ġduo":12829,"Ġextraord":12830,"ĠReviews":12831,"ĠBhair":12832,"Ġpanels":12833,"ĠRajam":12834,"Ġrows":12835,"Ġgrasses":12836,"Ġsailing":12837,"ĠFreedom":12838,"Ġfears":12839,"ĠExped":12840,"ĠConstantin":12841,"boards":12842,"Ġswept":12843,"Ġtravelling":12844,"Ġmicroscop":12845,"ĠLiberal":12846,"Ġaccidentally":12847,"ĠBarbara":12848,"Ġcontributions":12849,"Ġdisturbed":12850,"Ġoptions":12851,"Ġmythology":12852,"Ġreconstruct":12853,"ĠGabri":12854,"Ġvertices":12855,"Ġdrugs":12856,"Ġcabinet":12857,"Ġimmigrants":12858,"Ġexercise":12859,"Ġfloating":12860,"Ġpuzzle":12861,"ĠGanges":12862,"ĠQedarites":12863,"Ġindigo":12864,"ĠIndonesia":12865,"Ġsamples":12866,"Ġcarriers":12867,"Ġteachings":12868,"Ġturbines":12869,"ĠLanguedoc":12870,"Ġnickname":12871,"ĠUniversal":12872,"Ġrendered":12873,"Ġjackrabbit":12874,"ĠGladstone":12875,"court":12876,"oplasm":12877,"Ġinflicted":12878,"ĠCPS":12879,"Ġbarely":12880,"Ġinhabited":12881,"ĠFreakum":12882,"ĠWNO":12883,"ĠMcEl":12884,"Ġhampered":12885,"ximity":12886,"ĠLoverboy":12887,"Ġsymptoms":12888,"Ġnephew":12889,"Ġincomplete":12890,"ĠAuburn":12891,"Ġsiblings":12892,"ĠLeicester":12893,"ĠIntramuros":12894,"Ġnautical":12895,"iants":12896,"mund":12897,"metr":12898,"saku":12899,"ufficient":12900,"Ġè":12901,"Ġé":12902,"Ġtune":12903,"inued":12904,"eria":12905,"rez":12906,"Ġsink":12907,"aland":12908,"aliation":12909,"Ġpian":12910,"Ġpier":12911,"Ġhide":12912,"Ġharsh":12913,"leans":12914,"ĠTy":12915,"ĠSak":12916,"ĠSang":12917,"ĠSamp":12918,"ĠCann":12919,"Ġlam":12920,"Ġlun":12921,"Ġecho":12922,"ĠMh":12923,"ĠMom":12924,"ĠMol":12925,"ĠMail":12926,"ĠBelf":12927,"oles":12928,"Ġgram":12929,"Ġgoverning":12930,"Ġforget":12931,"igon":12932,"ĠHosp":12933,"Ġasc":12934,"usa":12935,"Ġstall":12936,"ĠPel":12937,"ĠPap":12938,"ema":12939,"ĠNorse":12940,"ĠWes":12941,"rained":12942,"ĠLuz":12943,"osion":12944,"ĠGack":12945,"ĠEP":12946,"Ġproclaimed":12947,"Ġproximity":12948,"Ġrh":12949,"Ġramp":12950,"abs":12951,"ĠKub":12952,"Ġchord":12953,"Ġexile":12954,"quis":12955,"quir":12956,"Ġshall":12957,"Ġshipped":12958,"ĠChop":12959,"Ġuncon":12960,"Ġintent":12961,"solete":12962,"pert":12963,"Ġclad":12964,"Ġrecapt":12965,"ĠThing":12966,"ĠThailand":12967,"Ġscores":12968,"Ġovercome":12969,"Ġalliance":12970,"Ġnearest":12971,"Ġdeciding":12972,"othic":12973,"Ġflour":12974,"Ġflown":12975,"Ġrelocated":12976,"ĠAmericas":12977,"Ġrabb":12978,"Ġregiments":12979,"hesh":12980,"Ġspeculated":12981,"Ġincred":12982,"heng":12983,"ĠShar":12984,"Ġmetaph":12985,"Ġ172":12986,"Ġ173":12987,"Ġstudios":12988,"aux":12989,"Ġobsolete":12990,"ashire":12991,"Ã©l":12992,"Ġguitars":12993,"Ġdamages":12994,"ĠBeij":12995,"ĠGuinness":12996,"opsis":12997,"ĠFlotilla":12998,"ĠEdition":12999,"ĠWeev":13000,"Ġdebt":13001,"Ġtotally":13002,"Ġdelight":13003,"Ġsuggestion":13004,"Ġrealised":13005,"ĠTrad":13006,"ĠTrinity":13007,"ĠXook":13008,"Ġelectrical":13009,"Ġcompetitor":13010,"Ġterrorist":13011,"Ġstatues":13012,"escope":13013,"ĠBaron":13014,"Ġwanting":13015,"Ġnightingale":13016,"Ġkeen":13017,"ĠOthers":13018,"Ġtraditionally":13019,"Ġacceptance":13020,"Ġ1865":13021,"Ġstrengthening":13022,"ĠMarket":13023,"ĠQuinn":13024,"Ġremoving":13025,"Ġthinks":13026,"Ġsubjected":13027,"Ġ750":13028,"ragon":13029,"ĠNote":13030,"Ġcheek":13031,"Ġensuing":13032,"ĠTerry":13033,"Ġattractive":13034,"ĠArchbishop":13035,"ĠBradman":13036,"Ġlayers":13037,"Ġpreventing":13038,"Ġlogs":13039,"ĠOutside":13040,"Ġdefender":13041,"ĠLoose":13042,"Ġreinforce":13043,"ĠJulian":13044,"Ġsupplied":13045,"Ġelevated":13046,"Ġeleventh":13047,"ĠDerby":13048,"galith":13049,"ĠCapital":13050,"Ġemotion":13051,"ĠHalf":13052,"Ġstopping":13053,"ĠLegisl":13054,"ĠKarl":13055,"Ġeliminate":13056,"ĠSubsequently":13057,"Ġbelonged":13058,"Ġreflects":13059,"Ġmistaken":13060,"ĠMicro":13061,"Ġrestaurants":13062,"ĠBrigades":13063,"Ġrituals":13064,"Ġdecreased":13065,"Ġdecrease":13066,"avery":13067,"Ġaccomplished":13068,"ĠWinter":13069,"Ġcategories":13070,"ĠMariah":13071,"ÅĤaw":13072,"Ġconquered":13073,"ĠPotter":13074,"Ġrecreational":13075,"ĠLancashire":13076,"Ġrelegation":13077,"Ġabsolut":13078,"ĠTechnology":13079,"Ġobstacles":13080,"Ġimprisonment":13081,"ĠVienna":13082,"ĠExpressway":13083,"Ġplayoffs":13084,"Ġborders":13085,"ĠYugoslavia":13086,"aturally":13087,"Ġbattlecruisers":13088,"ĠPrivate":13089,"ĠEugene":13090,"ĠPakistan":13091,"Ġisotopes":13092,"ĠGazan":13093,"ĠKÅįsaku":13094,"Ġcanceled":13095,"ĠPuerto":13096,"ĠBattery":13097,"Ġprecipitation":13098,"ĠBarbarian":13099,"rometric":13100,"Ġalcohol":13101,"ĠShimomura":13102,"Ġhorizontal":13103,"Ġdecommissioned":13104,"ĠTaxonomy":13105,"ĠGacko":13106,"BO":13107,"Bob":13108,"ait":13109,"bi":13110,"dy":13111,"front":13112,"gom":13113,"hand":13114,"iu":13115,"rino":13116,"vy":13117,"Ġes":13118,"Ġion":13119,"Ġtennis":13120,"Ġairst":13121,"Ġaft":13122,"inas":13123,"onn":13124,"rels":13125,"Ġsails":13126,"orian":13127,"itate":13128,"Ġcable":13129,"Ġcorpor":13130,"Ġbinding":13131,"Ġpig":13132,"rogen":13133,"Ġmos":13134,"Ġmere":13135,"Ġdread":13136,"Ġhockey":13137,"ĠTz":13138,"ĠTalk":13139,"Ġrept":13140,"ĠAL":13141,"ĠSey":13142,"Ġthorough":13143,"adh":13144,"ĠMeth":13145,"ĠTheater":13146,"ĠBoot":13147,"ĠBask":13148,"ĠBÃ¬nh":13149,"ĠIgn":13150,"eto":13151,"ĠHous":13152,"ĠHold":13153,"uskh":13154,"Ġstalk":13155,"Ġstrange":13156,"ĠPok":13157,"ĠRush":13158,"ĠRFU":13159,"emark":13160,"ĠDry":13161,"ĠDraft":13162,"ĠFus":13163,"ĠFather":13164,"ĠNik":13165,"ĠWells":13166,"ĠWitchcraft":13167,"ĠLear":13168,"estock":13169,"ums":13170,"ĠEmer":13171,"ĠEaster":13172,"ĠOri":13173,"opy":13174,"Ġvin":13175,"Ġvass":13176,"Ġsear":13177,"Ġseal":13178,"Ġorange":13179,"ĠKatherine":13180,"Ġexterior":13181,"quet":13182,"quest":13183,"ĠStyle":13184,"geant":13185,"inee":13186,"ellor":13187,"ogram":13188,"Ġunh":13189,"Ġunpre":13190,"Ġresort":13191,"Ġabn":13192,"Ġrecount":13193,"Ġscales":13194,"itional":13195,"ĠAlph":13196,"Ġoverth":13197,"iban":13198,"ĠAnim":13199,"ĠSeb":13200,"Ġreluct":13201,"Ġmeat":13202,"ĠEno":13203,"Ġinterrupted":13204,"rosaurus":13205,"Ġcoat":13206,"Ġindirect":13207,"Ġmonster":13208,"ĠShaw":13209,"Ġentert":13210,"Ġdoors":13211,"tona":13212,"Ġtranscription":13213,"Ġdeputy":13214,"Ġ157":13215,"elfth":13216,"ĠGerald":13217,"Ġmilk":13218,"Ġwarnings":13219,"Ġinfl":13220,"Ġrespected":13221,"ĠSponge":13222,"Ġinsult":13223,"Ġinsufficient":13224,"ĠAugustus":13225,"ennial":13226,"Ġ134":13227,"Ġguy":13228,"Ġconcerning":13229,"Ġannoy":13230,"Ġprotesters":13231,"Ġbread":13232,"Ġdrink":13233,"Ġexplan":13234,"Ġboost":13235,"Ġcameo":13236,"Ġdemanding":13237,"Ġdemographic":13238,"ĠOrleans":13239,"Ġdebated":13240,"Ġdebris":13241,"ĠTruth":13242,"ĠPerth":13243,"Ġeveryday":13244,"Ġeld":13245,"Ġcompeting":13246,"Ġerror":13247,"ĠMicha":13248,"ĠAssist":13249,"Ġlessons":13250,"Ġnevertheless":13251,"Ġaffecting":13252,"adesh":13253,"Ġprimitive":13254,"ĠBlacks":13255,"Ġdeclaring":13256,"umping":13257,"Ġswit":13258,"Ġ1891":13259,"Ġ1893":13260,"ĠSword":13261,"Ġspecialized":13262,"Ġknows":13263,"Ġhonours":13264,"Ġresponses":13265,"ĠBerg":13266,"ĠBergen":13267,"Ġcontracts":13268,"ĠCrist":13269,"Ġachievement":13270,"Ġrape":13271,"ĠÃį":13272,"ouli":13273,"ĠAppro":13274,"Ġharass":13275,"ĠMahesh":13276,"Ġgraduated":13277,"ĠArtist":13278,"ĠFeel":13279,"ĠMontfort":13280,"ĠMontgom":13281,"Ġexamined":13282,"ratch":13283,"Ġultimate":13284,"ĠFIT":13285,"Ġfocuses":13286,"Ġparks":13287,"owski":13288,"Ġgraphic":13289,"Ġpaths":13290,"Ġconfirm":13291,"ĠFinn":13292,"ĠLoch":13293,"Ġpleased":13294,"Ġprinciple":13295,"Ġdisappear":13296,"umberland":13297,"Ġexcavated":13298,"ĠPitts":13299,"Ġcontacted":13300,"Ġmessages":13301,"ĠCraig":13302,"ĠMortier":13303,"ĠTimor":13304,"Ġmobil":13305,"ĠAdditional":13306,"Ġ737":13307,"ĠImagist":13308,"ĠDemocrats":13309,"Ġtheaters":13310,"Ġexplosion":13311,"ĠBroadcast":13312,"Ġcontested":13313,"Ġawareness":13314,"Ġclouds":13315,"ĠElectronic":13316,"ĠChronicle":13317,"Ġnavigation":13318,"ĠUrban":13319,"ĠDiego":13320,"Ġrevolt":13321,"Ġremembered":13322,"Ġborrowed":13323,"ĠHedgehog":13324,"Ġlatest":13325,"Ġfossils":13326,"Ġguerrillas":13327,"Ġrendition":13328,"Ġswimming":13329,"Ġsupernatural":13330,"Ġliquid":13331,"houser":13332,"Ġcoffee":13333,"Ġadvertisements":13334,"ĠFifth":13335,"ĠPoetry":13336,"Ġhygrometric":13337,"Ġbarracks":13338,"Ġreperto":13339,"ĠWikiped":13340,"Ġaccusations":13341,"ĠCrystal":13342,"Ġdescriptions":13343,"ĠThanhouser":13344,"Ġsupreme":13345,"Ġunstable":13346,"Æ°Æ¡":13347,"ĠPfaster":13348,"ĠStarting":13349,"ĠEarnest":13350,"ĠUygh":13351,"Ġguidance":13352,"metrical":13353,"ĠBelfast":13354,"ĠBeijing":13355,"uskhuri":13356,"ĠSpongeBob":13357,"ĠMontgomery":13358,"Æ°Æ¡ng":13359,"CS":13360,"bone":13361,"cont":13362,"fric":13363,"iop":13364,"jin":13365,"lies":13366,"nan":13367,"pow":13368,"rut":13369,"tes":13370,"uits":13371,"wy":13372,"yan":13373,"yers":13374,"ĠØ":13375,"ĠãĤ":13376,"ģĦ":13377,"Ġtap":13378,"Ġtawny":13379,"Ġaux":13380,"inich":13381,"onation":13382,"Ġcu":13383,"Ġcod":13384,"Ġcyl":13385,"Ġcats":13386,"Ġfals":13387,"anim":13388,"Ġben":13389,"inge":13390,"Ġpose":13391,"asant":13392,"roads":13393,"Ġmast":13394,"Ġdign":13395,"Ġhaz":13396,"leted":13397,"ĠSic":13398,"iland":13399,"strong":13400,"ĠCA":13401,"ĠCore":13402,"ĠCase":13403,"ĠClement":13404,"Ġlaud":13405,"Ġease":13406,"Ġnas":13407,"Ġnerv":13408,"acc":13409,"acular":13410,"acements":13411,"ĠMult":13412,"otihu":13413,"ĠHand":13414,"ĠHang":13415,"ĠHern":13416,"Ġstuff":13417,"ayed":13418,"ĠPont":13419,"ĠDoc":13420,"ĠFear":13421,"ĠFlet":13422,"ĠFisher":13423,"ĠFlanders":13424,"Ġwhatever":13425,"ĠNME":13426,"ĠNuskhuri":13427,"oso":13428,"ĠGand":13429,"ĠGross":13430,"ĠJar":13431,"ĠJag":13432,"Ġanalys":13433,"isting":13434,"riors":13435,"ĠESP":13436,"rescent":13437,"iferous":13438,"Ġproc":13439,"Ġvent":13440,"illance":13441,"ĠdeGrom":13442,"Ġsuited":13443,"Ġoral":13444,"ĠKum":13445,"Ġchase":13446,"ĠâģĦ":13447,"ĠStakes":13448,"Ġspell":13449,"Ġspark":13450,"Ġleaf":13451,"ellers":13452,"ĠVe":13453,"ĠVishn":13454,"Ġcomparing":13455,"Ġcompiled":13456,"Ġbutt":13457,"Ġconting":13458,"Ġreserved":13459,"Ġperf":13460,"ika":13461,"ikh":13462,"Ġenvelop":13463,"intage":13464,"Ġworker":13465,"Ġsecuring":13466,"Ġdecoration":13467,"Ġrelax":13468,"ologically":13469,"Ġthanks":13470,"veillance":13471,"Ġretaining":13472,"Ġassum":13473,"Ġquar":13474,"Ġcoined":13475,"Ġincons":13476,"Ġhighlights":13477,"Ġadds":13478,"Ġexpanding":13479,"Ġreporter":13480,"Ġextr":13481,"Ġinstances":13482,"Ġdistort":13483,"Ġpassenger":13484,"ĠCommodore":13485,"ĠManhatt":13486,"Ġadvent":13487,"Ġadvocated":13488,"Ġbatting":13489,"ĠAllmusic":13490,"Ġcharacterised":13491,"ĠProdu":13492,"ĠGuam":13493,"appen":13494,"Ġslaves":13495,"ĠParanth":13496,"Ġtracking":13497,"Ġexplored":13498,"ĠEuropeans":13499,"Ġmedian":13500,"elta":13501,"ĠFlag":13502,"Ġdemo":13503,"ĠTeotihu":13504,"ĠAmyl":13505,"arnation":13506,"Ġarchipelago":13507,"ĠTrade":13508,"Ġmyel":13509,"Ġ260":13510,"Ġerosion":13511,"Ġprojected":13512,"Ġterror":13513,"Ġeighteen":13514,"Ġsitcom":13515,"Ġfacts":13516,"Ġdivines":13517,"Ġgenres":13518,"Ġpainter":13519,"ĠHighland":13520,"ĠBlackie":13521,"Ġfrontal":13522,"Ġsummon":13523,"Ġvillain":13524,"Ġcoastline":13525,"Ġ1892":13526,"Ġ1896":13527,"Ġsuffer":13528,"ĠMoro":13529,"Ġimprov":13530,"Ġ1851":13531,"Ġ1853":13532,"ĠEmma":13533,"Ġexciting":13534,"ĠBerk":13535,"ĠCrim":13536,"ĠRhode":13537,"Ġ1874":13538,"Ġillum":13539,"Ġachievements":13540,"Ġdrawings":13541,"ĠWilf":13542,"ĠOsbert":13543,"Ġdonations":13544,"Ġinterviewed":13545,"Ġbreakdown":13546,"Ġblockade":13547,"Ġharvest":13548,"ĠHelen":13549,"ĠVargas":13550,"Ġcomplained":13551,"ĠTerrorist":13552,"Ġcontempor":13553,"ĠReserve":13554,"unta":13555,"Ġcontrolling":13556,"ĠAttale":13557,"Ġfocusing":13558,"Ġpursued":13559,"ĠHumpty":13560,"Ġadvantages":13561,"ĠHistorical":13562,"ĠLockport":13563,"ĠJosh":13564,"ĠColonies":13565,"ĠDamage":13566,"ĠNazaire":13567,"Ġmelod":13568,"ĠFerry":13569,"ĠAnnals":13570,"Ġathletics":13571,"ĠProtection":13572,"ĠKirby":13573,"ĠEngineers":13574,"Ġincorporates":13575,"Ġfunctional":13576,"Ġremixes":13577,"Ġlabeled":13578,"Ġwitnessed":13579,"Ġeasier":13580,"ĠSusan":13581,"Ġsubstantially":13582,"ĠCuba":13583,"Ġproposals":13584,"ĠGabbar":13585,"Ġferry":13586,"Ġshelter":13587,"Ġlobster":13588,"Ġaltarpiece":13589,"Ġbeside":13590,"Ġbesie":13591,"ĠKatia":13592,"ĠGanganelli":13593,"Ġskeleton":13594,"Ġanthrop":13595,"Ġrumors":13596,"Ġenforcement":13597,"ĠStrapping":13598,"Ġoverwhelmed":13599,"Ġtackles":13600,"ĠBuddhist":13601,"Ġpersuaded":13602,"Ġimprisoned":13603,"ĠPAVN":13604,"ĠTaiwan":13605,"Ġgammar":13606,"Ġfatalities":13607,"Ġhence":13608,"Ġefficient":13609,"ĠBehind":13610,"Ġsummary":13611,"Ġanticipated":13612,"Ġastronomers":13613,"ĠDrama":13614,"ĠDiamond":13615,"Ġveteran":13616,"Ġseventeen":13617,"Ġtrunkline":13618,"ĠHeyman":13619,"Ġsemifinals":13620,"ĠRepresentatives":13621,"Ġcelebration":13622,"Ġboilers":13623,"ĠCoalition":13624,"Ġenlarged":13625,"Ġscenario":13626,"ĠBracknell":13627,"ĠÂµm":13628,"ĠWrestle":13629,"ĠLunga":13630,"ĠRajamouli":13631,"ĠExpedition":13632,"ĠMcElroy":13633,"ĠMhalsa":13634,"ĠÃįmar":13635,"Ġhygrometricus":13636,"ĠESPN":13637,"ĠManhattan":13638,"ĠParanthodon":13639,"Mania":13640,"core":13641,"care":13642,"fus":13643,"iÃ¨":13644,"jib":13645,"lon":13646,"lot":13647,"lance":13648,"nance":13649,"pike":13650,"uber":13651,"xi":13652,"Ã«":13653,"Ã´":13654,"Äĥ":13655,"ĠËĪ":13656,"Ġties":13657,"Ġthesis":13658,"erdale":13659,"Ġsor":13660,"Ġsinking":13661,"Ġol":13662,"Ġcel":13663,"Ġcra":13664,"Ġcub":13665,"Ġcement":13666,"Ġcakes":13667,"Ġcooking":13668,"Ġfisher":13669,"Ġmaps":13670,"Ġdad":13671,"ĠAx":13672,"ĠAren":13673,"ĠAOC":13674,"ĠSri":13675,"ĠSEC":13676,"ĠSNL":13677,"ĠCadmium":13678,"Ġlod":13679,"amas":13680,"Ġecl":13681,"Ġnice":13682,"aco":13683,"acrit":13684,"ĠMets":13685,"uru":13686,"ĠBreak":13687,"ĠIl":13688,"ĠITV":13689,"Ġgains":13690,"usade":13691,"Ġstance":13692,"ĠPiz":13693,"ĠPrice":13694,"Ġheter":13695,"ĠRal":13696,"ĠROK":13697,"ĠDÃŃ":13698,"ĠDawn":13699,"ĠFastra":13700,"ĠFringe":13701,"ulsion":13702,"ulator":13703,"Ġconclus":13704,"ĠNAS":13705,"ĠNEA":13706,"ĠWave":13707,"ĠWoman":13708,"ĠGet":13709,"ĠGrey":13710,"ĠGothic":13711,"agh":13712,"riz":13713,"ĠEch":13714,"ĠOke":13715,"opol":13716,"Ġprobe":13717,"ĠKod":13718,"Ġchann":13719,"Ġchances":13720,"Ġshopping":13721,"ovil":13722,"ovac":13723,"apter":13724,"Ġabst":13725,"Ġherb":13726,"Ġrecalls":13727,"izong":13728,"Ġdisorder":13729,"Ġdischar":13730,"Ġjealous":13731,"ensional":13732,"ĠYu":13733,"renton":13734,"ĠUnit":13735,"lesey":13736,"othy":13737,"ĠArcher":13738,"Ġtraces":13739,"Ġflaw":13740,"Ġflatt":13741,"obee":13742,"Ġfilmm":13743,"ĠNewark":13744,"Ġassign":13745,"Ġregister":13746,"Ġformations":13747,"Ġacclaimed":13748,"Ġcoaster":13749,"Ġamazing":13750,"ĠLein":13751,"insky":13752,"Ġ126":13753,"Ġinvented":13754,"Ġblame":13755,"Ġblind":13756,"Ġblank":13757,"Ġblamed":13758,"ĠZA":13759,"Ġtransits":13760,"Ġ119":13761,"Ġcontinent":13762,"Ġdeveloper":13763,"ĠSpirit":13764,"Ġpreval":13765,"ĠNorthwest":13766,"ĠNorthumberland":13767,"Ġelephant":13768,"Ġpointing":13769,"ĠJanet":13770,"Ġgrace":13771,"ĠGuang":13772,"ĠGuerr":13773,"Ġslip":13774,"Ġkiller":13775,"echobee":13776,"Ġorganisations":13777,"ĠAndr":13778,"Ġsentenced":13779,"Ġboom":13780,"ĠSteven":13781,"Ġmidnight":13782,"Ġdelays":13783,"ĠAborig":13784,"Ġcurren":13785,"Ġpolitically":13786,"Ġpostp":13787,"ĠAfghan":13788,"Ġvictorious":13789,"Ġfreed":13790,"ĠAngl":13791,"ĠAnglesey":13792,"Ġprofound":13793,"Ġsurvives":13794,"Ġterrible":13795,"Ġlighting":13796,"Ġlesser":13797,"Ġjoins":13798,"Ġobser":13799,"Ġfarming":13800,"ĠDavies":13801,"Ġbarb":13802,"Ġbarometric":13803,"Ġcataly":13804,"Ġtourism":13805,"Ġintroduces":13806,"ĠExecutive":13807,"ĠOliver":13808,"ĠMonten":13809,"ĠPalm":13810,"Ġmixing":13811,"Ġtreasure":13812,"Ġimproving":13813,"Ġfortified":13814,"Ġarguments":13815,"ĠMedieval":13816,"ĠPeace":13817,"Ġcostumes":13818,"Ġreactor":13819,"Ġpractical":13820,"Ġclearing":13821,"Ġthreatening":13822,"ĠMaryang":13823,"ĠÃħ":13824,"oult":13825,"Ġbills":13826,"Ġharbor":13827,"Ġ1837":13828,"Ġapplications":13829,"ĠBuen":13830,"ĠBeyond":13831,"ĠSoviets":13832,"Ġpeaceful":13833,"Ġgrandson":13834,"ĠEss":13835,"ĠArmoured":13836,"ĠArmstrong":13837,"Ġdemonstration":13838,"Ġaggress":13839,"Ġpreparations":13840,"Ġlegislative":13841,"ĠReviewers":13842,"ĠLarge":13843,"ĠLlosa":13844,"ĠUNES":13845,"Ġcomprises":13846,"Ġoverlooking":13847,"Ġfungi":13848,"boat":13849,"ĠAdmiralty":13850,"Ġunusually":13851,"Ġdimensional":13852,"Ġpulp":13853,"ĠBruins":13854,"ĠLiberty":13855,"ĠAthletics":13856,"Ġcooler":13857,"Ġcrafts":13858,"Ġprosper":13859,"Ġmigration":13860,"ĠWinston":13861,"Ġmemorials":13862,"ĠYeovil":13863,"Ġmutual":13864,"Ġshelters":13865,"ĠBiography":13866,"ĠSpringfield":13867,"Ġdinosaurs":13868,"Ġinstrumental":13869,"Ġgrossing":13870,"ĠHunter":13871,"ĠStewie":13872,"ĠPersonnel":13873,"Ġhanging":13874,"Ġallegations":13875,"ĠJennifer":13876,"ĠPicture":13877,"Ġloyalty":13878,"ĠSaigon":13879,"isphere":13880,"Ġdisappointed":13881,"Ġframework":13882,"Ġjournalists":13883,"ĠCobra":13884,"Ġnicknamed":13885,"Ġinnovative":13886,"Ġoutput":13887,"Ġprospect":13888,"Ġabundant":13889,"ĠPierre":13890,"Ġerrors":13891,"ĠMcLaren":13892,"Ġelderly":13893,"ĠJenkins":13894,"Ġaggregate":13895,"ĠPanzer":13896,"Ġlivestock":13897,"ĠWolver":13898,"Ġintelligent":13899,"Ġsanctuary":13900,"ĠFriedrich":13901,"ĠCommercial":13902,"Ġcameras":13903,"ĠFitts":13904,"ĠLauderdale":13905,"ĠAlgernon":13906,"tymology":13907,"Ġfarther":13908,"Ġalphabet":13909,"ĠRafael":13910,"Ġbronze":13911,"ĠEzra":13912,"Ġpercussion":13913,"ĠConstantinople":13914,"Ġrepertoire":13915,"ĠTeotihuacan":13916,"Ġgammarus":13917,"ĠWrestleMania":13918,"ĠDÃŃaz":13919,"ĠOkeechobee":13920,"ĠUNESCO":13921,"SU":13922,"bits":13923,"fa":13924,"feld":13925,"iating":13926,"mi":13927,"mad":13928,"mill":13929,"oi":13930,"put":13931,"uania":13932,"Ãł":13933,"Ġç":13934,"Ġts":13935,"Ġtong":13936,"Ġtensions":13937,"held":13938,"inqu":13939,"rection":13940,"Ġsou":13941,"Ġsid":13942,"Ġsaving":13943,"Ġware":13944,"iture":13945,"itating":13946,"Ġcage":13947,"Ġfing":13948,"Ġfet":13949,"Ġfighters":13950,"armed":13951,"aning":13952,"Ġpover":13953,"Ġpuma":13954,"roc":13955,
[...]
