{"version":"1.0","truncation":null,"padding":null,"added_tokens":[{"id":0,"special":true,"content":"[UNK]","single_word":false,"lstrip":false,"rstrip":false,"normalized":false},{"id":1,"special":true,"content":"[CLS]","single_word":false,"lstrip":false,"rstrip":false,"normalized":false},{"id":2,"special":true,"content":"[SEP]","single_word":false,"lstrip":false,"rstrip":false,"normalized":false},{"id":3,"special":true,"content":"[PAD]","single_word":false,"lstrip":false,"rstrip":false,"normalized":false},{"id":4,"special":true,"content":"[MASK]","single_word":false,"lstrip":false,"rstrip":false,"normalized":false}],"normalizer":null,"pre_tokenizer":{"type":"ByteLevel","add_prefix_space":true,"trim_offsets":true},"post_processor":null,"decoder":{"type":"ByteLevel","add_prefix_space":true,"trim_offsets":true},"model":{"type":"BPE","dropout":null,"unk_token":"[UNK]","continuing_subword_prefix":null,"end_of_word_suffix":null,"fuse_unk":false,"vocab":{"[UNK]":0,"[CLS]":1,"[SEP]":2,"[PAD]":3,"[MASK]":4,"!":5,"\"":6,"#":7,"$":8,"%":9,"&":10,"'":11,"(":12,")":13,"*":14,"+":15,",":16,"-":17,".":18,"/":19,"0":20,"1":21,"2":22,"3":23,"4":24,"5":25,"6":26,"7":27,"8":28,"9":29,":":30,";":31,"<":32,"=":33,">":34,"?":35,"@":36,"A":37,"B":38,"C":39,"D":40,"E":41,"F":42,"G":43,"H":44,"I":45,"J":46,"K":47,"L":48,"M":49,"N":50,"O":51,"P":52,"Q":53,"R":54,"S":55,"T":56,"U":57,"V":58,"W":59,"X":60,"Y":61,"Z":62,"[":63,"\\":64,"]":65,"^":66,"_":67,"`":68,"a":69,"b":70,"c":71,"d":72,"e":73,"f":74,"g":75,"h":76,"i":77,"j":78,"k":79,"l":80,"m":81,"n":82,"o":83,"p":84,"q":85,"r":86,"s":87,"t":88,"u":89,"v":90,"w":91,"x":92,"y":93,"z":94,"{":95,"|":96,"}":97,"~":98,"¡":99,"¢":100,"£":101,"¤":102,"¥":103,"¦":104,"§":105,"¨":106,"©":107,"ª":108,"«":109,"¬":110,"®":111,"¯":112,"°":113,"±":114,"²":115,"³":116,"´":117,"µ":118,"¶":119,"·":120,"¸":121,"¹":122,"º":123,"»":124,"¼":125,"½":126,"¾":127,"¿":128,"Â":129,"Ã":130,"Ä":131,"Å":132,"Æ":133,"Ç":134,"È":135,"É":136,"Ê":137,"Ë":138,"Ì":139,"Í":140,"Î":141,"Ï":142,"Ð":143,"Ñ":144,"Ô":145,"Õ":146,"Ö":147,"×":148,"Ø":149,"Ù":150,"Û":151,"à":152,"á":153,"â":154,"ã":155,"ä":156,"å":157,"æ":158,"ç":159,"è":160,"é":161,"ê":162,"ë":163,"ì":164,"í":165,"ï":166,"Ċ":167,"Ġ":168,"Ģ":169,"ģ":170,"Ĥ":171,"ĥ":172,"Ħ":173,"ħ":174,"Ĩ":175,"ĩ":176,"Ī":177,"ī":178,"Ĭ":179,"ĭ":180,"Į":181,"į":182,"İ":183,"ı":184,"Ĳ":185,"ĳ":186,"Ĵ":187,"ĵ":188,"Ķ":189,"ķ":190,"ĸ":191,"Ĺ":192,"ĺ":193,"Ļ":194,"ļ":195,"Ľ":196,"ľ":197,"Ŀ":198,"ŀ":199,"Ł":200,"ł":201,"Ń":202,"Ġt":203,"he":204,"Ġa":205,"in":206,"Ġthe":207,"er":208,"on":209,"Ġ,":210,"re":211,"Ġs":212,"ed":213,"Ġw":214,"Ġo":215,"nd":216,"at":217,"Ġ.":218,"or":219,"en":220,"Ġc":221,"it":222,"Ġf":223,"is":224,"es":225,"ar":226,"Ġb":227,"Ġof":228,"an":229,"Ġin":230,"al":231,"ing":232,"Ġp":233,"as":234,"Ġand":235,"Ġto":236,"ic":237,"ro":238,"Ġm":239,"Ġd":240,"Ġh":241,"ion":242,"ĠĊ":243,"le":244,"ou":245,"ĠT":246,"Ġre":247,"Ġ=":248,"ĠS":249,"il":250,"ĠA":251,"ent":252,"Ġ\"":253,"Ġ1":254,"Ġth":255,"st":256,"Ġl":257,"el":258,"ĠC":259,"Ġ@":260,"Ġe":261,"om":262,"am":263,"Ġn":264,"ad":265,"ac":266,"Ġwas":267,"un":268,"ĠM":269,"Ġon":270,"ec":271,"ĠB":272,"ĠThe":273,"ly":274,"Ġ'":275,"ur":276,"et":277,"id":278,"Ġg":279,"ol":280,"im":281,"ĠI":282,"-@":283,"Ġ@-@":284,"Ġfor":285,"ir":286,"ig":287,"iv":288,"ot":289,"ter":290,"ut":291,"ĠH":292,"Ġas":293,"us":294,"ow":295,"ith":296,"ay":297,"Ġ2":298,"Ġst":299,"ĠP":300,"Ġhe":301,"ver":302,"ation":303,"Ġwith":304,"Ġbe":305,"Ġthat":306,"ĠR":307,"ce":308,"ĠD":309,"em":310,"Ġwh":311,"ĠW":312,"Ġby":313,"ĠF":314,"ch":315,"Ġal":316,"th":317,"Ġ)":318,"Ġ(":319,"Ġis":320,"ul":321,"Ġcon":322,"ĠL":323,"Ġat":324,"ĠG":325,"ers":326,"ct":327,"ĠN":328,"ain":329,"Ġ19":330,"and":331,"Ġan":332,"os":333,"Ġit":334,"her":335,"rom":336,"av":337,"ag":338,"um":339,"ĠJ":340,"est":341,"00":342,"Ġhis":343,"Ġr":344,"ĠE":345,"unk":346,"Ġ<":347,"ri":348,"od":349,"Ġfrom":350,"ĠO":351,"ist":352,"Ġcom":353,"ap":354,"Ġpro":355,"Ġv":356,"op":357,"if":358,"ore":359,"ill":360,"ld":361,"up":362,"ere":363,"ew":364,"igh":365,"res":366,"ĠIn":367,"ies":368,"Ġde":369,"ber":370,"art":371,"ard":372,"ort":373,"Ġse":374,"Ġwere":375,"ich":376,"ate":377,"ak":378,"all":379,"ab":380,"ant":381,"oc":382,"ud":383,"Ġex":384,"ong":385,"qu":386,"Ġor":387,"Ġch":388,"gh":389,"ear":390,"ated":391,"Ġpl":392,"Ġsh":393,"ess":394,"ity":395,"ip":396,"ĠK":397,"ive":398,"ame":399,"ĠU":400,"Ġâ":401,"Ġhad":402,"ect":403,"ack":404,"our":405,"ĠâĢ":406,"ĠSt":407,"Ġsu":408,"ast":409,"red":410,"se":411,"Ġwhich":412,"Ġk":413,"ment":414,"Ġle":415,"ge":416,"und":417,"Ġare":418,"ian":419,"ov":420,"ial":421,"Ġnot":422,"Ġsp":423,"ell":424,"ost":425,"Ġy":426,"ight":427,"Ġtr":428,"ust":429,"ord":430,"ary":431,"ia":432,"ther":433,"rit":434,"pt":435,"ine":436,"Ġ3":437,"oun":438,"ical":439,"ave":440,"pp":441,"ĠCh":442,"Ġ200":443,"Ġun":444,"cc":445,"Ġinc":446,"fter":447,"ould":448,"Ġbut":449,"irst":450,"ish":451,"ous":452,"ions":453,"ĠV":454,"te":455,"so":456,"Ġcomp":457,"ff":458,"Ġ20":459,"ide":460,"Ġro":461,"Ġwhe":462,"ure":463,"Ġar":464,"Ġcont":465,"ra":466,"ub":467,"Ġ;":468,"Ġfirst":469,"ign":470,"Ġcl":471,"wo":472,"Ġher":473,"ie":474,"Ġits":475,"Ġtheir":476,"ue":477,"og":478,"ĠâĢĵ":479,"orm":480,"ass":481,"ork":482,"Ġint":483,"Ġres":484,"Ġ:":485,"ok":486,"ĠHe":487,"ater":488,"Ġalso":489,"Ġab":490,"Ġad":491,"ome":492,"ond":493,"out":494,"age":495,"ry":496,"mer":497,"ire":498,"hed":499,"Ġus":500,"du":501,"Ġ4":502,"ime":503,"low":504,"ru":505,"Ġper":506,"per":507,"ans":508,"Ġwho":509,"Ġone":510,"Ġhave":511,"Ġ5":512,"Ġsc":513,"ĠTh":514,"pl":515,"ally":516,"own":517,"ile":518,"ance":519,"Ġrec":520,"ted":521,"Ġ18":522,".@":523,"Ġ@.@":524,"Ġtwo":525,"ition":526,"ugh":527,"ree":528,"uring":529,"ence":530,"port":531,"Ġbeen":532,"Ġpart":533,"Ġbec":534,"ts":535,"Ġhas":536,"Ġag":537,"iz":538,"ice":539,"Ġapp":540,"Ġ201":541,",@":542,"Ġ@,@":543,"ĠAl":544,"ough":545,"Ġen":546,"Ġj":547,"Ġdis":548,"lud":549,"Ġover":550,"Ġthis":551,"Ġser":552,"ory":553,"Ġyear":554,"ely":555,"ations":556,"are":557,"ember":558,"ction":559,"ound":560,"ke":561,"Ġoff":562,"Ġafter":563,"Ġup":564,"ach":565,"Ġplay":566,"Ġdes":567,"land":568,"ĠIt":569,"ace":570,"over":571,"ark":572,"ric":573,"Ġout":574,"Ġthey":575,"Ġte":576,"ade":577,"Ġother":578,"act":579,"Ġman":580,"ib":581,"Ġim":582,"ult":583,"Ġinclud":584,"ress":585,"ced":586,"ail":587,"urn":588,"ĠY":589,"wn":590,"Ġwould":591,"ens":592,"ind":593,"Ġtime":594,"Ġinto":595,"man":596,"Ġpre":597,"ang":598,"one":599,"ĠOn":600,"ep":601,"ward":602,"ĠUn":603,"Ġhim":604,"Ġwe":605,"we":606,"oin":607,"ite":608,"ates":609,"Ġshe":610,"Ġ6":611,"les":612,"ren":613,"Ġev":614,"Ġatt":615,"able":616,"ased":617,"ilm":618,"ited":619,"amp":620,"end":621,"ever":622,"ied":623,"ase":624,"Ġcomm":625,"ors":626,"Ġinter":627,"rough":628,"ount":629,"oy":630,"ons":631,"form":632,"Ġall":633,"Ġmore":634,"Ġwork":635,"ces":636,"ood":637,"Ġ7":638,"ered":639,"aw":640,"old":641,"ings":642,"vel":643,"ĠAr":644,"ild":645,"Ġnew":646,"Ġsec":647,"ĠAn":648,"Ġbet":649,"ick":650,"ose":651,"Ġwhen":652,"Ġfilm":653,"inal":654,"ve":655,"Ġfe":656,"ents":657,"ious":658,"way":659,"ake":660,"att":661,"aus":662,"fer":663,"reat":664,"iss":665,"Ġcons":666,"ft":667,"round":668,"Ġ8":669,"ĠMar":670,"Ġrem":671,"gan":672,"rop":673,"rib":674,"ved":675,"Ġdec":676,"ason":677,"Ġduring":678,"Ġund":679,"orth":680,"ubl":681,"Ġagain":682,"hip":683,"Ġmost":684,"Ġ9":685,"Ġgame":686,"Ġpr":687,"ĠAs":688,"Ġthem":689,"Ġonly":690,"Ġ199":691,"oth":692,"ween":693,"Ġear":694,"ix":695,"ollow":696,"Ġthan":697,"ath":698,"Ġsup":699,"Ġne":700,"ational":701,"fore":702,"ĠSe":703,"ĠNew":704,"Ġabout":705,"Ġprodu":706,"ob":707,"Ġcent":708,"Ġkn":709,"tern":710,"Ġret":711,"Ġchar":712,"Ġsong":713,"Ġcan":714,"outh":715,"ug":716,"Ġbetween":717,"Ġlater":718,"ey":719,"Ġrele":720,"Ġunder":721,"Ġthree":722,"ict":723,"orn":724,"Ġcol":725,"Ġact":726,"hn":727,"ton":728,"iew":729,"ron":730,"Ġ00":731,"aid":732,"Ġthrough":733,"als":734,"Ġqu":735,"orld":736,"Ġnum":737,"ĠEn":738,"ook":739,"Ġso":740,"Ġacc":741,"Ġme":742,"Ġwhile":743,"Ġrel":744,"Ġend":745,"meric":746,"ĠAmeric":747,"ank":748,"Ġfl":749,"lect":750,"ters":751,"Ġpos":752,"ral":753,"ĠLe":754,"ock":755,"Ġsub":756,"Ġass":757,"Ġwhere":758,"ular":759,"ating":760,"Ġver":761,"Ġday":762,"Ġreg":763,"Ġsecond":764,"Ġbu":765,"ener":766,"ĠCom":767,"Ġmade":768,"ision":769,"ames":770,"ived":771,"ck":772,"Ġpe":773,"Ġrecord":774,"Ġdef":775,"hes":776,"bum":777,"Ġfour":778,"ĠRe":779,"Ġgro":780,"Ġfollow":781,"son":782,"Ġseason":783,"Ġ000":784,"Ġform":785,"Ġsome":786,"Ġep":787,"Ġsuch":788,"Ġam":789,"ished":790,"Ġmov":791,"ool":792,"Ġbefore":793,"ained":794,"Ġmus":795,"Ġthere":796,"Ġwrit":797,"ph":798,"ĠSp":799,"Ġspec":800,"ĠJo":801,"ics":802,"Ġ10":803,"ike":804,"Ġyears":805,"Ġteam":806,"iel":807,"io":808,"Ġsy":809,"hen":810,"ode":811,"ĠThis":812,"ĠAt":813,"Ġ/":814,"ident":815,"Ġlar":816,"ual":817,"Ġalbum":818,"Ġind":819,"owever":820,"ily":821,"Ġused":822,"Ġent":823,"ros":824,"Ġgr":825,"ning":826,"Ġcall":827,"Ġsur":828,"ific":829,"Ġhigh":830,"Ġac":831,"Ġpubl":832,"ury":833,"Ġbeing":834,"ĠSh":835,"Ġepis":836,"Ġthen":837,"velop":838,"Ġloc":839,"Ġdo":840,"led":841,"Ġexp":842,"ten":843,"ife":844,"Ġagainst":845,"Ġinv":846,"Ġ17":847,"aj":848,"other":849,"ris":850,"Ġpres":851,"Ġbl":852,"Ġnumber":853,"anc":854,"ĠAfter":855,"Ġshow":856,"Ġcharac":857,"Ġsever":858,"Ġ0":859,"Ġadd":860,"Ġset":861,"Ġco":862,"ince":863,"ane":864,"Ġbecame":865,"ĠBrit":866,"Ġrece":867,"ject":868,"ause":869,"Ġperform":870,"Ġlead":871,"Ġincluding":872,"ĠâĢĶ":873,"Ġbr":874,"Ġsing":875,"Ġno":876,"ars":877,"ek":878,"ather":879,"ĠUnited":880,"Ġfound":881,"erm":882,"ines":883,"Ġwell":884,"Ġrep":885,"Ġmon":886,"Ġpol":887,"Ġback":888,"air":889,"Ġboth":890,"Ġ198":891,"Ġcap":892,"Ġseries":893,"ĠSc":894,"Ġ15":895,"ale":896,"Ġ12":897,"ober":898,"Ġship":899,"ier":900,"ower":901,"ement":902,"ired":903,"ures":904,"ĠCon":905,"its":906,"Ġmain":907,"Ġ194":908,"ivers":909,"ĠWh":910,"ĠShe":911,"ert":912,"Ġmin":913,"overn":914,"pen":915,"ley":916,"Ġdid":917,"iet":918,"Ġgo":919,"der":920,"Ġcre":921,"Ġdevelop":922,"elf":923,"Ġimp":924,"ik":925,"ram":926,"ities":927,"ĠEng":928,"Ġlong":929,"Ġmet":930,"iver":931,"ann":932,"olog":933,"ised":934,"any":935,"ven":936,"ting":937,"ared":938,"Ġmill":939,"Ġem":940,"ĠJohn":941,"Ġair":942,"Ġmat":943,"uch":944,"ird":945,"ful":946,"Ġepisode":947,"az":948,"tend":949,"irect":950,"ll":951,"Ġsaid":952,"Ġstud":953,"Ġmany":954,"Ġbro":955,"ute":956,"Ġdep":957,"Ġcould":958,"ative":959,"Ġcar":960,"Ġorig":961,"Ġcontin":962,"Ġwar":963,"Ġ16":964,"Ġseveral":965,"ĠAmerican":966,"though":967,"Ġdif":968,"ĠInd":969,"Ġinst":970,"Ġpop":971,"ĠCl":972,"ash":973,"ield":974,"ouse":975,"Ġknown":976,"Ġ197":977,"emb":978,"ĠAust":979,"ise":980,"Ġ196":981,"ually":982,"Ġconc":983,"ty":984,"til":985,"ĠBr":986,"Ġ11":987,"ĠWar":988,"iam":989,"view":990,"erson":991,"ins":992,"ued":993,"Ġreturn":994,"Ġob":995,"Ġbegan":996,"Ġsm":997,"Ġany":998,"Ġdesign":999,"Ġcomple":1000,"Ġdesc":1001,"Ġsign":1002,"ern":1003,"ople":1004,"chool":1005,"ross":1006,"ange":1007,"Ġest":1008,"my":1009,"aking":1010,"ccess":1011,"ĠFr":1012,"Ġtrans":1013,"Ġprov":1014,"ĠDe":1015,"Ġfeat":1016,"oot":1017,"hy":1018,"Ġinf":1019,"Ġrun":1020,"Ġearly":1021,"Ġart":1022,"Ġnear":1023,"Ġdist":1024,"ah":1025,"Ġmusic":1026,"Ġown":1027,"ided":1028,"Ġreleased":1029,"Ġuntil":1030,"rap":1031,"ĠBl":1032,"ized":1033,"Ġcalled":1034,"ism":1035,"Ġeff":1036,"ĠUS":1037,"imes":1038,"ĠCol":1039,"Ġresp":1040,"Ġbel":1041,"une":1042,"Ġpass":1043,"ĠZ":1044,"ured":1045,"Ġfin":1046,"stem":1047,"ĠMay":1048,"ially":1049,"ists":1050,"Ġdown":1051,"ution":1052,"enn":1053,"Ġdisc":1054,"Ġcrit":1055,"ments":1056,"Ġdirect":1057,"osed":1058,"Ġgener":1059,"Ġalong":1060,"xt":1061,"Ġins":1062,"Ġmillion":1063,"ĠBritish":1064,"Ġprev":1065,"ĠGer":1066,"Ġgroup":1067,"Ġoffic":1068,"Ġfam":1069,"Ġ13":1070,"Ġthese":1071,"ajor":1072,"ull":1073,"Ġmod":1074,"ium":1075,"Ġ$":1076,"Ġmay":1077,"ax":1078,"Ġopen":1079,"cept":1080,"Ġmil":1081,"eb":1082,"Ġpoin":1083,"els":1084,"ains":1085,"Ġland":1086,"ĠAd":1087,"Ġgovern":1088,"Ġhist":1089,"gest":1090,"ĠAug":1091,"Ġsim":1092,"ger":1093,"ĠSept":1094,"ĠBe":1095,"Ġstr":1096,"Ġsuccess":1097,"ĠSeptember":1098,"ĠAugust":1099,"erv":1100,"Ġoper":1101,"Ġattack":1102,"ĠWorld":1103,"ĠStates":1104,"ible":1105,"Ġcount":1106,"Ġgu":1107,"uc":1108,"Ġuse":1109,"Ġsame":1110,"ĠAp":1111,"wards":1112,"Ġdescrib":1113,"ets":1114,"Ġpeople":1115,"aced":1116,"ĠFor":1117,"Ġcharacter":1118,"Ġbecause":1119,"amed":1120,"ink":1121,"ĠAll":1122,"aining":1123,"ĠIs":1124,"Ġlike":1125,"Ġserv":1126,"yp":1127,"Ġ14":1128,"ĠJu":1129,"Ġaround":1130,"Ġstart":1131,"Ġthough":1132,"aving":1133,"Ġkm":1134,"Ġ195":1135,"Ġed":1136,"Ġwin":1137,"ĠAustral":1138,"Ġconst":1139,"Ġtook":1140,"ues":1141,"Ġocc":1142,"Ġbatt":1143,"ruct":1144,"ĠGerman":1145,"ĠOct":1146,"ĠPl":1147,"Ġsupport":1148,"ner":1149,"Ġann":1150,"ped":1151,"Ġnorth":1152,"Ġfollowing":1153,"ĠNov":1154,"Ġsix":1155,"Ġdr":1156,"ove":1157,"ĠTr":1158,"Ġele":1159,"Ġ193":1160,"ĠHowever":1161,"Ġsystem":1162,"Ġappear":1163,"ĠQ":1164,"Ġfinal":1165,"Ġreceived":1166,"Ġclass":1167,"Ã©":1168,"Ġhead":1169,"ĠCar":1170,"uss":1171,"ĠOctober":1172,"Ġconsid":1173,"Ġprom":1174,"ives":1175,"ants":1176,"Ġ191":1177,"ĠDec":1178,"Ġstate":1179,"ility":1180,"Ġever":1181,"Ġbuild":1182,"ene":1183,"Ġeach":1184,"ically":1185,"Ġfive":1186,"Ġadv":1187,"ling":1188,"Ġext":1189,"anu":1190,"Ġcentury":1191,"ĠPro":1192,"ĠYork":1193,"Ġarea":1194,"Ġaut":1195,"ĠThey":1196,"Ġvar":1197,"Ġsmall":1198,"ret":1199,"Ġbo":1200,"Ġwill":1201,"ately":1202,"rol":1203,"ĠNorth":1204,"Ġpartic":1205,"Ġlife":1206,"iving":1207,"gin":1208,"Ġreport":1209,"Ġ]":1210,"get":1211,"Ġ[":1212,"oss":1213,"ĠJune":1214,"ored":1215,"tle":1216,"Ġcity":1217,"ĠBy":1218,"ording":1219,"ril":1220,"ians":1221,"ĠMe":1222,"Ġmajor":1223,"Ġpublic":1224,"Ġweek":1225,"ĠKing":1226,"ĠJuly":1227,"Ġmar":1228,"ission":1229,"Ġ%":1230,"Ġconf":1231,"Ġband":1232,"ection":1233,"ĠNovember":1234,"Ġref":1235,"urch":1236,"med":1237,"ĠComm":1238,"Ġrest":1239,"ĠHar":1240,"Ġsince":1241,"Ġworld":1242,"ĠWill":1243,"ina":1244,"Ġsingle":1245,"Ġmed":1246,"inc":1247,"raft":1248,"esp":1249,"ĠApril":1250,"por":1251,"Ġdet":1252,"Ġjust":1253,"lish":1254,"ĠMarch":1255,"ried":1256,"Ġlast":1257,"ected":1258,"omet":1259,"ĠPr":1260,"ural":1261,"hest":1262,"ional":1263,"Ġturn":1264,"ĠEd":1265,"ively":1266,"Ġallow":1267,"aim":1268,"ilt":1269,"ĠMc":1270,"Ġhel":1271,"ient":1272,"Ġ30":1273,"Ġpo":1274,"ĠCan":1275,"Ġarr":1276,"ĠGr":1277,"Ġleft":1278,"Ġlarge":1279,"ague":1280,"cl":1281,"idge":1282,"Ġline":1283,"ĠSouth":1284,"Ġdiffer":1285,"Ġcare":1286,"Ġsouth":1287,"ĠGe":1288,"ĠDuring":1289,"ified":1290,"ales":1291,"Ġbook":1292,"empt":1293,"Ġvers":1294,"avy":1295,"Ġschool":1296,"ĠDecember":1297,"Ġthird":1298,"rist":1299,"ats":1300,"Ġsl":1301,"ble":1302,"Ġincre":1303,"ĠOr":1304,"Ġmonth":1305,"Ġdue":1306,"Ġappro":1307,"ined":1308,"Ġplayed":1309,"Ġmuch":1310,"..":1311,"Ġevent":1312,"Ġ25":1313,"Ġanother":1314,"Ġif":1315,"ĠJanu":1316,"ĠJanuary":1317,"Ġincluded":1318,"rote":1319,"Ġwhat":1320,"Ġ192":1321,"row":1322,"Ġplace":1323,"Ġbased":1324,"eng":1325,"aged":1326,"Ġshort":1327,"Ġgovernment":1328,"by":1329,"ĠII":1330,"ĠPh":1331,"Ġexpl":1332,"Ġperson":1333,"ograp":1334,"apan":1335,"Ġwrote":1336,"ĠWhen":1337,"Ġtrack":1338,"ball":1339,"Ġcamp":1340,"Ġold":1341,"ony":1342,"Ġtit":1343,"Ġname":1344,"Ġdeath":1345,"ently":1346,"Ġport":1347,"alf":1348,"ĠJapan":1349,"Ġbre":1350,"Ġph":1351,"ages":1352,"ĠEu":1353,"Ġelect":1354,"Ġ...":1355,"ple":1356,"Ġwon":1357,"ience":1358,"Ġchild":1359,"ne":1360,"Ġkill":1361,"Ġprot":1362,"Ġlit":1363,"Ġeng":1364,"oad":1365,"Ġprog":1366,"Ġpower":1367,"ideo":1368,"Ġstory":1369,"Ġreview":1370,"ody":1371,"Ġvis":1372,"Ġhome":1373,"ital":1374,"Ġled":1375,"Ġrequ":1376,"Ġdescribed":1377,"Ġprevious":1378,"ĠBro":1379,"Ġgun":1380,"Ġcour":1381,"Ġfamily":1382,"ĠTe":1383,"oman":1384,"Ġway":1385,"Ġnamed":1386,"ott":1387,"Ġnow":1388,"Ġright":1389,"urther":1390,"Ġdem":1391,"Ġeven":1392,"Ġmen":1393,"iven":1394,"embers":1395,"iod":1396,"Ġmake":1397,"ĠMus":1398,"ilar":1399,"Ġleg":1400,"Ġattempt":1401,"iversity":1402,"ged":1403,"ivision":1404,"reen":1405,"ister":1406,"itions":1407,"Ġbest":1408,"ention":1409,"omin":1410,"Ġrepl":1411,"ĠÂ":1412,"Ġopp":1413,"Ġ100":1414,"rench":1415,"Ġgames":1416,"cy":1417,"Ġcommand":1418,"ached":1419,"ĠGu":1420,"aff":1421,"Ġterm":1422,"Ġtop":1423,"ior":1424,"Ġhand":1425,"Ġposs":1426,"ival":1427,"Ġdam":1428,"Ġbelie":1429,"Ġvery":1430,"Ġthose":1431,"ĠHis":1432,"ness":1433,"ĠFeb":1434,"ĠAnd":1435,"ont":1436,"mp":1437,"ĠEurop":1438,"ruary":1439,"ĠFebruary":1440,"Ġiss":1441,"Ġstill":1442,"Ġorgan":1443,"Ġnext":1444,"Ġspecies":1445,"ĠFl":1446,"Ġeffect":1447,"ances":1448,"Ġview":1449,"self":1450,"riend":1451,"ĠChrist":1452,"Ġcapt":1453,"Ġpar":1454,"ĠThere":1455,"ĠNational":1456,"ps":1457,"aken":1458,"Ġoriginal":1459,"oci":1460,"Ġspe":1461,"ature":1462,"ences":1463,"Ġwater":1464,"Ġjoin":1465,"Ġaddition":1466,"ched":1467,"ox":1468,"ery":1469,"ĠEurope":1470,"Ġlist":1471,"ĠWe":1472,"sh":1473,"Ġwithin":1474,"Ġperiod":1475,"Ġmembers":1476,"Ġbuilt":1477,"ĠFrench":1478,"lu":1479,"Ġmark":1480,"Ġheld":1481,"Ġdeb":1482,"Ġexper":1483,"Ġ2010":1484,"Ġalthough":1485,"Ġlate":1486,"Ġformer":1487,"Ġmatch":1488,"Ġrelease":1489,"Ġgreat":1490,"hor":1491,"Ġdest":1492,"rew":1493,"Ġsold":1494,"alk":1495,"lev":1496,"uted":1497,"ĠBar":1498,"augh":1499,"Ġcur":1500,"tended":1501,"Ġvideo":1502,"ney":1503,"line":1504,"Ġcaus":1505,"Ġstorm":1506,"ropical":1507,"ented":1508,"ards":1509,"Ġcover":1510,"Ġrole":1511,"Ġinit":1512,"Ġ21":1513,"ĠWest":1514,"ring":1515,"ĠPar":1516,"ĠWilliam":1517,"Ġcame":1518,"Ġestab":1519,"Ġav":1520,"Ġtri":1521,"Ġdays":1522,"Ġresult":1523,"ĠAm":1524,"Ġmid":1525,"Ġcontrol":1526,"af":1527,"ption":1528,"ulation":1529,"Ġstand":1530,"Ġreal":1531,"Ġpolit":1532,"ler":1533,"ides":1534,"oon":1535,"ech":1536,"Ġhowever":1537,"itary":1538,"ĠHer":1539,"au":1540,"Ġcr":1541,"Ġ2008":1542,"hel":1543,"Ġmy":1544,"Ġfew":1545,"Ġ2009":1546,"Ġwind":1547,"Ġprop":1548,"Ġtown":1549,"aster":1550,"ĠMin":1551,"ĠX":1552,"ense":1553,"Ġside":1554,"ĠGeor":1555,"Ġyou":1556,"Ġ24":1557,"Ġcontinued":1558,"Ġtw":1559,"ĠMan":1560,"akes":1561,"atic":1562,"Ġoften":1563,"na":1564,"Ġequ":1565,"Ġlocal":1566,"Ġsk":1567,"Ġ2011":1568,"Ġpost":1569,"ĠEar":1570,"ham":1571,"Ġamong":1572,"Ġsay":1573,"ruction":1574,"Ġsimilar":1575,"tal":1576,"ĠAir":1577,"ĠMich":1578,"omb":1579,"ĠChar":1580,"Ġclaim":1581,"Ġdel":1582,"ead":1583,"estern":1584,"Ġhum":1585,"gy":1586,"side":1587,"ĠEngland":1588,"ĠNo":1589,"Ġ&":1590,"reet":1591,"ator":1592,"omen":1593,"Ġdifferent":1594,"ese":1595,"br":1596,"read":1597,"Ġsug":1598,"ract":1599,"let":1600,"Ġbeh":1601,"elt":1602,"Ġfurther":1603,"ying":1604,"Ġsent":1605,"Ġtyp":1606,"ology":1607,"ĠRec":1608,"Ġlevel":1609,"ves":1610,"Ġconsidered":1611,"ops":1612,"Ġtake":1613,"Ġfre":1614,"Ġlaw":1615,"Ġ22":1616,"ĠDav":1617,"eter":1618,"Ġ2007":1619,"Ġcareer":1620,"ĠOne":1621,"par":1622,"ots":1623,"Ġproduction":1624,"esc":1625,"Ġhalf":1626,"urs":1627,"ampions":1628,"ĠPark":1629,"ĠCity":1630,"Ġhaving":1631,"uck":1632,"ices":1633,"ms":1634,"ĠAcc":1635,"app":1636,"ĠEl":1637,"ĠEnglish":1638,"ung":1639,"Ġeast":1640,"Ġmoved":1641,"Ġroad":1642,"ĠCo":1643,"Ġwest":1644,"yl":1645,"Ġmag":1646,"Ġant":1647,"Ġwithout":1648,"Ġevery":1649,"ĠAlthough":1650,"me":1651,"ering":1652,"Ġposition":1653,"Ġ2012":1654,"Ġappe":1655,"rodu":1656,"Ġplayer":1657,"Ġplan":1658,"ĠCent":1659,"Ġhistory":1660,"Ġbecome":1661,"ĠAng":1662,"Ġconv":1663,"Ġversion":1664,"ront":1665,"Ġcor":1666,"ĠCount":1667,"ondon":1668,"bo":1669,"Ġinflu":1670,"Ġcast":1671,"Ġel":1672,"ĠLondon":1673,"vers":1674,"Ġhouse":1675,"ches":1676,"ones":1677,"ĠBatt":1678,"Ġcommun":1679,"Ġsound":1680,"Ġ23":1681,"Ġfore":1682,"ford":1683,"yle":1684,"ĠCal":1685,"Ġinvol":1686,"Ġstrong":1687,"Ġsuggest":1688,"ize":1689,"Ġclub":1690,"atter":1691,"irc":1692,"Ġwritten":1693,"Ġ190":1694,"ĠWith":1695,"Ġbas":1696,"aul":1697,"Ġstat":1698,"Ġless":1699,"Ġannoun":1700,"ĠRiver":1701,"utes":1702,"Ġfoot":1703,"Ġorder":1704,"ape":1705,"Ġrefer":1706,"iety":1707,"rest":1708,"craft":1709,"Ġprof":1710,"ĠCanad":1711,"sequ":1712,"Ġpoint":1713,"Ġgiven":1714,"Ġtem":1715,"Ġaff":1716,"Ġlow":1717,"ĠUniversity":1718,"Ġhig":1719,"ĠGener":1720,"Ġwant":1721,"Ġtrad":1722,"Ġgave":1723,"iqu":1724,"Ġrad":1725,"rent":1726,"Ġke":1727,"Ġfar":1728,"Ġdefe":1729,"Ġnever":1730,"Ġimport":1731,"ĠWhile":1732,"Ġpat":1733,"ailed":1734,"Ġchang":1735,"Ġreturned":1736,"ald":1737,"Ġtro":1738,"ories":1739,"Ġsoc":1740,"Ġrepres":1741,"Ġtotal":1742,"Ġvict":1743,"ĠHigh":1744,"Ġfact":1745,"Ġgood":1746,"Ġfire":1747,"Ġcompany":1748,"Ġcomb":1749,"Ġwent":1750,"Ġcountry":1751,"ĠPol":1752,"aly":1753,"Ġfriend":1754,"roy":1755,"cess":1756,"Ġhour":1757,"Ġpublished":1758,"ison":1759,"Ġproduced":1760,"sp":1761,"ges":1762,"Ġfind":1763,"levision":1764,"Ġreported":1765,"isc":1766,"aun":1767,"Ġorigin":1768,"Ġyoun":1769,"Ġ2006":1770,"Ġlost":1771,"ably":1772,"Ġstated":1773,"aign":1774,"ille":1775,"Ġcommon":1776,"Ġprogram":1777,"Ġlight":1778,"Ġparticular":1779,"ĠEx":1780,"Ġord":1781,"ai":1782,"ĠSm":1783,"ington":1784,"Ġadm":1785,"con":1786,"Ġinclude":1787,"ĠAccording":1788,"echn":1789,"urric":1790,"Ġcompet":1791,"used":1792,"Ġforces":1793,"Ġrecorded":1794,"err":1795,"Ġbuilding":1796,"Ġpress":1797,"gr":1798,"hing":1799,"ief":1800,"Ġneed":1801,"Ġproject":1802,"Ġbus":1803,"Ġnort":1804,"Ġships":1805,"ĠSy":1806,"Ġusing":1807,"Ġshould":1808,"Ġeight":1809,"Ġinterest":1810,"Ġperformance":1811,"ĠAb":1812,"aren":1813,"Ġservice":1814,"Ġ27":1815,"ploy":1816,"ĠThese":1817,"iment":1818,"Ġpopular":1819,"Ġ50":1820,"Ġtimes":1821,"Ġide":1822,"Ġmaking":1823,"raw":1824,"Ġ28":1825,"Ġaircraft":1826,"Ġmilitary":1827,"oyal":1828,"ĠAustralia":1829,"Ġhimself":1830,"Ġten":1831,"ned":1832,"Ġ2013":1833,"Ġauthor":1834,"Ġfather":1835,"iness":1836,"tain":1837,"osp":1838,"Ġbattle":1839,"ampionship":1840,"ĠSw":1841,"Ġanim":1842,"ĠSec":1843,"lear":1844,"ĠJack":1845,"Ġsit":1846,"Ġlim":1847,"Ġfr":1848,"atch":1849,"Ġsongs":1850,"ĠAss":1851,"Ġsomet":1852,"outher":1853,"Ġread":1854,"ae":1855,"ĠNe":1856,"ensive":1857,"ĠAf":1858,"Ġcritic":1859,"Ġdevelopment":1860,"ither":1861,"ĠPres":1862,"play":1863,"ĠGeneral":1864,"quad":1865,"ords":1866,"Ġhow":1867,"ĠSte":1868,"alth":1869,"ĠState":1870,"Ġsw":1871,"itive":1872,"eder":1873,"Ġ40":1874,"olution":1875,"outhern":1876,"Ġcross":1877,"ases":1878,"ĠJames":1879,"Ġ26":1880,"Ġgl":1881,"Ġ189":1882,"Ġground":1883,"Ġft":1884,"ĠDr":1885,"Ġremained":1886,"Ġstar":1887,"astern":1888,"acy":1889,"ĠCor":1890,"ĠArmy":1891,"cer":1892,"Ġste":1893,"Ġnational":1894,"Ġcharacters":1895,"Ġget":1896,"Ġsuff":1897,"Ġmonths":1898,"Ġpresent":1899,"Ġdied":1900,"rick":1901,"Ġdeveloped":1902,"oll":1903,"Ġgen":1904,"ublic":1905,"ries":1906,"Ġtitle":1907,"ĠComp":1908,"rie":1909,"work":1910,"Ġsum":1911,"Ġfun":1912,"Ġforce":1913,"dom":1914,"Ġcampaign":1915,"Ġchart":1916,"ument":1917,"urricane":1918,"ream":1919,"fic":1920,"ĠLeague":1921,"Ġchildren":1922,"ration":1923,"Ġintrodu":1924,"Ġtour":1925,"Ġpromot":1926,"itted":1927,"bs":1928,"ency":1929,"eth":1930,"Ġsignific":1931,"isted":1932,"ĠBo":1933,"Ġacross":1934,"lands":1935,"ression":1936,"Ġson":1937,"Ġaway":1938,"hern":1939,"ĠDivision":1940,"ĠGl":1941,"Ġred":1942,"ael":1943,"Ġrelations":1944,"Ġobs":1945,"Ġofficial":1946,"Ġhistor":1947,"Ġfield":1948,"Ġfav":1949,"Ġpra":1950,"Ġfelt":1951,"ĠAmerica":1952,"aur":1953,"lege":1954,"Ġnight":1955,"Ġnoted":1956,"Ġfac":1957,"most":1958,"Ġreached":1959,"Ġannounced":1960,"ĠRuss":1961,"Ġintern":1962,"ĠJapanese":1963,"ĠCounty":1964,"Ġdestroy":1965,"ĠSim":1966,"Ġareas":1967,"Ġcreated":1968,"Ġtelevision":1969,"ĠRoad":1970,"ask":1971,"Ġ2005":1972,"Ġarm":1973,"ĠRep":1974,"Ġcoun":1975,"Ġsuccessful":1976,"Ġstation":1977,"ressed":1978,"alt":1979,"ole":1980,"imately":1981,"Ġrock":1982,"ĠStreet":1983,"ĠSup":1984,"Ġask":1985,"yn":1986,"vent":1987,"Ġvarious":1988,"ĠâĢĻ":1989,"reg":1990,"Ġpolitical":1991,"Ġval":1992,"Ġseen":1993,"Ġfollowed":1994,"Ġbar":1995,"Ġaver":1996,"Ġtoo":1997,"ĠMad":1998,"Ġrank":1999,"Ġtrav":2000,"ĠMon":2001,"Ġserved":2002,"Ġperformed":2003,"iting":2004,"ĠEast":2005,"ising":2006,"Ġ29":2007,"ĠRober":2008,"Ġcult":2009,"ĠReg":2010,"Ġplayers":2011,"cast":2012,"Ġ2014":2013,"Ġfull":2014,"ĠGeorge":2015,"Ġdecl":2016,"Ġcond":2017,"iber":2018,"Ġprim":2019,"Ġbegin":2020,"Ġrev":2021,"ination":2022,"duct":2023,"Ġblack":2024,"Ġfle":2025,"ope":2026,"Ġput":2027,"Ġearl":2028,"ality":2029,"elling":2030,"Ġcirc":2031,"field":2032,"Ġsee":2033,"Ġcost":2034,"idence":2035,"Ġprocess":2036,"Ġstyle":2037,"Ġsol":2038,"omp":2039,"Ġlook":2040,"Ġkilled":2041,"ization":2042,"hem":2043,"Ġtest":2044,"abor":2045,"Ġdiv":2046,"ĠHen":2047,"reek":2048,"ĠPhil":2049,"Ġenc":2050,"Ġseven":2051,"ĠTo":2052,"ays":2053,"Ġaud":2054,"Ġtropical":2055,"rict":2056,"Ġhelp":2057,"Ġvol":2058,"lished":2059,"Ġthroughout":2060,"Ġlet":2061,"Ġtaken":2062,"ĠSer":2063,"Ġable":2064,"Ġfight":2065,"ĠBill":2066,"Ġdiscover":2067,"Ġagre":2068,"Ġnon":2069,"Ġcy":2070,"Ġlittle":2071,"Ġsignificant":2072,"Ġwid":2073,"ecut":2074,"Ġbecom":2075,"ertain":2076,"Ġage":2077,"ĠEm":2078,"Ġhit":2079,"Ġmeet":2080,"Ġident":2081,"ĠAustralian":2082,"Ġfem":2083,"ett":2084,"Ġer":2085,"Ġspecial":2086,"ways":2087,"Ġtechn":2088,"Ġstruct":2089,"Ġwriting":2090,"oice":2091,"Ġthought":2092,"Ġfront":2093,"Ġestablished":2094,"Ġmm":2095,"Ġbroad":2096,"enced":2097,"Ġappeared":2098,"Ġbody":2099,"irl":2100,"Ġentire":2101,"Ġcop":2102,"Ġdoes":2103,"ĠDavid":2104,"ĠAct":2105,"Ġmiles":2106,"aval":2107,"epend":2108,"Ġcoll":2109,"Ġ!":2110,"Ġcoast":2111,"ĠPart":2112,"ĠPer":2113,"Ġpoints":2114,"cil":2115,"Ġaward":2116,"ĠRich":2117,"Ġroute":2118,"Ġimpro":2119,"Ġmember":2120,"ought":2121,"ground":2122,"Ġrange":2123,"Ġactiv":2124,"odes":2125,"ivil":2126,"Ġwomen":2127,"Ġstarted":2128,"Ġcaused":2129,"Ġdecided":2130,"ript":2131,"ĠMor":2132,"urg":2133,"iron":2134,"Ġfeatures":2135,"ĠYou":2136,"lected":2137,"ĠAfric":2138,"Ġpain":2139,"Ġgeneral":2140,"Ġeventually":2141,"ĠMed":2142,"aves":2143,"iers":2144,"day":2145,"less":2146,"hys":2147,"ĠRoyal":2148,"conom":2149,"Ġrace":2150,"ators":2151,"Ġvot":2152,"iec":2153,"ming":2154,"Ġarch":2155,"ster":2156,"Ġfeet":2157,"ĠPe":2158,"ana":2159,"Ġgrow":2160,"ius":2161,"Ġmanag":2162,"idd":2163,"Ġadded":2164,"ogn":2165,"Ġhold":2166,"Ġtoget":2167,"Ġtogether":2168,"rison":2169,"ĠHist":2170,"Ġformed":2171,"Ġcut":2172,"Ġlocated":2173,"ĠHouse":2174,"Ġ188":2175,"Ġonce":2176,"here":2177,"ivid":2178,"Ġwhite":2179,"Ġstri":2180,"itar":2181,"Ġtre":2182,"ample":2183,"ĠMy":2184,"lin":2185,"Ġmodern":2186,"ĠSch":2187,"Ġnov":2188,"Ġarg":2189,"Ġconn":2190,"bert":2191,"Ġinstead":2192,"rought":2193,"Ġround":2194,"emy":2195,"men":2196,"orts":2197,"ĠQu":2198,"Ġesc":2199,"aces":2200,"ĠBlack":2201,"umb":2202,"Ġimportant":2203,"Ġmix":2204,"ades":2205,"hic":2206,"Ġcrew":2207,"ĠIntern":2208,"Ġball":2209,"omm":2210,"Ġsaw":2211,"Ġpri":2212,"Ġ31":2213,"Ġaction":2214,"urb":2215,"cing":2216,"Ġcompleted":2217,"head":2218,"Ġredu":2219,"ĠIndian":2220,"Ġplaying":2221,"ects":2222,"ĠOther":2223,"oney":2224,"ray":2225,"Ġ2004":2226,"off":2227,"Ġpopulation":2228,"ament":2229,"Ġsurv":2230,"Ġinvest":2231,"Ġbase":2232,"cent":2233,"Ġmater":2234,"Ġinsp":2235,"ee":2236,"Ġmot":2237,"Ġstage":2238,"ĠMichael":2239,"Ġguns":2240,"Ġrather":2241,"Ġvoc":2242,"Ġoccur":2243,"Ġbehind":2244,"ells":2245,"Ġopened":2246,"Ġothers":2247,"ush":2248,"Ġ186":2249,"Ġfall":2250,"ceed":2251,"Ġbrother":2252,"asing":2253,"Ġren":2254,"Ġcomment":2255,"Ġlik":2256,"igned":2257,"Ġsite":2258,"Ġborn":2259,"int":2260,"ements":2261,"Ġ2015":2262,"Ġfif":2263,"Ġworks":2264,"Ġheavy":2265,"Ġloss":2266,"aps":2267,"Ġlive":2268,"Ġbomb":2269,"stit":2270,"ĠFrance":2271,"Ġworked":2272,"ficult":2273,"Ġmiss":2274,"Ġsubsequ":2275,"Ġra":2276,"Ġlack":2277,"medi":2278,"Ġpred":2279,"ĠSchool":2280,"Ġclose":2281,"Ġdifficult":2282,"Ġparty":2283,"Ġproble":2284,"Ġconstruction":2285,"lection":2286,"wood":2287,"ĠSome":2288,"Ġknow":2289,"ĠWash":2290,"Ġhost":2291,"Ġweeks":2292,"Ġrelationship":2293,"Ġoriginally":2294,"gg":2295,"Ġassoci":2296,"Ġsepar":2297,"Ġupon":2298,"ĠHam":2299,"Ġpract":2300,"Ġappoin":2301,"Ġleading":2302,"Ġpeak":2303,"nder":2304,"Ġalmost":2305,"ĠHenry":2306,"Ġvill":2307,"Ġdamage":2308,"ĠNor":2309,"Ġyoung":2310,"Ġinj":2311,"ĠSan":2312,"ĠRobert":2313,"ara":2314,"istic":2315,"arch":2316,"ĠPort":2317,"Ġfourth":2318,"Ġscored":2319,"Ġ2000":2320,"Ġinform":2321,"Ġreve":2322,"ĠBattle":2323,"ĠBest":2324,"Ġprovided":2325,"osition":2326,"Ġmer":2327,"Ġcase":2328,"Ġreb":2329,"Ġclos":2330,"ĠAle":2331,"uk":2332,"ĠMusic":2333,"Ġengine":2334,"anch":2335,"Ġgoal":2336,"Ġaccept":2337,"Ġmi":2338,"Ġcreat":2339,"Ġscene":2340,"ata":2341,"ĠStar":2342,"lic":2343,"Ġhuman":2344,"board":2345,"Ġbrought":2346,"ĠDesp":2347,"Ġdev":2348,"oring":2349,"ĠVir":2350,"ellow":2351,"Ġ500":2352,"Ġindivid":2353,"Ġfree":2354,"ĠRou":2355,"Ġ187":2356,"Ġfeatured":2357,"angu":2358,"Ġleast":2359,"ĠPaul":2360,"Ġking":2361,"ĠCour":2362,"Ġmother":2363,"Ġallowed":2364,"ĠPresident":2365,"Ġlaun":2366,"Ġworking":2367,"Ġresul":2368,"Ġtowards":2369,"ĠRed":2370,"Ġaverage":2371,"ological":2372,"Ġregion":2373,"Ġwanted":2374,"Ġtroops":2375,"Ġtradition":2376,"Ġindust":2377,"Ġbusiness":2378,"ĠWashington":2379,"ened":2380,"Ġplaced":2381,"Ġquick":2382,"ule":2383,"Ġeither":2384,"azine":2385,"Ġcritics":2386,"Ġoffice":2387,"Ġrespect":2388,"ĠQue":2389,"Ġavail":2390,"aut":2391,"Ġve":2392,"Ġreach":2393,"Ġruns":2394,"Ġhon":2395,"Ġexample":2396,"ĠCap":2397,"Ġmult":2398,"antic":2399,"ĠMil":2400,"Ġprofess":2401,"ĠPlay":2402,"Ġmaterial":2403,"Ġrecogn":2404,"Ġeconom":2405,"iff":2406,"ĠHol":2407,"Ġwife":2408,"ula":2409,"Ġestim":2410,"Ġarmy":2411,"Ġfoc":2412,"Ġneg":2413,"ĠDespite":2414,"earch":2415,"Ġ2003":2416,"chie":2417,"oid":2418,"ential":2419,"ĠBel":2420,"ĠFollow":2421,"iol":2422,"quadron":2423,"Ġsex":2424,"Ġsour":2425,"ĠAg":2426,"Ġjoined":2427,"rey":2428,"ength":2429,"arm":2430,"Ġce":2431,"Ġgenerally":2432,"Ġmass":2433,"Ġrail":2434,"ĠAngel":2435,"ĠThom":2436,"Ġdou":2437,"Ġproper":2438,"Ġcurrent":2439,"ama":2440,"ĠHill":2441,"ica":2442,"ino":2443,"Ġrepresent":2444,"Ġevents":2445,"to":2446,"Ġbelieved":2447,"ving":2448,"Ġparticip":2449,"ĠFollowing":2450,"enes":2451,"Ġter":2452,"Ġfig":2453,"ourn":2454,"ĠHall":2455,"ĠCup":2456,"ĠFirst":2457,"sc":2458,"Ġbill":2459,"ĠGame":2460,"uff":2461,"ĠMary":2462,"Ġreplaced":2463,"Ġmph":2464,"Ġ35":2465,"Ġrul":2466,"ĠGreat":2467,"Ġvictory":2468,"Ġdesigned":2469,"artment":2470,"be":2471,"Ġisland":2472,"Ġsoon":2473,"Ġnomin":2474,"itch":2475,"ĠLou":2476,"iction":2477,"Ġhours":2478,"itte":2479,"xic":2480,"Ġfund":2481,"ĠTwo":2482,"Ġemploy":2483,"Ġz":2484,"Ġinvolved":2485,"ĠEuropean":2486,"go":2487,"erous":2488,"Ġpresident":2489,"Ã¡":2490,"ĠKe":2491,"Ġsurf":2492,"ĠChampionship":2493,"Ġstru":2494,"Ġfinished":2495,"oms":2496,"ification":2497,"ĠJe":2498,"aled":2499,"asion":2500,"ĠGro":2501,"merc":2502,"west":2503,"Ġbreak":2504,"aper":2505,"fall":2506,"inist":2507,"Ġcourt":2508,"Ġsaying":2509,"Ġshot":2510,"uel":2511,"emor":2512,"oor":2513,"ky":2514,"Ġhor":2515,"Ġthreat":2516,"Ġopening":2517,"Ġscore":2518,"ĠRoman":2519,"ĠMart":2520,"Ġregular":2521,"ĠRoute":2522,"ago":2523,"key":2524,"Ġdirector":2525,"Ġlength":2526,"Ġdesp":2527,"Ġindic":2528,"Ġlargest":2529,"ĠLa":2530,"Ġconduct":2531,"ĠScott":2532,"ĠÃ":2533,"Ġhighway":2534,"Ġcontrib":2535,"Ġpossible":2536,"antry":2537,"Ġsouthern":2538,"ecutive":2539,"ĠDan":2540,"Ġunc":2541,"Ġminutes":2542,"ĠMal":2543,"Ġill":2544,"Ġdro":2545,"ville":2546,"ze":2547,"Ġremov":2548,"Ġexc":2549,"Ġhighest":2550,"ishing":2551,"Ġhom":2552,"Ġly":2553,"ĠFrom":2554,"Ġearlier":2555,"ĠDon":2556,"BC":2557,"Ġinitially":2558,"Ġ2001":2559,"ander":2560,"Ġavailable":2561,"of":2562,"Ġparticularly":2563,"now":2564,"anned":2565,"Ġpercent":2566,"Ġtraining":2567,"co":2568,"Ġsequ":2569,"leg":2570,"ude":2571,"ĠRepublic":2572,"ĠAtl":2573,"Ġhard":2574,"Ġforced":2575,"cher":2576,"ĠSing":2577,"Ġexist":2578,"ĠMet":2579,"ĠCro":2580,"ply":2581,"ĠNavy":2582,"ipp":2583,"Ġmust":2584,"inn":2585,"Ġcontr":2586,"ĠCharles":2587,"Ġgrad":2588,"ĠKingdom":2589,"ights":2590,"ĠWil":2591,"ĠVal":2592,"ĠÂ°":2593,"arn":2594,"hib":2595,"Ġpark":2596,"Ġrespons":2597,"iding":2598,"Ġended":2599,"ĠOff":2600,"Ġturned":2601,"Ġquar":2602,"ography":2603,"oul":2604,"ĠMac":2605,"ateg":2606,"asy":2607,"ĠThomas":2608,"ĠInternational":2609,"Ġwall":2610,"Ġstudio":2611,"Ġsocial":2612,"ĠBut":2613,"rian":2614,"uture":2615,"ĠMcC":2616,"Ġchange":2617,"ems":2618,"iforn":2619,"ĠChurch":2620,"ĠDep":2621,"heast":2622,"Ġlangu":2623,"Ġpraised":2624,"Ġpassed":2625,"Ġnorthern":2626,"Ġincreased":2627,"Ġpiec":2628,"Ġhy":2629,"Ġpriv":2630,"ĠWhite":2631,"Ġobject":2632,"ĠVirgin":2633,"bor":2634,"Ġhurricane":2635,"Ġregard":2636,"Ġ2002":2637,"atural":2638,"ĠMag":2639,"Ġeduc":2640,"Ġcentral":2641,"ĠBrown":2642,"ĠRes":2643,"Ġkeep":2644,"Ġunits":2645,"iation":2646,"Ġphys":2647,"Ġrelig":2648,"Ġnovel":2649,"ĠBer":2650,"Ġappearance":2651,"ĠCanada":2652,"Ġspeed":2653,"ĠCaliforn":2654,"itor":2655,"Ġsuper":2656,"sel":2657,"anks":2658,"ership":2659,"Ġpast":2660,"Ġstop":2661,"ĠPal":2662,"Ġimmedi":2663,"ended":2664,"Ġchurch":2665,"Ġordered":2666,"ocr":2667,"ĠSmith":2668,"ĠRock":2669,"Ġmeas":2670,"ĠSen":2671,"Ġdisp":2672,"Ġsym":2673,"aughter":2674,"ĠCam":2675,"Ġtreat":2676,"ĠBay":2677,"Ġtaking":2678,"ference":2679,"uter":2680,"ios":2681,"ĠRichard":2682,"ittee":2683,"Ġsigned":2684,"Ġmove":2685,"Ġindepend":2686,"Ġlove":2687,"anding":2688,"Ġquest":2689,"ĠCalifornia":2690,"Ġachie":2691,"Ġbetter":2692,"ilities":2693,"ĠAlex":2694,"ston":2695,"ĠSam":2696,"etwork":2697,"ĠUnion":2698,"rem":2699,"aker":2700,"ique":2701,"Ġpers":2702,"val":2703,"pped":2704,"Ġwinds":2705,"ĠSl":2706,"ĠGovern":2707,"ecess":2708,"arily":2709,"ĠIsland":2710,"Ġinn":2711,"Ġenough":2712,"den":2713,"Ġpositive":2714,"Ġcommerc":2715,"ĠIr":2716,"Ġwat":2717,"ĠCourt":2718,"agon":2719,"apt":2720,"Ġaccording":2721,"rated":2722,"Ġhous":2723,"Ġspent":2724,"ears":2725,"Ġabove":2726,"Ġgoing":2727,"Ġslow":2728,"nel":2729,"ĠGod":2730,"elled":2731,"rup":2732,"Ġoutside":2733,"ĠMo":2734,"Ġap":2735,"ĠVict":2736,"Ġfilms":2737,"Ġpot":2738,"ump":2739,"Ġtold":2740,"ĠAward":2741,"ume":2742,"Ġfeel":2743,"Ġpreviously":2744,"Ġfootball":2745,"Ġclear":2746,"ids":2747,"uation":2748,"Ġstates":2749,"quare":2750,"Ġ1990":2751,"ĠCong":2752,"Ġmean":2753,"Ġnine":2754,"Ġrecording":2755,"ĠCompany":2756,"ĠAssoci":2757,"ĠMill":2758,"alion":2759,"ĠJos":2760,"Ġsubject":2761,"ĠUp":2762,"Ġfailed":2763,"Ġassist":2764,"Ġrequired":2765,"Ġcome":2766,"usion":2767,"Ġpur":2768,"ĠGermany":2769,"Ġelements":2770,"reng":2771,"Ġprob":2772,"osing":2773,"Ġey":2774,"Ġ60":2775,"com":2776,"ĠIndia":2777,"Ġreviews":2778,"ks":2779,"Ġcru":2780,"Ġlower":2781,"Ġinterview":2782,"edy":2783,"Ġ45":2784,"Ġparts":2785,"ĠStud":2786,"atin":2787,"ĠCr":2788,"ĠMer":2789,"Ġitself":2790,"tr":2791,"Ġthink":2792,"ĠArt":2793,"Ġdirected":2794,"ĠPeter":2795,"ĠChristian":2796,"Ġpay":2797,"ĠMark":2798,"oph":2799,"for":2800,"Ġnar":2801,"ida":2802,"Ġdespite":2803,"ĠNY":2804,"Ġabs":2805,"itz":2806,"Ġsil":2807,"Ġflow":2808,"Ġcred":2809,"ĠAc":2810,"Ġesp":2811,"ĠGold":2812,"Ġcontract":2813,"Ġrain":2814,"ands":2815,"Ġ185":2816,"ĠThat":2817,"Ġdebut":2818,"ibility":2819,"ĠÂ£":2820,"Ġ?":2821,"Ġphot":2822,"ready":2823,"ĠTimes":2824,"Ġaccess":2825,"isl":2826,"erved":2827,"Ġbeginning":2828,"Ġgroups":2829,"ĠTom":2830,"Ġsection":2831,"ĠCollege":2832,"Ġviol":2833,"oke":2834,"nes":2835,"onna":2836,"het":2837,"Ġbeg":2838,"Ġwhose":2839,"ĠUK":2840,"asons":2841,"Ġclaimed":2842,"ĠSov":2843,"Ġlines":2844,"Ġtransfer":2845,"hester":2846,"ĠWestern":2847,"Ġrap":2848,"Ġasked":2849,"Ġinternational":2850,"ĠPat":2851,"ows":2852,"bers":2853,"Ġstreng":2854,"Ġcou":2855,"ĠCast":2856,"Ġscreen":2857,"Ġgive":2858,"onse":2859,"airs":2860,"rief":2861,"ĠSoviet":2862,"ĠMexic":2863,"Ġadditional":2864,"ability":2865,"ĠSpan":2866,"aint":2867,"Ġkey":2868,"Ġfuture":2869,"ma":2870,"Ġwhom":2871,"Ġleague":2872,"eal":2873,"ĠFrank":2874,"Ġfort":2875,"berg":2876,"Ġpoor":2877,"ĠFilm":2878,"igan":2879,"ĠAwards":2880,"acted":2881,"Ġgold":2882,"Ġche":2883,"Ġtravel":2884,"lying":2885,"Ġbi":2886,"Ġintroduced":2887,"Ġprem":2888,"Ġop":2889,"Ġevidence":2890,"Ġsea":2891,"Ġquickly":2892,"Ġdon":2893,"Ġidea":2894,"Ġcenter":2895,"ki":2896,"ĠDo":2897,"ĠDem":2898,"Ġalready":2899,"ĠGrand":2900,"ania":2901,"ĠForce":2902,"Ġbridge":2903,"Ġfrequ":2904,"onst":2905,"Ġoccup":2906,"Ġelection":2907,"ĠMost":2908,"Ġ1970":2909,"ĠBen":2910,"Ġproduct":2911,"ĠSoc":2912,"Ġexcept":2913,"usp":2914,"Ġarrived":2915,"mar":2916,"Ġdeal":2917,"ecially":2918,"Ġwestern":2919,"Ġ1980":2920,"Ġblock":2921,"ĠBritain":2922,"atory":2923,"ĠCoun":2924,"Ġcivil":2925,"eum":2926,"Ġusually":2927,"Ġpil":2928,"anded":2929,"Ġpen":2930,"Ġmusical":2931,"Ġradio":2932,"Ġ32":2933,"Ġcal":2934,"irth":2935,"aring":2936,"Ġcycl":2937,"liam":2938,"ergy":2939,"ully":2940,"Ġsometimes":2941,"Ġfemale":2942,"ĠDay":2943,"ex":2944,"ĠRob":2945,"Ġdecision":2946,"Ġresponse":2947,"back":2948,"Ġstudy":2949,"ship":2950,"Ġfood":2951,"Ġmoney":2952,"Ġmagazine":2953,"ĠLater":2954,"Ġespecially":2955,"Ġenv":2956,"ĠPac":2957,"Ġissue":2958,"ĠVictor":2959,"ĠOver":2960,"ĠHot":2961,"Ġflood":2962,"liament":2963,"Ġsurface":2964,"Ġcarried":2965,"ites":2966,"Ġestimated":2967,"Ġmight":2968,"Ġguitar":2969,"Ġcommunity":2970,"Ġliter":2971,"Ġlab":2972,"Ġshows":2973,"bour":2974,"Ġconstruct":2975,"eck":2976,"Ġdefeated":2977,"Ġremain":2978,"Ġeastern":2979,"unt":2980,"ĠChic":2981,"Ġremaining":2982,"Ġ1999":2983,"Ġminor":2984,"ĠEarly":2985,"Ġdeterm":2986,"Ġapprox":2987,"ĠMount":2988,"inent":2989,"Ġlarger":2990,"ĠIm":2991,"Ġbecoming":2992,"ĠVirginia":2993,"ĠBur":2994,"ession":2995,"aries":2996,"Ġcomplete":2997,"Ġwood":2998,"Ġpolice":2999,"porary":3000,"ĠEv":3001,"Ġshoot":3002,"Ġentered":3003,"Ġteams":3004,"Ġmedia":3005,"Ġsuggested":3006,"Ġpressure":3007,"ĠFranc":3008,"Ġlatter":3009,"ĠInf":3010,"Ġcommercial":3011,"Ġinvestig":3012,"Ġsurround":3013,"Ġlyric":3014,"Ġconsider":3015,"erve":3016,"ĠLos":3017,"ift":3018,"Ġbrief":3019,"ĠJust":3020,"Ġmarket":3021,"ss":3022,"Ġdoc":3023,"Ġconcern":3024,"ĠSecond":3025,"asc":3026,"Ġstudents":3027,"Ġ36":3028,"Ġ80":3029,"Ġpersonal":3030,"Ġlo":3031,"ederal":3032,"Ġprison":3033,"ulf":3034,"Ġdiscuss":3035,"Ġcertain":3036,"ena":3037,"inct":3038,"Ġacqu":3039,"ĠTex":3040,"Ġappointed":3041,"Ġcomplet":3042,"Ġeffects":3043,"ĠIf":3044,"Ġbur":3045,"ĠJackson":3046,"Ġprior":3047,"alled":3048,"Ġsummer":3049,"acing":3050,"Ġepisodes":3051,"Ġhop":3052,"change":3053,"gen":3054,"ĠFle":3055,"incip":3056,"Ġriver":3057,"Ġstaff":3058,"enth":3059,"Ġsize":3060,"Ġemer":3061,"Ġder":3062,"Ġsat":3063,"Ġdestroyed":3064,"Ġchanges":3065,"anced":3066,"Ġcommission":3067,"ĠLouis":3068,"Ġwinning":3069,"ises":3070,"Ġscenes":3071,"Ġlimited":3072,"Ġfleet":3073,"ĠFlor":3074,"Ġtar":3075,"ĠOly":3076,"Ġleaving":3077,"ĠSpanish":3078,"imate":3079,"ĠOlymp":3080,"ulated":3081,"ĠClub":3082,"NA":3083,"Ġdraw":3084,"igade":3085,"Ġself":3086,"Ġden":3087,"Ġprovide":3088,"idents":3089,"Ġrights":3090,"Ġpolic":3091,"Ġtype":3092,"Ġdate":3093,"Ġwriter":3094,"ournal":3095,"Ġfail":3096,"Ġ75":3097,"ires":3098,"Ġtrib":3099,"vey":3100,"Ġterrit":3101,"ension":3102,"Ġproposed":3103,"Ġinfluence":3104,"Ġtransport":3105,"ties":3106,"Ġoverall":3107,"Ġdivision":3108,"su":3109,"Ġstructure":3110,"Ġgirl":3111,"ĠParty":3112,"Ġ1960":3113,"Ġarrang":3114,"Ġkil":3115,"inese":3116,"Ġequip":3117,"iser":3118,"Ġcontro":3119,"ests":3120,"Ġtax":3121,"Ġ184":3122,"Ġscript":3123,"Ġagreed":3124,"sy":3125,"Ġ300":3126,"ĠAssociation":3127,"Ġintended":3128,"ĠGreen":3129,"iral":3130,"Ġrunning":3131,"Ġroom":3132,"ores":3133,"yr":3134,"Ġjud":3135,"ĠEdward":3136,"Ġanti":3137,"atives":3138,"Ġdaughter":3139,"Ġsupported":3140,"Ġpurch":3141,"Ġdeep":3142,"Ġwide":3143,"Ġnearly":3144,"ending":3145,"Ġbroadcast":3146,"ĠChicago":3147,"ĠChinese":3148,"Ġbow":3149,"ĠAdm":3150,"Ġestablish":3151,"ĠDu":3152,"Ġbig":3153,"ĠMany":3154,"ĠPri":3155,"imum":3156,"Ġresearch":3157,"Ġhelped":3158,"aded":3159,"Ġmovement":3160,"Ġ1998":3161,"ĠOper":3162,"Ġmarried":3163,"Ġawarded":3164,"AF":3165,"II":3166,"Ġintens":3167,"ĠCouncil":3168,"tt":3169,"Ġlay":3170,"Ġmultip":3171,"Ġfavor":3172,"ĠSong":3173,"Ġcreate":3174,"atively":3175,"Ġdisplay":3176,"rd":3177,"Ġdark":3178,"Ġsusp":3179,"ga":3180,"que":3181,"Ġdiss":3182,"lo":3183,"Ġdi":3184,"teen":3185,"ĠEnter":3186,"Ġbird":3187,"ĠKore":3188,"pris":3189,"Ġstars":3190,"Ġlonger":3191,"iles":3192,"Ġlanguage":3193,"Ġcaptured":3194,"Ġplanned":3195,"ĠCont":3196,"Ġhigher":3197,"dle":3198,"Ġincreasing":3199,"sen":3200,"Ġcompared":3201,"Ġfans":3202,"Ġstay":3203,"Ġconclud":3204,"Ġcourse":3205,"ĠRo":3206,"ha":3207,"ĠServ":3208,"Ġchanged":3209,"Ġapproximately":3210,"selves":3211,"Ġexperience":3212,"Ġfeature":3213,"ĠEmp":3214,"Ġcat":3215,"Ġrelated":3216,"Ġliving":3217,"Ġdone":3218,"Ġfifth":3219,"ĠJohnson":3220,"Ġthemselves":3221,"omer":3222,"Ġwithd":3223,"ĠHistory":3224,"ĠItal":3225,"tained":3226,"ĠPacific":3227,"ronic":3228,"enty":3229,"Ġproducer":3230,"Ġmostly":3231,"ounds":3232,"Ġtemper":3233,"Ġtracks":3234,"ĠLit":3235,"isions":3236,"Ġoperations":3237,"Ġspace":3238,"abit":3239,"burg":3240,"Ġ70":3241,"ĠBillboard":3242,"Ġ-":3243,"Ġthus":3244,"Ġ33":3245,"ĠBack":3246,"Ġdead":3247,"Ġremains":3248,"Ġwoman":3249,"Ġbring":3250,"Ġquarter":3251,"Ġparen":3252,"umn":3253,"Ġsoldiers":3254,"ĠSuper":3255,"thing":3256,"Ġour":3257,"Ġnatural":3258,"ĠNot":3259,"Ġwhether":3260,"Ġweap":3261,"Ġprobably":3262,"olic":3263,"Ġimm":3264,"andon":3265,"ĠBet":3266,"Ġface":3267,"Ġdram":3268,"ĠFinal":3269,"Ġult":3270,"Ġconcept":3271,"ĠSal":3272,"ĠKh":3273,"imin":3274,"Ġsyn":3275,"ĠApp":3276,"Ġbuildings":3277,"Ġbattles":3278,"Ġcomplex":3279,"Ġcopies":3280,"Ġreact":3281,"ĠSince":3282,"ĠInter":3283,"Ġleader":3284,"Ġforward":3285,"Ġ1997":3286,"ĠScot":3287,"can":3288,"Ġextended":3289,"Ġdepart":3290,"Ġlyrics":3291,"Ġvoice":3292,"oint":3293,"ĠAtlantic":3294,"Ġboy":3295,"Ġboard":3296,"Ġchall":3297,"Ġissued":3298,"Ġsuffered":3299,"iring":3300,"Ġheav":3301,"Ġreally":3302,"ĠMont":3303,"iant":3304,"ospital":3305,"Ġcountries":3306,"riage":3307,"vin":3308,"ĠLake":3309,"Ġcm":3310,"ĠCongress":3311,"Ġincludes":3312,"Ġimmediately":3313,"ĠKn":3314,"Ġemb":3315,"ĠSever":3316,"raz":3317,"ĠFlorida":3318,"ĠFort":3319,"ĠLove":3320,"Ġgoals":3321,"ĠBoth":3322,"ams":3323,"Ġattend":3324,"Ġdeg":3325,"ĠSun":3326,"eph":3327,"Ġcapital":3328,"Ġmixed":3329,"Ġprivate":3330,"ĠJim":3331,"ĠJew":3332,"Ġmanager":3333,"Ġofficers":3334,"ĠBig":3335,"Ġlikely":3336,"Ġ37":3337,"Ġbreed":3338,"Ġcann":3339,"che":3340,"Ġremoved":3341,"hood":3342,"lebr":3343,"venue":3344,"Ġdistrib":3345,"Ġplant":3346,"ĠOld":3347,"Ġincrease":3348,"Ġsubsequently":3349,"ĠTexas":3350,"Ġmach":3351,"ĠSea":3352,"uz":3353,"Ġinitial":3354,"ĠQueen":3355,"uth":3356,"ĠChina":3357,"Ġmount":3358,"Ġhealth":3359,"ibr":3360,"Ġalways":3361,"Ġleave":3362,"Ġplans":3363,"Ġstatus":3364,"ĠDist":3365,"ĠTown":3366,"ections":3367,"Ġcompan":3368,"Ġfocus":3369,"Ġlocation":3370,"ĠAnother":3371,"Ġvia":3372,"Ġservices":3373,"Ġnetwork":3374,"ÃŃ":3375,"Ġvisit":3376,"order":3377,"hold":3378,"urt":3379,"bury":3380,"Ġcoin":3381,"Ġproblems":3382,"ĠMr":3383,"rial":3384,"Ġoffered":3385,"ĠLaw":3386,"Ġcolon":3387,"ĠLord":3388,"Ġterms":3389,"Ġmur":3390,"Ġapproach":3391,"Ġflag":3392,"Ġinstr":3393,"ny":3394,"ĠHow":3395,"ĠEarth":3396,"Ġvillage":3397,"Ġtons":3398,"aily":3399,"Ġnorm":3400,"Ġcarry":3401,"ounted":3402,"Ġmodel":3403,"Ġsomething":3404,"Ġfell":3405,"ging":3406,"Ġadminist":3407,"ĠCamp":3408,"ctor":3409,"stant":3410,"Ġmajority":3411,"ria":3412,"orning":3413,"Ġtow":3414,"ironment":3415,"Ġprofessional":3416,"ili":3417,"ĠCanadian":3418,"Ġ183":3419,"ĠTrans":3420,"ĠTor":3421,"ĠBoy":3422,"amer":3423,"Ġtor":3424,"ously":3425,"ĠAfrica":3426,"Ġinters":3427,"ĠIts":3428,"Ġgot":3429,"Ġmeth":3430,"Ġdamaged":3431,"adium":3432,"ills":3433,"Ġconsist":3434,"ari":3435,"ĠTour":3436,"ĠRail":3437,"ograph":3438,"uries":3439,"Ġcounter":3440,"Ġcause":3441,"ĠPet":3442,"Ġmeeting":3443,"Ġadop":3444,"Ġappears":3445,"well":3446,"ĠSquadron":3447,"Ġminute":3448,"Ġjob":3449,"ĠWood":3450,"Ġranked":3451,"aches":3452,"Ġconfir":3453,"ĠCenter":3454,"etic":3455,"Ġran":3456,"ĠRussian":3457,"Ġindividual":3458,"Ġattacks":3459,"Ġcomposed":3460,"ĠHighway":3461,"Ġrevealed":3462,"Ġflight":3463,"itect":3464,"Ġplot":3465,"Ġdiscovered":3466,"Ġsch":3467,"ĠTur":3468,"Ġraised":3469,"reater":3470,"umed":3471,"ĠOl":3472,"Ġfinanc":3473,"ify":3474,"ware":3475,"Ġmakes":3476,"Ġrespectively":3477,"ij":3478,"ĠMur":3479,"ys":3480,"ĠCentral":3481,"ĠCarol":3482,"Ġassociated":3483,"ĠKent":3484,"Ġ1995":3485,"Ġnumerous":3486,"oes":3487,"ĠSir":3488,"ĠAngeles":3489,"Ġtakes":3490,"reak":3491,"ĠMartin":3492,"Ġdomin":3493,"Ġaltern":3494,"ien":3495,"Ġanc":3496,"ĠIII":3497,"aging":3498,"Ġneeded":3499,"Ġ90":3500,"Ġinspired":3501,"Ġlived":3502,"Ġlaunched":3503,"mon":3504,"ĠAnt":3505,"Ġyet":3506,"Ġcoach":3507,"Ġattacked":3508,"Ġoccurred":3509,"ails":3510,"ription":3511,"Ġnature":3512,"Ġattempted":3513,"fact":3514,"ault":3515,"Ġcontains":3516,"olk":3517,"uments":3518,"Ġvehic":3519,"Ġshown":3520,"ĠBow":3521,"Ġmoving":3522,"Ġconditions":3523,"Ġpow":3524,"Ġbene":3525,"Ġcand":3526,"Ġupper":3527,"estival":3528,"Ġamb":3529,"ĠRh":3530,"uals":3531,"ĠDV":3532,"ĠYear":3533,"ĠMiss":3534,"ĠGroup":3535,"Ġdig":3536,"Ġaccomp":3537,"ective":3538,"Ġsales":3539,"down":3540,"Ġcollect":3541,"ĠRad":3542,"joy":3543,"Ġ2016":3544,"ĠTV":3545,"itt":3546,"Ġissues":3547,"urity":3548,"Ġyards":3549,"aught":3550,"Ġ1996":3551,"Ġ1950":3552,"Ġ34":3553,"Ġslight":3554,"gely":3555,"Ġbirth":3556,"Ġexam":3557,"ĠEmpire":3558,"arian":3559,"Ġ38":3560,"Ġwhole":3561,"Ġinformation":3562,"de":3563,"ĠStr":3564,"ĠMel":3565,"ĠGreek":3566,"Ġreferred":3567,"lor":3568,"Ã¶":3569,"Ġcritical":3570,"Ã¼":3571,"Ġmom":3572,"uing":3573,"Ġdefeat":3574,"Ġbox":3575,"Ġselected":3576,"Ġsmaller":3577,"Ġresulted":3578,"Ġnumbers":3579,"Ġfinally":3580,"cean":3581,"Ġincor":3582,"Ġelected":3583,"reme":3584,"ĠRev":3585,"Ġpit":3586,"Ġgrant":3587,"Ġbad":3588,"win":3589,"Ġactive":3590,"Ġportray":3591,"Ġsen":3592,"Ġqual":3593,"Ġscient":3594,"imb":3595,"Ġsinger":3596,"ĠPenn":3597,"ste":3598,"ĠDes":3599,"iest":3600,"vert":3601,"Ġprincip":3602,"ĠItalian":3603,"Ġmission":3604,"ĠOut":3605,"Ġoperation":3606,"Ġsecret":3607,"Ġ1994":3608,"uated":3609,"Ġcelebr":3610,"Ġsal":3611,"Ġindustry":3612,"Ġstandard":3613,"Ġlargely":3614,"ĠUnder":3615,"Ġgrand":3616,"Ġassigned":3617,"enant":3618,"itation":3619,"Ġlink":3620,"Ġens":3621,"ortun":3622,"Ġcer":3623,"Ġearned":3624,"Ġthr":3625,"Ġlegisl":3626,"Ġanaly":3627,"ĠDel":3628,"Ġcommented":3629,"Ġsaf":3630,"amb":3631,"ĠCorps":3632,"Ġexpected":3633,"Ġprec":3634,"Ġang":3635,"Ġmale":3636,"Ġaudience":3637,"Ġlisted":3638,"itude":3639,"Ġcovered":3640,"ĠDVD":3641,"Ġroy":3642,"ken":3643,"Ġunable":3644,"izing":3645,"Ġartic":3646,"Ġsched":3647,"Ġi":3648,"ĠCrit":3649,"Ġpurp":3650,"irection":3651,"ĠMichigan":3652,"oe":3653,"Ġtraditional":3654,"ĠTer":3655,"Ġtrade":3656,"Ġartist":3657,"Ġrefused":3658,"Ġdouble":3659,"Ġeducation":3660,"Ġrequest":3661,"Ġfriends":3662,"ĠViet":3663,"Ġclosed":3664,"Ġheart":3665,"onic":3666,"Ġsem":3667,"Ġnewsp":3668,"Ġrecover":3669,"Ġprimary":3670,"Ġattention":3671,"Ġunderst":3672,"ounts":3673,"Ġmethod":3674,"Ġprevent":3675,"use":3676,"ĠGar":3677,"Ġtalk":3678,"Ġbelow":3679,"Ġsister":3680,"ogue":3681,"Ġkind":3682,"Ġofficer":3683,"ĠWales":3684,"aine":3685,"Ġreason":3686,"hips":3687,"Ġdepression":3688,"tered":3689,"ighter":3690,"Ġcontem":3691,"Ġ1940":3692,"Ġplat":3693,"Ġperformances":3694,"Ġenjoy":3695,"ĠDis":3696,"Ġability":3697,"Ġmeant":3698,"ples":3699,"Ġdeclared":3700,"Ġfighting":3701,"Ġwalk":3702,"oly":3703,"kin":3704,"ĠNort":3705,"Ġgiving":3706,"Ġcommander":3707,"ider":3708,"undred":3709,"Ġ180":3710,"Ġword":3711,"oud":3712,"Ġreligious":3713,"Ġtheat":3714,"Ġletter":3715,"Ġblood":3716,"Ġmiddle":3717,"ĠMore":3718,"ĠMass":3719,"Ġcompl":3720,"Ġsett":3721,"Ġbooks":3722,"Ġmax":3723,"Ġrate":3724,"isher":3725,"ĠCath":3726,"Ġmatches":3727,"Ġhot":3728,"Ġnames":3729,"Ġ49":3730,"Ġrecords":3731,"iled":3732,"ĠDemocr":3733,"ĠAcad":3734,"ĠCare":3735,"Ġconstit":3736,"ĠStep":3737,"aped":3738,"Ġproduce":3739,"Ġunit":3740,"ĠPre":3741,"Ġquestion":3742,"ĠZeal":3743,"Ġserious":3744,"ĠBec":3745,"Ġcentre":3746,"ĠTeam":3747,"Ġcompetition":3748,"ounded":3749,"ĠTest":3750,"ĠCle":3751,"ĠOx":3752,"Ġtouch":3753,"antasy":3754,"ĠMajor":3755,"Ġvocals":3756,"Ġdisapp":3757,"Ġabandon":3758,"Ġmention":3759,"ĠSeveral":3760,"Ġrapid":3761,"odies":3762,"bridge":3763,"ĠMinister":3764,"Ġ1992":3765,"iences":3766,"utch":3767,"icted":3768,"Ġaccount":3769,"Ġnecess":3770,"ĠLong":3771,"Ġkilomet":3772,"ĠArch":3773,"ector":3774,"quar":3775,"road":3776,"Ġenergy":3777,"ady":3778,"shire":3779,"rug":3780,"ĠMidd":3781,"icient":3782,"Ġdra":3783,"Ġconstructed":3784,"ims":3785,"Ġtraff":3786,"ervation":3787,"Ġdut":3788,"ĠBu":3789,"ĠEr":3790,"ona":3791,"ĠKenn":3792,"Ġtheme":3793,"ĠLu":3794,"ening":3795,"Ġvir":3796,"ĠZealand":3797,"ĠCons":3798,"ĠFore":3799,"Ġmor":3800,"echan":3801,"Ġris":3802,"ĠWal":3803,"ishop":3804,"Ġ41":3805,"Ġhighly":3806,"Ġnearby":3807,"Ġseparate":3808,"Ġhar":3809,"Ġroyal":3810,"Ġpick":3811,"oses":3812,"Ġpositions":3813,"ĠTime":3814,"Ġcontinue":3815,"ĠMexico":3816,"ĠFox":3817,"Ġeffort":3818,"Ġtrain":3819,"Ġcombat":3820,"Ġdrum":3821,"Ġchief":3822,"edic":3823,"Ġprep":3824,"ĠAfrican":3825,"ares":3826,"ĠFour":3827,"rier":3828,"Ġpresented":3829,"Ġannual":3830,"Ġreduced":3831,"Ġcas":3832,"Ġcontrovers":3833,"Ġtur":3834,"Ġdirectly":3835,"emorial":3836,"Ġ400":3837,"Ġ1930":3838,"ieut":3839,"ĠChris":3840,"ansion":3841,"Ġlevels":3842,"ĠMatt":3843,"ibly":3844,"Ġmeans":3845,"Ġnotes":3846,"Ġtried":3847,"Ġattended":3848,"Ġsevent":3849,"Ġpractice":3850,"Ġneigh":3851,"ether":3852,"Ġcle":3853,"Ġforest":3854,"Ġedition":3855,"ĠSum":3856,"ĠHaw":3857,"Ġfast":3858,"anes":3859,"Ġcompos":3860,"ĠMadonna":3861,"vement":3862,"ining":3863,"Ġtwenty":3864,"Ġaccepted":3865,"Ġstating":3866,"Ã³":3867,"Ġ1991":3868,"Ġ1993":3869,"ette":3870,"Ġarchitect":3871,"Ġmetal":3872,"Ġmovie":3873,"Ġnuc":3874,"Ġwatch":3875,"ĠSo":3876,"ĠChart":3877,"oper":3878,"ĠWall":3879,"Ġconcert":3880,"Ġadvance":3881,"Ġtext":3882,"Ġrepe":3883,"Ġcandid":3884,"Ġpair":3885,"rical":3886,"ĠBob":3887,"Ġ179":3888,"cel":3889,"ado":3890,"Ġrein":3891,"ĠScotland":3892,"osen":3893,"stitute":3894,"track":3895,"acher":3896,"Ġdirection":3897,"ĠJones":3898,"Ġ55":3899,"Ġseem":3900,"Ġschools":3901,"Ġlegal":3902,"ping":3903,"illery":3904,"ĠTheir":3905,"Ġdism":3906,"ĠInfantry":3907,"lict":3908,"ersey":3909,"Ġthick":3910,"Ġreject":3911,"Ġrare":3912,"eway":3913,"ĠDepartment":3914,"Ġoil":3915,"oo":3916,"aver":3917,"wide":3918,"ĠManc":3919,"Ġ+":3920,"Ġefforts":3921,"Ġcollege":3922,"ĠCreek":3923,"Ġrecomm":3924,"Ġhorse":3925,"Ġpurs":3926,"ĠDar":3927,"Ġmanaged":3928,"Ġasp":3929,"Ġmarriage":3930,"Ġending":3931,"Ġresulting":3932,"sis":3933,"ĠSar":3934,"icip":3935,"ĠCross":3936,"Ġresponsible":3937,"ieutenant":3938,"Ġavoid":3939,"Ġshowed":3940,"ĠThree":3941,"Ġdropped":3942,"utions":3943,"Ġinside":3944,"Ġwing":3945,"Ġcyclone":3946,"light":3947,"inem":3948,"Ġenvironment":3949,"Ġcases":3950,"Ġnation":3951,"ĠTre":3952,"ĠBost":3953,"Ġkept":3954,"band":3955,"peror":3956,"irit":3957,"Ġmorning":3958,"Ġmeaning":3959,"Ġ182":3960,"ĠArab":3961,"Ġculture":3962,"ĠFoot":3963,"ĠAnn":3964,"awn":3965,"ĠDou":3966,"Ġcust":3967,"Ġbegins":3968,"Ġvariety":3969,"Ġincorpor":3970,"Ġhouses":3971,"illed":3972,"Ġchampionship":3973,"house":3974,"ceeded":3975,"isation":3976,"ĠHel":3977,"Ġforms":3978,"Ġ39":3979,"Ġrat":3980,"ĠService":3981,"ĠLeg":3982,"Ġarrest":3983,"Ġwords":3984,"ĠStone":3985,"ĠPost":3986,"uit":3987,"Ġdom":3988,"Ġcerem":3989,"ĠHung":3990,"like":3991,"Ġinches":3992,"Ġschol":3993,"Ġcontinues":3994,"ĠWilliams":3995,"Ġmarked":3996,"Ġge":3997,"ĠRecords":3998,"Ġyard":3999,"MS":4000,"ĠSecret":4001,"Ġ181":4002,"cend":4003,"Ġ48":4004,"Ġperm":4005,"Ġbank":4006,"Ġuses":4007,"Ġscience":4008,"Ġsymb":4009,"ecting":4010,"ĠGo":4011,"Ġ42":4012,"Ġeconomic":4013,"ĠBC":4014,"Ġspl":4015,"ĠNews":4016,"gypt":4017,"Ġdefend":4018,"ĠParliament":4019,"Ġsource":4020,"Ġmetres":4021,"ka":4022,"iated":4023,"ĠGames":4024,"Ġhundred":4025,"Ġquality":4026,"writ":4027,"Ġlear":4028,"olf":4029,"ĠArm":4030,"thel":4031,"Ġsettle":4032,"Ġ1942":4033,"Ġstarting":4034,"ĠSur":4035,"Ġconducted":4036,"ulations":4037,"Ġimpact":4038,"ĠStan":4039,"Ġallowing":4040,"Ġyour":4041,"ĠMic":4042,"Ġspecific":4043,"ylv":4044,"Ġstrugg":4045,"Ġsides":4046,"thur":4047,"ĠEgypt":4048,"cle":4049,"Ġpresence":4050,"Ġple":4051,"ĠFin":4052,"ĠBook":4053,"aph":4054,"ĠSociety":4055,"Ġbeat":4056,"bed":4057,"Ġamount":4058,"ait":4059,"wh":4060,"Ġviewers":4061,"Ġdu":4062,"Ġsuppl":4063,"Ġdance":4064,"Ġexhib":4065,"Ġrule":4066,"Ġtransferred":4067,"Ġchap":4068,"Ġraid":4069,"Ġdistinct":4070,"ĠSouthern":4071,"ĠPrince":4072,"Ġmultiple":4073,"Ġunivers":4074,"ĠStephen":4075,"Ġpotential":4076,"ĠLatin":4077,"ĠCommittee":4078,"Ġforeign":4079,"Ġcontrast":4080,"Ġenemy":4081,"ols":4082,"een":4083,"ĠOh":4084,"ĠOxford":4085,"Ġpeaked":4086,"ĠWin":4087,"irm":4088,"ani":4089,"Ġtraffic":4090,"ingu":4091,"Ġbecomes":4092,"arent":4093,"ĠJer":4094,"ĠTri":4095,"itiz":4096,"Ġthings":4097,"Ġ65":4098,"Ġowned":4099,"Ġcaptain":4100,"Ġfounded":4101,"Ġgreater":4102,"Ġportion":4103,"ĠSpec":4104,"ĠAdmiral":4105,"ĠJoseph":4106,"ĠLike":4107,"Ġmess":4108,"Ġencoun":4109,"Ġvocal":4110,"Ġconcluded":4111,"ĠGeorg":4112,"Ġrespond":4113,"gl":4114,"ĠBoston":4115,"Ġattempts":4116,"Ġrelatively":4117,"Ġfederal":4118,"sych":4119,"Ġscoring":4120,"ĠManchester":4121,"Ġproperty":4122,"Ġprimarily":4123,"ĠChief":4124,"Ġstories":4125,"Ġcastle":4126,"Ġopt":4127,"iance":4128,"ĠClass":4129,"Ġdemonst":4130,"ĠSat":4131,"Ġfinancial":4132,"ĠHarrison":4133,"ellig":4134,"Ġactually":4135,"inet":4136,"ĠBecause":4137,"ĠBrad":4138,"ĠBefore":4139,"Ġanimals":4140,"ĠJeff":4141,"ĠCaptain":4142,"ressive":4143,"ĠHal":4144,"ĠBattalion":4145,"fect":4146,"ĠVietn":4147,"aud":4148,"ĠHurricane":4149,"Ġobserved":4150,"Ġlif":4151,"Ġcollection":4152,"ih":4153,"ĠSol":4154,"Ġopportun":4155,"ĠCommission":4156,"ita":4157,"ĠSwed":4158,"Ġtourn":4159,"Ġtitled":4160,"Ġ47":4161,"Ġfeaturing":4162,"Ġweaken":4163,"Ġstrength":4164,"Ġ1944":4165,"ĠForm":4166,"istics":4167,"Ġwriters":4168,"ĠBridge":4169,"Ġinch":4170,"Ġwrite":4171,"Ġjournal":4172,"Ġsituation":4173,"ĠSil":4174,"Ġwor":4175,"ours":4176,"Ġpaid":4177,"Ġdistance":4178,"Ġfigure":4179,"Ġmechan":4180,"Ġcompanies":4181,"ĠEver":4182,"Ġparents":4183,"Ġspot":4184,"Ġpremi":4185,"ĠDef":4186,"ĠTw":4187,"Ġonto":4188,"Ġindependent":4189,"perial":4190,"ĠTim":4191,"Ġdivided":4192,"Ġacting":4193,"umber":4194,"right":4195,"Ġactor":4196,"ĠLittle":4197,"Ġshare":4198,"Ġslightly":4199,"eds":4200,"ĠFred":4201,"ĠOtt":4202,"ĠProdu":4203,"Ġmind":4204,"ĠDen":4205,"Ġ46":4206,"Äĩ":4207,"ĠSeries":4208,"ĠParis":4209,"Ġpiece":4210,"Ġ64":4211,"Ġcollabor":4212,"Ġtarget":4213,"Ġ52":4214,"Ġpowerful":4215,"Ġtorped":4216,"Ġinnings":4217,"ĠLife":4218,"Ġfunction":4219,"Ġconcent":4220,"Ġselling":4221,"ĠBat":4222,"ĠColumb":4223,"Ġreform":4224,"ĠYoun":4225,"Ġera":4226,"thlet":4227,"ĠCarl":4228,"Ġrating":4229,"Ġbroke":4230,"Ġrough":4231,"ĠVer":4232,"ils":4233,"Ġplays":4234,"ĠEntertain":4235,"Ġultimately":4236,"Ġtoday":4237,"Ġlot":4238,"ĠBBC":4239,"ricket":4240,"Ġtrial":4241,"Ġwaters":4242,"Ġactions":4243,"istry":4244,"oration":4245,"Ġsquare":4246,"ĠCroat":4247,"Ġmaximum":4248,"ĠHistor":4249,"Ġmel":4250,"chest":4251,"lam":4252,"Ġcho":4253,"Ġ43":4254,"mond":4255,"ĠLuc":4256,"uge":4257,"udd":4258,"Ġcompletely":4259,"ada":4260,"Ġtend":4261,"rown":4262,"Ġsought":4263,"Ġdise":4264,"ĠAcademy":4265,"Ġbound":4266,"astic":4267,"annel":4268,"Ġ1920":4269,"Ġpilot":4270,"Ġinterp":4271,"rel":4272,"force":4273,"Ġpolicy":4274,"acts":4275,"Ġ1945":4276,"ĠMax":4277,"ĠMuseum":4278,"Ġscale":4279,"Ġ1941":4280,"Ġdesignated":4281,"sw":4282,"Ġsociety":4283,"Ġblue":4284,"ĠMod":4285,"Ġmainly":4286,"Ġess":4287,"Ġstruck":4288,"Ġ44":4289,"Ġlog":4290,"anna":4291,"ĠPan":4292,"load":4293,"Ġbehav":4294,"Ġconver":4295,"ĠLine":4296,"Ġcombined":4297,"Ġofficials":4298,"rupt":4299,"Ġhus":4300,"Ġnortheast":4301,"stein":4302,"ĠSaint":4303,"Ġtask":4304,"mas":4305,"Ġactivity":4306,"Ġ150":4307,"Ġinfluenced":4308,"Ġvess":4309,"ux":4310,"Ġsearch":4311,"while":4312,"ĠPop":4313,"olved":4314,"Ġalongside":4315,"Ġtransl":4316,"Ġgar":4317,"Ġwear":4318,"Ġthir":4319,"ĠBrigade":4320,"Ġsout":4321,"cers":4322,"ĠItaly":4323,"Ġcalling":4324,"ĠEntertainment":4325,"Ġthous":4326,"Ġbatter":4327,"Ġseconds":4328,"ees":4329,"ĠAmericans":4330,"ĠWay":4331,"under":4332,"Ġsources":4333,"Ġnaval":4334,"Ġcorn":4335,"Ġbackground":4336,"ĠLee":4337,"alle":4338,"ĠRegiment":4339,"Ġwinter":4340,"ĠIre":4341,"ĠHor":4342,"Ġseg":4343,"orses":4344,"Ġcrow":4345,"Ġplatform":4346,"Ġwebs":4347,"rative":4348,"Ġice":4349,"Ġsuc":4350,"Ġrecent":4351,"quarters":4352,"mark":4353,"Ġgained":4354,"ĠConf":4355,"Ġnominated":4356,"Ġtheory":4357,"ĠGre":4358,"Ġartists":4359,"aga":4360,"Ġmem":4361,"ĠTod":4362,"Ġpromoted":4363,"ĠAvenue":4364,"Ġelectric":4365,"ĠWind":4366,"Ġwidely":4367,"Ġproblem":4368,"illa":4369,"Ġconfirmed":4370,"Ġencour":4371,"ĠIreland":4372,"iano":4373,"aven":4374,"Ġnews":4375,"Ġsystems":4376,"ya":4377,"Ġreaching":4378,"Ġpassing":4379,"ĠVan":4380,"Ġproved":4381,"ibrary":4382,"ini":4383,"Ġinvasion":4384,"Ġresults":4385,"Ġconflict":4386,"ĠFleet":4387,"rate":4388,"Ġgreatest":4389,"Ġsubsequent":4390,"Ġexplained":4391,"Ġalbums":4392,"ĠAdd":4393,"ero":4394,"HL":4395,"osaur":4396,"ota":4397,"adel":4398,"Ġpeace":4399,"Ġnorthwest":4400,"Ġcoming":4401,"Ġiron":4402,"Ġsixth":4403,"Ġcontent":4404,"nown":4405,"Ġ1989":4406,"Ġresist":4407,"Ġcharge":4408,"Ġcounty":4409,"Ġwick":4410,"oured":4411,"ube":4412,"Ġ1943":4413,"Ġhero":4414,"Ġshortly":4415,"Ġweather":4416,"Ġsays":4417,"Ġsust":4418,"hew":4419,"ĠGood":4420,"Ġcausing":4421,"ĠVictoria":4422,"Ġserve":4423,"Ġversions":4424,"Ġadj":4425,"Ġexpressed":4426,"ĠOrig":4427,"pe":4428,"ĠTropical":4429,"ĠEll":4430,"itness":4431,"Ġborder":4432,"Ġpath":4433,"Ġreception":4434,"Ġresidents":4435,"Ġseek":4436,"Ġburn":4437,"Ġir":4438,"ĠCharl":4439,"tation":4440,"iced":4441,"ĠRay":4442,"ĠTy":4443,"ĠCatholic":4444,"Ġcities":4445,"ĠBus":4446,"Ġemot":4447,"TV":4448,"Ġsoundtrack":4449,"town":4450,"Ġsn":4451,"Ġseasons":4452,"ĠValley":4453,"Ġfavour":4454,"Ġsense":4455,"aling":4456,"Ġappearances":4457,"ĠWork":4458,"Ġ51":4459,"ĠSant":4460,"onn":4461,"Ġhospital":4462,"omy":4463,"ategory":4464,"Ġartillery":4465,"ĠNorm":4466,"Ġsexual":4467,"ĠNin":4468,"Ġidentified":4469,"Ġrequire":4470,"ĠAlb":4471,"Ġchem":4472,"Ġolder":4473,"ĠLight":4474,"Ġhands":4475,"Ġphysical":4476,"ĠThough":4477,"Ġgreen":4478,"ips":4479,"ĠDev":4480,"ĠAut":4481,"Ġtells":4482,"ancy":4483,"Ġdedic":4484,"ighth":4485,"Ġtrue":4486,"Ġoffer":4487,"ĠLive":4488,"Ġdocument":4489,"bit":4490,"ĠMiddle":4491,"ĠThrough":4492,"unction":4493,"Ġkg":4494,"Ġweapons":4495,"bon":4496,"Ġrepresented":4497,"AS":4498,"ĠCommun":4499,"Ġahead":4500,"arden":4501,"ĠFootball":4502,"ĠLiber":4503,"ĠShow":4504,"Ġheavily":4505,"eption":4506,"Ġgas":4507,"ym":4508,"Ġimage":4509,"itan":4510,"Ġnegot":4511,"Ġpun":4512,"ylvania":4513,"Ġdefense":4514,"Ġeas":4515,"ĠUpon":4516,"ĠFar":4517,"ĠMa":4518,"Ġsupp":4519,"Ġapparent":4520,"ĠLo":4521,"itable":4522,"ĠDutch":4523,"Ġalone":4524,"ĠWeek":4525,"Ġspread":4526,"Ġstudent":4527,"Ġstudies":4528,"ĠYoung":4529,"za":4530,"ĠJul":4531,"ĠDirect":4532,"Ġofficially":4533,"abeth":4534,"Ġdistrict":4535,"ĠTay":4536,"Ġhusband":4537,"ĠSub":4538,"Ġexecutive":4539,"Ġprominent":4540,"Ġconsisted":4541,"Ġfarm":4542,"Ġorganization":4543,"essions":4544,"Ġcapture":4545,"Ġstone":4546,"Ġdebuted":4547,"ĠBey":4548,"Ġinstit":4549,"Ġsend":4550,"Ġinjury":4551,"ĠDun":4552,"ĠEliz":4553,"ĠTop":4554,"Ġfired":4555,"ĠAlbert":4556,"Ġpattern":4557,"Ġequipment":4558,"AA":4559,"Ġpoet":4560,"Ġbit":4561,"Ġwild":4562,"Ġpack":4563,"Ġprepar":4564,"Ġfigures":4565,"ĠBond":4566,"Ġresc":4567,"Ġsurpris":4568,"Ġpal":4569,"ĠCivil":4570,"Ġargued":4571,"Ġexped":4572,"Ġaired":4573,"Ġcontemporary":4574,"Ġgrowth":4575,"ushed":4576,"Ġcouple":4577,"ĠIll":4578,"Ġdoing":4579,"ĠKr":4580,"Ġreturning":4581,"Ġinstrument":4582,"acity":4583,"Ġpict":4584,"Ġring":4585,"ĠHomer":4586,"Ġfloor":4587,"ĠMen":4588,"ĠRy":4589,"Ġhun":4590,"Ġlaid":4591,"Ġweight":4592,"ĠRog":4593,"Ġcert":4594,"ockey":4595,"urban":4596,"ĠVol":4597,"pool":4598,"ĠAv":4599,"ĠNorthern":4600,"Ġdrug":4601,"Ġpieces":4602,"Ġdoub":4603,"Ġstep":4604,"lers":4605,"Ġleaders":4606,"Ġmatter":4607,"Ġaffected":4608,"ĠStorm":4609,"Ġmaintained":4610,"Ġshell":4611,"lines":4612,"Ġmagn":4613,"Ġeth":4614,"Ġhabit":4615,"ĠDi":4616,"Ġearth":4617,"Ġrang":4618,"Ġcrowd":4619,"ĠRam":4620,"ĠFre":4621,"appen":4622,"Ġtun":4623,"resp":4624,"bur":4625,"Ġhere":4626,"Ġoccasion":4627,"Ġvisited":4628,"Ġpropos":4629,"Ġcommunic":4630,"ports":4631,"Ġspeech":4632,"Ġcomes":4633,"Ġtermin":4634,"Ġstra":4635,"Ġ600":4636,"ĠMat":4637,"Ġcriticized":4638,"ĠDaniel":4639,"Ġactivities":4640,"ĠDam":4641,"ĠFer":4642,"ĠCarolina":4643,"acement":4644,"Ġexec":4645,"Ġtoward":4646,"Ġreign":4647,"inson":4648,"Ġattract":4649,"ifying":4650,"Ġemph":4651,"emic":4652,"Ġtournament":4653,"ental":4654,"Ġox":4655,"ĠOperation":4656,"Ġcitiz":4657,"Ġtrees":4658,"ĠSk":4659,"ĠGal":4660,"Ġsenior":4661,"Ġsetting":4662,"Ġsingles":4663,"Ġreference":4664,"Ġformation":4665,"Åį":4666,"Ġhall":4667,"ocked":4668,"ĠJon":4669,"Ġ1987":4670,"Ġmedical":4671,"Ġmurder":4672,"elve":4673,"Ġadapt":4674,"Ġunk":4675,"ĠGovernment":4676,"ĠScottish":4677,"Ġsurre":4678,"Ġworldwide":4679,"rog":4680,"Ġtrying":4681,"ĠHard":4682,"Ġ1988":4683,"ĠDistrict":4684,"Ġterritory":4685,"ĠSystem":4686,"ĠMarsh":4687,"ĠTem":4688,"Ġstations":4689,"ruit":4690,"Ġpan":4691,"Ġappl":4692,"Ġdelay":4693,"ĠBre":4694,"Ġmachine":4695,"Ġbud":4696,"ĠHolly":4697,"ĠBackground":4698,"ĠWrit":4699,"Ġrainfall":4700,"ĠField":4701,"estic":4702,"Ġclaims":4703,"Ġload":4704,"embly":4705,"ĠGovernor":4706,"Ġfellow":4707,"Ġbul":4708,"Ġbirds":4709,"ĠFantasy":4710,"ners":4711,"Ġhistorian":4712,"Ġdoll":4713,"Ġguest":4714,"Ġfully":4715,"ĠColon":4716,"Ġaccident":4717,"orne":4718,"ivity":4719,"eed":4720,"Ġrisk":4721,"ĠHome":4722,"ĠPenns":4723,"Ġvalue":4724,"uled":4725,"Ġtherefore":4726,"eld":4727,"ĠGuard":4728,"Ġsplit":4729,"Ġterr":4730,"Ġdog":4731,"Ġchosen":4732,"Ġtreatment":4733,"Ġcell":4734,"Ġ53":4735,"Ġsupply":4736,"ĠRom":4737,"ĠDuke":4738,"uct":4739,"Ġuniversity":4740,"Ġgovernor":4741,"ĠSenate":4742,"Ġgod":4743,"velopment":4744,"Ġcontest":4745,"resh":4746,"Ġtwice":4747,"stone":4748,"ampion":4749,"Ġreports":4750,"Ġfrequently":4751,"uls":4752,"rael":4753,"amber":4754,"omers":4755,"ĠShort":4756,"Ġdyn":4757,"ĠKar":4758,"gian":4759,"Ġleaves":4760,"Ġsens":4761,"Ġremark":4762,"Ġfaced":4763,"ĠStudios":4764,"ĠPolish":4765,"ĠGirl":4766,"ĠBeat":4767,"iot":4768,"Ġwalls":4769,"ĠEastern":4770,"Ġagg":4771,"stitution":4772,"Ġpaper":4773,"Ġoperated":4774,"Ġhyd":4775,"ordin":4776,"aved":4777,"Ġlabel":4778,"Ġwounded":4779,"Ġbillion":4780,"Ġfollows":4781,"ledge":4782,"Ġsurrounding":4783,"Ġopin":4784,"iÄĩ":4785,"Ġgrew":4786,"ror":4787,"Ġmanu":4788,"ĠLew":4789,"eller":4790,"ĠMean":4791,"ĠRod":4792,"ading":4793,"anger":4794,"ĠRos":4795,"Ġ85":4796,"ĠAndrew":4797,"Ġut":4798,"Ġcontained":4799,"ĠChristmas":4800,"ĠOs":4801,"ĠAllied":4802,"Ġmanufact":4803,"ayer":4804,"onents":4805,"Ġcondition":4806,"Ġdegree":4807,"Ġherself":4808,"Ġplanet":4809,"Ġaccompan":4810,"ĠMD":4811,"Ġpasses":4812,"Ġhorses":4813,"Ġswe":4814,"Ġescape":4815,"Ġtypically":4816,"rect":4817,"orter":4818,"Ġfuel":4819,"Ġcolor":4820,"Ġsimply":4821,"isco":4822,"ĠCorn":4823,"Ġmaster":4824,"ĠWilson":4825,"edd":4826,"ĠBart":4827,"Ġsle":4828,"Ġbrown":4829,"illy":4830,"ĠTaylor":4831,"ĠNight":4832,"Ġelement":4833,"Ġorders":4834,"Ġdraft":4835,"Ġlives":4836,"Ġrailway":4837,"utation":4838,"antly":4839,"Ġcasual":4840,"gend":4841,"Ġ1986":4842,"ala":4843,"Ġarms":4844,"Ġeditor":4845,"ĠJud":4846,"Ġserving":4847,"ety":4848,"Ġconsecutive":4849,"Ġbal":4850,"Ġchose":4851,"Ġcamer":4852,"Ġauthority":4853,"isters":4854,"Ġnothing":4855,"ĠJoe":4856,"ĠAlexander":4857,"Ġcannot":4858,"Ġmoment":4859,"ĠElizabeth":4860,"Ġvote":4861,"izes":4862,"Ġworkers":4863,"Ġnewly":4864,"ĠEach":4865,"Ġopposed":4866,"Ġunknown":4867,"Ġparticipated":4868,"Ġnative":4869,"ricult":4870,"ancing":4871,"ĠMike":4872,"ucky":4873,"Ġrear":4874,"Ġemphas":4875,"Ġfan":4876,"Ġ54":4877,"pass":4878,"fully":4879,"Ġgrowing":4880,"uous":4881,"Ġentr":4882,"aming":4883,"ias":4884,"Ġwebsite":4885,"Ġattrib":4886,"Ġlosing":4887,"Ġphil":4888,"agn":4889,"Ġbass":4890,"Ġnewspaper":4891,"ĠOf":4892,"Ġproducers":4893,"Ġadopted":4894,"Ġadvanced":4895,"ographer":4896,"mit":4897,"andy":4898,"Ġfilming":4899,"Ġfair":4900,"igg":4901,"Ġoffensive":4902,"tar":4903,"Ġheard":4904,"Ġextra":4905,"ĠWW":4906,"ĠFestival":4907,"Ġsevere":4908,"ĠCastle":4909,"ĠHum":4910,"enge":4911,"ilies":4912,"ĠPennsylvania":4913,"ĠIslands":4914,"Ġsquadron":4915,"ĠLes":4916,"Ġ95":4917,"Ġopposition":4918,"imens":4919,"Ġsequence":4920,"Ġactors":4921,"Ġfeed":4922,"Ġextend":4923,"Ġspirit":4924,"ĠExp":4925,"azz":4926,"ype":4927,"ĠDet":4928,"ĠWhat":4929,"ĠJac":4930,"Ġfiction":4931,"Ġguard":4932,"Ġbasis":4933,"then":4934,"Ġcapacity":4935,"Ġcouncil":4936,"ĠPers":4937,"Ġweak":4938,"Ġabandoned":4939,"Ġpsych":4940,"Ġends":4941,"ev":4942,"Ġadvant":4943,"enger":4944,"Ġ56":4945,"Ġprin":4946,"ĠFurther":4947,"ĠChe":4948,"ĠSound":4949,"ĠReception":4950,"pton":4951,"Ġextr":4952,"Ġ177":4953,"ĠIrish":4954,"Ġsilver":4955,"rong":4956,"ĠOcean":4957,"Ġevac":4958,"ĠGi":4959,"Ġrival":4960,"Ġcompar":4961,"orship":4962,"Ġprompt":4963,"ĠWat":4964,"Ġrom":4965,"ĠHarry":4966,"Ġhonor":4967,"ĠInst":4968,"Ġflying":4969,"ĠTra":4970,"rid":4971,"ĠPen":4972,"isers":4973,"Ġelev":4974,"ĠBlue":4975,"ĠSpain":4976,"more":4977,"Ġkick":4978,"ables":4979,"Ġcreating":4980,"ĠRet":4981,"Ġbey":4982,"Ġdeploy":4983,"Ġfilmed":4984,"gu":4985,"ĠCard":4986,"ager":4987,"ocated":4988,"Ġlaunch":4989,"Ġhomes":4990,"Ġenter":4991,"ĠTech":4992,"Ġcoal":4993,"ĠJersey":4994,"Ġhappen":4995,"Ġregarded":4996,"Ġnormal":4997,"Ġincident":4998,"Ġindividuals":4999,"Ġeye":5000,"Ġexpansion":5001,"Ġpoll":5002,"lement":5003,"Ġast":5004,"Ġcriticism":5005,"Ġagreement":5006,"ĠGall":5007,"Ġbeyond":5008,"ĠFam":5009,"ĠLand":5010,"Ġsail":5011,"Ġ97":5012,"ĠSS":5013,"Ġ178":5014,"Ġfailure":5015,"ĠSquare":5016,"Ġsports":5017,"ĠCoast":5018,"hi":5019,"Ġspect":5020,"Ġchair":5021,"Ġfamous":5022,"Ġstrike":5023,"Ġdismiss":5024,"add":5025,"apers":5026,"Ġspring":5027,"Ġchalleng":5028,"Ġboat":5029,"TC":5030,"Ġpossibly":5031,"Ġ1939":5032,"Ġhistorical":5033,"Ġmeasure":5034,"onc":5035,"uses":5036,"Ġbodies":5037,"Ġinte":5038,"ĠAre":5039,"Ġnegative":5040,"Ġliber":5041,"ef":5042,"ano":5043,"Ġ76":5044,"Ġprogress":5045,"Ġmob":5046,"Ġachieved":5047,"Ġroles":5048,"gar":5049,"Ġcontact":5050,"min":5051,"Ġkilling":5052,"Ġunf":5053,"Ġbelieve":5054,"ĠPublic":5055,"ote":5056,"ĠProduction":5057,"Ġnarrow":5058,"ĠUs":5059,"Ġretired":5060,"imet":5061,"anda":5062,"Ġideas":5063,"ienced":5064,"ĠIsrael":5065,"ifications":5066,"Ġtorpedo":5067,"BA":5068,"ĠBab":5069,"ĠInstitute":5070,"Ġdrive":5071,"Ġpersonnel":5072,"rich":5073,"ĠLind":5074,"onent":5075,"Ġdisease":5076,"Ġ1985":5077,"Ġbriefly":5078,"mosp":5079,"Ġimag":5080,"ĠCD":5081,"Ġarmed":5082,"Ġur":5083,"ĠDue":5084,"ĠWild":5085,"ĠDoctor":5086,"ĠBroad":5087,"ĠArthur":5088,"Ġrid":5089,"Ġbenef":5090,"ĠHead":5091,"Ġtower":5092,"ĠRevolution":5093,"Ġ1968":5094,"Ġeffective":5095,"ĠBul":5096,"Ġvo":5097,"Ġnecessary":5098,"Ġkilometres":5099,"ĠMeanwhile":5100,"Ġdiam":5101,"Ġroads":5102,"FA":5103,"Ġperman":5104,"Ġgranted":5105,"Ġrepeated":5106,"Ġapplic":5107,"Ġinfantry":5108,"Ġbudget":5109,"ĠElect":5110,"Ġreceive":5111,"ĠRepublican":5112,"Ġadministration":5113,"edom":5114,"ĠCat":5115,"Ġrejected":5116,"Ġcolumn":5117,"Ġtree":5118,"Ġinterchange":5119,"Ġtwelve":5120,"Ġtable":5121,"iner":5122,"Ġpet":5123,"ĠMul":5124,"aith":5125,"Ġgross":5126,"ĠEnd":5127,"Ġinh":5128,"Ġmis":5129,"ĠGerm":5130,"ĠPerson":5131,"Ġimproved":5132,"ĠAlbum":5133,"Ġleadership":5134,"Ġturns":5135,"avalry":5136,"Ġextensive":5137,"iny":5138,"ĠOhio":5139,"Ġstraight":5140,"Ġlanding":5141,"Ġ66":5142,"ĠUl":5143,"ĠClark":5144,"imal":5145,"ĠCub":5146,"ourney":5147,"Ġyellow":5148,"Ġcrossing":5149,"Ġdata":5150,"iments":5151,"Ġparalle":5152,"Ġmanagement":5153,"Ġpurpose":5154,"Ġplants":5155,"ĠSund":5156,"Ġlands":5157,"kins":5158,"Ġseat":5159,"Ġbroken":5160,"Ġchoice":5161,"Ġexpress":5162,"Ġ61":5163,"Ġdescribes":5164,"ĠMid":5165,"Ġexpanded":5166,"Ġsuccessfully":5167,"Ġmile":5168,"Ġdefin":5169,"ĠBoard":5170,"lusion":5171,"Ġsolo":5172,"Ġfranch":5173,"ĠSecretary":5174,"Ġintellig":5175,"Ġfought":5176,"etball":5177,"ĠLy":5178,"Ġdeliver":5179,"Ġexplos":5180,"ĠBraz":5181,"Ġlearn":5182,"Ġ1984":5183,"ĠHy":5184,"ocks":5185,"Ġorganized":5186,"Ġdidn":5187,"Ġcaught":5188,"adelph":5189,"ĠLiver":5190,"iday":5191,"oln":5192,"Ġanimal":5193,"ĠPhiladelph":5194,"Ġvehicles":5195,"uate":5196,"Ġsuggests":5197,"Ġancient":5198,"Ġexcl":5199,"Ġcommissioned":5200,"ĠRA":5201,"Ġroof":5202,"Ġplaces":5203,"Ġ800":5204,"haps":5205,"ĠHit":5206,"Ġacquired":5207,"ĠEven":5208,"la":5209,"set":5210,"ĠMir":5211,"ĠFe":5212,"Ġchor":5213,"Ġcommittee":5214,"Ġdrama":5215,"Ġunsu":5216,"ĠGeorgia":5217,"ĠBurn":5218,"ĠCambridge":5219,"Ġcomedy":5220,"Ġcreation":5221,"Ġtypes":5222,"Ġarticle":5223,"ĠNever":5224,"hol":5225,"stream":5226,"Ġgives":5227,"Ġseventh":5228,"Ġrow":5229,"ĠAsh":5230,"Ġglob":5231,"ĠPhiladelphia":5232,"iable":5233,"iate":5234,"Ġprefer":5235,"Ġwave":5236,"Ġheadquarters":5237,"ico":5238,"Ġsoft":5239,"Ġnuclear":5240,"Ġfat":5241,"ĠMov":5242,"Ġ120":5243,"ĠBell":5244,"appy":5245,"Ġauthorities":5246,"etts":5247,"Ġgenus":5248,"ĠAlso":5249,"ĠConst":5250,"ĠSher":5251,"ĠBru":5252,"Ġsecurity":5253,"Ġcontain":5254,"Ġdetermined":5255,"ĠCommon":5256,"attle":5257,"restling":5258,"ĠIS":5259,"war":5260,"Ġcenturies":5261,"Ġislands":5262,"ĠAddition":5263,"iations":5264,"Ġ1967":5265,"Ġcommonly":5266,"Ġmentioned":5267,"ĠRussia":5268,"Ġbott":5269,"Ġrecently":5270,"rif":5271,"Ġbeaut":5272,"Ġlooking":5273,"Ġcontrolled":5274,"Ġupgr":5275,"Ġroll":5276,"iana":5277,"ĠProt":5278,"ĠAmong":5279,"igr":5280,"Ġstreet":5281,"Ġfamilies":5282,"Ġbattalion":5283,"erc":5284,"ĠKorean":5285,"Ġhousehold":5286,"Ġaim":5287,"umes":5288,"akers":5289,"ima":5290,"ĠWars":5291,"Ġ57":5292,"Ġfinds":5293,"Ġwithdraw":5294,"ĠCy":5295,"Ġsets":5296,"ura":5297,"ĠSR":5298,"Ġacad":5299,"Ġdecre":5300,"Ġsuppor":5301,"Ġexperiment":5302,"Ġadvert":5303,"Ġstanding":5304,"ĠNintend":5305,"ĠLiverpool":5306,"Ġillust":5307,"Ġdrop":5308,"ĠRel":5309,"ĠLar":5310,"ĠNintendo":5311,"Ġsinging":5312,"oted":5313,"Ġreflect":5314,"uting":5315,"ĠLinc":5316,"Ġdeck":5317,"agement":5318,"itled":5319,"Ġunique":5320,"ĠColumbia":5321,"Ġ62":5322,"Ġentirely":5323,"ĠPrime":5324,"ĠJenn":5325,"Ġtouchdown":5326,"Ġheight":5327,"ĠEp":5328,"ĠAsia":5329,"Ġcontaining":5330,"ĠEarl":5331,"Ġcultural":5332,"fort":5333,"Ġdefence":5334,"Ġfinish":5335,"ĠArg":5336,"Ġprotect":5337,"ĠGil":5338,"Ġcontributed":5339,"Ã¨":5340,"Ġfish":5341,"Ġdial":5342,"Ġorchest":5343,"Ġthemes":5344,"ishes":5345,"ĠLieutenant":5346,"arts":5347,"ĠDevelopment":5348,"ĠSingap":5349,"ĠJewish":5350,"ĠLincoln":5351,"Ġprovides":5352,"Ġyounger":5353,"roll":5354,"outs":5355,"Ġflooding":5356,"acks":5357,"ĠChap":5358,"Ġunp":5359,"Ġ1983":5360,"Ġstrik":5361,"Ġpurchased":5362,"ĠBrazil":5363,"Ġdefensive":5364,"Ġmist":5365,"Ġawards":5366,"ipl":5367,"Ġsac":5368,"Ġarrival":5369,"amin":5370,"Ġatmosp":5371,"Ġtitles":5372,"Ġscheduled":5373,"oma":5374,"ĠRol":5375,"Ġla":5376,"ĠCarey":5377,"Ġconvers":5378,"Ġresemb":5379,"ĠOffice":5380,"Ġ1969":5381,"ĠFrancisco":5382,"ĠChild":5383,"Ġpowers":5384,"Ġaccompanied":5385,"ĠHay":5386,"Ġhol":5387,"ĠSingapore":5388,"Ġunus":5389,"inity":5390,"ĠPeople":5391,"Ġintensity":5392,"Ġ1964":5393,"Ġthing":5394,"respond":5395,"Ġexisting":5396,"Ġexpedition":5397,"icial":5398,"Ġquite":5399,"Ġtry":5400,"Ġadvantage":5401,"Ġworth":5402,"illing":5403,"Ġperfect":5404,"Ġlocations":5405,"Ġceremony":5406,"ĠSix":5407,"Ġinteract":5408,"Ġdedicated":5409,"Ġperforming":5410,"room":5411,"water":5412,"ĠPot":5413,"Ġsquad":5414,"atures":5415,"agan":5416,"Ġextrem":5417,"Ġcomputer":5418,"Ġphilos":5419,"ĠSu":5420,"Ġ1914":5421,"Ġoccupied":5422,"Ġ58":5423,"ĠHMS":5424,"gn":5425,"Ġstore":5426,"Ġwhy":5427,"Ġfresh":5428,"Ġmounted":5429,"ĠDisney":5430,"Ġ1918":5431,"ava":5432,"Ġ74":5433,"laim":5434,"ĠâĪ":5435,"Station":5436,"ulate":5437,"ĠTam":5438,"Ġboats":5439,"Ġbat":5440,"Ġmouth":5441,"Ġ1971":5442,"ĠDark":5443,"ĠOrder":5444,"ĠPlayStation":5445,"ĠTurn":5446,"Ġcurrently":5447,"Ġ1982":5448,"ashion":5449,"ĠLis":5450,"ĠHun":5451,"Ġclosely":5452,"Ġconsists":5453,"ĠKey":5454,"Ġfix":5455,"ĠVen":5456,"Ġnob":5457,"ĠAnderson":5458,"Ġ1972":5459,"Ġ1966":5460,"Ġfirm":5461,"Ġ72":5462,"ĠConference":5463,"Ġ1979":5464,"ĠHon":5465,"ĠLewis":5466,"ĠSteve":5467,"yles":5468,"Ġsession":5469,"ĠUr":5470,"Ġcricket":5471,"Ġindustrial":5472,"ĠMiller":5473,"Ġsimple":5474,"ta":5475,"ĠBalt":5476,"Ġfacilities":5477,"racted":5478,"Ġsupporting":5479,"Ġelimin":5480,"Ġprotection":5481,"Ġsteam":5482,"wall":5483,"ĠOnce":5484,"Ġcold":5485,"Ġpiano":5486,"ĠDie":5487,"Ġdrawn":5488,"rons":5489,"Ġtail":5490,"Ġtim":5491,"ĠByz":5492,"ĠBad":5493,"Ġlic":5494,"ĠOlympic":5495,"Ġrise":5496,"Ġgraph":5497,"Ġbelong":5498,"Ġegg":5499,"Ġrated":5500,"Ġdefined":5501,"ĠRadio":5502,"Ġsubmar":5503,"ilton":5504,"ĠGrant":5505,"ĠBrook":5506,"ĠEmperor":5507,"Ġtrains":5508,"Ġselection":5509,"Ġ1965":5510,"ĠKel":5511,"Ġregions":5512,"uzz":5513,"ĠBrian":5514,"Ġstructures":5515,"Ġprotected":5516,"ola":5517,"Ġaid":5518,"ĠByzant":5519,"Ġcalls":5520,"Ġfocused":5521,"ĠConn":5522,"Ġ#":5523,"ĠRailway":5524,"Ġthrow":5525,"Ġreceiving":5526,"Ġmotion":5527,"Ġengaged":5528,"Ġshooting":5529,"Ġtrail":5530,"Ġcomic":5531,"ĠNHL":5532,"Ġopportunity":5533,"och":5534,"Ġpros":5535,"mouth":5536,"hens":5537,"Ġlabor":5538,"Ġadap":5539,"Ġ1975":5540,"Ġcorrespond":5541,"Ġanalysis":5542,"Ġcry":5543,"Ġstrengthen":5544,"ĠPress":5545,"Ġhair":5546,"ĠGulf":5547,"Ġnotable":5548,"ĠMah":5549,"Ġshark":5550,"Ġcitizens":5551,"Ġexperienced":5552,"iration":5553,"Ġlap":5554,"Ġobserv":5555,"Ġconference":5556,"Ġmotor":5557,"Ġsport":5558,"Ġholding":5559,"Ġmountain":5560,"ĠJr":5561,"Ġsoutheast":5562,"usc":5563,"ĠWalter":5564,"ĠGermans":5565,"Ġproviding":5566,"Ġresident":5567,"ĠShak":5568,"ĠOnly":5569,"ĠHollywood":5570,"Ġ59":5571,"Ġeyes":5572,"Ġdry":5573,"ĠMot":5574,"ults":5575,"Ġrapidly":5576,"ĠSummer":5577,"Ġcasualties":5578,"Ġviewed":5579,"ĠSerb":5580,"Ġhired":5581,"Ġvisual":5582,"ĠGib":5583,"Ġ1974":5584,"Ġcharts":5585,"ĠDavis":5586,"ifically":5587,"unior":5588,"ĠBas":5589,"Ġbranch":5590,"Ġtransform":5591,"Ġmerch":5592,"Ġrecognized":5593,"opher":5594,"Ġ1973":5595,"ĠSa":5596,"ĠDemocratic":5597,"ĠSpecial":5598,"Ġscholars":5599,"Ġsites":5600,"Ġvolume":5601,"ĠReview":5602,"Ġreaction":5603,"ĠBarb":5604,"Ġ99":5605,"vention":5606,"Ġgain":5607,"ĠPu":5608,"Ġsteel":5609,"Ġparallel":5610,"zer":5611,"inger":5612,"ĠBetween":5613,"ĠRome":5614,"Ġshared":5615,"Ġconcer":5616,"Ġmut":5617,"ĠWater":5618,"Ġrob":5619,"inth":5620,"ĠInc":5621,"Ġteach":5622,"Ġedge":5623,"Ġpublication":5624,"Ġvac":5625,"ĠCa":5626,"Ġtemperature":5627,"Ġ1976":5628,"essed":5629,"Ġeconomy":5630,"ĠJean":5631,"Ġdigital":5632,"Ġdeveloping":5633,"ĠBor":5634,"Ġmoder":5635,"Ġintersection":5636,"FL":5637,"ĠMu":5638,"Ġprote":5639,"Ġheads":5640,"ĠKir":5641,"Ġcool":5642,"burgh":5643,"standing":5644,"Ġcart":5645,"ĠFall":5646,"sey":5647,"Ġ63":5648,"Ġsecondary":5649,"Ġapproved":5650,"ĠAtt":5651,"Ġsymbol":5652,"Ġchance":5653,"Ġlosses":5654,"friend":5655,"ĠPo":5656,"Ġvon":5657,"Ġwa":5658,"ĠDown":5659,"ĠPrinc":5660,"ĠLady":5661,"ĠTro":5662,"Ġwitness":5663,"Ġprepared":5664,"omew":5665,"ĠBank":5666,"Ġbelief":5667,"Ġsubstant":5668,"oncÃ©":5669,"ĠUN":5670,"Ġ77":5671,"ĠGord":5672,"Ġ73":5673,"ĠLab":5674,"Ġenl":5675,"ĠDaily":5676,"Ġsignificantly":5677,"ĠVar":5678,"ĠProv":5679,"Ġletters":5680,"iful":5681,"ĠKa":5682,"ingly":5683,"ĠWomen":5684,"Ġbands":5685,"Ġsort":5686,"iter":5687,"ĠNap":5688,"Ġrac":5689,"ĠMusl":5690,"rence":5691,"Ġdomestic":5692,"ĠGreg":5693,"ĠPhilipp":5694,"Ġsave":5695,"Ġharm":5696,"Ġunsuccess":5697,"ns":5698,"Ġknew":5699,"Ġinstruct":5700,"iger":5701,"Ġven":5702,"Ġsouthwest":5703,"Ġfranchise":5704,"Ġdescend":5705,"Ġliterature":5706,"Ġmyth":5707,"ĠSyd":5708,"Ġroughly":5709,"Ġgoes":5710,"ĠCommand":5711,"Ġtank":5712,"Ġ250":5713,"Ġpainting":5714,"Ġactress":5715,"ĠBeyoncÃ©":5716,"Ġassault":5717,"unte":5718,"ĠColonel":5719,"ba":5720,"igation":5721,"yer":5722,"awa":5723,"Ġtechnology":5724,"theless":5725,"Ġsurvey":5726,"Ġanything":5727,"Ġcard":5728,"ĠNaz":5729,"Ġprojects":5730,"achus":5731,"Ġpitch":5732,"Ġadvent":5733,"ographic":5734,"asty":5735,"Ġbrothers":5736,"Ġcars":5737,"break":5738,"Ġurban":5739,"Ġadult":5740,"Ġresistance":5741,"Ġmic":5742,"ients":5743,"Ġshape":5744,"Ġexact":5745,"ĠPoint":5746,"Ġsemi":5747,"Ġgameplay":5748,"ĠIndust":5749,"Ġlb":5750,"Ġstoryline":5751,"ĠSupreme":5752,"Ġemployed":5753,"eral":5754,"ĠKentucky":5755,"Ġcore":5756,"Ġhyp":5757,"Ġinjured":5758,"Ġreasons":5759,"ĠNick":5760,"Ġrules":5761,"Ġdaily":5762,"ĠIndepend":5763,"Ġ1946":5764,"Ġagent":5765,"Ġ1981":5766,"ologist":5767,"ĠStation":5768,"vest":5769,"Ġshall":5770,"ĠTen":5771,"iminal":5772,"Ġwatched":5773,"ĠMos":5774,"ulpt":5775,"Ġpopularity":5776,"onder":5777,"gers":5778,"ropri":5779,"amm":5780,"ĠIV":5781,"Ġsand":5782,"Ġisol":5783,"Ġcab":5784,"Ġperhaps":5785,"Ġadding":5786,"Ġdeclined":5787,"box":5788,"Ġcomposition":5789,"Ġrenamed":5790,"Ġign":5791,"Ġfit":5792,"ĠâĪĴ":5793,"ĠSpring":5794,"Ġgetting":5795,"Ġenjoyed":5796,"Ġ67":5797,"Ġcompris":5798,"Ġopinion":5799,"ador":5800,"ĠNorway":5801,"Ġpoem":5802,"Ġshaped":5803,"Ġreputation":5804,"Ġconnected":5805,"Ġ1917":5806,"Ġconverted":5807,"Ġundert":5808,"Ġestate":5809,"Ġmuseum":5810,"osa":5811,"mann":5812,"ĠTheat":5813,"Ġstages":5814,"Ġviews":5815,"ĠMassachus":5816,"Ġdrew":5817,"ĠBase":5818,"ĠOlympics":5819,"ua":5820,"itors":5821,"Ġretire":5822,"inking":5823,"worth":5824,"istan":5825,"ĠMain":5826,"Ġregarding":5827,"Ġlov":5828,"Ġnor":5829,"ĠWhit":5830,"ĠFair":5831,"Ġrend":5832,"ĠMassachusetts":5833,"ceived":5834,"Ġdistingu":5835,"Ã¤":5836,"ĠBern":5837,"ĠRoss":5838,"Ġagricult":5839,"Ġheaded":5840,"Ġallows":5841,"ĠGolden":5842,"ĠSand":5843,"avel":5844,"heim":5845,"Ġalternative":5846,"onym":5847,"Ġcalc":5848,"omic":5849,"Ġjourney":5850,"bound":5851,"ĠDream":5852,"Ġ68":5853,"Ġnick":5854,"Ġmissing":5855,"istol":5856,"Ġdepth":5857,"Ġturning":5858,"Ġcited":5859,"ĠWalk":5860,"Ġincreasingly":5861,"rets":5862,"Ġ82":5863,"ĠOb":5864,"Ġapproached":5865,"Ġsun":5866,"Ġplanning":5867,"Ġ96":5868,"ĠPrem":5869,"Ġresponded":5870,"Ġstadium":5871,"ĠAirport":5872,"ĠMas":5873,"enc":5874,"Ġknowledge":5875,"osl":5876,"Ġoverl":5877,"ĠBall":5878,"Ġ1948":5879,"verse":5880,"Ġexerc":5881,"Ġeasily":5882,"Ġwealth":5883,"Ġ160":5884,"ĠSus":5885,"ĠAbb":5886,"eper":5887,"Ġfashion":5888,"Ġescort":5889,"ipe":5890,"Ġcollected":5891,"Ġsucceeded":5892,"ĠBol":5893,"ĠRon":5894,"Ġintroduction":5895,"ĠAbout":5896,"Ġrebu":5897,"oir":5898,"psons":5899,"Ġsustained":5900,"ĠImp":5901,"Ġequal":5902,"Ġcells":5903,"athan":5904,"Ġexistence":5905,"Ġconstitution":5906,"ules":5907,"ilding":5908,"ignment":5909,"era":5910,"Ġsafety":5911,"ĠCur":5912,"ĠLet":5913,"ĠImperial":5914,"Ġoccas":5915,"Ġauth":5916,"ĠGra":5917,"ĠSimpsons":5918,"Ġtrip":5919,"Ġoperating":5920,"Ġlearned":5921,"Ġ700":5922,"ĠPlan":5923,"Ġtall":5924,"unicip":5925,"Ġmodels":5926,"Ġ1978":5927,"ĠHart":5928,"Ġcarrying":5929,"Ġcolle":5930,"ĠInit":5931,"ĠHan":5932,"Ġpromotion":5933,"ĠVietnam":5934,"Ġyouth":5935,"Ġshowing":5936,"apes":5937,"Ġbaseball":5938,"Ġrhy":5939,"Ġexchange":5940,"Ġburied":5941,"ĠSongs":5942,"Ġ87":5943,"Ġlimit":5944,"Ġrevol":5945,"Ġweakened":5946,"rin":5947,"ĠRun":5948,"mitted":5949,"wise":5950,"han":5951,"ii":5952,"gal":5953,"Ġcredited":5954,"Ġseems":5955,"come":5956,"Ġ1915":5957,"Ġpul":5958,"uration":5959,"Ġhumans":5960,"Ġimprove":5961,"Ġpaint":5962,"ĠCape":5963,"zen":5964,"Ġdepend":5965,"Ġdesigns":5966,"Ġarranged":5967,"Ġflu":5968,"Ġfreeway":5969,"ĠSel":5970,"ĠHa":5971,"ĠShortly":5972,"Ġlandfall":5973,"Ġproducing":5974,"Ġathlet":5975,"Ġimpl":5976,"Ġearliest":5977,"Ġproceed":5978,"Ġ78":5979,"Ġjoint":5980,"ĠOttoman":5981,"iat":5982,"inary":5983,"ĠSydney":5984,"Ġshel":5985,"Ġ69":5986,"Ġlasted":5987,"state":5988,"Ġsettlement":5989,"ĠKen":5990,"Ġnote":5991,"Ġretained":5992,"Ġhydro":5993,"Ġ1977":5994,"rett":5995,"leton":5996,"Ġsculpt":5997,"Ġacres":5998,"ĠPoland":5999,"Ġdescription":6000,"ĠWho":6001,"ĠNaval":6002,"ĠMoore":6003,"eman":6004,"ĠLoc":6005,"Ġflat":6006,"ĠMaryland":6007,"Ġbed":6008,"Ġreserve":6009,"issance":6010,"ĠPict":6011,"Ġton":6012,"ĠMTV":6013,"Ġvan":6014,"Ġlaws":6015,"Ġappoint":6016,"ivered":6017,"Ġassistant":6018,"Ġreplace":6019,"ivalent":6020,"Ġpatrol":6021,"ĠStew":6022,"ĠBal":6023,"Ġgenre":6024,"Ġinstall":6025,"reets":6026,"insula":6027,"Ġprograms":6028,"Ġconsc":6029,"iling":6030,"ads":6031,"Ġplayoff":6032,"ĠAD":6033,"ources":6034,"Ġviolence":6035,"Ġstatement":6036,"Ġcoastal":6037,"Ã¡n":6038,"bell":6039,"Ġhits":6040,"ĠRoy":6041,"Ġentrance":6042,"Ġapplied":6043,"put":6044,"Ġ1963":6045,"Ġcatch":6046,"Ġconsequ":6047,"iform":6048,"Ġ91":6049,"ĠMcG":6050,"Ġvirt":6051,"Ġerr":6052,"ader":6053,"Ġscientific":6054,"otic":6055,"Ġtrust":6056,"Ġaw":6057,"osis":6058,"ĠArts":6059,"Ġneut":6060,"iege":6061,"Ġsynt":6062,"Ġmaintain":6063,"ato":6064,"Ġtick":6065,"Ġdelivered":6066,"ĠRhodes":6067,"Ġbattery":6068,"Ġexclus":6069,"Ġ1916":6070,"Ġsections":6071,"ĠJes":6072,"othes":6073,"Ġcandidate":6074,"Ġindicated":6075,"Ġstopped":6076,"Ġgradually":6077,"math":6078,"ĠJay":6079,"Ġitems":6080,"Ġtowns":6081,"Ġpolitics":6082,"tical":6083,"Ġstream":6084,"eler":6085,"engers":6086,"Ġtact":6087,"Ġdistribution":6088,"Ġsupplies":6089,"Ġfilled":6090,"ĠBowl":6091,"Ġ94":6092,"Ġdetails":6093,"Ġindependence":6094,"Ġty":6095,"Ġbask":6096,"ĠEdu":6097,"apped":6098,"ĠConfeder":6099,"Ġcombination":6100,"Ġselect":6101,"Ġways":6102,"ira":6103,"onia":6104,"eke":6105,"time":6106,"ĠMulder":6107,"oard":6108,"Ġban":6109,"Ġengines":6110,"ĠGordon":6111,"Ġcamera":6112,"Ġparties":6113,"Ġemp":6114,"Ġcinem":6115,"ĠIG":6116,"phoon":6117,"Ġappeal":6118,"ĠStadium":6119,"Ġglass":6120,"ĠRem":6121,"ĠFire":6122,"Ġprisoners":6123,"ushing":6124,"Ġ98":6125,"Ġaware":6126,"ĠPass":6127,"rell":6128,"Ġ1919":6129,"hr":6130,"Ġ1962":6131,"ĠBra":6132,"Ġregister":6133,"Ġcampus":6134,"Ġentitled":6135,"emies":6136,"Ġalle":6137,"Ġsecure":6138,"Ġextremely":6139,"izations":6140,"Ġacts":6141,"iversary":6142,"Ġ81":6143,"Ġwars":6144,"ora":6145,"Ġfinding":6146,"Ġinvestigation":6147,"Ġdecade":6148,"Ġevening":6149,"ĠTheatre":6150,"ĠAri":6151,"Ġonline":6152,"Ġwinner":6153,"ĠBos":6154,"poration":6155,"lee":6156,"Ġ71":6157,"Ġadapted":6158,"eless":6159,"ĠWell":6160,"Ġregiment":6161,"Ġ1938":6162,"Ġbought":6163,"idden":6164,"aka":6165,"ĠStaff":6166,"Ġsurvived":6167,"Ġknots":6168,"inois":6169,"Ġuns":6170,"Ġthreatened":6171,"Ġsomew":6172,"Ġdeaths":6173,"Ġruled":6174,"Ġtal":6175,"Ġwrites":6176,"Ġmessage":6177,"Ġroutes":6178,"Ġstudied":6179,"ella":6180,"Ġrelief":6181,"Ġaddress":6182,"ĠJustice":6183,"Ġproposal":6184,"ashed":6185,"ĠHere":6186,"ĠUnivers":6187,"Ġarc":6188,"ropol":6189,"Ġreligion":6190,"ĠInstead":6191,"Ġconsum":6192,"ĠProf":6193,"Ġdownload":6194,"va":6195,"ender":6196,"Ġfear":6197,"Ġtanks":6198,"ĠConstant":6199,"Ġvoted":6200,"Ġreduce":6201,"Ġspecifically":6202,"ĠBand":6203,"ĠBir":6204,"Ġmales":6205,"icks":6206,"ieval":6207,"ansas":6208,"Ġphase":6209,"Ġcrown":6210,"Ġrevolution":6211,"ĠMemorial":6212,"Ġ89":6213,"Ġspons":6214,"Ġkingdom":6215,"Ġrecalled":6216,"Ġportrayed":6217,"ĠAge":6218,"ĠKim":6219,"Ġduty":6220,"Ġcontroversy":6221,"iro":6222,"Ġfict":6223,"ĠAC":6224,"Ġimplement":6225,"Ã¸":6226,"rec":6227,"ĠJan":6228,"Ġemerg":6229,"Ġsoul":6230,"ighters":6231,"Ġcauses":6232,"Ġeverything":6233,"iques":6234,"Ġstret":6235,"Ġcapable":6236,"Ġbottom":6237,"ctions":6238,"Ġconvin":6239,"ĠBon":6240,"Ġreferences":6241,"ĠTony":6242,"ĠAnth":6243,"ervative":6244,"Ġimportance":6245,"Ġsell":6246,"Ġago":6247,"Ġ1956":6248,"Ġbreeding":6249,"Ġ175":6250,"Ġoffers":6251,"bourne":6252,"Ġcrossed":6253,"Ġarrested":6254,"Ġteacher":6255,"Ġble":6256,"ĠNic":6257,"Ġ130":6258,"ĠSingles":6259,"Ġmeters":6260,"ician":6261,"ĠDirector":6262,"Ġsufficient":6263,"Ġentry":6264,"BN":6265,"ĠCop":6266,"aints":6267,"entially":6268,"senal":6269,"Ġclimb":6270,"Ġadmitted":6271,"ĠCirc":6272,"aked":6273,"Ġopera":6274,"Ġec":6275,"Ġcorner":6276,"Ġnomination":6277,"ĠJane":6278,"ĠAdams":6279,"Ġ88":6280,"Ġowner":6281,"Ġinternal":6282,"chers":6283,"Ġequipped":6284,"ĠKong":6285,"Ġoverse":6286,"Ġproducts":6287,"ĠVill":6288,"Ġinstalled":6289,"Ġconcerns":6290,"acter":6291,"ĠAlan":6292,"ĠDougl":6293,"ĠNel":6294,"anean":6295,"Ġ1936":6296,"Ġstarts":6297,"Ġconvoy":6298,"ĠCritical":6299,"ĠIGN":6300,"ĠÎ":6301,"Ġet":6302,"ĠHamilton":6303,"Ġpreced":6304,"ela":6305,"Ġinvited":6306,"adow":6307,"Ġmort":6308,"Ġconqu":6309,"ĠEngine":6310,"ĠPower":6311,"ructure":6312,"Ġones":6313,"Ġprincipal":6314,"ĠBeach":6315,"Ġremainder":6316,"Ġrecommended":6317,"Ġcrime":6318,"Ġinterested":6319,"ĠJord":6320,"ĠUTC":6321,"ĠMoon":6322,"Ġretreat":6323,"espread":6324,"Ġshut":6325,"Ġ79":6326,"wich":6327,"Ġtell":6328,"Ġactual":6329,"ĠSimon":6330,"lan":6331,"ĠMcK":6332,"ĠMaria":6333,"ĠYour":6334,"Ġautom":6335,"Ġmedal":6336,"ĠPlot":6337,"Ġcharged":6338,"Ġconsisting":6339,"Ġacid":6340,"ĠColl":6341,"ĠKennedy":6342,"Ġapart":6343,"Ġfunds":6344,"Ġstock":6345,"Ġdoor":6346,"Ġpromote":6347,"Ġsolid":6348,"ĠForest":6349,"hat":6350,"Ġunl":6351,"Ġ1961":6352,"Ġobjects":6353,"Ġbor":6354,"ĠVII":6355,"Ġprice":6356,"ĠFA":6357,"Ġconsiderable":6358,"BS":6359,"ĠIndones":6360,"Ġalt":6361,"Ġcomposer":6362,"Ġsnow":6363,"Ġdates":6364,"Ġmilit":6365,"ĠGram":6366,"aug":6367,"Ġvent":6368,"ĠAlf":6369,"ĠAdam":6370,"Ġfly":6371,"ilation":6372,"Ġfemales":6373,"Ġpage":6374,"ĠNBA":6375,"ĠDeath":6376,"ĠVideo":6377,"met":6378,"ĠVe":6379,"erted":6380,"entions":6381,"ĠFound":6382,"Ġ1953":6383,"ĠWWE":6384,"ĠToday":6385,"Ġgrounds":6386,"Ġextension":6387,"Ġduties":6388,"Ġtypical":6389,"ĠNether":6390,"ĠMilitary":6391,"ko":6392,"Ġnest":6393,"Ġsomeone":6394,"Ġintegr":6395,"ĠId":6396,"Ġrural":6397,"ali":6398,"Ġcorrect":6399,"ĠHitler":6400,"ĠCart":6401,"Ġgall":6402,"ĠTransport":6403,"Ġeighth":6404,"ĠSunday":6405,"Ġimages":6406,"ĠProg":6407,"Ġevolution":6408,"Ġdecades":6409,"ĠHoward":6410,"rete":6411,"Ġblow":6412,"ĠEric":6413,"Ġzone":6414,"Ġdriving":6415,"ĠIndiana":6416,"Ġ92":6417,"vements":6418,"ĠProject":6419,"Ġpenal":6420,"Ġhotel":6421,"ĠAst":6422,"Ġidentity":6423,"Ġlane":6424,"Ġsole":6425,"Ġreading":6426,"Ġoccurs":6427,"Ġchallenge":6428,"ĠOk":6429,"osite":6430,"Ġmanner":6431,"Ġremix":6432,"ĠNorwe":6433,"Ġpermanent":6434,"after":6435,"Ġham":6436,"Ġbrigade":6437,"ĠScully":6438,"Ġ93":6439,"Ġaspects":6440,"Ġdated":6441,"ĠFive":6442,"Ġ1947":6443,"Ġskin":6444,"Ġfrag":6445,"bro":6446,"Ġvolcan":6447,"Ġspin":6448,"ĠOd":6449,"Ġnoting":6450,"Ġslowly":6451,"ati":6452,"Ġ1958":6453,"Ġsubs":6454,"ĠLeon":6455,"Ġposted":6456,"Ġarmor":6457,"ĠMarc":6458,"Ġrestaur":6459,"regon":6460,"ĠPortug":6461,"Ġvessels":6462,"ensus":6463,"Ġcolour":6464,"Ġ1910":6465,"Ġspeak":6466,"Ġ84":6467,"hetic":6468,"Ġsupporters":6469,"ĠMountain":6470,"ĠScient":6471,"Ġinvolving":6472,"Ġclean":6473,"Ġentering":6474,"Ġdescribing":6475,"aware":6476,"ĠHou":6477,"wick":6478,"Ġ1957":6479,"ĠCult":6480,"cknow":6481,"oz":6482,"ivals":6483,"Ġenemies":6484,"ĠResearch":6485,"Ġdepartment":6486,"ĠAssembly":6487,"arp":6488,"Ġequivalent":6489,"Ġobtained":6490,"veland":6491,"ĠSav":6492,"Ġ1937":6493,"ĠPear":6494,"ĠScience":6495,"Ġdebate":6496,"Ġaccur":6497,"Ġdress":6498,"ĠConstitution":6499,"Ġclasses":6500,"osaurus":6501,"Ġsettled":6502,"Ġmemorial":6503,"ĠSpace":6504,"Ġoldest":6505,"ĠTurk":6506,"ĠRyan":6507,"ĠGun":6508,"iley":6509,"Ġ110":6510,"ĠGen":6511,"risis":6512,"Ġwidespread":6513,"Ġpurchase":6514,"BI":6515,"Ġaer":6516,"ĠRa":6517,"ĠMagazine":6518,"ĠRose":6519,"Ġbasic":6520,"ĠBry":6521,"Ġsongwrit":6522,"orney":6523,"Ġdecline":6524,"Ġattached":6525,"ĠRolling":6526,"Ġparliament":6527,"Ġincome":6528,"agues":6529,"ĠOregon":6530,"iterr":6531,"Ġfaith":6532,"Ġconcerned":6533,"ĠArgent":6534,"bar":6535,"ĠPit":6536,"Ġdeparture":6537,"heastern":6538,"Ġdin":6539,"Ġaccused":6540,"ĠThroughout":6541,"ĠGill":6542,"Ġformal":6543,"Ġrecognition":6544,"ĠCleveland":6545,"Ġconnection":6546,"Ġdecor":6547,"Ġcertified":6548,"ĠIllinois":6549,"ĠDouglas":6550,"erto":6551,"Ġpup":6552,"ĠLenn":6553,"ĠHug":6554,"Ġdeleg":6555,"Ġderived":6556,"Ġfolk":6557,"Ġdisturb":6558,"Ġouter":6559,"Ġsequel":6560,"hus":6561,"ĠWeekly":6562,"iller":6563,"Ġcommitted":6564,"ĠRele":6565,"cation":6566,"hered":6567,"Ġmode":6568,"Ġassumed":6569,"Ġ1959":6570,"ĠAndy":6571,"Ġhosted":6572,"Ġwearing":6573,"ĠâĢĿ":6574,"Ġacknow":6575,"Ġtele":6576,"Ġswim":6577,"ĠStanley":6578,"Ġreturns":6579,"ĠFamily":6580,"anian":6581,"Ġcharges":6582,"ĠPier":6583,"Ġacclaim":6584,"Ġchampion":6585,"ekend":6586,"Ġsegment":6587,"western":6588,"Ġtemple":6589,"ommod":6590,"ĠThird":6591,"Ġliterary":6592,"Ġvalley":6593,"iterranean":6594,"Ġhip":6595,"ubb":6596,"Ġdenied":6597,"ĠDisc":6598,"ĠNow":6599,"ĠArsenal":6600,"Ġwarm":6601,"Ġterminus":6602,"Ġfoss":6603,"Ġpopulations":6604,"Ġtransition":6605,"ĠRoger":6606,"nic":6607,"Ġfine":6608,"idges":6609,"ĠKevin":6610,"Ġsessions":6611,"ĠTreat":6612,"ĠStand":6613,"ĠRecording":6614,"Ġtorn":6615,"icit":6616,"ĠFeder":6617,"AT":6618,"ĠMediterranean":6619,"ĠFreder":6620,"Ġflo":6621,"ĠBeatles":6622,"agonist":6623,"Ġcong":6624,"ĠIra":6625,"aki":6626,"Ġregional":6627,"Ġthousands":6628,"Ġsupposed":6629,"ĠIv":6630,"Ġ1955":6631,"ĠPhilip":6632,"ĠMedia":6633,"iously":6634,"ĠBruce":6635,"ooth":6636,"reck":6637,"ĠTenn":6638,"ĠâĢľ":6639,"Ġ86":6640,"Ġ1954":6641,"ĠBristol":6642,"ĠISBN":6643,"ĠNorwegian":6644,"alog":6645,"Ġintelligence":6646,"aired":6647,"Ġdowntown":6648,"Ġcanc":6649,"Ġdemand":6650,"Ġshots":6651,"ione":6652,"Ġstrongly":6653,"Ġwickets":6654,"Ġhang":6655,"aret":6656,"Ġcommit":6657,"Ġsailed":6658,"ĠLow":6659,"ĠFederal":6660,"ĠKat":6661,"Ġpassengers":6662,"Ġcirculation":6663,"Ġpossibility":6664,"udden":6665,"Ġgeneration":6666,"hedral":6667,"ÅĤ":6668,"heme":6669,"ĠSky":6670,"Ġfreedom":6671,"Ġcircum":6672,"Ġhill":6673,"Ġanimated":6674,"Ġthirty":6675,"emed":6676,"Ġhope":6677,"Ġfictional":6678,"achel":6679,"Ġansw":6680,"Ġreplacement":6681,"Ġcommanded":6682,"Ġcloud":6683,"fl":6684,"ophy":6685,"Ġbegun":6686,"ĠMexican":6687,"ĠRain":6688,"ĠChannel":6689,"Ġbehavior":6690,"Ġassistance":6691,"oh":6692,"Ġrich":6693,"Ġmissions":6694,"Ġdestruction":6695,"ĠKorea":6696,"Ġminister":6697,"Ġmissed":6698,"ĠÃĹ":6699,"eing":6700,"Ġmoves":6701,"Ġcriminal":6702,"Ġtied":6703,"Ġcrash":6704,"Ġexception":6705,"ĠWithin":6706,"Ġvolunte":6707,"Ġfruit":6708,"ĠBush":6709,"atinum":6710,"rations":6711,"Ġbringing":6712,"Ġcosts":6713,"Ġbrain":6714,"Ġpoly":6715,"Ġintention":6716,"Ġhighlight":6717,"ras":6718,"Ġprotest":6719,"Ġfeeling":6720,"Ġalleged":6721,"ategy":6722,"Ġfinishing":6723,"ĠAdditionally":6724,"Ġrecovered":6725,"Ġspeaking":6726,"Ġunusual":6727,"ker":6728,"ĠColor":6729,"mes":6730,"ĠTar":6731,"Ġdemol":6732,"ĠFame":6733,"Ġserves":6734,"Ġproperties":6735,"Ġstayed":6736,"Ġincorporated":6737,"borne":6738,"ĠMaster":6739,"ĠInt":6740,"Ġattributed":6741,"Ġbreaking":6742,"elsh":6743,"Ġemerged":6744,"Ġsons":6745,"Ġintercept":6746,"Ġopposite":6747,"Ġstrateg":6748,"ĠLisa":6749,"rophy":6750,"Ġ1952":6751,"Ġshop":6752,"organ":6753,"Ġdriven":6754,"Ġtheatre":6755,"ĠWeb":6756,"ĠDig":6757,"ĠRow":6758,"Ġatmosphere":6759,"uro":6760,"ĠAdv":6761,"ĠMorris":6762,"ige":6763,"onto":6764,"Ġchorus":6765,"Ġdipl":6766,"Ġoccasionally":6767,"riers":6768,"othing":6769,"Ġclassic":6770,"ĠRobinson":6771,"Ġready":6772,"Ġcavalry":6773,"Ġestablishment":6774,"ĠNorman":6775,"ĠPhill":6776,"ĠPrior":6777,"ĠConc":6778,"Ġregularly":6779,"oral":6780,"ĠIron":6781,"Ġcourts":6782,"Ġeffectively":6783,"Ġdang":6784,"Ġsurviving":6785,"upt":6786,"Ġdissip":6787,"Ġspok":6788,"Ġvary":6789,"Ġresponsibility":6790,"Ġ1933":6791,"Ġmethods":6792,"wan":6793,"enses":6794,"Ġprey":6795,"iva":6796,"ĠSimilar":6797,"Ġsounds":6798,"ĠTelevision":6799,"olec":6800,"ĠAround":6801,"ĠUnlike":6802,"Ġcompletion":6803,"Ġmaterials":6804,"ĠHawai":6805,"pective":6806,"Ġdream":6807,"Ġshore":6808,"Å¡":6809,"ĠDal":6810,"ĠConstruction":6811,"ĠFI":6812,"ĠTemple":6813,"Ġdivers":6814,"Ġprovince":6815,"Ġclassified":6816,"Ġattracted":6817,"Ġfields":6818,"Ġ176":6819,"Ġdivisions":6820,"Ġwarning":6821,"ĠUSA":6822,"ĠMorgan":6823,"Ġsuperv":6824,"Ġheat":6825,"Ġaccommod":6826,"Ġtom":6827,"Ġpersu":6828,"sole":6829,"Ġ83":6830,"ĠNelson":6831,"Ġentertain":6832,"ĠFrancis":6833,"Ġtechnical":6834,"aza":6835,"ĠPatrick":6836,"Ġinterpret":6837,"weight":6838,"Ġdifferences":6839,"ĠAz":6840,"Ġglobal":6841,"ĠBah":6842,"Ġpassage":6843,"thm":6844,"Ġquant":6845,"Ġcruiser":6846,"ompl":6847,"abled":6848,"ĠPremier":6849,"oslav":6850,"lets":6851,"Ġneither":6852,"Ġ1935":6853,"ĠSweden":6854,"abb":6855,"pet":6856,"Ġaboard":6857,"Ġstood":6858,"ĠFord":6859,"Ġbattleships":6860,"Ġreinforce":6861,"nold":6862,"isms":6863,"Ġclubs":6864,"Ġbasketball":6865,"ĠFinn":6866,"ĠLanc":6867,"Ġassociation":6868,"Ġ1949":6869,"ĠCas":6870,"ja":6871,"Ġrooms":6872,"Ġnone":6873,"Ġratings":6874,"ĠBudd":6875,"Ġ1951":6876,"Ġeleven":6877,"ĠWelsh":6878,"ĠNich":6879,"ĠOw":6880,"Ġmusicians":6881,"ece":6882,"Ġancest":6883,"inton":6884,"ĠNations":6885,"Ġshif":6886,"nings":6887,"Ġdesire":6888,"oyd":6889,"ĠHo":6890,"Ġoutbreak":6891,"Ġcheck":6892,"uty":6893,"ĠAnton":6894,"Ġclassification":6895,"Ġseparated":6896,"Ġseemed":6897,"nce":6898,"Ġclimate":6899,"Ġvotes":6900,"Ġpredecess":6901,"ĠToronto":6902,"Ġrequested":6903,"ĠPur":6904,"teenth":6905,"Ġvehicle":6906,"Ġmedic":6907,"Ġhistorians":6908,"ĠMatthew":6909,"Ġpicture":6910,"umin":6911,"ĠAnne":6912,"Ġmemory":6913,"ĠTechn":6914,"Ġreality":6915,"Ġmovements":6916,"ĠCE":6917,"Ġchemical":6918,"ĠByzantine":6919,"pper":6920,"Ġrose":6921,"ĠProfess":6922,"ewhere":6923,"ĠAllen":6924,"Ġhoped":6925,"isf":6926,"ĠAk":6927,"oli":6928,"ĠNetherlands":6929,"ez":6930,"Ġraise":6931,"Ġdifficulty":6932,"char":6933,"ĠJournal":6934,"Ġrestored":6935,"ĠDer":6936,"ĠMarine":6937,"Ġprogramme":6938,"ĠEvery":6939,"Ġnav":6940,"RA":6941,"omot":6942,"Ġcommunities":6943,"Ġille":6944,"agle":6945,"Ġexpect":6946,"Ġsam":6947,"ĠMit":6948,"Ġremember":6949,"ĠJordan":6950,"Ġmo":6951,"ĠUSS":6952,"Ġflank":6953,"ĠJews":6954,"ĠRaj":6955,"ĠIraq":6956,"ĠBa":6957,"Ġpremiere":6958,"Ġdelayed":6959,"Ġteen":6960,"Ġdiscovery":6961,"ĠDean":6962,"ĠNar":6963,"Ġrelative":6964,"pping":6965,"Ġanniversary":6966,"ĠAgain":6967,"Ġpure":6968,"ĠDog":6969,"burn":6970,"Ġsqu":6971,"Ġgreatly":6972,"Ġinspiration":6973,"Ġinjuries":6974,"ĠHell":6975,"Ġvide":6976,"Ġotherwise":6977,"Ġkid":6978,"ĠPA":6979,"ĠOpen":6980,"ĠDesign":6981,"Ġaccounts":6982,"Ġfunding":6983,"Ġneighbor":6984,"Ġ1900":6985,"ĠJacob":6986,"ĠDE":6987,"Ġfal":6988,"Ġobl":6989,"Ġsurrounded":6990,"ĠBishop":6991,"Ġdepict":6992,"Ġpraise":6993,"Ġmassive":6994,"Ġspoke":6995,"Ġneeds":6996,"Ġpenalty":6997,"ĠPow":6998,"Ġpartner":6999,"Ġclaiming":7000,"Ġtries":7001,"ĠWhe":7002,"Ġbatting":7003,"Ġdens":7004,"Ġsuit":7005,"Ġcrop":7006,"Ġcrosses":7007,"Ġassemb":7008,"Ġweapon":7009,"Ġru":7010,"Ġstrategy":7011,"Ġdie":7012,"CA":7013,"Ġforming":7014,"anny":7015,"ĠEs":7016,"ĠThomp":7017,"ca":7018,"ĠCab":7019,"Ġconsp":7020,"ami":7021,"yard":7022,"Ġinvolvement":7023,"ĠDomin":7024,"osh":7025,"Ġlegend":7026,"Ġwrong":7027,"ĠSax":7028,"Ġstands":7029,"Ġdocumentary":7030,"Ġaccompl":7031,"ĠSports":7032,"Ġfled":7033,"Ġworst":7034,"ĠCroatian":7035,"Ġastron":7036,"ici":7037,"abil":7038,"Ġremn":7039,"gets":7040,"Ġarchitecture":7041,"Ġtemporary":7042,"Ġrecru":7043,"ĠRick":7044,"Ġbombard":7045,"Ġdetermine":7046,"don":7047,"Ġdismissed":7048,"Ġplane":7049,"uble":7050,"Ġgirls":7051,"ĠThompson":7052,"ĠArmen":7053,"uther":7054,"Ġtra":7055,"ĠRussell":7056,"ĠDick":7057,"Ġweekend":7058,"formula":7059,"ĠMarg":7060,"Ġgal":7061,"ester":7062,"Ġinner":7063,"Ġconvinced":7064,"Ġsale":7065,"ĠGlob":7066,"ban":7067,"Ġha":7068,"Ġensure":7069,"going":7070,"Ġcategory":7071,"aire":7072,"real":7073,"Ġhear":7074,"ĠLast":7075,"ĠNFL":7076,"Ġreserv":7077,"ĠCentre":7078,"Ġresources":7079,"Ġadaptation":7080,"Ġsomewhat":7081,"Ġlat":7082,"Ġash":7083,"ĠIslam":7084,"Ġlibrary":7085,"Ġinterests":7086,"Ġcolonial":7087,"Ġsight":7088,"Ġdispl":7089,"Ġimmediate":7090,"Ġstreets":7091,"ĠOak":7092,"vens":7093,"ĠHoly":7094,"Ġshr":7095,"Ġscheme":7096,"inder":7097,"ĠPuerto":7098,"Ġstarred":7099,"ĠHeart":7100,"Ġmedieval":7101,"ĠCarter":7102,"ĠHend":7103,"Ġcommemor":7104,"Ġfalling":7105,"ĠKelly":7106,"Ġcul":7107,"Ġrot":7108,"Ġpresidential":7109,"Ġabsor":7110,"ĠModern":7111,"ĠHop":7112,"oster":7113,"Ġthrone":7114,"ĠCooper":7115,"wealth":7116,"Ġsurviv":7117,"Ġacademic":7118,"body":7119,"ĠTrib":7120,"Ġray":7121,"agre":7122,"Ġappropri":7123,"ĠAlong":7124,"Ġtechniques":7125,"Ġfitted":7126,"Ġraces":7127,"Ġfighter":7128,"Ġmeets":7129,"Ġcarbon":7130,"Ġclassical":7131,"Ġeggs":7132,"ĠFront":7133,"Ġninth":7134,"Ġhal":7135,"Ġscrap":7136,"ĠBrother":7137,"ĠHungarian":7138,"Ġloyal":7139,"onds":7140,"ĠFree":7141,"Ġadults":7142,"Ġow":7143,"ĠNiel":7144,"ĠMars":7145,"ĠNetwork":7146,"Ġbright":7147,"itzer":7148,"Ġsubmarine":7149,"Ġpassenger":7150,"Ġreviewer":7151,"Ġsuperior":7152,"Ġphotograph":7153,"ĠWinter":7154,"Ġori":7155,"Ġinterior":7156,"Ġattacking":7157,"Ġabsence":7158,"Ġlake":7159,"ĠWright":7160,"Ġseeing":7161,"icide":7162,"ĠNC":7163,"Ġ1913":7164,"Ġfavorite":7165,"irt":7166,"Ġrenew":7167,"night":7168,"Ġairport":7169,"ĠThus":7170,"ĠParker":7171,"ĠEle":7172,"Ġelse":7173,"Ġengineer":7174,"Ġpremiered":7175,"ĠSn":7176,"ĠSpe":7177,"Ġsed":7178,"ĠDor":7179,"Ġconvection":7180,"ĠAI":7181,"Ġsynthes":7182,"Ġdeemed":7183,"Ġvisible":7184,"edding":7185,"Ġic":7186,"osure":7187,"ĠBatman":7188,"Ġlanded":7189,"Ġalien":7190,"ĠLabor":7191,"Ġconclusion":7192,"Ġdating":7193,"ĠWy":7194,"ronze":7195,"Ġappearing":7196,"ĠHarris":7197,"Ġ1927":7198,"Ġpartn":7199,"ĠBang":7200,"Ġcharacteristics":7201,"Ġ1926":7202,"Ġoperate":7203,"ses":7204,"Ġafterwards":7205,"Ġromantic":7206,"Ġlies":7207,"ĠGard":7208,"ĠJam":7209,"Ġdub":7210,"Ġleads":7211,"ran":7212,"acent":7213,"Ġelections":7214,"Ġfacility":7215,"ĠLate":7216,"ĠLibrary":7217,"Ġsuffering":7218,"Ġencouraged":7219,"Ġcolony":7220,"asure":7221,"Ġtemperatures":7222,"Ġretirement":7223,"ĠDNA":7224,"Ġrum":7225,"Ġmodified":7226,"Ġ1934":7227,"Ġ1921":7228,"Ġeveryone":7229,"Ġmunicip":7230,"Ġcredit":7231,"ĠMurray":7232,"Ġpainted":7233,"Ġ06":7234,"ĠPak":7235,"Ġholds":7236,"Ġcontroversial":7237,"bec":7238,"Ġlegislation":7239,"ĠEducation":7240,"ossible":7241,"Ġattempting":7242,"ĠCommonwealth":7243,"ivan":7244,"Ġdoct":7245,"Ġbelieves":7246,"ĠNob":7247,"ĠâĤ":7248,"using":7249,"ĠKnight":7250,"urches":7251,"Ġgone":7252,"ĠPolice":7253,"Ġpin":7254,"ĠBerlin":7255,"Ġcontinuing":7256,"Ġdistributed":7257,"Ġdominated":7258,"Ġrescue":7259,"roit":7260,"lyn":7261,"ĠRAAF":7262,"Ġwings":7263,"Ġbattleship":7264,"Ġcode":7265,"Ġsecured":7266,"Ġdepicted":7267,"ĠHouston":7268,"Ġpound":7269,"emet":7270,"ĠCommander":7271,"eor":7272,"ĠSanta":7273,"Ġlooked":7274,"Ġjudge":7275,"Ġauthors":7276,"ixon":7277,"ĠPalace":7278,"ĠGh":7279,"ogen":7280,"Ġanyone":7281,"Ġarchae":7282,"apse":7283,"Ġstandards":7284,"ĠGri":7285,"Ġ1912":7286,"Ġlongest":7287,"ĠSimp":7288,"aser":7289,"Ġunsuccessful":7290,"Ġcancer":7291,"scape":7292,"Ġbuy":7293,"arsh":7294,"Ġmonarch":7295,"Ġhabitat":7296,"ĠAdvent":7297,"Ġgraphics":7298,"Ġchairman":7299,"Ġwins":7300,"ĠTok":7301,"ĠStory":7302,"coming":7303,"Ġtrained":7304,"Ġ900":7305,"Ġbiggest":7306,"Ġrailroad":7307,"ĠHospital":7308,"emetery":7309,"rig":7310,"Ġgrass":7311,"ĠSwedish":7312,"Ġarrangement":7313,"Ġsudden":7314,"encies":7315,"ito":7316,"Ġunion":7317,"rait":7318,"ĠIndians":7319,"Ġmeasures":7320,"Ġneck":7321,"oen":7322,"ultane":7323,"ĠRoberts":7324,"Ġcarrier":7325,"ĠCry":7326,"chang":7327,"ugoslav":7328,"Ġ1932":7329,"ĠSimpson":7330,"Ġfer":7331,"ĠCook":7332,"Ġdeployed":7333,"Ġnickn":7334,"Ġacknowled":7335,"igration":7336,"Ġjump":7337,"anth":7338,"Ġsan":7339,"eenth":7340,"Ġod":7341,"Ġmap":7342,"eline":7343,"apping":7344,"ĠDa":7345,"Ġbelt":7346,"Ġinformed":7347,"Ġrepresenting":7348,"ĠCorporation":7349,"ĠObs":7350,"inals":7351,"ĠGet":7352,"Ġreleases":7353,"ture":7354,"Ġachieve":7355,"ache":7356,"ĠMort":7357,"ĠWarner":7358,"atically":7359,"aska":7360,"uster":7361,"Ġcloser":7362,"Ġgarrison":7363,"Ġgenerated":7364,"Ġformerly":7365,"Ġsees":7366,"oming":7367,"Ġalleg":7368,"ĠJason":7369,"ternal":7370,"tenance":7371,"ĠEy":7372,"book":7373,"Ġhistoric":7374,"á»":7375,"Ġstyles":7376,"Ġtrials":7377,"ĠSocial":7378,"ĠYugoslav":7379,"ĠAnthony":7380,"ĠSilver":7381,"Ġemergency":7382,"Ġgrade":7383,"ĠNBC":7384,"Ġconvention":7385,"Ġgets":7386,"ĠEst":7387,"Ġmoderate":7388,"fare":7389,"Ġinfluential":7390,"Ġbats":7391,"mun":7392,"Ġfestival":7393,"Ġsuccessor":7394,"Ã³n":7395,"Ġsiege":7396,"Ġveter":7397,"Ġquestions":7398,"opes":7399,"Ġassass":7400,"Ġmolec":7401,"ĠRAF":7402,"Ġemotional":7403,"ĠDetroit":7404,"Ġcycle":7405,"ĠCroatia":7406,"Ġowners":7407,"ĠBou":7408,"hire":7409,"ĠYan":7410,"ĠMerc":7411,"ĠUt":7412,"Ġ1929":7413,"Ġinfluences":7414,"Ġnovels":7415,"Ġnarrative":7416,"Ġwooden":7417,"po":7418,"Ġridge":7419,"ĠLyn":7420,"Ġdefended":7421,"ĠTrack":7422,"ĠBure":7423,"Ġapparently":7424,"Ġthin":7425,"olph":7426,"Ġstead":7427,"Ġexcess":7428,"otype":7429,"ĠGaga":7430,"Ġconstant":7431,"Ġvictims":7432,"Ġjournalist":7433,"aws":7434,"ĠAuthor":7435,"Ġ1911":7436,"Ġexperiences":7437,"Ġdiscussed":7438,"Ġchildhood":7439,"agu":7440,"Ġdetail":7441,"ĠBelg":7442,"Ġexecuted":7443,"Ġ08":7444,"Ġalco":7445,"Ġlegs":7446,"Ġveget":7447,"Ġinstruments":7448,"fire":7449,"iography":7450,"noon":7451,"Ġeat":7452,"ĠGilbert":7453,"ĠChamber":7454,"Ġdiplom":7455,"ĠCru":7456,"owa":7457,"Ġpregn":7458,"Ġoffices":7459,"Ġtreated":7460,"Ġenvironmental":7461,"yo":7462,"Ġ140":7463,"ĠPrincess":7464,"Ġconcur":7465,"tic":7466,"Ġenters":7467,"Ġster":7468,"Ġgiant":7469,"Ġmathem":7470,"Ġmine":7471,"hess":7472,"ji":7473,"ĠAsian":7474,"ĠSpears":7475,"Ġdepos":7476,"arked":7477,"Ġcoins":7478,"Ġ1931":7479,"Ġ1922":7480,"ĠMelbourne":7481,"Ġfactors":7482,"usted":7483,"achment":7484,"Ġmaint":7485,"ĠClinton":7486,"Ġhunting":7487,"ĠJesus":7488,"ĠVice":7489,"ĠHeavy":7490,"har":7491,"Ġbear":7492,"imore":7493,"Ġhundreds":7494,"ĠSomers":7495,"ĠUlt":7496,"ĠNielsen":7497,"ĠDesc":7498,"ĠPope":7499,"Ġresigned":7500,"ĠEvans":7501,"ĠHin":7502,"Ġuniform":7503,"Ġreveals":7504,"Ġride":7505,"Ġgay":7506,"Ġ09":7507,"Ġchannel":7508,"Ġocean":7509,"ĠNevertheless":7510,"aste":7511,"Ġprevented":7512,"Ġskills":7513,"Ġenh":7514,"Ġpointed":7515,"ĠXbox":7516,"Ġwatching":7517,"Ġpushed":7518,"Ġbab":7519,"stances":7520,"iliar":7521,"ĠCategory":7522,"Ġchapter":7523,"ĠTa":7524,"Ġspend":7525,"Ġclim":7526,"Ġdrums":7527,"Ġfacing":7528,"ĠGuy":7529,"Ġopponents":7530,"Ġhappened":7531,"Ġpreferred":7532,"ĠLi":7533,"Ġfootage":7534,"ĠStewart":7535,"Ġflew":7536,"Ġdifference":7537,"Ġreportedly":7538,"Ġformally":7539,"ĠMuslim":7540,"rees":7541,"Ġfiring":7542,"Ġformat":7543,"ĠAtlant":7544,"Ġpoetry":7545,"Ġintense":7546,"Ġlanguages":7547,"Ġinhabit":7548,"ĠPC":7549,"Ġthereafter":7550,"ĠTower":7551,"ĠOrigin":7552,"Ġlocomot":7553,"Ġhanded":7554,"Ġthousand":7555,"ĠTurkish":7556,"ogether":7557,"Ġresign":7558,"Ġrelationships":7559,"ĠExpress":7560,"ĠWing":7561,"Ġnotably":7562,"ĠEdd":7563,"text":7564,"ĠLev":7565,"ĠAustria":7566,"ĠSamuel":7567,"Ġdevice":7568,"Ġvisitors":7569,"Ġpull":7570,"ĠCarib":7571,"Ġgather":7572,"ĠSarah":7573,"icians":7574,"Ġexposed":7575,"Ġanimation":7576,"ĠLennon":7577,"Ġexisted":7578,"PA":7579,"Ġvision":7580,"Ġemployees":7581,"ĠColorado":7582,"Ġchain":7583,"ĠGreece":7584,"Ġsurrender":7585,"Ġhearing":7586,"ĠQueens":7587,"tty":7588,"Ġbon":7589,"Ġdeparted":7590,"Ġaccompany":7591,"Ã±":7592,"una":7593,"ĠAlbums":7594,"ĠReal":7595,"Ġparticipate":7596,"Ġlinked":7597,"Ġfil":7598,"Ġboil":7599,"orous":7600,"ĠBaltimore":7601,"ching":7602,"Ġrebell":7603,"onies":7604,"ĠTal":7605,"Ġdialogue":7606,"20":7607,"Ġextent":7608,"ĠMalays":7609,"Ġresidential":7610,"uv":7611,"Ġcruisers":7612,"Ġafternoon":7613,"Ġannounce":7614,"Ġlearning":7615,"Ġsubstantial":7616,"usic":7617,"Ġinstance":7618,"Ġdetailed":7619,"ĠBird":7620,"ĠBenn":7621,"Ġ170":7622,"Ġimpressed":7623,"Ġaudio":7624,"bean":7625,"ullivan":7626,"ĠOrgan":7627,"ĠWriting":7628,"spec":7629,"Ġbes":7630,"resent":7631,"Ġbeach":7632,"ropolitan":7633,"ĠLane":7634,"orage":7635,"Ġuniverse":7636,"IA":7637,"Ġutil":7638,"ĠInitially":7639,"rum":7640,"Ġstem":7641,"ĠRaw":7642,"Ġperiods":7643,"Ġeasy":7644,"ĠHans":7645,"ĠRey":7646,"endment":7647,"ĠFoundation":7648,"Ġhuge":7649,"ĠMarshall":7650,"ĠWrestling":7651,"prise":7652,"hatt":7653,"Ġpublisher":7654,"uts":7655,"Ġplate":7656,"raph":7657,"ĠDave":7658,"iens":7659,"Ġenthus":7660,"Ġtaught":7661,"Ġimprison":7662,"Ġterritories":7663,"Ġ05":7664,"ois":7665,"Ġteeth":7666,"Ġreviewers":7667,"ĠStock":7668,"Ġdriver":7669,"ĠFrederick":7670,"Ġtesting":7671,"Ġvideos":7672,"stic":7673,"Ġtempor":7674,"Ġisolated":7675,"Ġhappy":7676,"ĠChronic":7677,"Ġ1928":7678,"Ġvessel":7679,"lie":7680,"ĠArk":7681,"rant":7682,"ĠAud":7683,"Ġvul":7684,"ribed":7685,"iami":7686,"DS":7687,"ĠHaving":7688,"Ġstable":7689,"Ġtests":7690,"Ġdiameter":7691,"boy":7692,"Ġfeud":7693,"Ġbridges":7694,"Ġunderstand":7695,"Ġske":7696,"Ġhat":7697,"Ġsky":7698,"Ġpicked":7699,"Ġencountered":7700,"Ġupgraded":7701,"Ġupd":7702,"phy":7703,"Ġwithdrew":7704,"Ġnegotiations":7705,"itter":7706,"unes":7707,"ĠHorn":7708,"Ġagents":7709,"ĠBanks":7710,"Ġmart":7711,"icop":7712,"Ġreprodu":7713,"ĠErn":7714,"mad":7715,"Ġinher":7716,"Ġgoods":7717,"ĠHorse":7718,"ĠMario":7719,"ĠSomerset":7720,"Ġx":7721,"ĠLim":7722,"ĠRelease":7723,"Ġconsol":7724,"ĠCz":7725,"ĠBed":7726,"Ġsympt":7727,"ĠAnna":7728,"Ġ1925":7729,"Ġdangerous":7730,"Ġaged":7731,"Ġfactor":7732,"Ġteamm":7733,"Ġlob":7734,"elle":7735,"Ġsimultane":7736,"ĠSym":7737,"Ġ1890":7738,"Ġsleep":7739,"ĠMun":7740,"Ġfounder":7741,"Ġdiagn":7742,"Ġnormally":7743,"raf":7744,"Ġjunior":7745,"Ġsatell":7746,"Ġkeeping":7747,"ogan":7748,"ĠAnglo":7749,"ĠMississ":7750,"Ġspecimens":7751,"Ġpartly":7752,"Ġrelie":7753,"Ġcollaps":7754,"ĠMiami":7755,"Ġbehavi":7756,"ĠGiants":7757,"ican":7758,"Ġreun":7759,"ĠJess":7760,"Ġsure":7761,"roke":7762,"Ġmedium":7763,"Ġwindow":7764,"ĠKnow":7765,"Ġtechnique":7766,"Ġcrisis":7767,"ds":7768,"orial":7769,"Ġethnic":7770,"Ġfrequent":7771,"Ġpounds":7772,"oto":7773,"Ġlowest":7774,"ologists":7775,"ĠPlayer":7776,"ĠSeattle":7777,"Ġorganizations":7778,"Ġtie":7779,"Ġprohib":7780,"Ġ1924":7781,"Ġengineering":7782,"Ġturrets":7783,"etime":7784,"Ġapprec":7785,"Ġtraveled":7786,"Ġwhereas":7787,"ĠSoon":7788,"Ġrefers":7789,"ĠChampionships":7790,"Ġtoll":7791,"Ġrarely":7792,"Ġdeter":7793,"Ġresear":7794,"Ġmonument":7795,"Ġdesigner":7796,"Ġtone":7797,"ĠOt":7798,"sea":7799,"Ġoutf":7800,"ĠTreaty":7801,"Ġproced":7802,"mission":7803,"Ġlose":7804,"ĠAlab":7805,"Ġmaintenance":7806,"amese":7807,"Ġinsc":7808,"Ġdoesn":7809,"Ġdiet":7810,"Ġvic":7811,"Ġpartially":7812,"Ġpermission":7813,"Ġmir":7814,"ĠIowa":7815,"Ġvice":7816,"Ġunderw":7817,"Ġspending":7818,"Ġadvice":7819,"ĠTs":7820,"Ġverse":7821,"usal":7822,"Ġcriticised":7823,"ĠAlabama":7824,"igen":7825,"Ġbypass":7826,"ĠForces":7827,"ĠAustralians":7828,"Ġdifficulties":7829,"Ġplatinum":7830,"Ġfinale":7831,"alo":7832,"Ġcomplic":7833,"Ġagree":7834,"Ġca":7835,"Ġuncertain":7836,"borough":7837,"Ġpolicies":7838,"otes":7839,"Ġrestric":7840,"ĠTrek":7841,"ĠHuman":7842,"lock":7843,"Ġcompete":7844,"ĠNapole":7845,"iy":7846,"ĠBuck":7847,"Ġfinals":7848,"Ġranking":7849,"Ġindicate":7850,"Ġfur":7851,"Ġmainstream":7852,"Ġrefuge":7853,"iece":7854,"Ġexcell":7855,"Ġpitched":7856,"Ġax":7857,"ila":7858,"ennis":7859,"Ġpersonality":7860,"zy":7861,"olas":7862,"Ġproport":7863,"Ġcomments":7864,"Ġconcerts":7865,"Ġrecordings":7866,"Ġanticip":7867,"kes":7868,"inction":7869,"Ġremove":7870,"ĠCharlie":7871,"ĠCaribbean":7872,"MA":7873,"urance":7874,"helm":7875,"uscript":7876,"Ġliqu":7877,"oked":7878,"Ġcovers":7879,"Ġwindows":7880,"attered":7881,"ĠML":7882,"ĠLawrence":7883,"Ġshear":7884,"Ġchronic":7885,"Ġunn":7886,"ĠMinnes":7887,"ygen":7888,"Ġsafe":7889,"Ġ1923":7890,"Ġfalls":7891,"ilst":7892,"Ġrepair":7893,"Ġseats":7894,"Ġforcing":7895,"gery":7896,"Ġrepresentative":7897,"Ġhonour":7898,"igs":7899,"Ġextreme":7900,"Ġstrip":7901,"Ġfighters":7902,"ĠThen":7903,"Ġrecommend":7904,"Ġhull":7905,"Ġsymp":7906,"Ġrestrict":7907,"ĠCanal":7908,"Ġrates":7909,"ĠYanke":7910,"ĠExt":7911,"Ġrecur":7912,"Ġprompted":7913,"aria":7914,"Ġdestroyers":7915,"ĠTownship":7916,"Ġtenth":7917,"ĠBuff":7918,"Ġdivor":7919,"ĠCrown":7920,"Ġmoral":7921,"xual":7922,"Ġalter":7923,"ĠSenator":7924,"Ġdynasty":7925,"ĠSab":7926,"Ġtruth":7927,"away":7928,"Ġdescribe":7929,"Ġmamm":7930,"Ġjur":7931,"ĠBros":7932,"Ġphr":7933,"Ġexamples":7934,"Ġminimum":7935,"FC":7936,"Ġphen":7937,"Ġbrand":7938,"Ġbases":7939,"anz":7940,"ĠMinistry":7941,"ĠNazi":7942,"Ġtot":7943,"Ġtravelled":7944,"Ġreconst":7945,"Ġhockey":7946,"ĠIan":7947,"Ġchurches":7948,"Ġfriendly":7949,"ĠGarden":7950,"roc":7951,"ĠGrammy":7952,"power":7953,"chell":7954,"ĠHungary":7955,"Ġneighborhood":7956,"ĠCR":7957,"Ġdiff":7958,"ĠCre":7959,"Ġboys":7960,"Ġbombers":7961,"ĠCall":7962,"Ġdrawing":7963,"Ġovers":7964,"alions":7965,"Ġtub":7966,"ĠCountry":7967,"ĠChristopher":7968,"iac":7969,"imeter":7970,"aya":7971,"ĠHealth":7972,"isd":7973,"Ġpric":7974,"ĠReturn":7975,"ĠHand":7976,"Ġdoctor":7977,"Ġhousing":7978,"Ġdisplayed":7979,"ugby":7980,"Ġ07":7981,"ĠUSD":7982,"Ġtribute":7983,"Ġadjacent":7984,"ĠBelgium":7985,"Ġapproval":7986,"onnaissance":7987,"ĠBenj":7988,"Ġinaug":7989,"ĠMcD":7990,"Ġcollapse":7991,"ĠBlood":7992,"Ġcredits":7993,"ĠDance":7994,"Ġjoining":7995,"Ġlisting":7996,"icy":7997,"Ġcreator":7998,"anium":7999,"Ġgrown":8000,"Ġdesignation":8001,"ĠDiego":8002,"Ġpartnership":8003,"gro":8004,"ĠHamp":8005,"ĠPolit":8006,"gas":8007,"Ġadvis":8008,"Ġprotagonist":8009,"ĠEvent":8010,"Ġstorms":8011,"Ġmoments":8012,"Ġrefere":8013,"rain":8014,"Ġacted":8015,"Ġexplo":8016,"ĠShakesp":8017,"Ġcreative":8018,"olis":8019,"Ġchanging":8020,"Ġpowered":8021,"Ġarts":8022,"ĠMedal":8023,"Ġasks":8024,"Ġ*":8025,"Ġturb":8026,"Ġcopy":8027,"Ġfung":8028,"ĠChildren":8029,"Ġrounds":8030,"ĠMP":8031,"Ġradar":8032,"Ġvictories":8033,"ĠCold":8034,"Ġdollars":8035,"Ġpaintings":8036,"jo":8037,"ĠMuch":8038,"Ġpossession":8039,"Ġtrend":8040,"Ġtreaty":8041,"Ġappointment":8042,"Ġorb":8043,"Ġ1908":8044,"Ġels":8045,"Ġwheel":8046,"Ġcovering":8047,"Ġvillages":8048,"Ġelsewhere":8049,"Ġinstrumental":8050,"ls":8051,"Ġ1905":8052,"ĠRepresent":8053,"Ġsurvive":8054,"Ġju":8055,"Ġeliminated":8056,"Ġtruck":8057,"velt":8058,"Ġminimal":8059,"ĠLegacy":8060,"ounced":8061,"Ġcanal":8062,"Ġsurprise":8063,"ĠMach":8064,"Ġscientists":8065,"ĠBenjamin":8066,"col":8067,"ĠHud":8068,"ĠRoc":8069,"Ġmand":8070,"ĠGuardian":8071,"Ġtelling":8072,"Ġinnov":8073,"ĠNat":8074,"Ġ1909":8075,"ĠOp":8076,"Ġseeking":8077,"ĠMinnesota":8078,"Ġpool":8079,"Ġprecip":8080,"Ġorbit":8081,"ĠRecord":8082,"Ġoccupation":8083,"ĠRoose":8084,"ĠMississipp":8085,"icts":8086,"ĠKurt":8087,"Ġarriving":8088,"ĠCred":8089,"Ġnewspapers":8090,"ĠMichel":8091,"Ġsuicide":8092,"Ġhelping":8093,"ĠVietnamese":8094,"Ġemperor":8095,"ĠHills":8096,"Ġbenefit":8097,"mers":8098,"Ġloan":8099,"Ġpurposes":8100,"Ġrhythm":8101,"ivated":8102,"ĠHockey":8103,"Ġtwin":8104,"Ġvalues":8105,"Ġsmooth":8106,"Ġoccasions":8107,"ĠInterstate":8108,"ĠRand":8109,"ĠKhan":8110,"ĠAlfred":8111,"ĠBeck":8112,"ĠLaure":8113,"Ġunlike":8114,"Ġgrav":8115,"Ġdispute":8116,"ĠDC":8117,"Ġbrick":8118,"otten":8119,"ĠDead":8120,"bra":8121,"Ġfishing":8122,"ods":8123,"uda":8124,"rupted":8125,"Ġoption":8126,"Ġped":8127,"Ġdegrees":8128,"ecraft":8129,"Ġgard":8130,"ĠDur":8131,"ĠManhatt":8132,"ogy":8133,"ĠLin":8134,"ĠStevens":8135,"ĠAdminist":8136,"ĠManhattan":8137,"itud":8138,"ĠÃĨ":8139,"ĠWalker":8140,"Ġmurd":8141,"Ġmarry":8142,"Ġmanuscript":8143,"forced":8144,"Ġschedule":8145,"Ġstruggle":8146,"ĠLl":8147,"active":8148,"Ġsoil":8149,"Ġbalance":8150,"ES":8151,"idi":8152,"Ġpreserved":8153,"chen":8154,"ĠPeninsula":8155,"ouri":8156,"Ġgat":8157,"ĠFranklin":8158,"Ġwet":8159,"rim":8160,"Ġresumed":8161,"ĠRoosevelt":8162,"sters":8163,"ĠFlight":8164,"ĠPerform":8165,"iders":8166,"ĠKansas":8167,"Ġsurvivors":8168,"Ġpublicly":8169,"Ġcompeted":8170,"rows":8171,"ographical":8172,"atus":8173,"Ġ1907":8174,"ĠHind":8175,"atherine":8176,"munition":8177,"Ġ125":8178,"Ġviolent":8179,"rad":8180,"ĠTrust":8181,"Ġhelicop":8182,"Ġcateg":8183,"ĠAh":8184,"ĠHu":8185,"Ġ105":8186,"Ã©e":8187,"Ġintensified":8188,"Ġcandidates":8189,"enh":8190,"ĠHong":8191,"ĠLam":8192,"Ġcooper":8193,"Ġprocl":8194,"Ġ164":8195,"entional":8196,"Ġpilots":8197,"Ġcryst":8198,"Ar":8199,"Ġspan":8200,"Ġimpossible":8201,"Ġwrest":8202,"Ġflash":8203,"ĠPortland":8204,"Ġwedding":8205,"Ġneighbour":8206,"ĠIndustry":8207,"eu":8208,"Ġdies":8209,"Ġneutral":8210,"Ġabilities":8211,"ĠComb":8212,"Ġdiscip":8213,"Ġalignment":8214,"ĠShel":8215,"Ġbeautiful":8216,"Ġassisted":8217,"Ġconcrete":8218,"ĠPhilippines":8219,"Ġcoordin":8220,"overs":8221,"ĠSatur":8222,"roid":8223,"ishment":8224,"utt":8225,"incial":8226,"Ġpoison":8227,"Ġdefeating":8228,"ĠHotel":8229,"30":8230,"Ġmulti":8231,"Ġteaching":8232,"Ġelectronic":8233,"Ġcook":8234,"Ġargument":8235,"Ġnations":8236,"Ġprosp":8237,"ante":8238,"Ġadvoc":8239,"Ġ1880":8240,"ĠBuilding":8241,"ĠSet":8242,"Ġconsult":8243,"Ġbusinesses":8244,"ĠNash":8245,"ĠAnim":8246,"Ġlists":8247,"Ġrivers":8248,"ĠNative":8249,"ĠThor":8250,"Ġserial":8251,"oking":8252,"ĠCole":8253,"Ġcustom":8254,"ĠTun":8255,"acle":8256,"ĠBorn":8257,"Ġgrey":8258,"ĠFal":8259,"Ġsuitable":8260,"ensions":8261,"Ġopponent":8262,"Ġelabor":8263,"rome":8264,"Ġassists":8265,"ĠMississippi":8266,"ĠAff":8267,"Ġagricultural":8268,"ilty":8269,"Ġsimpl":8270,"Ġabsol":8271,"Ġdanc":8272,"Ġencounter":8273,"ĠWard":8274,"Ġsubmitted":8275,"Ġinteresting":8276,"Ġtunnel":8277,"Ġ165":8278,"Ġsigning":8279,"Ġmines":8280,"ĠBull":8281,"Ġfoundation":8282,"Ġlem":8283,"Ġovert":8284,"Ġbacking":8285,"Ġoxygen":8286,"ĠArea":8287,"ĠDiv":8288,"Ġfifteen":8289,"Ġunderstanding":8290,"ĠDigital":8291,"ĠFried":8292,"obile":8293,"ĠIce":8294,"ĠLith":8295,"Ġbehalf":8296,"Ġscholar":8297,"eare":8298,"odore":8299,"Ġsunk":8300,"Ġciting":8301,"rot":8302,"Ġwaves":8303,"itated":8304,"ĠGab":8305,"ĠSullivan":8306,"Ġpercentage":8307,"Ġforests":8308,"Ġammunition":8309,"Ġsymptoms":8310,"ĠBlues":8311,"Ġninet":8312,"ĠBan":8313,"ĠShakespeare":8314,"Ġsank":8315,"ulating":8316,"cop":8317,"Ġsubjects":8318,"ĠTenness":8319,"Ġskull":8320,"Ġsituated":8321,"Ġclosing":8322,"Ġparish":8323,"Ġspiritual":8324,"Ġforty":8325,"ĠAR":8326,"Ġsigns":8327,"ĠAthlet":8328,"Ġimperial":8329,"Ġjunction":8330,"Ġrepairs":8331,"ĠCampbell":8332,"ĠHalo":8333,"ĠSon":8334,"Ġusual":8335,"ĠOffic":8336,"ĠRap":8337,"ĠHindu":8338,"ĠAlexand":8339,"Ġresolution":8340,"Ġvoiced":8341,"Ġ01":8342,"Ġillness":8343,"Ġdeliber":8344,"ctic":8345,"ĠHero":8346,"ĠSteven":8347,"onymous":8348,"Ġ04":8349,"ĠVI":8350,"Ġassess":8351,"Ġfunctions":8352,"Ġaudiences":8353,"Ġattendance":8354,"rix":8355,"rams":8356,"ĠBrun":8357,"Ġasking":8358,"Ġcontroll":8359,"ĠRang":8360,"Ġdisaster":8361,"Ġcorpor":8362,"alities":8363,"Ġnom":8364,"ĠVinc":8365,"ĠEgyptian":8366,"Ġcollaboration":8367,"ĠHistoric":8368,"zz":8369,"ĠRace":8370,"ĠCob":8371,"uman":8372,"Ġsuspended":8373,"Ġfeelings":8374,"ĠLucas":8375,"Ġrestaurant":8376,"Ġlieutenant":8377,"ĠWolf":8378,"Ġunderground":8379,"Ġflights":8380,"Ġmountains":8381,"ĠFriend":8382,"Ġevil":8383,"Ġtargets":8384,"Ġworship":8385,"Ġcargo":8386,"Ġaffairs":8387,"ĠKings":8388,"ĠPle":8389,"Ġ1870":8390,"Ġexit":8391,"ĠDw":8392,"ĠApple":8393,"Ġearthqu":8394,"ĠTennessee":8395,"father":8396,"ĠDod":8397,"Ġwilling":8398,"face":8399,"li":8400,"Ġoperational":8401,"Ġ1906":8402,"ĠLouisiana":8403,"ĠMargaret":8404,"Ġaffair":8405,"ĠWol":8406,"Ġrecre":8407,"ĠWarren":8408,"Ġfuneral":8409,"ĠDepression":8410,"isp":8411,"Ġaimed":8412,"ĠBox":8413,"ĠTag":8414,"Ġcompilation":8415,"Ġ1904":8416,"Ġpoorly":8417,"Ġdocuments":8418,"ĠKu":8419,"ĠPalest":8420,"ĠMontreal":8421,"Ġfiled":8422,"ĠLabour":8423,"Ġabol":8424,"iveness":8425,"Ġmeasured":8426,"ĠMissouri":8427,"uable":8428,"ĠDom":8429,"ĠLad":8430,"Ġpron":8431,"Ġfavorable":8432,"Ġsector":8433,"ĠDest":8434,"Ġanch":8435,"Ġiniti":8436,"Ġregistered":8437,"Ġ360":8438,"Ġadopt":8439,"Ġliked":8440,"Ġrecognised":8441,"Ġelder":8442,"Ġstring":8443,"asters":8444,"ĠProm":8445,"Ġlect":8446,"Ġstatue":8447,"Ġcircuit":8448,"Ġtemporarily":8449,"Ġexplosion":8450,"sex":8451,"Ġshells":8452,"ipped":8453,"Ġrepresents":8454,"ĠHarvey":8455,"Ġprofessor":8456,"ĠCritics":8457,"Ġentertainment":8458,"Ġreplacing":8459,"Ġwreck":8460,"Ġrout":8461,"ĠMitchell":8462,"Ġprol":8463,"amps":8464,"lah":8465,"Ġpy":8466,"ĠMack":8467,"ĠBilly":8468,"Ġsequences":8469,"Ġpreparation":8470,"rator":8471,"inea":8472,"Ġfifty":8473,"aron":8474,"Ġoffering":8475,"ĠMcL":8476,"Ġjazz":8477,"Ġartwork":8478,"Ġinterpre":8479,"ĠCzech":8480,"amic":8481,"Ġresidence":8482,"ĠIndependent":8483,"Ġrestoration":8484,"ateur":8485,"ĠSmall":8486,"Ġdirectors":8487,"Ġmargin":8488,"overe":8489,"Ġwel":8490,"Ġwore":8491,"ception":8492,"ĠGraham":8493,"Ġreluct":8494,"Ġreflected":8495,"ifer":8496,"Ġoverw":8497,"ĠDragon":8498,"Ġterror":8499,"Ġbot":8500,"weet":8501,"Ġprime":8502,"Ġexpensive":8503,"Ġalliance":8504,"Ġsuggesting":8505,"ĠNear":8506,"orders":8507,"species":8508,"ĠNon":8509,"ĠBusiness":8510,"Ġtouring":8511,"Ġthinking":8512,"Ġcompleting":8513,"Ġrebuilt":8514,"Ġalcohol":8515,"Ġcyl":8516,"Ġamongst":8517,"ĠJoh":8518,"ĠKirk":8519,"dale":8520,"Ġbanks":8521,"bishop":8522,"Ġrig":8523,"artney":8524,"Ġnucle":8525,"ĠMes":8526,"issions":8527,"Ġfrig":8528,"ĠFem":8529,"Ġhorror":8530,"inental":8531,"Ġescaped":8532,"Ġpulled":8533,"ĠSeven":8534,"Ġlacked":8535,"Ġcancelled":8536,"ĠUE":8537,"ancell":8538,"Ġarmored":8539,"ĠNag":8540,"ĠEdge":8541,"Ġcoverage":8542,"ĠCuba":8543,"Ġwasn":8544,"Ġracing":8545,"Ġamounts":8546,"Ġclearly":8547,"Ġsubt":8548,"ylan":8549,"atics":8550,"idel":8551,"ĠGrey":8552,"andal":8553,"ques":8554,"Ġdecides":8555,"ĠAriz":8556,"Ġbay":8557,"Ġdimens":8558,"ĠRing":8559,"Ġengagement":8560,"ĠGuide":8561,"SP":8562,"Ġreven":8563,"Ġargues":8564,"Ġpredomin":8565,"Ġtribes":8566,"Ġcolonies":8567,"rm":8568,"Ġerupt":8569,"Ġdramatic":8570,"Ġgarden":8571,"Ġcommunication":8572,"ellect":8573,"agen":8574,"Ġfamiliar":8575,"Ġpatterns":8576,"ĠMagn":8577,"ĠCow":8578,"TA":8579,"uary":8580,"Ġmarks":8581,"ĠSnow":8582,"Ã§":8583,"Ġcous":8584,"phony":8585,"ĠPhoen":8586,"Ġdrove":8587,"overeign":8588,"osm":8589,"ĠIndies":8590,"ĠFiles":8591,"quir":8592,"Ġownership":8593,"ĠÅ":8594,"Ġremnants":8595,"Ġperspective":8596,"ĠVis":8597,"ĠJosh":8598,"ĠMess":8599,"ĠPersian":8600,"ĠTamil":8601,"Ġmerchant":8602,"rage":8603,"Ġsaved":8604,"ĠArizona":8605,"Ġben":8606,"Ġcontributions":8607,"Ġpoems":8608,"Ġbadly":8609,"ĠSaturday":8610,"ĠSony":8611,"ĠMaur":8612,"Ġsolution":8613,"Ġseed":8614,"Ġtru":8615,"Ġfastest":8616,"Ġcod":8617,"Ġadministrative":8618,"Ġfalse":8619,"ĠHem":8620,"urally":8621,"Ġprint":8622,"Ġcrews":8623,"Ġplayoffs":8624,"Ġwicket":8625,"Ġarmament":8626,"Ġrit":8627,"unch":8628,"Ġexecut":8629,"ĠYe":8630,"Ġartistic":8631,"ski":8632,"okes":8633,"ĠMarie":8634,"Ġcharacterized":8635,"Ġmilitia":8636,"ĠDylan":8637,"Ġbulk":8638,"ĠRen":8639,"Ġexcav":8640,"Ġboundary":8641,"Ġseverely":8642,"ieties":8643,"Ġinstitutions":8644,"Ġobv":8645,"eron":8646,"Ġrising":8647,"Ġearning":8648,"Ġtag":8649,"idency":8650,"Ġflagship":8651,"ĠConfederate":8652,"ĠScout":8653,"ĠBureau":8654,"orious":8655,"Ġretail":8656,"Ġdisappoin":8657,"Ġkings":8658,"rep":8659,"Ġdepending":8660,"Ġinhabitants":8661,"Ġ03":8662,"no":8663,"Ġexplains":8664,"Ġdistinctive":8665,"Ġfrust":8666,"Ġdemonstrated":8667,"Ġthrew":8668,"Ġgang":8669,"Ġinland":8670,"Ġnotice":8671,"Ġcomparison":8672,"Ġ115":8673,"Ġgenetic":8674,"Ġbronze":8675,"ĠOklah":8676,"Ġrestricted":8677,"nik":8678,"Ġideal":8679,"Ġranks":8680,"Ġbowling":8681,"Ġdraf":8682,"Ġranging":8683,"orph":8684,"Ġarrive":8685,"Ġcondem":8686,"orer":8687,"cho":8688,"Ġcontext":8689,"Ġrecip":8690,"Ġearn":8691,"Ġcontrols":8692,"Ġfallen":8693,"mented":8694,"ĠAustrian":8695,"storm":8696,"ĠLov":8697,"bl":8698,"Ġsisters":8699,"Ġexplain":8700,"ĠSwitzer":8701,"rating":8702,"ĠKal":8703,"cru":8704,"ĠSin":8705,"ĠCher":8706,"omber":8707,"ĠkW":8708,"Ġwider":8709,"Ġpractices":8710,"uations":8711,"Ġwants":8712,"Ġmaneu":8713,"Ġloop":8714,"Ġelectron":8715,"ectic":8716,"Ġsatisf":8717,"ĠSwitzerland":8718,"Ġquiet":8719,"exp":8720,"ĠMrs":8721,"Ġriders":8722,"Ġconservative":8723,"ĠMurphy":8724,"Ġmental":8725,"Ġ1901":8726,"ĠBroadway":8727,"Ġvulner":8728,"ais":8729,"Ġfaster":8730,"Ġgap":8731,"ivia":8732,"Ġshield":8733,"ĠProgram":8734,"Ġnorthward":8735,"ĠWilhelm":8736,"formation":8737,"Ġdistinguished":8738,"ĠEconom":8739,"Ġevolved":8740,"Ġsurge":8741,"Ġplus":8742,"Ġacceler":8743,"anches":8744,"uki":8745,"Ġpace":8746,"Ġexclud":8747,"Ġexhibition":8748,"Ġspotted":8749,"Ġreaches":8750,"Ġsatellite":8751,"Ġmillimet":8752,"Ġframe":8753,"ĠDelaware":8754,"equ":8755,"Ġautob":8756,"Ġnominations":8757,"sky":8758,"itting":8759,"ĠChand":8760,"Ġ101":8761,"ĠBarry":8762,"Ġprepare":8763,"Ġpalace":8764,"Ġapplication":8765,"unc":8766,"ĠMik":8767,"ĠLiz":8768,"Ġagency":8769,"Ġ174":8770,"ĠOklahoma":8771,"gate":8772,"life":8773,"ĠSuch":8774,"Ġkit":8775,"Ġmeat":8776,"ĠFederation":8777,"Ġsynd":8778,"Ġtriple":8779,"ĠÄ":8780,"ĠABC":8781,"Ġgate":8782,"Ġquarterback":8783,"Ġdominant":8784,"Ġstorage":8785,"ĠEP":8786,"ocking":8787,"Ġhouseholds":8788,"ridge":8789,"acon":8790,"otton":8791,"sequently":8792,"ĠAmy":8793,"Ġarmour":8794,"Ġcarriers":8795,"Ġobtain":8796,"Ġsubspecies":8797,"Ġpredicted":8798,"Ġprotein":8799,"ruption":8800,"athy":8801,"Ġtex":8802,"Ġtyphoon":8803,"inations":8804,"estone":8805,"Ġslaves":8806,"ĠOriginal":8807,"bre":8808,"Ġattained":8809,"Ġ1903":8810,"ĠPed":8811,"Ġblocks":8812,"Ġallies":8813,"Ġbattalions":8814,"Ġprinted":8815,"Ġrepeatedly":8816,"Ġ1902":8817,"Ġpredecessor":8818,"Ġboss":8819,"Ġvs":8820,"oga":8821,"CC":8822,"Ġstores":8823,"Ġspr":8824,"Ġabund":8825,"Ġfixed":8826,"ĠLithu":8827,"Ġpeaking":8828,"Ġvel":8829,"Ġvertical":8830,"Ġsurgery":8831,"ĠRidge":8832,"Ġintellect":8833,"Ġarticles":8834,"Ġyield":8835,"ĠOriginally":8836,"Ġvast":8837,"ĠPerry":8838,"Ġtack":8839,"Ġstrict":8840,"ĠLeslie":8841,"Ġexcellent":8842,"ori":8843,"asts":8844,"Ġ155":8845,"Ġwestward":8846,"Ġphilosophy":8847,"ĠBaseball":8848,"Ġsignal":8849,"Ġbombs":8850,"Ġillegal":8851,"Ġdisagre":8852,"Ġbiographer":8853,"rine":8854,"ĠBaby":8855,"ĠHarv":8856,"rates":8857,"azing":8858,"ĠTokyo":8859,"urer":8860,"anton":8861,"Ġperceived":8862,"Ġremarked":8863,"Ġadventure":8864,"riptions":8865,"Ġwaiting":8866,"Ġcircumstances":8867,"Ġphenomen":8868,"ĠDenmark":8869,"Ġmeetings":8870,"Ġseriously":8871,"Ġchoose":8872,"Ġpretty":8873,"Ġuseful":8874,"agasc":8875,"Ġcomfort":8876,"ĠJonathan":8877,"Ġsurrend":8878,"fe":8879,"Ġcurren":8880,"Ġapartment":8881,"oned":8882,"Ġcivilian":8883,"ĠRico":8884,"Ġreconnaissance":8885,"ĠClar":8886,"Ġthor":8887,"ĠNik":8888,"oven":8889,"ĠPlayers":8890,"aughters":8891,"ĠCampaign":8892,"Ġdrugs":8893,"ĠAtlanta":8894,"Ġcoinc":8895,"Ġtight":8896,"itage":8897,"ĠRih":8898,"eton":8899,"ĠJohnny":8900,"Ġsket":8901,"ĠRihanna":8902,"Ġdollar":8903,"Ġgust":8904,"Ġlayer":8905,"Ġwhilst":8906,"ĠLess":8907,"Ġreaders":8908,"Ġsick":8909,"Ġretain":8910,"ĠTerrit":8911,"pan":8912,"ĠFif":8913,"ibl":8914,"Ġcasting":8915,"Ġphone":8916,"ĠNixon":8917,"Ġsimilarly":8918,"Ġfriendship":8919,"ĠAbbey":8920,"ĠBomb":8921,"Ġvisiting":8922,"Ġstrengthened":8923,"fish":8924,"Ġmatters":8925,"ĠBernard":8926,"Ġbreat":8927,"imen":8928,"apolis":8929,"Ġchamber":8930,"Ġinstitution":8931,"Ġtiss":8932,"ĠMother":8933,"Ġalive":8934,"Ġdemanded":8935,"rose":8936,"ĠEdwards":8937,"Ġplanets":8938,"icate":8939,"ĠRu":8940,"ĠJuan":8941,"Ġsimultaneously":8942,"pha":8943,"Ġlegacy":8944,"Ġenlisted":8945,"vis":8946,"Ġpanel":8947,"Ġalternate":8948,"ĠHann":8949,"rik":8950,"mingham":8951,"ĠRoll":8952,"Ġinsisted":8953,"TW":8954,"abs":8955,"ĠRailroad":8956,"Ġshipping":8957,"Ġ168":8958,"Ġbombing":8959,"ĠArnold":8960,"Ġempt":8961,"Ġlanes":8962,"Ġjustice":8963,"rus":8964,"ĠBh":8965,"ĠPitts":8966,"sk":8967,"Ġrevers":8968,"Ġdemands":8969,"ĠKeith":8970,"onomy":8971,"arth":8972,"ĠDS":8973,"estyle":8974,"Ġpossess":8975,"ĠTel":8976,"Ġrevenue":8977,"Ġmainland":8978,"ĠBrig":8979,"Ġathletes":8980,"arant":8981,"acked":8982,"Ġpromised":8983,"ĠJimmy":8984,"avery":8985,"Ġpunk":8986,"Ġhorn":8987,"ĠPrize":8988,"rast":8989,"erk":8990,"Ġroots":8991,"Ġportions":8992,"Ġhook":8993,"Ġconsole":8994,"Ġstruggled":8995,"adi":8996,"Ġpersonally":8997,"aration":8998,"uma":8999,"Ġguilty":9000,"Ġlooks":9001,"Ġdrivers":9002,"Ġguitarist":9003,"Ġdefinition":9004,"regation":9005,"Ġpione":9006,"entle":9007,"Ġconscious":9008,"ĠCra":9009,"Ġbacked":9010,"Ġdemocr":9011,"Ġorchestra":9012,"ĠRal":9013,"Ġarmies":9014,"ĠMadagasc":9015,"ĠInternet":9016,"Ġaudition":9017,"ĠRachel":9018,"Ġcontinu":9019,"lus":9020,"ĠLex":9021,"ĠTracy":9022,"ĠWor":9023,"Ġpropag":9024,"Ġbehaviour":9025,"Ġsung":9026,"Ġdiver":9027,"ĠChel":9028,"roph":9029,"ĠFurthermore":9030,"Äģ":9031,"Ġjobs":9032,"Ġdemolished":9033,"ĠYankees":9034,"dy":9035,"ĠWag":9036,"Ġartific":9037,"ĠMcM":9038,"Ġstarring":9039,"Ġtheater":9040,"Ġmarketing":9041,"ĠInn":9042,"Ġsubst":9043,"Ġruling":9044,"Ġconspir":9045,"rov":9046,"Ġbelieving":9047,"Ġdancing":9048,"Ġfeels":9049,"ĠBirmingham":9050,"ĠSoul":9051,"ĠHugh":9052,"ĠOpp":9053,"iph":9054,"Ġprofile":9055,"ĠEventually":9056,"ĠAld":9057,"acre":9058,"Ġcounties":9059,"Ġorganisation":9060,"Ġpursue":9061,"inian":9062,"Ġindu":9063,"ghan":9064,"Ġsurpass":9065,"Ġheading":9066,"Ġ02":9067,"azines":9068,"Ġessential":9069,"ĠHur":9070,"Ġrub":9071,"Ġfactory":9072,"Ġbonus":9073,"ĠPil":9074,"ĠPars":9075,"Ġincreases":9076,"ĠMcCartney":9077,"ĠLost":9078,"odox":9079,"Ġcompens":9080,"Ġmining":9081,"lain":9082,"ĠNine":9083,"ĠDefence":9084,"ĠObama":9085,"ĠTit":9086,"ĠRat":9087,"Ġ166":9088,"ĠCanter":9089,"ĠImpact":9090,"Ġdiscovers":9091,"ĠUniversal":9092,"Ġpages":9093,"Ġforecast":9094,"Ġdiscont":9095,"Ġerected":9096,"ĠVik":9097,"Ġclothing":9098,"ĠComple":9099,"Ġdelivery":9100,"ĠShaw":9101,"Ġexpression":9102,"Ġobst":9103,"ĠEnterprise":9104,"Ġsucceed":9105,"Ġelevation":9106,"din":9107,"ĠBobby":9108,"Ġrif":9109,"Ġports":9110,"inding":9111,"Ġaffect":9112,"Ġmobile":9113,"ĠHudson":9114,"ĠPhoenix":9115,"arr":9116,"ĠBaker":9117,"ĠGray":9118,"tery":9119,"Ġsq":9120,"ĠJup":9121,"eland":9122,"Ġsecretary":9123,"Ġmultipl":9124,"ĠTon":9125,"Ġoverseas":9126,"ĠBuddh":9127,"ĠCost":9128,"ĠChen":9129,"Ġengage":9130,"emen":9131,"Ġdoubt":9132,"Ġdefences":9133,"Ġcrest":9134,"Ġpatron":9135,"ĠPearl":9136,"Ġmayor":9137,"Ġhoriz":9138,"ĠWayne":9139,"ĠConnectic":9140,"folk":9141,"Ġdeterior":9142,"ĠMadagascar":9143,"ouver":9144,"Ġ109":9145,"ĠPubl":9146,"Ġacou":9147,"Ġdrink":9148,"ĠBach":9149,"ĠGirls":9150,"ĠConnecticut":9151,"ĠRights":9152,"acc":9153,"Ġaltered":9154,"Ġaccum":9155,"Ġsettlers":9156,"ĠAy":9157,"Ġkiss":9158,"LC":9159,"ĠPeace":9160,"tario":9161,"Ġcup":9162,"ĠFat":9163,"ĠTodd":9164,"Ġstick":9165,"Ġrenov":9166,"ĠMans":9167,"umps":9168,"ĠOntario":9169,"Ġobjective":9170,"Ġchest":9171,"Ġbid":9172,"py":9173,"inces":9174,"ultan":9175,"Ġexpand":9176,"ĠMorrison":9177,"Ġlegislature":9178,"ĠWorks":9179,"Ġbaby":9180,"ĠCanterbury":9181,"cles":9182,"atern":9183,"Ġhighways":9184,"ĠBosn":9185,"Ġstress":9186,"Ġcancel":9187,"irty":9188,"ensively":9189,"Ġlisten":9190,"Ġwrestling":9191,"ĠCommunity":9192,"Ġconversion":9193,"ĠFriday":9194,"shore":9195,"Ġcampaigns":9196,"ĠKarl":9197,"ication":9198,"Ġdisl":9199,"Ġmusician":9200,"Ġorganised":9201,"Ġindicating":9202,"Ġaerial":9203,"ĠRub":9204,"Ġorn":9205,"Ġcompounds":9206,"grad":9207,"Ġraising":9208,"Ġsalt":9209,"otyp":9210,"ĠNAS":9211,"Ġaftermath":9212,"Ġdecisions":9213,"ĠAllies":9214,"Ġsoldier":9215,"ĠLeonard":9216,"ĠStat":9217,"ĠMaj":9218,"Ġraids":9219,"Ġconcentration":9220,"warf":9221,"atropical":9222,"owed":9223,"Ġsitting":9224,"Ġdissipated":9225,"ĠNapoleon":9226,"Ġvoy":9227,"Ġtrouble":9228,"Ġwait":9229,"Ġsolar":9230,"Ġturret":9231,"AC":9232,"Ġhidden":9233,"ĠLang":9234,"ĠBoys":9235,"ĠForeign":9236,"Ġwealthy":9237,"Ġprove":9238,"Ġstriking":9239,"Ġacknowledged":9240,"Ġrealized":9241,"asant":9242,"Ġdressed":9243,"Ġhapp":9244,"Ġscen":9245,"Ġexactly":9246,"Ġappropriate":9247,"Ġliquid":9248,"ĠTNA":9249,"Ġdanger":9250,"ĠManu":9251,"Ġconfron":9252,"Ġimprovements":9253,"Ġpermitted":9254,"tha":9255,"ĠHold":9256,"ĠFel":9257,"annon":9258,"ĠPruss":9259,"Ġradical":9260,"ĠMountains":9261,"Ġchapel":9262,"Ġexecution":9263,"ĠBi":9264,"rawn":9265,"ĠCyr":9266,"ĠSpart":9267,"Ġpublications":9268,"Ġgraduated":9269,"Ġaggressive":9270,"Ġevacuated":9271,"Ġremoval":9272,"Ġparent":9273,"ĠMicro":9274,"ĠWindows":9275,"oons":9276,"aments":9277,"ĠDiam":9278,"Ġfewer":9279,"Ġski":9280,"ĠGoth":9281,"Ġencl":9282,"Ġcelebrated":9283,"Ġinterpretation":9284,"Ġobservations":9285,"Ġvenue":9286,"Ġprofit":9287,"ĠGriff":9288,"Ġbones":9289,"Ġmeter":9290,"Ġinitiated":9291,"Ġtravels":9292,"Ġtheatrical":9293,"ĠOutstanding":9294,"irts":9295,"Ġstationed":9296,"ĠUEFA":9297,"ĠPatt":9298,"ĠGary":9299,"ĠChampion":9300,"bird":9301,"ifies":9302,"pent":9303,"Ġfounding":9304,"oker":9305,"Ġdefending":9306,"uese":9307,"Ġrequires":9308,"Ġrebellion":9309,"inister":9310,"Ġsharp":9311,"elli":9312,"ĠSeason":9313,"Ġpublishing":9314,"ĠTol":9315,"ancouver":9316,"Ġoriginated":9317,"Ġcannon":9318,"agg":9319,"ĠKit":9320,"Ġorigins":9321,"Ġconsidering":9322,"Ġestablishing":9323,"ĠVancouver":9324,"Ġdebt":9325,"Ġextratropical":9326,"Ġjurisd":9327,"ĠJupiter":9328,"itals":9329,"Ġexplan":9330,"aro":9331,"agh":9332,"Ġsteps":9333,"Ġstrategic":9334,"ivation":9335,"Ġ152":9336,"Ġconnect":9337,"Ġyoungest":9338,"EC":9339,"ĠSem":9340,"ĠDall":9341,"ĠLegend":9342,"raction":9343,"Ġapproaching":9344,"Ġtort":9345,"Ġnet":9346,"ulous":9347,"ĠLaur":9348,"Ġsupple":9349,"Ġbrill":9350,"Ġarrangements":9351,"Ġplacing":9352,"Ġshorter":9353,"ĠDrive":9354,"Ġcutting":9355,"Ġannouncement":9356,"da":9357,"Ġfantasy":9358,"Ġguarant":9359,"Ġmagazines":9360,"ĠTriple":9361,"ĠLion":9362,"Ġdonated":9363,"Ġwalking":9364,"Ġlying":9365,"ĠBath":9366,"ĠEdin":9367,"rac":9368,"ĠGate":9369,"Ġconnecting":9370,"Ġhosts":9371,"ĠAdministration":9372,"Ġongoing":9373,"ĠChampions":9374,"autical":9375,"ĠPakistan":9376,"Ġmush":9377,"Ġaspect":9378,"itudes":9379,"mund":9380,"jan":9381,"stan":9382,"adier":9383,"ennium":9384,"ĠMint":9385,"Ġdiscussion":9386,"itively":9387,"Ġedited":9388,"ĠCycl":9389,"Ġtalent":9390,"Ġmagic":9391,"Ġclosest":9392,"ĠPortuguese":9393,"Ġmemor":9394,"Ġinsects":9395,"Ġstrongest":9396,"Ġfunny":9397,"hears":9398,"Ġ1860":9399,"Ġoutl":9400,"Ġdrag":9401,"ĠBradman":9402,"Ġcolleagues":9403,"Ġputting":9404,"Ġtubes":9405,"rous":9406,"Ġqualified":9407,"Ġwithdrawal":9408,"Ġlin":9409,"ecution":9410,"Ġlandscape":9411,"Ġgathered":9412,"Ġpale":9413,"Ġdecide":9414,"Ġbattlecru":9415,"Ġvolumes":9416,"Ġpredict":9417,"Ġhypothes":9418,"ĠStu":9419,"ĠDwight":9420,"Ġforth":9421,"Ġidentify":9422,"Ġangle":9423,"Ġcollapsed":9424,"ĠÃĨthel":9425,"ĠTrophy":9426,"ĠOur":9427,"Ġ173":9428,"Ġrede":9429,"Ġcircle":9430,"Ġindicates":9431,"Ġchallenged":9432,"Ġanth":9433,"ĠJar":9434,"ipper":9435,"Ġmerely":9436,"ĠPotter":9437,"ĠDeb":9438,"adal":9439,"ĠNa":9440,"Ġsupplied":9441,"ĠNCAA":9442,"dess":9443,"Ġmarkets":9444,"Ġswitch":9445,"Ġglac":9446,"Ġ1893":9447,"ĠAlice":9448,"Ġwatershed":9449,"ti":9450,"Ġforg":9451,"ĠType":9452,"Ġgray":9453,"Ġconfront":9454,"ĠCov":9455,"ĠSig":9456,"Ġ104":9457,"Ġcoup":9458,"Ġexposure":9459,"Ġdensity":9460,"ĠSak":9461,"ĠMem":9462,"Ġpartial":9463,"Ġdesert":9464,"ĠIsa":9465,"ĠSi":9466,"Ġspecimen":9467,"Ġcaps":9468,"Ġaffili":9469,"imented":9470,"ĠMarvel":9471,"Ġ111":9472,"ĠReserve":9473,"ĠFleming":9474,"ĠYears":9475,"Ġconventional":9476,"Ġ1896":9477,"Ġbeam":9478,"Ġcub":9479,"Ġlimits":9480,"Ġdubbed":9481,"odge":9482,"ĠMeteor":9483,"Ġbare":9484,"Ġshift":9485,"Ġvisits":9486,"Ġconcentrated":9487,"ĠHampshire":9488,"Ġles":9489,"ĠMission":9490,"Ġmembership":9491,"ĠHonor":9492,"mi":9493,"Ġplain":9494,"Ġfeeding":9495,"igenous":9496,"Ġnavy":9497,"otte":9498,"Ġcorps":9499,"Ġeducational":9500,"ĠOliver":9501,"ĠEdinburgh":9502,"ĠGene":9503,"Ġannually":9504,"Ġhydrogen":9505,"Ġbearing":9506,"ĠThose":9507,"ĠAfghan":9508,"Ġtopped":9509,"ĠShip":9510,"earing":9511,"Ġseized":9512,"Ġassembly":9513,"Ġcreek":9514,"ĠMong":9515,"ĠFlying":9516,"Ġexha":9517,"Ġspac":9518,"Ġprovision":9519,"ĠJoy":9520,"Ġranges":9521,"idal":9522,"Ġtrough":9523,"ĠSomet":9524,"Ġclin":9525,"Ġprize":9526,"Ġattending":9527,"ĠAnc":9528,"cks":9529,"Ġ1898":9530,"join":9531,"ĠCelt":9532,"Ġparody":9533,"Ġemphasis":9534,"ĠLat":9535,"Ġchampions":9536,"ova":9537,"uzzle":9538,"irates":9539,"soft":9540,"Ġduo":9541,"ested":9542,"Ġgrave":9543,"case":9544,"amental":9545,"ĠVictorian":9546,"Äį":9547,"Ġsad":9548,"icle":9549,"ĠCharts":9550,"ĠTob":9551,"Ġoffense":9552,"Ġproductions":9553,"Ġinvestigate":9554,"ĠChes":9555,"ĠNatural":9556,"Ġ127":9557,"ĠAS":9558,"ĠWhere":9559,"agger":9560,"enna":9561,"ĠBegin":9562,"Ġweekly":9563,"Ġlegit":9564,"Ġbasin":9565,"ĠFinally":9566,"Ġtalking":9567,"onium":9568,"Ġcock":9569,"Ġdogs":9570,"Ġexercise":9571,"Ġfurn":9572,"Ġunless":9573,"hyl":9574,"ĠPrincip":9575,"ĠAbd":9576,"Ġanime":9577,"Ġjury":9578,"angle":9579,"ĠDemocrats":9580,"Ġ171":9581,"Ġticket":9582,"anner":9583,"ĠPin":9584,"ĠLib":9585,"ĠMosc":9586,"Ġbone":9587,"Ġpromotional":9588,"Ġflooded":9589,"ĠTurner":9590,"AR":9591,"ĠMaya":9592,"ĠPersonal":9593,"Ġfill":9594,"ĠBeaut":9595,"Ġceased":9596,"pled":9597,"ĠYorkshire":9598,"IS":9599,"assador":9600,"Ġresol":9601,"athers":9602,"Ġfortress":9603,"Ġadvertising":9604,"ĠRalph":9605,"aks":9606,"ĠVi":9607,"Ġemployment":9608,"Ġbacter":9609,"bow":9610,"ika":9611,"ĠLloyd":9612,"ĠBeng":9613,"Ġregime":9614,"ieth":9615,"Ġpersons":9616,"Ġbirthday":9617,"Ġportrayal":9618,"ĠArgentina":9619,"Ġbond":9620,"ĠSay":9621,"idae":9622,"ĠList":9623,"Ġ350":9624,"ugg":9625,"terior":9626,"Ġuncle":9627,"ĠNO":9628,"ĠOverall":9629,"Ġunderwent":9630,"hous":9631,"ĠLen":9632,"Ġattitude":9633,"Ġ172":9634,"hu":9635,"Ġscattered":9636,"Ġoutput":9637,"Ġphotographs":9638,"Ġeval":9639,"Ġconservation":9640,"Ġcruc":9641,"ĠVillage":9642,"Ġhitting":9643,"Ġsending":9644,"ĠLas":9645,"ĠMonte":9646,"ĠChristianity":9647,"roying":9648,"ĠConvention":9649,"Ġassembled":9650,"ĠBrothers":9651,"ported":9652,"rising":9653,"Ġmature":9654,"Ġquestioned":9655,"aders":9656,"otal":9657,"Ġqueen":9658,"Ġguide":9659,"Ġcommentary":9660,"Ġexperimental":9661,"Ġoverwhel":9662,"olly":9663,"Ġ161":9664,"Ġdrinking":9665,"Ġimagery":9666,"Ġsoftware":9667,"Ġbishop":9668,"Ġendors":9669,"Ġ1899":9670,"ĠJerry":9671,"Ġterrain":9672,"angel":9673,"Ġreplied":9674,"Ġtranslation":9675,"ĠChronicle":9676,"aux":9677,"Ġunclear":9678,"ean":9679,"ĠLt":9680,"Ġprovincial":9681,"Ġballad":9682,"Ġexternal":9683,"Ġcoff":9684,"Ġbrig":9685,"Ġlawyer":9686,"ĠBooks":9687,"Ġproclaim":9688,"gie":9689,"iper":9690,"Ġswimming":9691,"onica":9692,"Ġpapers":9693,"phone":9694,"Ġaggreg":9695,"ello":9696,"iffs":9697,"Ġempire":9698,"ĠCraig":9699,"Ġrepresentatives":9700,"Ġcomprom":9701,"Ġlawsu":9702,"Ġthirteen":9703,"ĠCollins":9704,"Ġcousin":9705,"haw":9706,"ashes":9707,"imp":9708,"ĠMarge":9709,"Ġcens":9710,"Ġstreak":9711,"Ġclock":9712,"Ġoutd":9713,"Ġburial":9714,"ĠPink":9715,"ĠQueensland":9716,"Ġcoat":9717,"Ġliberal":9718,"Ãº":9719,"ãĥ":9720,"itis":9721,"Ġpictures":9722,"Ġloved":9723,"oys":9724,"Ġacoustic":9725,"Ġwire":9726,"Ġduration":9727,"ĠFinland":9728,"oa":9729,"ersed":9730,"Ġmovies":9731,"Ġexclusive":9732,"Ġbranches":9733,"Ġslave":9734,"hammad":9735,"Ġdevast":9736,"Ġelectricity":9737,"Ġaccompanying":9738,"ications":9739,"ĠFund":9740,"Ġstronger":9741,"ĠHowe":9742,"Ġsurrendered":9743,"Ġmonaster":9744,"Ġarrives":9745,"Ġdaughters":9746,"Ġexpert":9747,"Ġidentical":9748,"Ġpenet":9749,"Ġreinforcements":9750,"Ġbeats":9751,"Ġtenure":9752,"ĠDeep":9753,"ĠSimilarly":9754,"Ġmac":9755,"ĠApoll":9756,"ĠWii":9757,"atever":9758,"ĠNorfolk":9759,"ĠHardy":9760,"ĠPy":9761,"ĠOm":9762,"Ġsuccession":9763,"Ġreveal":9764,"Ġstere":9765,"Ġmask":9766,"ĠPap":9767,"ĠEug":9768,"Ġreverse":9769,"ĠHeritage":9770,"Ġreducing":9771,"Ġdread":9772,"Ġdestroying":9773,"Ġcomponents":9774,"Ġcharter":9775,"ĠHawaii":9776,"Ġsang":9777,"ensed":9778,"ĠProfessor":9779,"Ġmal":9780,"riors":9781,"Ġtrading":9782,"ĠBoat":9783,"ricts":9784,"Ġ108":9785,"ĠAndre":9786,"ĠBurton":9787,"ĠProtest":9788,"Ġexclusively":9789,"ĠNicholas":9790,"Ġprices":9791,"ĠLock":9792,"ĠJama":9793,"ĠPrim":9794,"ĠBelgian":9795,"ĠServices":9796,"Ġcad":9797,"ĠDub":9798,"ologies":9799,"ĠAx":9800,"ĠMS":9801,"Ġcomponent":9802,"Ġrecall":9803,"Ġfailing":9804,"Ġtip":9805,"Ġscr":9806,"pler":9807,"Ġcompeting":9808,"ĠDonald":9809,"ĠCommunist":9810,"hard":9811,"Ġspaces":9812,"ĠPam":9813,"Ġ169":9814,"Ġmechanical":9815,"Ġgovernments":9816,"Ġ1850":9817,"Ġstops":9818,"ĠProp":9819,"ellation":9820,"place":9821,"Ġprecipitation":9822,"ĠRangers":9823,"ĠCatherine":9824,"abe":9825,"Ġatomic":9826,"ĠBennett":9827,"aja":9828,"Ġflowers":9829,"ĠVincent":9830,"Ġreward":9831,"Ġisot":9832,"esty":9833,"ĠTraining":9834,"Ġslavery":9835,"Ġbanned":9836,"Ġscar":9837,"Ġdevelopers":9838,"igrants":9839,"ĠMedical":9840,"ibilities":9841,"Ġcenters":9842,"Ġtraded":9843,"Ġdevices":9844,"ĠCredits":9845,"ĠCricket":9846,"Ġmini":9847,"ĠDavies":9848,"Ġcontribution":9849,"Ġvaried":9850,"ĠMeg":9851,"Ġmyst":9852,"Ġconsistent":9853,"ĠEmmy":9854,"Ġburned":9855,"ĠTransportation":9856,"Ġpole":9857,"Ġelig":9858,"Ġcounterp":9859,"Ġplatforms":9860,"Ġfossil":9861,"Ġdecay":9862,"Ġconsiders":9863,"Ġredes":9864,"ĠLiberal":9865,"Ġwish":9866,"ĠSign":9867,"Ġarchitectural":9868,"Ġradiation":9869,"Ġartificial":9870,"Ġtube":9871,"Ġintersects":9872,"Ġtalks":9873,"Ġearthquake":9874,"atched":9875,"ĠTan":9876,"ĠSwift":9877,"ĠLocal":9878,"ĠLiving":9879,"Ġpolar":9880,"Ġhumor":9881,"Ġsongwriter":9882,"Ġwaste":9883,"Ġvirus":9884,"OS":9885,"ĠHaz":9886,"Ġobsc":9887,"Ġhybr":9888,"ĠScientology":9889,"ĠThunder":9890,"Ġdisb":9891,"Ġfourteen":9892,"Ġpush":9893,"amas":9894,"Ġproceeded":9895,"ĠKl":9896,"ĠHughes":9897,"Ġboilers":9898,"ĠMalt":9899,"oles":9900,"Ġelectrical":9901,"Ġfrequency":9902,"rastructure":9903,"ĠTrail":9904,"Ġdict":9905,"ĠLook":9906,"ĠYellow":9907,"Ġweigh":9908,"Ġreviewed":9909,"Ġunderstood":9910,"Ġairfield":9911,"Ġdestroyer":9912,"pike":9913,"Ġheir":9914,"Ġadvised":9915,"ĠGuitar":9916,"ĠPrix":9917,"ĠHarvard":9918,"ethel":9919,"Ġ1897":9920,"Ġimprovement":9921,"itarian":9922,"ĠCurt":9923,"ĠKap":9924,"Ġamateur":9925,"Ġhandled":9926,"Ġprofession":9927,"Äĥ":9928,"acles":9929,"ĠRab":9930,"Ġconflic":9931,"ĠMarket":9932,"ĠJun":9933,"ista":9934,"ĠPeters":9935,"ĠDarwin":9936,"Ġtexts":9937,"ĠNext":9938,"Ġinduct":9939,"Ġment":9940,"ĠDram":9941,"Ġ163":9942,"ĠSle":9943,"Ġconceived":9944,"ĠStri":9945,"Ġbath":9946,"ĠGlen":9947,"Ġrequirements":9948,"onald":9949,"ags":9950,"Ġsixteen":9951,"ĠSwiss":9952,"Ġcopper":9953,"Ã¼r":9954,"ĠGallery":9955,"ĠIndonesia":9956,"Ġsamples":9957,"Ġreferring":9958,"ĠBak":9959,"Ġshares":9960,"iciency":9961,"ĠMoscow":9962,"uan":9963,"ĠMand":9964,"ĠDak":9965,"ĠInv":9966,"Ġcharity":9967,"Ġrespective":9968,"Ġtactics":9969,"Ġphrase":9970,"Ġtheore":9971,"ĠHarbor":9972,"Ġinvestment":9973,"ĠJTW":9974,"ĠSaxon":9975,"ĠJTWC":9976,"Ġlie":9977,"ĠCameron":9978,"Ġcleared":9979,"ioc":9980,"ĠâĢ¦":9981,"Ġreduction":9982,"uating":9983,"encing":9984,"Ġecc":9985,"illes":9986,"itely":9987,"ĠKate":9988,"Ġvoting":9989,"Ġparks":9990,"Ġcertainly":9991,"ĠOslo":9992,"OT":9993,"ĠTax":9994,"uras":9995,"Ġpraising":9996,"Ġworn":9997,"olen":9998,"Ġusers":9999,"Ġphotography":10000,"ĠHob":10001,"ulty":10002,"Ġgrossing":10003,"ĠPittsburgh":10004,"Ġpel":10005,"umble":10006,"Ġconnections":10007,"ĠRic":10008,"Ġruler":10009,"Ġflows":10010,"Ġlabour":10011,"Ġexceed":10012,"ĠGeoff":10013,"Ġspoken":10014,"Ġtoured":10015,"etheless":10016,"Ġcommenced":10017,"ĠBlu":10018,"Ġcommanding":10019,"Ġqualifying":10020,"Ġsignature":10021,"Ġautumn":10022,"aft":10023,"Ġtherap":10024,"ĠMust":10025,"ĠKo":10026,"axy":10027,"Ġconstitutional":10028,"erg":10029,"Ġsoph":10030,"strong":10031,"Ġattorney":10032,"Ġcontinuous":10033,"embr":10034,"Ġsurvival":10035,"Ġtonnes":10036,"Ġtransported":10037,"gom":10038,"Ġfold":10039,"ffield":10040,"Ġ106":10041,"enesis":10042,"rehens":10043,"Ġnautical":10044,"ĠPa":10045,"Ġlegislative":10046,"Ġquad":10047,"Ġ167":10048,"ĠTerry":10049,"Ġunlik":10050,"ĠTig":10051,"Ġlock":10052,"Ġconfidence":10053,"Ġshoulder":10054,"ĠDin":10055,"ĠAlaska":10056,"Ġ154":10057,"Ġsweet":10058,"ĠAntonio":10059,"Ġreorgan":10060,"Ġexists":10061,"Ġtaxes":10062,"ĠBroadcast":10063,"eding":10064,"ĠCraw":10065,"Ġpatients":10066,"ĠWallace":10067,"Ġopportunities":10068,"Ġmelody":10069,"Ġenthusi":10070,"Ġstuff":10071,"ĠDyn":10072,"Ġ121":10073,"Ġcommunist":10074,"razy":10075,"Ġnit":10076,"ĠUpper":10077,"Ġrelocated":10078,"Ġcamps":10079,"Ġrocks":10080,"Ġtested":10081,"Ġfisher":10082,"Ġcompetitive":10083,"imm":10084,"Ġrevolt":10085,"Ġrecon":10086,"eping":10087,"Ġblind":10088,"ĠAftermath":10089,"ĠMayor":10090,"hin":10091,"Ġreinforced":10092,"Ġfasc":10093,"ingham":10094,"ĠMason":10095,"ayan":10096,"ĠLem":10097,"Ġdece":10098,"Ġwithdrawn":10099,"ĠMicrosoft":10100,"Ġhem":10101,"porting":10102,"Ġuranium":10103,"Ġfulf":10104,"ĠAli":10105,"ĠSyria":10106,"Ġtranslated":10107,"Ġindeed":10108,"Ġcommanders":10109,"Ġfairly":10110,"Ġrevised":10111,"Ġminority":10112,"Ġexplicit":10113,"Ġtraveling":10114,"Ġpairs":10115,"icated":10116,"ĠHey":10117,"ambers":10118,"ng":10119,"ĠTak":10120,"ĠSweet":10121,"ĠStill":10122,"Ġmanga":10123,"expected":10124,"Ġlad":10125,"Ġunw":10126,"Ġimpression":10127,"bes":10128,"Ġsovereign":10129,"ĠFarm":10130,"avia":10131,"venth":10132,"Ġcartoon":10133,"vant":10134,"ĠFerr":10135,"ĠKane":10136,"cester":10137,"Ġblues":10138,"ĠRichmond":10139,"Ġnoble":10140,"ĠBald":10141,"Ġcrops":10142,"Ġdisplaced":10143,"ĠGor":10144,"avor":10145,"eyer":10146,"Ġprogramming":10147,"ĠSecurity":10148,"Ġextending":10149,"eared":10150,"Ġpromin":10151,"Ġenforce":10152,"ĠGrace":10153,"ĠOfficer":10154,"Ġcompound":10155,"ĠSheffield":10156,"ĠLarry":10157,"onian":10158,"ĠTow":10159,"Ġwarfare":10160,"Ġprinciples":10161,"wa":10162,"ĠFu":10163,"mith":10164,"Ġfram":10165,"Ġdischar":10166,"Ġaccord":10167,"Ġprovinces":10168,"Ġexperiments":10169,"Ġprisoner":10170,"Ġtomb":10171,"Ġvoices":10172,"ĠMalaysia":10173,"Ġcarries":10174,"urricanes":10175,"legraph":10176,"ĠLuke":10177,"ĠIsraeli":10178,"ĠRud":10179,"where":10180,"ĠEmer":10181,"ussion":10182,"Ġextinct":10183,"ĠClassic":10184,"isive":10185,"Ġcharacteristic":10186,"Ġlearns":10187,"ĠDallas":10188,"Ġhole":10189,"ĠMond":10190,"Ġdistant":10191,"ĠGuinea":10192,"Ġ1895":10193,"Ġrepresentation":10194,"Ġmagnitude":10195,"Ġculmin":10196,"Ġinterpreted":10197,"Ġmoon":10198,"ĠStars":10199,"ĠSee":10200,"ĠStef":10201,"Ġuncon":10202,"ĠPictures":10203,"ĠMend":10204,"ĠJefferson":10205,"andom":10206,"ĠThr":10207,"ĠExper":10208,"Ġrivalry":10209,"Ġlights":10210,"ĠTogether":10211,"Ġrelatives":10212,"Ġmarine":10213,"Ġapproaches":10214,"ĠHerald":10215,"Ġsumm":10216,"cott":10217,"Ġsample":10218,"Ġcraft":10219,"Ġabuse":10220,"ĠJohnston":10221,"ĠXI":10222,"Ġwonder":10223,"ĠFBI":10224,"Ġpractical":10225,"Ġcyclones":10226,"ĠBryan":10227,"Ġconce":10228,"ĠClay":10229,"ĠGameS":10230,"ĠOfficial":10231,"Ġnat":10232,"Ġherit":10233,"ĠNi":10234,"Ġshifted":10235,"ĠPerformance":10236,"ĠPhys":10237,"Ġtransportation":10238,"hell":10239,"ĠAM":10240,"ĠSega":10241,"Ġcuts":10242,"ĠClarke":10243,"ĠHD":10244,"ĠRP":10245,"ĠEight":10246,"Ġwarnings":10247,"Ġrestore":10248,"Ġlighting":10249,"Ġdisplays":10250,"ĠCyrus":10251,"Ġnerv":10252,"ĠHalf":10253,"ĠChile":10254,"feld":10255,"ĠAustin":10256,"Ġblocked":10257,"Ġburning":10258,"ĠEff":10259,"Ġvictim":10260,"adesh":10261,"ĠOwen":10262,"Ġid":10263,"Ġrehears":10264,"run":10265,"ĠPS":10266,"aching":10267,"Ġairing":10268,"ĠOrange":10269,"Ġtraditions":10270,"Ġrebels":10271,"Ġpreparing":10272,"Ġproposals":10273,"ĠFalls":10274,"ĠPast":10275,"ĠNav":10276,"Ġmyster":10277,"Ġparticipation":10278,"Ġmedicine":10279,"ĠWells":10280,"ĠGot":10281,"ĠOri":10282,"Ġskill":10283,"ĠDefense":10284,"Ġmarch":10285,"Ġgraduate":10286,"Ġgirlfriend":10287,"Ġsings":10288,"ĠSom":10289,"eto":10290,"Ġscores":10291,"ĠParsons":10292,"Ġmultiplayer":10293,"Ġdistricts":10294,"ĠNeil":10295,"Ġinterviews":10296,"ĠStudio":10297,"Ġjudg":10298,"ĠPic":10299,"ĠWoman":10300,"Ġtrunk":10301,"ĠTai":10302,"Ġthunder":10303,"ĠGreater":10304,"umped":10305,"uez":10306,"merce":10307,"ĠQuest":10308,"Ġabsent":10309,"Ġunlikely":10310,"umph":10311,"Ġprotests":10312,"Ġvaluable":10313,"Ġestimates":10314,"utton":10315,"Ġharbour":10316,"ĠArmstrong":10317,"asa":10318,"ĠRest":10319,"Ġconven":10320,"ĠOsc":10321,"ationally":10322,"Ġriding":10323,"Ġchore":10324,"Ġfilmm":10325,"ĠChelsea":10326,"Ġbrilliant":10327,"Ġwished":10328,"ĠFormation":10329,"Ġmaintaining":10330,"oca":10331,"Ġsalary":10332,"ĠDescription":10333,"Ġsalv":10334,"rooms":10335,"ocity":10336,"ĠBeginning":10337,"ĠZe":10338,"ĠBrazilian":10339,"ĠMix":10340,"oviÄĩ":10341,"Ġintervention":10342,"Ġcourses":10343,"Ġdrummer":10344,"TS":10345,"ĠSpr":10346,"Ġarguing":10347,"Ġrecovery":10348,"ĠFourth":10349,"Ġreforms":10350,"ĠAP":10351,"ĠFisher":10352,"Ġpassion":10353,"ĠOrle":10354,"ĠSteel":10355,"ĠActor":10356,"ĠGreatest":10357,"ĠDanish":10358,"Ġcabinet":10359,"Ġcontend":10360,"ĠMcKin":10361,"Ġpier":10362,"ĠPriv":10363,"Ġaft":10364,"Ġing":10365,"ĠQuebec":10366,"Ġcinema":10367,"Ġrecurring":10368,"Ġbeneath":10369,"Ġpetition":10370,"Ġracial":10371,"ĠAgency":10372,"Ġaccurate":10373,"Ġvulnerable":10374,"Ġfest":10375,"ĠRena":10376,"Ġinfl":10377,"Ġgarn":10378,"Ġgrandfather":10379,"Ġcommunications":10380,"hum":10381,"Ġdecorated":10382,"onge":10383,"Ġupset":10384,"ĠAuthority":10385,"ĠEve":10386,"Ġkills":10387,"Ġsignificance":10388,"ĠDaw":10389,"Ġnumbered":10390,"Ġbull":10391,"Ġeating":10392,"achute":10393,"Ġadvertis":10394,"hl":10395,"Ġpap":10396,"Ġdiverse":10397,"rod":10398,"ĠEc":10399,"Ġweb":10400,"Ġstatistics":10401,"ĠCathedral":10402,"ĠNev":10403,"ĠLiter":10404,"Ġtowers":10405,"ĠRio":10406,"ĠEis":10407,"Ġreleg":10408,"ĠCass":10409,"Ã¶n":10410,"Ġsponsored":10411,"Ġsquadrons":10412,"ĠConstantin":10413,"MI":10414,"ĠCad":10415,"Ġvalid":10416,"ĠSusan":10417,"bal":10418,"rost":10419,"Ġclar":10420,"ĠOrleans":10421,"Ġapplications":10422,"ĠKer":10423,"Ġunexpected":10424,"ĠKaiser":10425,"Ġshallow":10426,"ĠSpirit":10427,"ĠJunior":10428,"Ġclothes":10429,"ĠYam":10430,"Ġefficient":10431,"Ġ1861":10432,"Ġsacrif":10433,"ĠCultural":10434,"Ġtoler":10435,"Ġ102":10436,"Ġairline":10437,"Ġlasting":10438,"ĠGlobe":10439,"Ġconsolid":10440,"nt":10441,"Ġfaces":10442,"ĠUtah":10443,"Ġhind":10444,"umented":10445,"Ġinclusion":10446,"ĠPlant":10447,"ĠHarold":10448,"Ġessentially":10449,"uto":10450,"Ġsteep":10451,"Ġ1889":10452,"Ġsurprised":10453,"osexual":10454,"ĠiP":10455,"ĠSerbian":10456,"Ġtale":10457,"ario":10458,"asm":10459,"eston":10460,"Ġshock":10461,"Ġsummit":10462,"Ġanswer":10463,"ĠFIFA":10464,"ĠLink":10465,"ource":10466,"Ġmood":10467,"ĠCBS":10468,"Ġmate":10469,"Ġdeeply":10470,"lete":10471,"Ġgender":10472,"abilities":10473,"Ġcharted":10474,"Ġpm":10475,"Ġcivilians":10476,"Ġemotion":10477,"Ġliner":10478,"Ġpotentially":10479,"Ġratio":10480,"Ġbeaten":10481,"ĠProvince":10482,"atra":10483,"ocy":10484,"Ġdrafted":10485,"erver":10486,"ĠCS":10487,"Ġmanage":10488,"Ġ1894":10489,"beat":10490,"Ġmorph":10491,"Ġtheories":10492,"Ġinvent":10493,"Ġparas":10494,"Ġsuspic":10495,"Ġfate":10496,"Ġbeauty":10497,"urd":10498,"Ġmerged":10499,"ĠSac":10500,"Ġtrick":10501,"ĠRepublicans":10502,"Ġscreenplay":10503,"ĠMuhammad":10504,"Ġdancers":10505,"utor":10506,"ĠNewton":10507,"Ġ158":10508,"ashi":10509,"ĠStuart":10510,"Ġdense":10511,"Ġsegments":10512,"ĠConstantine":10513,"Ġbeating":10514,"Ġcrimes":10515,"Ġtours":10516,"ĠVers":10517,"levard":10518,"ĠTyler":10519,"aters":10520,"Ġcant":10521,"ĠPad":10522,"Ġprocesses":10523,"Ġjet":10524,"Ġdemo":10525,"Ġsentence":10526,"ATO":10527,"reated":10528,"Ġhills":10529,"landers":10530,"Ġproportion":10531,"atical":10532,"ĠSalt":10533,"ĠHav":10534,"Ġdescent":10535,"Ġswit":10536,"ĠAT":10537,"Ġ1891":10538,"Ġembr":10539,"aze":10540,"Ġimplemented":10541,"Arthur":10542,"Ã©s":10543,"Ġreactions":10544,"ĠBuffalo":10545,"ĠFighter":10546,"ĠMinor":10547,"Ġsculpture":10548,"Ġpersuaded":10549,"Ġheritage":10550,"Ġ1000":10551,"Ġdual":10552,"ĠGay":10553,"ĠKam":10554,"Ġ162":10555,"itious":10556,"keeper":10557,"affe":10558,"Ġfunded":10559,"ĠPicture":10560,"ĠSout":10561,"oded":10562,"ĠEth":10563,"illo":10564,"Ġ113":10565,"ĠPanzer":10566,"Ġsoutheastern":10567,"Ġaccommodate":10568,"ĠProduct":10569,"ĠYouT":10570,"Ġaltitude":10571,"reens":10572,"itate":10573,"onsin":10574,"Ġcolors":10575,"ĠTyphoon":10576,"Ġcolumns":10577,"ĠVel":10578,"aiden":10579,"Ġadminister":10580,"Ġstructural":10581,"ĠCardiff":10582,"ĠApollo":10583,"ĠYouTube":10584,"Ġfollowers":10585,"ĠOrchest":10586,"ĠAmendment":10587,"ucker":10588,"Ġpresentation":10589,"Ġagriculture":10590,"ĠIndonesian":10591,"ĠNS":10592,"ĠVl":10593,"Ġevident":10594,"Ġfeared":10595,"Ġcomplained":10596,"Ġholiday":10597,"Ġaddressed":10598,"Ġrequiring":10599,"Ġsailing":10600,"istent":10601,"Ġgolden":10602,"ĠWisc":10603,"Ġmanip":10604,"Ġtribe":10605,"anche":10606,"Ġ1892":10607,"Ġdevoted":10608,"Ġrejoin":10609,"ĠSug":10610,"Ġâģ":10611,"Ġmerc":10612,"ĠXII":10613,"Ġwine":10614,"ĠScar":10615,"Ġdwarf":10616,"oda":10617,"ocation":10618,"ĠSymphony":10619,"aping":10620,"Ġproof":10621,"Ġoriented":10622,"Ġamph":10623,"Ġobservation":10624,"castle":10625,"Ġinteraction":10626,"Ġfame":10627,"ĠWithout":10628,"Ġbreaks":10629,"aha":10630,"ĠDays":10631,"Ġoperates":10632,"Ġ1800":10633,"ĠRegister":10634,"Ġerror":10635,"Ġnurs":10636,"Ġ156":10637,"Ġconfusion":10638,"ĠConservation":10639,"Ġbell":10640,"enson":10641,"Ġknee":10642,"Ġrecept":10643,"ĠElectric":10644,"Ġjudges":10645,"ĠWisconsin":10646,"car":10647,"ĠFact":10648,"ĠNord":10649,"Ġintermedi":10650,"Ġwritings":10651,"ĠHunter":10652,"heric":10653,"Ġsuddenly":10654,"Ġpregnant":10655,"Ã«":10656,"Ġcards":10657,"ĠSultan":10658,"berry":10659,"ĠUntil":10660,"Ġsuperst":10661,"Ġmythology":10662,"usalem":10663,"Ġvoyage":10664,"Ġpip":10665,"ĠDanny":10666,"Ġextensively":10667,"Ġboot":10668,"Ġquarters":10669,"ĠBrooks":10670,"Ġkidn":10671,"Ġgene":10672,"Ġbears":10673,"ĠKyle":10674,"Ġadvancing":10675,"Ġopens":10676,"Ġjurisdiction":10677,"ĠSox":10678,"ĠCavalry":10679,"Ġcommenting":10680,"ĠBurns":10681,"Ġresearchers":10682,"ĠFull":10683,"ĠGround":10684,"Ġrib":10685,"rific":10686,"ĠEnv":10687,"Ġdiplomatic":10688,"Ġtension":10689,"Ġ135":10690,"ĠâģĦ":10691,"ĠSection":10692,"Ġthrown":10693,"Ġembarked":10694,"Ġoblig":10695,"ĠIslamic":10696,"Ġcategories":10697,"Ġpink":10698,"asha":10699,"ĠJohann":10700,"Ġsized":10701,"ĠHope":10702,"ĠNature":10703,"ĠMetropolitan":10704,"Ġhighlighted":10705,"Ġho":10706,"ĠActress":10707,"je":10708,"ĠRuth":10709,"ĠGw":10710,"ospel":10711,"ĠJerusalem":10712,"mn":10713,"isons":10714,"ĠAttorney":10715,"Ġfert":10716,"ĠCO":10717,"ĠWalt":10718,"Ġvari":10719,"Ġrect":10720,"Ġknocked":10721,"Ġequally":10722,"Ġstatements":10723,"Ġphysics":10724,"ĠIvan":10725,"Ġgaining":10726,"hers":10727,"Ġages":10728,"Ġsimilarities":10729,"Ġchallenges":10730,"minster":10731,"ĠAA":10732,"Ġsentenced":10733,"Ġdrown":10734,"ĠTerr":10735,"Ġassum":10736,"Ġstudying":10737,"Ġinfrastructure":10738,"ĠJustin":10739,"Ġprinciple":10740,"Ġneighb":10741,"boards":10742,"ĠBoeing":10743,"ĠLegisl":10744,"ĠâĤ¹":10745,"eness":10746,"Ġtooth":10747,"amount":10748,"Ġsugar":10749,"owski":10750,"pot":10751,"ĠBible":10752,"ĠTrade":10753,"ĠAirlines":10754,"Ġdisturbance":10755,"ĠSonic":10756,"Ġrivals":10757,"assed":10758,"Ġ153":10759,"ĠExecutive":10760,"Ġlifetime":10761,"ĠSide":10762,"ĠPok":10763,"ĠReich":10764,"ĠEdition":10765,"Ġ240":10766,"Ġgardens":10767,"fr":10768,"Ġmanif":10769,"ĠGrade":10770,"ĠAbu":10771,"Ġ1888":10772,"Ġoverlook":10773,"ĠMontgom":10774,"Ġconstitu":10775,"ĠMontgomery":10776,"sts":10777,"ĠMcN":10778,"Ġtraditionally":10779,"born":10780,"nels":10781,"Ġgift":10782,"Ġjack":10783,"Ġlocally":10784,"Ġrings":10785,"Ġorange":10786,"ĠStart":10787,"othy":10788,"ocket":10789,"Ġvariation":10790,"Ġeducated":10791,"ĠBased":10792,"Ġfee":10793,"Ġdivorce":10794,"anted":10795,"Ġdealing":10796,"Ġwarships":10797,"Ġexplaining":10798,"ĠBarnes":10799,"Ġpredators":10800,"Ġties":10801,"thodox":10802,"Ġboundaries":10803,"Ġresolved":10804,"ĠTurkey":10805,"Ġuniversal":10806,"Ġrecruited":10807,"isfact":10808,"Ġspawn":10809,"ĠSchum":10810,"ĠCemetery":10811,"ĠIndependence":10812,"ancellor":10813,"ye":10814,"ĠWonder":10815,"Ġpriest":10816,"Ġdocumented":10817,"Ġstretch":10818,"Ġenabled":10819,"Ġempty":10820,"ĠBes":10821,"ĠPrest":10822,"ĠCrus":10823,"Ġtape":10824,"Ġreceives":10825,"Ġ1885":10826,"ĠRogers":10827,"Ġmud":10828,"Ġsword":10829,"Ġweakening":10830,"Ġnaming":10831,"ĠMiles":10832,"Ġconsiderably":10833,"Ġsettlements":10834,"enos":10835,"Ġseas":10836,"ometric":10837,"ĠCentury":10838,"lington":10839,"Ġtasked":10840,"Ġrescued":10841,"Ġdiscontin":10842,"olt":10843,"ĠBaron":10844,"Ġtravelling":10845,"Ġhostile":10846,"ĠMacArthur":10847,"Ġcommercially":10848,"Ġgarnered":10849,"pine":10850,"oria":10851,"ĠSean":10852,"Ġinvolves":10853,"ĠTang":10854,"Ġlift":10855,"opp":10856,"ĠScots":10857,"ĠControl":10858,"ulsion":10859,"Ġbenefits":10860,"Ġtickets":10861,"Ġnep":10862,"arks":10863,"Ġhelps":10864,"Ġexplore":10865,"Ġcrashed":10866,"ĠSaturn":10867,"ĠIcel":10868,"Ġsubstitute":10869,"Ġvillain":10870,"ĠPatri":10871,"Ġvolunteers":10872,"Ġashore":10873,"Ġurg":10874,"quest":10875,"ĠAber":10876,"Ġforb":10877,"Ġassert":10878,"ĠChristians":10879,"ĠQuar":10880,"Ġhoused":10881,"Ġpitcher":10882,"Ġoptions":10883,"Ġguy":10884,"Ġinning":10885,"aman":10886,"ando":10887,"Ġsmoke":10888,"Ġescorted":10889,"Ġobvious":10890,"Ġtu":10891,"Ġdepicts":10892,"osaurs":10893,"Ġconcurrent":10894,"ĠMI":10895,"ĠMall":10896,"Ġdisorder":10897,"Ġsupern":10898,"Ã©t":10899,"piece":10900,"Ġdying":10901,"ĠSid":10902,"angular":10903,"ĠLeaf":10904,"ĠIns":10905,"ĠPierre":10906,"Ġdetect":10907,"Ġbatted":10908,"Ġconflicts":10909,"ĠManagement":10910,"Ġcircular":10911,"ĠJudge":10912,"ĠBaltic":10913,"Ġproteins":10914,"ĠAges":10915,"ĠGang":10916,"Ġdoors":10917,"Ġconcerning":10918,"Ġelaborate":10919,"Ġdimin":10920,"unning":10921,"ĠStra":10922,"Ġdinner":10923,"ĠIceland":10924,"Ġdim":10925,"Ġpursued":10926,"Ġpursuit":10927,"aple":10928,"Ġcollections":10929,"Ġimprisoned":10930,"Ġinnoc":10931,"Ġborrow":10932,"iar":10933,"ovak":10934,"ĠThames":10935,"ĠAmb":10936,"master":10937,"Å«":10938,"ĠUm":10939,"Ġauthorized":10940,"ĠBarbara":10941,"Ġteammate":10942,"Ġopposing":10943,"Ġfavourite":10944,"Ġvirtually":10945,"Ġstyl":10946,"Ġverte":10947,"Ġrevival":10948,"Ġflex":10949,"Ġgods":10950,"ĠAgainst":10951,"Ġinhib":10952,"Ġreass":10953,"ĠWes":10954,"ĠFitz":10955,"ĠUnd":10956,"Ġcompetitions":10957,"lights":10958,"Ġeditions":10959,"Ġtempo":10960,"ĠMovie":10961,"Ġnavig":10962,"uters":10963,"Ġfron":10964,"ĠMind":10965,"ĠUC":10966,"ĠSpider":10967,"iko":10968,"Ġportrait":10969,"ĠRomney":10970,"Ġmanufacturing":10971,"ĠHeavyweight":10972,"Ġspar":10973,"ĠAthens":10974,"Ġeventual":10975,"Ġmixture":10976,"ĠTourn":10977,"ĠFight":10978,"cliff":10979,"Ġ1865":10980,"Ġchemistry":10981,"Ġcensus":10982,"agers":10983,"ĠHearts":10984,"Ġpoliticians":10985,"ĠRepresentatives":10986,"Ġvelocity":10987,"ĠPant":10988,"Ġdrain":10989,"Ġrenewed":10990,"Ġhandling":10991,"edia":10992,"ĠBask":10993,"Ġramp":10994,"rien":10995,"ĠRegional":10996,"Ġbeliefs":10997,"Ġstones":10998,"Ġvig":10999,"Ġ112":11000,"ĠZone":11001,"ĠEvil":11002,"ĠSherman":11003,"Ġveteran":11004,"uction":11005,"vet":11006,"Ġurged":11007,"ĠAren":11008,"Ġrushing":11009,"ĠComedy":11010,"ĠStein":11011,"Ġchase":11012,"Ġabroad":11013,"Ġepic":11014,"Ġhandle":11015,"Ġsuspected":11016,"Ġexamination":11017,"Ġuniversities":11018,"iga":11019,"ĠReagan":11020,"Ġ131":11021,"Ġgh":11022,"ĠNancy":11023,"ĠNATO":11024,"ĠToy":11025,"Ġlaps":11026,"ĠCode":11027,"ĠHunt":11028,"ĠWinn":11029,"rift":11030,"Ġunve":11031,"ĠFlore":11032,"ĠTed":11033,"ĠMeth":11034,"ĠInvest":11035,"rene":11036,"Ġcapturing":11037,"backs":11038,"ME":11039,"lon":11040,"Ġpill":11041,"Ġnut":11042,"ĠIl":11043,"ublin":11044,"Ġpromise":11045,"Ġparticipants":11046,"Ġremembered":11047,"Ġcable":11048,"Ġpromoting":11049,"wright":11050,"Ġcattle":11051,"Ġstolen":11052,"Ġspur":11053,"Ġrendered":11054,"ĠBert":11055,"ĠFlow":11056,"ĠRef":11057,"ĠTribune":11058,"Ġconvey":11059,"ĠVic":11060,"ĠBranch":11061,"Ġ145":11062,"Ġmedals":11063,"Ġcongress":11064,"lane":11065,"Ġtrapped":11066,"Ġinterven":11067,"Ġcolours":11068,"ĠFran":11069,"Ġconj":11070,"Ġthereby":11071,"ĠNova":11072,"Ġtracked":11073,"Ġbombardment":11074,"Ġinherited":11075,"ĠFish":11076,"ĠKan":11077,"ĠKrist":11078,"Ġleaf":11079,"rible":11080,"ĠReport":11081,"Ġdecreased":11082,"Ġtrailer":11083,"HS":11084,"Ġapply":11085,"Ġ117":11086,"Ġorganisms":11087,"elta":11088,"izer":11089,"rh":11090,"Ġtaste":11091,"inery":11092,"ĠAny":11093,"ĠHad":11094,"Ġanalog":11095,"seud":11096,"Ġaccidentally":11097,"onation":11098,"ĠFern":11099,"Ġcostume":11100,"Ġsharks":11101,"ĠPortugal":11102,"ĠConstantinople":11103,"isition":11104,"ĠFace":11105,"Ġcomics":11106,"arest":11107,"Ġpositively":11108,"Ġprototype":11109,"ĠErnest":11110,"Ġtissue":11111,"ĠMarines":11112,"Ġinvaded":11113,"Ġ159":11114,"Ã°":11115,"ĠCrow":11116,"Ġvital":11117,"ĠChad":11118,"ĠNewcastle":11119,"Ġinhab":11120,"gow":11121,"Ġtel":11122,"Ġwarned":11123,"ĠPete":11124,"Ġcompositions":11125,"ĠGa":11126,"Ġcelebration":11127,"ĠPersonnel":11128,"Ġoccasional":11129,"Ġjuven":11130,"Ġfra":11131,"ulus":11132,"ĠNas":11133,"ĠBeh":11134,"Ġprox":11135,"Ġmetric":11136,"Ġhopes":11137,"Ġol":11138,"ĠDraft":11139,"ridor":11140,"Ġloud":11141,"ellar":11142,"ĠJosÃ©":11143,"Ġbatteries":11144,"ĠCharlotte":11145,"Ġblend":11146,"ĠEddie":11147,"ĠCP":11148,"urst":11149,"Ġ118":11150,"Ġ450":11151,"Ġlinks":11152,"ĠNeb":11153,"ĠJoint":11154,"Ġhoping":11155,"Ġevacuation":11156,"limin":11157,"Ġrains":11158,"oids":11159,"Ġconfirm":11160,"Ġanticipated":11161,"ĠAffairs":11162,"cut":11163,"anim":11164,"Ġmaps":11165,"Ġvariations":11166,"Ġtornado":11167,"Ġupcoming":11168,"restrial":11169,"ĠHeb":11170,"Ġavo":11171,"ĠGibral":11172,"ĠLaboratory":11173,"colm":11174,"Ġ1864":11175,"ĠMagic":11176,"ĠCornwall":11177,"Ġthro":11178,"otion":11179,"Ġmarking":11180,"ĠOthers":11181,"ĠEnvironment":11182,"OC":11183,"Ġbomber":11184,"avan":11185,"Ġhorizont":11186,"enburg":11187,"ĠBright":11188,"Ġguests":11189,"Ġboyfriend":11190,"ĠLiberty":11191,"eff":11192,"Ġsinking":11193,"ĠSud":11194,"ĠPoly":11195,"Ġdozen":11196,"Ġ114":11197,"Ġgenu":11198,"ĠMerced":11199,"igious":11200,"ĠERA":11201,"Ġimpressive":11202,"Ġaccessible":11203,"Ġlaugh":11204,"ampton":11205,"ĠYouth":11206,"Ġindigenous":11207,"Ġgoddess":11208,"Ġlaboratory":11209,"Ġnose":11210,"Ġprovisions":11211,"ĠFilming":11212,"Ġeasier":11213,"ĠChapel":11214,"rior":11215,"ĠVoice":11216,"Ġseparation":11217,"ĠFreedom":11218,"Ġnickname":11219,"erts":11220,"roe":11221,"Ġrugby":11222,"ardo":11223,"Ġscandal":11224,"Ġthreats":11225,"Ġdependent":11226,"Ġfires":11227,"Ġdust":11228,"ĠWinds":11229,"Ġavoided":11230,"ĠGibraltar":11231,"Ġsor":11232,"ĠLower":11233,"Ġafford":11234,"ĠMeteorological":11235,"tes":11236,"Ġrever":11237,"Ġsupports":11238,"Ġpolitician":11239,"ĠMalcolm":11240,"Ġbiological":11241,"ilda":11242,"anne":11243,"ĠMembers":11244,"ĠBeth":11245,"Ġprogressed":11246,"Ġvolcanic":11247,"Ġparliamentary":11248,"Ġib":11249,"ĠVick":11250,"Ġconsumption":11251,"ĠFriends":11252,"ĠGlas":11253,"ĠKenneth":11254,"ĠCena":11255,"artime":11256,"Ġdefenders":11257,"aco":11258,"ĠBud":11259,"ĠPul":11260,"ĠLeices":11261,"ĠCryst":11262,"Ġrandom":11263,"Ġbiography":11264,"ĠArmenian":11265,"Ġfed":11266,"ĠTitan":11267,"Ġlighter":11268,"Ġformula":11269,"Ġdeputy":11270,"Ġrestrictions":11271,"Ġcow":11272,"ĠTree":11273,"ught":11274,"Ġimposed":11275,"Ġcorporate":11276,"Ġtruly":11277,"ĠTu":11278,"ĠChester":11279,"agles":11280,"icking":11281,"ĠProtestant":11282,"assy":11283,"ĠAgu":11284,"ÃŃn":11285,"hill":11286,"Ġsav":11287,"Ġusage":11288,"Ġfles":11289,"ĠCase":11290,"ĠBoulevard":11291,"Ġmurdered":11292,"ĠOrchestra":11293,"held":11294,"ĠCinem":11295,"ĠBapt":11296,"Ġeld":11297,"Ġliver":11298,"eling":11299,"Ġproduces":11300,"ĠEnergy":11301,"Ġmixing":11302,"Ġoccurring":11303,"ÃŃa":11304,"Ġfier":11305,"ĠTru":11306,"ailing":11307,"Ġlicense":11308,"ĠOscar":11309,"orted":11310,"Ġnoticed":11311,"Ġeastward":11312,"ĠPedro":11313,"Ġcash":11314,"osph":11315,"Ġacre":11316,"Ġparticles":11317,"Ġcustomers":11318,"ĠChamberlain":11319,"Ġdreadn":11320,"fly":11321,"ĠAthletic":11322,"ĠIsaac":11323,"Ġlawsuit":11324,"Ġtoxic":11325,"ĠDuch":11326,"ĠDublin":11327,"Ġcontracts":11328,"Ġwound":11329,"ĠSkin":11330,"ĠBears":11331,"ĠDJ":11332,"oples":11333,"Ġintent":11334,"Ġ1862":11335,"changed":11336,"Ġexile":11337,"Ġplates":11338,"ielder":11339,"ĠCinc":11340,"Ġspeculation":11341,"Ġkiller":11342,"Ġcathedral":11343,"Ġtouchdowns":11344,"Ġnephew":11345,"amics":11346,"ocal":11347,"ĠXX":11348,"Ġengineers":11349,"ĠBradley":11350,"Ġtimber":11351,"ĠTerm":11352,"ĠSic":11353,"ĠZero":11354,"Ġordinary":11355,"Ġwake":11356,"ĠAction":11357,"ĠChair":11358,"Ġrelation":11359,"Ġgrap":11360,"ptic":11361,"Ġangry":11362,"point":11363,"isan":11364,"ĠGuild":11365,"ĠAntar":11366,"ĠCareer":11367,"ĠCyclone":11368,"ĠFil":11369,"action":11370,"Ġdebris":11371,"Ġchoir":11372,"Ġdepicting":11373,"ĠBreak":11374,"Ġaside":11375,"Ġstall":11376,"ĠPeng":11377,"icken":11378,"Ġindustries":11379,"ĠRoom":11380,"gÃ©":11381,"Ġhence":11382,"ĠMetro":11383,"Ġundertaken":11384,"Ġdisappointed":11385,"ĠMV":11386,"Ġdevelopments":11387,"Ġconvicted":11388,"Ġkilog":11389,"ĠContinental":11390,"Ġencounters":11391,"ĠTournament":11392,"NC":11393,"Ġthreatening":11394,"ĠSaf":11395,"ĠLP":11396,"Ġignored":11397,"enberg":11398,"overed":11399,"Ġstrikes":11400,"Ġconquest":11401,"Ġvicinity":11402,"Ġcomplicated":11403,"Ġthunderstorm":11404,"Ġcam":11405,"Ġmounts":11406,"Ġlyrical":11407,"Ġmechanism":11408,"Ġintellectual":11409,"Ġprest":11410,"Ġdecrease":11411,"ĠTake":11412,"Ġabb":11413,"ĠArchbishop":11414,"Ġthrowing":11415,"Ġmol":11416,"ulum":11417,"ĠGlee":11418,"Ġrevolutionary":11419,"ĠGabri":11420,"ĠAltern":11421,"osion":11422,"Ġchampionships":11423,"Ġferry":11424,"Ġelite":11425,"Ġterritorial":11426,"rogen":11427,"quer":11428,"Ġune":11429,"ĠThan":11430,"emble":11431,"Ġhumanity":11432,"ĠSerbia":11433,"mo":11434,"itime":11435,"ĠSaw":11436,"izz":11437,"eps":11438,"ĠCollection":11439,"Ġconfident":11440,"Ġexhibit":11441,"ĠAlberta":11442,"uri":11443,"ĠWatch":11444,"ĠSpringfield":11445,"aneous":11446,"Ġrealistic":11447,"Ġlacking":11448,"ĠTraff":11449,"Ġconversation":11450,"ĠCincinn":11451,"ĠHas":11452,"Ġcontacted":11453,"Ġpreserve":11454,"umbered":11455,"racks":11456,"entieth":11457,"ĠBark":11458,"ĠVilla":11459,"Ġremin":11460,"Ġconstantly":11461,"gett":11462,"Ġfab":11463,"ĠTommy":11464,"Ġfocuses":11465,"Ġarose":11466,"Ġmetre":11467,"Ġsuspension":11468,"ĠMarshal":11469,"Ġhelicopter":11470,"Ġmammals":11471,"Ġinaugural":11472,"Ġ107":11473,"ĠPlace":11474,"Ġboost":11475,"Ġtherm":11476,"ĠPas":11477,"ĠGon":11478,"ĠChurchill":11479,"ĠTaiwan":11480,"Ġda":11481,"ĠRO":11482,"ĠFuture":11483,"Ġentert":11484,"ĠStudies":11485,"Ġ1840":11486,"Ġfarmers":11487,"Ġpredominantly":11488,"Ġstern":11489,"ĠMicha":11490,"Ġvoters":11491,"Ġfacil":11492,"liminary":11493,"Ġward":11494,"Ġgif":11495,"ĠGates":11496,"Ġ157":11497,"Ġposts":11498,"ĠMuslims":11499,"heimer":11500,"ĠÄĲ":11501,"idia":11502,"Ġdesper":11503,"oba":11504,"Ġasserted":11505,"ĠShah":11506,"Ġbreast":11507,"ĠJoan":11508,"Ġinfection":11509,"Ġ978":11510,"Ġstim":11511,"Ġdiamond":11512,"ĠYugoslavia":11513,"Ġreleasing":11514,"iked":11515,"Ġcollaborated":11516,"Ġthorough":11517,"ĠMalta":11518,"Ġtools":11519,"ĠJake":11520,"Ġfeathers":11521,"Ġabsorbed":11522,"encer":11523,"ovic":11524,"Ġpatient":11525,"Ġremoving":11526,"oirs":11527,"Ġconspiracy":11528,"ĠAncient":11529,"icing":11530,"ĠCanu":11531,"Ġholes":11532,"ĠWagner":11533,"mont":11534,"Ġinfer":11535,"Ġcentered":11536,"rolled":11537,"Ġpeninsula":11538,"ĠCand":11539,"ĠMang":11540,"ĠMaine":11541,"ĠShiva":11542,"ĠShep":11543,"Ġ220":11544,"ĠSlav":11545,"Ġrelieved":11546,"etary":11547,"osy":11548,"ĠEnt":11549,"ĠFriedrich":11550,"ĠVo":11551,"Ġcastles":11552,"quiry":11553,"oting":11554,"ĠRear":11555,"Ġcompiled":11556,"Ġgrows":11557,"Ġapolog":11558,"ĠBulgar":11559,"Ġillustrated":11560,"hou":11561,"Ġtune":11562,"Ġmit":11563,"Ġmos":11564,"Ġexplanation":11565,"Ġpor":11566,"Ġknows":11567,"Ġcanceled":11568,"ĠCincinnati":11569,"Hg":11570,"ĠHood":11571,"ĠParks":11572,"Ġroadway":11573,"ĠBulg":11574,"itol":11575,"ĠHom":11576,"ĠSex":11577,"Ġspeeds":11578,"ĠCamb":11579,"ĠBurke":11580,"ĠOlivia":11581,"Ġsustain":11582,"onial":11583,"ĠAngelou":11584,"Ġindependently":11585,"alg":11586,"Ġisn":11587,"ortion":11588,"Ġenorm":11589,"ĠComics":11590,"ĠShield":11591,"Ġsituations":11592,"ĠNormandy":11593,"ĠWaters":11594,"leb":11595,"ellers":11596,"Ġuser":11597,"Ġretrie":11598,"ĠOrd":11599,"Ġarmoured":11600,"Ġphoto":11601,"ĠRobin":11602,"ĠLuft":11603,"Ġpleased":11604,"Ġresid":11605,"ĠAfghanistan":11606,"Ġpenn":11607,"ĠTint":11608,"Ġbowl":11609,"Ġbreeds":11610,"itic":11611,"ĠHull":11612,"ĠReed":11613,"ĠVIII":11614,"Ġmarched":11615,"Ġantib":11616,"regular":11617,"Ġincom":11618,"ĠAlliance":11619,"iture":11620,"ĠAL":11621,"ĠRound":11622,"odium":11623,"Ġchrom":11624,"Ġoffshore":11625,"ĠVegas":11626,"asury":11627,"ubble":11628,"gans":11629,"Ġlover":11630,"ĠMaced":11631,"ĠLords":11632,"ĠUk":11633,"Ġrecruit":11634,"auge":11635,"Ġ1887":11636,"Ġoutstanding":11637,"DI":11638,"ĠLS":11639,"Ġsheep":11640,"issioned":11641,"ĠMadison":11642,"Ġpaying":11643,"Ġlayers":11644,"Ġarena":11645,"Ġclergy":11646,"Ġcouldn":11647,"hart":11648,"ĠMi":11649,"ipher":11650,"Ġvarying":11651,"ĠChet":11652,"occ":11653,"Ġ1863":11654,"Ġclosure":11655,"ĠTwitter":11656,"Ġexpanding":11657,"Ġ126":11658,"Ġviewing":11659,"Ġdisappeared":11660,"ĠConservative":11661,"ĠRevolutionary":11662,"Ġprosper":11663,"Ġlocomotives":11664,"cha":11665,"Ġ132":11666,"ĠPay":11667,"ĠEdmund":11668,"atsu":11669,"Ġgenres":11670,"ĠFormer":11671,"auc":11672,"Ġpig":11673,"ocol":11674,"Ġ1886":11675,"ĠGregory":11676,"Ġmild":11677,"ĠTechnology":11678,"Ġcolored":11679,"Ġ119":11680,"Ġreporting":11681,"rels":11682,"ĠJNA":11683,"overty":11684,"ĠLeeds":11685,"Ġsuggestion":11686,"áº":11687,"Ġaest":11688,"Ġfant":11689,"Ġcelebrate":11690,"umberland":11691,"Ġsentiment":11692,"ĠSchumacher":11693,"akh":11694,"ĠKid":11695,"Ġnevertheless":11696,"Ġcu":11697,"ĠPros":11698,"Ġatop":11699,"Ġflour":11700,"Ġregulations":11701,"Ġdropping":11702,"Ġfungus":11703,"Ġhybrid":11704,"ĠKon":11705,"Ġperc":11706,"ĠOrton":11707,"ĠMercury":11708,"Ġinducted":11709,"ĠDennis":11710,"ieg":11711,"Ġblast":11712,"ennial":11713,"Ġsubmarines":11714,"ĠPokÃ©":11715,"Ġbutter":11716,"Ġbackst":11717,"music":11718,"omed":11719,"ĠMult":11720,"ĠHubb":11721,"ribution":11722,"Ġwitnesses":11723,"ĠMLB":11724,"imony":11725,"Ġattraction":11726,"ework":11727,"ritic":11728,"ĠBrooklyn":11729,"instein":11730,"lem":11731,"ĠCer":11732,"Ġsubmer":11733,"ischer":11734,"ĠJulian":11735,"Ġbapt":11736,"Ġconced":11737,"Ġreporter":11738,"Ġfaculty":11739,"ĠSerge":11740,"ĠIran":11741,"ĠPrinceton":11742,"found":11743,"ĠNation":11744,"Ġremote":11745,"ĠEls":11746,"Ġswept":11747,"ĠTigers":11748,"ĠinHg":11749,"leted":11750,"Ġlib":11751,"ĠMann":11752,"Ġretreated":11753,"Ġpositioned":11754,"onnie":11755,"Ġromance":11756,"ĠMcKinley":11757,"Ġeagle":11758,"ĠRush":11759,"ĠOrganization":11760,"Ġrepris":11761,"Ġmonit":11762,"izard":11763,"Ġblamed":11764,"Ġpublicity":11765,"ĠBrowns":11766,"ulates":11767,"Ġverses":11768,"Ġorganic":11769,"Ġparking":11770,"Ġfortifications":11771,"Ġcompanion":11772,"ĠHelen":11773,"Ġoxid":11774,"ĠCort":11775,"Ġstored":11776,"Ġmad":11777,"ĠDud":11778,"ĠNathan":11779,"Ġpatri":11780,"ĠMonth":11781,"Ġfundamental":11782,"ĠHistorical":11783,"Ġspir":11784,"ĠLeo":11785,"ĠBrand":11786,"ĠCoal":11787,"Ġstability":11788,"Ġwhatever":11789,"ĠChang":11790,"Ġdrunk":11791,"Ġtargeted":11792,"Ġshelter":11793,"Ġcondemned":11794,"ĠMusical":11795,"ĠHubbard":11796,"Ġwrap":11797,"Ġcurve":11798,"Ġ1884":11799,"Ġannex":11800,"Ġfocusing":11801,"Ġcorresponding":11802,"Ġfossils":11803,"ĠSmack":11804,"acular":11805,"ensis":11806,"Ġprogressive":11807,"etta":11808,"Ġfract":11809,"ĠEld":11810,"ĠNASA":11811,"ĠSoph":11812,"Ġflown":11813,"ĠSalv":11814,"Ġtorpedoes":11815,"Ġpreceding":11816,"ĠTalk":11817,"Ġgentle":11818,"ĠBarcel":11819,"Ġirregular":11820,"ĠPolitical":11821,"ĠFly":11822,"Ġnoise":11823,"Ġconfused":11824,"Ġdetected":11825,"ĠSteam":11826,"Ġdisbanded":11827,"ĠGlasgow":11828,"mates":11829,"Ġmentions":11830,"Ġroster":11831,"Ġtent":11832,"Ġfault":11833,"ĠIsle":11834,"Ġconvince":11835,"ĠCanucks":11836,"Ġasc":11837,"ĠFather":11838,"Ġresignation":11839,"ĠTests":11840,"Ġtelephone":11841,"Ġmail":11842,"Ġlung":11843,"ĠKaz":11844,"ĠOpera":11845,"Ġchallenging":11846,"ĠAub":11847,"ĠIsab":11848,"Ã©n":11849,"Ġmachines":11850,"inated":11851,"Ġdirecting":11852,"Ġrebounds":11853,"Ġmagnetic":11854,"acht":11855,"Ġquoted":11856,"Ġbrings":11857,"Ġinsurance":11858,"Ġwinners":11859,"Ġcruise":11860,"ĠDevil":11861,"Ġcalculated":11862,"Ġsolely":11863,"Ġaqu":11864,"enz":11865,"Ġregiments":11866,"Ġswing":11867,"Ġstudios":11868,"ĠHolland":11869,"Ġmelod":11870,"ĠPhillies":11871,"ĠFifth":11872,"Ã¢":11873,"Ġrice":11874,"ĠInside":11875,"ĠKin":11876,"ĠKill":11877,"iah":11878,"Ġterminal":11879,"ĠMontana":11880,"ĠGhost":11881,"Ġdiversity":11882,"ĠTheodore":11883,"Ġtourist":11884,"auded":11885,"ĠOil":11886,"ĠMillennium":11887,"ĠSolar":11888,"Ġworse":11889,"Ġthanks":11890,"ĠAustro":11891,"ĠHerbert":11892,"ĠNW":11893,"ĠStal":11894,"ĠWestminster":11895,"Ġjudicial":11896,"Ġmigr":11897,"ĠNass":11898,"ĠPercy":11899,"Ġcreature":11900,"Ġconcepts":11901,"mans":11902,"ĠHus":11903,"Ġfavored":11904,"Ġdarker":11905,"ĠDenver":11906,"Ġhide":11907,"Ġrouting":11908,"ĠBCE":11909,"ĠChem":11910,"ĠMorning":11911,"Ġtriumph":11912,"Ġscholarship":11913,"Ġnice":11914,"ĠInsp":11915,"Ġrotation":11916,"ĠCEO":11917,"ĠBasketball":11918,"oom":11919,"ĠVern":11920,"Ġhistorically":11921,"Ġ1877":11922,"ĠCeltic":11923,"bel":11924,"wing":11925,"Ġbore":11926,"ĠBurg":11927,"Ġcha":11928,"usters":11929,"ishops":11930,"Ġmyself":11931,"ĠAdventure":11932,"icles":11933,"ewise":11934,"arded":11935,"Ġ151":11936,"Ġrounded":11937,"Ġprompting":11938,"ĠCut":11939,"ĠUB":11940,"Ġ103":11941,"ĠTintin":11942,"Ġcemetery":11943,"Ġagencies":11944,"Ġ1876":11945,"Ġexamined":11946,"Ġsteadily":11947,"onso":11948,"Ġgear":11949,"Ġjersey":11950,"Ġcommitment":11951,"rÃ©":11952,"ĠMercedes":11953,"cour":11954,"Ġzero":11955,"ĠStrong":11956,"ĠEpis":11957,"olia":11958,"Ġbattlefield":11959,"Ġacclaimed":11960,"Ġcotton":11961,"ĠLud":11962,"overy":11963,"Ġtrio":11964,"Ġmotif":11965,"Ġreconstruction":11966,"Ġspacecraft":11967,"ĠNevada":11968,"Ġghost":11969,"Ġwartime":11970,"omon":11971,"igger":11972,"Ġtroop":11973,"ĠBulgarian":11974,"ao":11975,"ĠCond":11976,"amine":11977,"hentic":11978,"Ġconfig":11979,"Ġmessages":11980,"Ġgusts":11981,"bie":11982,"iors":11983,"Ġsharing":11984,"Ġ138":11985,"ĠAdditional":11986,"Ġsulf":11987,"Ġagrees":11988,"Ġmeasuring":11989,"ĠAlbany":11990,"gus":11991,"Ġaf":11992,"Ġincidents":11993,"Ġguards":11994,"Ġconnects":11995,"Ġwalked":11996,"Ġmonastery":11997,"ĠCany":11998,"ĠTheater":11999,"Ġjew":12000,"Ġdecisive":12001,"Ġpresents":12002,"Ġ129":12003,"ĠGlou":12004,"Ġballs":12005,"Ġconducting":12006,"ĠTir":12007,"avian":12008,"Ġrefuses":12009,"Ġwalks":12010,"ĠCarlos":12011,"ĠRonald":12012,"ĠPoe":12013,"ĠRus":12014,"ĠRivers":12015,"Ġscreens":12016,"ĠYard":12017,"Ġdistinction":12018,"Ġradius":12019,"Ġelevated":12020,"Ġeligible":12021,"Ġmasc":12022,"qual":12023,"lude":12024,"Ġthemed":12025,"Ġ116":12026,"Ġcurved":12027,"Ġpostp":12028,"ampa":12029,"Ġkilometers":12030,"ĠOttawa":12031,"ĠCurrent":12032,"Ġclouds":12033,"ĠTerritory":12034,"Ġproclaimed":12035,"ĠSquad":12036,"inge":12037,"Ġconsequence":12038,"Ġrevenge":12039,"ĠGothic":12040,"Ġtap":12041,"hend":12042,"ĠPick":12043,"ĠExpl":12044,"Ġaccomplished":12045,"ĠCe":12046,"ĠCou":12047,"roscop":12048,"Ġ230":12049,"Ġkids":12050,"ĠAthen":12051,"Ġloose":12052,"Ġ1830":12053,"gon":12054,"gary":12055,"ĠAer":12056,"Ġexterior":12057,"assing":12058,"Ġphysically":12059,"Ġopined":12060,"Ġintegrated":12061,"lined":12062,"Ġecho":12063,"ĠEC":12064,"Ġfinest":12065,"Ġarguments":12066,"Ġhyper":12067,"asp":12068,"Ġhosp":12069,"ĠSri":12070,"ĠCox":12071,"Ġcreatures":12072,"Ġparticipating":12073,"zes":12074,"ishn":12075,"atty":12076,"Ġcentimet":12077,"Ġ134":12078,"Ġrebel":12079,"uka":12080,"Ġflower":12081,"cell":12082,"Ġtough":12083,"ĠSor":12084,"istical":12085,"Ġ122":12086,"Ġposter":12087,"Ġvenues":12088,"ĠBarcelona":12089,"Ġlakes":12090,"omical":12091,"Ġairborne":12092,"aults":12093,"Ġ1875":12094,"Ġtheaters":12095,"Ġlinear":12096,"ĠPokÃ©mon":12097,"Ġcomed":12098,"ĠParaly":12099,"Ġencomp":12100,"ĠCardinals":12101,"Ġamphib":12102,"ĠMichaels":12103,"hall":12104,"ahl":12105,"Ġindirect":12106,"Ġrunner":12107,"Ġinstructions":12108,"Ġmartial":12109,"opard":12110,"Ġdeliberately":12111,"Ġritual":12112,"arthy":12113,"Ġintend":12114,"ĠRI":12115,"ĠEsc":12116,"ettes":12117,"Ġceremonies":12118,"itars":12119,"Ġfo":12120,"Ġspots":12121,"Ġscout":12122,"Ġinsuff":12123,"Ġdemographic":12124,"ĠParkway":12125,"Ġenhanced":12126,"bach":12127,"ighed":12128,"Ġchann":12129,"lett":12130,"Ġwidth":12131,"Ġproperly":12132,"Ġcontribute":12133,"Ġcomplimented":12134,"ding":12135,"flow":12136,"Ġmansion":12137,"ĠAbra":12138,"Ġintermediate":12139,"Ġreminisc":12140,"Down":12141,"ĠBerm":12142,"Ġprince":12143,"ĠEnix":12144,"ĠColin":12145,"Ġlesser":12146,"ĠMilan":12147,"ĠOperations":12148,"ĠCaes":12149,"Ġtelesc":12150,"ĠSmackDown":12151,"rians":12152,"Ġspell":12153,"Ġpeoples":12154,"Ġmilk":12155,"Ġpreparations":12156,"Ġextends":12157,"Ġweakness":12158,"á»ĩ":12159,"ĠBris":12160,"alling":12161,"ĠChuck":12162,"Ġvaries":12163,"Ġpossessed":12164,"ĠRaymond":12165,"Ġtransformed":12166,"Ġtouc":12167,"acking":12168,"Ġyd":12169,"ĠMega":12170,"ĠDrake":12171,"Ġheavier":12172,"ĠHenderson":12173,"season":12174,"eda":12175,"Ġharsh":12176,"Ġonwards":12177,"Ġministers":12178,"ĠMetac":12179,"Ġcontrad":12180,"ĠCircle":12181,"ĠHok":12182,"ĠFoster":12183,"ĠEmma":12184,"Ġbowled":12185,"inter":12186,"unge":12187,"Ġremake":12188,"Ġsouthwestern":12189,"Ġborough":12190,"ĠDerby":12191,"Ġcosm":12192,"Ġ1883":12193,"Ġsensitive":12194,"Ġassassination":12195,"AP":12196,"Ã¥":12197,"ĠRBI":12198,"Ġoutcome":12199,"Ġcanon":12200,"ĠBarn":12201,"Ġprospect":12202,"ĠWings":12203,"Ġplayable":12204,"Ġcoaches":12205,"Ġ1881":12206,"Ġinitiative":12207,"Music":12208,"ĠJose":12209,"ĠOcc":12210,"ĠMarl":12211,"Ġ128":12212,"Ġachievements":12213,"Ġvegetation":12214,"Ġaided":12215,"rob":12216,"ĠSciences":12217,"Ġcontinental":12218,"Ġcritically":12219,"ĠRomanian":12220,"Ġupdated":12221,"ĠManuel":12222,"zed":12223,"Ġhomosexual":12224,"ĠBour":12225,"ĠVerm":12226,"Ġdisabled":12227,"Ġtransmission":12228,"ĠMiddles":12229,"nda":12230,"Ġhurt":12231,"ĠRan":12232,"Ġrook":12233,"Ġallied":12234,"arians":12235,"ĠPel":12236,"ashire":12237,"ĠLed":12238,"Ġlogo":12239,"Ġpropaganda":12240,"ĠRosen":12241,"assic":12242,"ĠBelie":12243,"Ġconsideration":12244,"ĠVenice":12245,"herent":12246,"Ġrider":12247,"Ġvariable":12248,"ĠNorthwest":12249,"ĠAngle":12250,"ironments":12251,"Ġoptim":12252,"Ġdeposits":12253,"ĠJamaica":12254,"ĠParalymp":12255,"ĠâĻ":12256,"Ġdepiction":12257,"Ġtourists":12258,"Ġconsciousness":12259,"Ġfru":12260,"ĠPack":12261,"Ġunh":12262,"ĠComputer":12263,"Ġestimate":12264,"Ġemerging":12265,"Ġsailors":12266,"Ġexercises":12267,"ĠHispan":12268,"Ġ1869":12269,"ĠBody":12270,"Ġmonster":12271,"ĠBrah":12272,"Ġsubtropical":12273,"Ġautobiography":12274,"ĠDiamond":12275,"ubs":12276,"Ġlandmark":12277,"ĠRichardson":12278,"Ġmoist":12279,"ĠRNA":12280,"ĠDuc":12281,"Ġunanim":12282,"Ġworker":12283,"Ġdamaging":12284,"ĠComposition":12285,"Ġorchestral":12286,"Ġarchaeological":12287,"Ġwit":12288,"acer":12289,"Ġspite":12290,"ĠBlair":12291,"Ġnortheastern":12292,"Ġhonors":12293,"Ġconsistently":12294,"Ġpunishment":12295,"ĠDuncan":12296,"ĠFerdin":12297,"Ġpermanently":12298,"ĠLancashire":12299,"ĠPowell":12300,"ĠDelta":12301,"ĠCalgary":12302,"Ġenvironments":12303,"Ġcomprising":12304,"Ġlatest":12305,"Ã¦":12306,"elin":12307,"Ġstaged":12308,"ĠNad":12309,"ĠHein":12310,"ĠIsles":12311,"alties":12312,"Ġroutine":12313,"orf":12314,"Ġborders":12315,"ĠTotal":12316,"ĠUnit":12317,"ĠSpeed":12318,"Ġdoctrine":12319,"ĠArena":12320,"cont":12321,"rang":12322,"£o":12323,"izers":12324,"ĠWeather":12325,"works":12326,"Ġ1866":12327,"Ġrevealing":12328,"ĠVeronica":12329,"ĠSad":12330,"ĠMut":12331,"Ġascend":12332,"Ġgrid":12333,"atorial":12334,"Ġsummon":12335,"Ġmunicipal":12336,"Ġpresidency":12337,"Ġcarved":12338,"Ġcoaching":12339,"Ġsearching":12340,"Ġbin":12341,"Ġperformers":12342,"Ġjournalists":12343,"ĠSprings":12344,"eries":12345,"aton":12346,"ĠRange":12347,"Ġmanaging":12348,"Ġachievement":12349,"iffer":12350,"ĠBrid":12351,"ĠFloyd":12352,"Ġdispatched":12353,"Ġbelonging":12354,"Ġunsuccessfully":12355,"bu":12356,"anus":12357,"riages":12358,"ĠVoy":12359,"ĠMills":12360,"Ġpayment":12361,"Ġpriority":12362,"ĠUsing":12363,"Ġwitnessed":12364,"Ġdelegates":12365,"Ġmysterious":12366,"Ġseal":12367,"ĠAlam":12368,"ĠSyn":12369,"Ġinput":12370,"ĠHeadquarters":12371,"ĠCanyon":12372,"lake":12373,"Ġdock":12374,"Ġversus":12375,"Ġpreventing":12376,"Ġpsychiat":12377,"Ġreluctant":12378,"ikes":12379,"Ġmarg":12380,"ĠContem":12381,"Ġencourage":12382,"Ġfrigate":12383,"Ġhoney":12384,"Ġreh":12385,"ijing":12386,"Ġmarsh":12387,"Ġepit":12388,"Ġventure":12389,"Ġpref":12390,"Ġcomplement":12391,"ĠSchol":12392,"Ġsilent":12393,"ĠRodrig":12394,"Ġphilosopher":12395,"Ġenlar":12396,"RS":12397,"ju":12398,"Ġgates":12399,"ĠHerm":12400,"ĠSeb":12401,"ĠFrances":12402,"Ġargue":12403,"Ġlengths":12404,"ĠArchae":12405,"ĠEllen":12406,"Ġphenomenon":12407,"ĠCrawford":12408,"GM":12409,"Ġactively":12410,"Ġceiling":12411,"Ġ750":12412,"Ġbelonged":12413,"Ġdistinguish":12414,"Ġodd":12415,"ĠPalestine":12416,"alia":12417,"ĠTas":12418,"ĠFlanders":12419,"Ġconfer":12420,"Ġstrange":12421,"ĠButler":12422,"ĠLeicester":12423,"ĠCrystal":12424,"Ġdisputed":12425,"Ġswitched":12426,"Brien":12427,"ĠNam":12428,"ĠGrove":12429,"Ġexecutives":12430,"Ġhypothesis":12431,"Ġpoverty":12432,"ĠRav":12433,"ĠIntellig":12434,"ĠWis":12435,"Ġshaft":12436,"Ġ1873":12437,"Ġmechanics":12438,"ĠPlanet":12439,"iating":12440,"ĠPunk":12441,"Ġanarch":12442,"actic":12443,"Ġ124":12444,"Ġfinance":12445,"Ġexploration":12446,"ĠGuadal":12447,"Ġeighteen":12448,"Ġawareness":12449,"ĠHi":12450,"ĠArc":12451,"ĠTelegraph":12452,"Ġcorruption":12453,"Ġscientist":12454,"Ġoct":12455,"adows":12456,"Ġdirections":12457,"Ġlistening":12458,"ĠAssist":12459,"Ġintroduce":12460,"Ġmystery":12461,"Ġcontributing":12462,"Ġexpectations":12463,"Ġmbar":12464,"ĠFischer":12465,"anka":12466,"LA":12467,"Ġaccus":12468,"Ġformations":12469,"ĠBeijing":12470,"Ġinternationally":12471,"Ġ1882":12472,"ĠConserv":12473,"ĠTucker":12474,"ĠWel":12475,"Ġshipped":12476,"ĠMedic":12477,"Tunes":12478,"Ġrational":12479,"Ġguitars":12480,"ĠCarn":12481,"Ġobjectives":12482,"Ġadjust":12483,"ĠNewman":12484,"Ġtemples":12485,"ĠRegion":12486,"Ġ1867":12487,"Ġ1871":12488,"Ġmolecular":12489,"pin":12490,"Ġion":12491,"ĠFun":12492,"Ġleagues":12493,"Ġintr":12494,"ĠCloud":12495,"Ġprocessing":12496,"ĠWatson":12497,"Ġicon":12498,"Ġprocedure":12499,"Ġgest":12500,"Ġwhales":12501,"Ġsurpassed":12502,"Ġsubmerged":12503,"Ã´":12504,"ĠFood":12505,"Ġdesired":12506,"Ġimproving":12507,"ĠÃī":12508,"Ġnaturally":12509,"chi":12510,"odied":12511,"usty":12512,"Ġadvocated":12513,"ĠFilms":12514,"Ġtribut":12515,"Ġdimensional":12516,"Ġoverwhelming":12517,"core":12518,"atar":12519,"Ġpseud":12520,"Ġvamp":12521,"Ġsheet":12522,"Ġmetals":12523,"rington":12524,"Ġassociate":12525,"Ġsaving":12526,"Ġplum":12527,"ĠMcCarthy":12528,"Ġprivile":12529,"eches":12530,"rium":12531,"Ġroot":12532,"Ġremind":12533,"ĠTruman":12534,"Ġdiscussing":12535,"Ġreop":12536,"abad":12537,"ogg":12538,"ĠMarqu":12539,"Ġstaying":12540,"istocr":12541,"Ġabst":12542,"Ġacceptance":12543,"Ġloaded":12544,"Ġcomprised":12545,"Ġabundant":12546,"var":12547,"vik":12548,"lex":12549,"ĠCommons":12550,"ĠKepler":12551,"Ġhorsepower":12552,"Ġrequirement":12553,"olan":12554,"Ġconvert":12555,"ĠAlt":12556,"usive":12557,"ierra":12558,"ĠDeputy":12559,"Ġtasks":12560,"ĠStandard":12561,"Ġrefugees":12562,"ĠMile":12563,"ĠPine":12564,"ĠKil":12565,"Ġunrel":12566,"Ġreson":12567,"Ġpartners":12568,"erness":12569,"Ġestates":12570,"nery":12571,"Ġcameo":12572,"Ġcubic":12573,"Ġcrucial":12574,"ĠRaid":12575,"ĠSeas":12576,"ĠCommerc":12577,"Ġ1878":12578,"ĠDudley":12579,"Ġmant":12580,"Ġdive":12581,"Ġrushed":12582,"ĠShin":12583,"ĠTrue":12584,"ĠDesert":12585,"Ġnervous":12586,"angered":12587,"Ġexplored":12588,"Ġblockade":12589,"Ġfragments":12590,"asaki":12591,"chw":12592,"Ġkeyboard":12593,"Ġcollecting":12594,"Ġcomposers":12595,"Ġopinions":12596,"asia":12597,"ĠPly":12598,"Ġadequ":12599,"ĠAnat":12600,"ĠWhy":12601,"Ġironcl":12602,"Ġnavigation":12603,"gor":12604,"zig":12605,"Ġliv":12606,"Ġspeculated":12607,"ĠAdela":12608,"suing":12609,"Ġresemble":12610,"ĠMasters":12611,"arus":12612,"ĠSA":12613,"amation":12614,"Ġ202":12615,"asses":12616,"Ġchannels":12617,"Ġjaw":12618,"Ġgenera":12619,"ĠBea":12620,"ĠTrinity":12621,"Ġeleph":12622,"Ġauthentic":12623,"ĠExped":12624,"Ġgenes":12625,"ĠiTunes":12626,"Ġundertook":12627,"eded":12628,"umi":12629,"rews":12630,"appa":12631,"ĠGibson":12632,"Ġpercussion":12633,"isations":12634,"Ġsuffer":12635,"ĠCulture":12636,"ĠProfessional":12637,"Ġturbines":12638,"Ġrepublic":12639,"Ġaveraged":12640,"Ġcompromise":12641,"thlete":12642,"ĠLore":12643,"ĠNak":12644,"Ġseeds":12645,"Ġimmigrants":12646,"ĠSurv":12647,"kh":12648,"ĠLuftw":12649,"HC":12650,"utely":12651,"ĠMalay":12652,"Ġhomeless":12653,"Ġhabitats":12654,"rehensive":12655,"orig":12656,"Ġpump":12657,"Ġhaz":12658,"Ġassets":12659,"Ġstair":12660,"Ġdefenses":12661,"ĠTrav":12662,"Ġposthum":12663,"Ġcomplaints":12664,"Ġmanufactured":12665,"Ġbars":12666,"ĠAqu":12667,"ĠChan":12668,"Ġensuing":12669,"Ġunderwater":12670,"ĠMail":12671,"immer":12672,"Ġmanages":12673,"Ġdiscour":12674,"Ġ137":12675,"Ġcraf":12676,"Ġwhale":12677,"ĠAlpha":12678,"Ġsymbols":12679,"Ġpsychological":12680,"ĠTib":12681,"Ġants":12682,"ĠWellington":12683,"Ġreconstruct":12684,"ĠMetacritic":12685,"ĠRif":12686,"ĠEagle":12687,"ulture":12688,"Ġrelied":12689,"Ġrepet":12690,"ĠClif":12691,"ĠColomb":12692,"boat":12693,"Ġcoastline":12694,"Ġphotos":12695,"Ġdissolved":12696,"Ġnetworks":12697,"Ġfabric":12698,"Ġineff":12699,"ĠAaron":12700,"ĠMobile":12701,"Ġfaction":12702,"Ġhonorary":12703,"Ġconsequences":12704,"Ġbench":12705,"Ġov":12706,"ĠIb":12707,"Ġlandings":12708,"Ġlengthy":12709,"Ġabsolute":12710,"ĠBaptist":12711,"ĠMeyer":12712,"aba":12713,"Ġconsensus":12714,"Ġsummar":12715,"Ġfemin":12716,"ĠAppro":12717,"Ġlesb":12718,"Ġgauge":12719,"ĠLuther":12720,"ĠBerg":12721,"ĠLuftwaffe":12722,"Ġcave":12723,"ĠHass":12724,"Ġadds":12725,"Ġultimate":12726,"Ġambassador":12727,"Ġreserves":12728,"Ġpounder":12729,"ĠShelley":12730,"Ġeruption":12731,"ĠVlad":12732,"ĠMethod":12733,"ilogy":12734,"ĠMak":12735,"oves":12736,"Ġqualities":12737,"Ġloyalty":12738,"Ġfraud":12739,"ĠBermuda":12740,"rection":12741,"ĠPsych":12742,"Ġintact":12743,"Ġvariant":12744,"Ġprinting":12745,"ĠGenesis":12746,"isting":12747,"Ġsignals":12748,"Ġimprov":12749,"Ġsic":12750,"Ġfears":12751,"ĠBass":12752,"Ġessay":12753,"Ġpatrols":12754,"amped":12755,"Ġsingers":12756,"ographed":12757,"ĠMonroe":12758,"Ġlemurs":12759,"IV":12760,"employ":12761,"Ġaristocr":12762,"Ġassessment":12763,"Ġunveiled":12764,"ĠWant":12765,"ulu":12766,"ĠMonster":12767,"mother":12768,"inqu":12769,"Ġ1868":12770,"Ġdisappoint":12771,"Ġlifted":12772,"Ġgrossed":12773,"ĠMachine":12774,"ĠWolver":12775,"Ġ1872":12776,"iggins":12777,"Ġexplosive":12778,"Ġdoctors":12779,"Ġeldest":12780,"ĠMull":12781,"ĠWrest":12782,"Ġweighed":12783,"Ġphosph":12784,"Ġcontempor":12785,"Ġflesh":12786,"ilera":12787,"unar":12788,"ĠMick":12789,"Ġbrut":12790,"Ġemotions":12791,"ĠVarious":12792,"Ġteachers":12793,"ĠAguilera":12794,"Ġunre":12795,"Ġmillions":12796,"Ġdelight":12797,"alysis":12798,"Ġrocket":12799,"ĠNotable":12800,"ĠUrban":12801,"ĠSelena":12802,"Ġbattlecruisers":12803,"Ġcomparing":12804,"licted":12805,"Ġharvest":12806,"Ġspectators":12807,"ĠEngineering":12808,"ĠOtto":12809,"ĠRPG":12810,"avil":12811,"Ġsear":12812,"ĠChoice":12813,"Ġbuff":12814,"ĠTimber":12815,"Ġinteractions":12816,"Ġclip":12817,"Ġtwentieth":12818,"Ġtradem":12819,"ĠHenri":12820,"Ġliterally":12821,"Ġowing":12822,"Ġenormous":12823,"Ġduck":12824,"child":12825,"Ġinterf":12826,"Ġpolitically":12827,"Ġinsufficient":12828,"isk":12829,"ĠMarx":12830,"Ġamid":12831,"Ġanthem":12832,"rays":12833,"Ġengaging":12834,"Ġsongwriting":12835,"ĠPon":12836,"ĠNewport":12837,"ĠFlames":12838,"Ġcostumes":12839,"ipping":12840,"stown":12841,"through":12842,"ĠWoods":12843,"Ġinstructed":12844,"ĠFemale":12845,"ĠDakota":12846,"Ġhorizontal":12847,"imity":12848,"Ġdealt":12849,"Ġrelating":12850,"Ġappealed":12851,"Ġrevived":12852,"Ġtensions":12853,"Ġstabil":12854,"rip":12855,"Ġdeals":12856,"Ġenrolled":12857,"grade":12858,"igrated":12859,"Ġsuited":12860,"ĠPlat":12861,"ĠEllis":12862,"ĠCabinet":12863,"otypes":12864,"ĠMVP":12865,"ĠMoney":12866,"ĠRiley":12867,"Ġrally":12868,"Ġtelev":12869,"Ġtrips":12870,"Ġvocalist":12871,"Ġintelligent":12872,"Ġgam":12873,"ĠStage":12874,"Ġreader":12875,"ĠChandler":12876,"Ġbacteria":12877,"ĠRenaissance":12878,"Ġups":12879,"iki":12880,"Ġbatsman":12881,"ĠExpedition":12882,"ĠSH":12883,"ĠFa":12884,"endar":12885,"Ġ123":12886,"ĠKnights":12887,"Ġreferee":12888,"ĠLeigh":12889,"Ġstrings":12890,"monton":12891,"Ġinstrumentation":12892,"iary":12893,"ĠHil":12894,"Ġstroke":12895,"Ġraw":12896,"ĠSoviets":12897,"Ġallegations":12898,"ĠAdelaide":12899,"GB":12900,"atem":12901,"Ġcro":12902,"ido":12903,"Ġstom":12904,"Ġslower":12905,"Ġintersections":12906,"Ġdigit":12907,"Ġgraphic":12908,"Ġperf":12909,"Ġdeclaration":12910,"Ġdiseases":12911,"ĠWWF":12912,"ĠGeoffrey":12913,"Ġsin":12914,"Ġhier":12915,"Ġmetall":12916,"Ġexhibited":12917,"Ġbitter":12918,"ĠPhillips":12919,"Ġincomple":12920,"Ġreminiscent":12921,"ĠFerdinand":12922,"Ġcats":12923,"Ġhurricanes":12924,"ĠMaxwell":12925,"Ġsubordin":12926,"ĠSurrey":12927,"orge":12928,"Ġanx":12929,"ĠHeaven":12930,"keley":12931,"Ġtermed":12932,"ĠTherefore":12933,"auna":12934,"Ġwidow":12935,"Ġchapters":12936,"Ġmushroom":12937,"ĠCurtis":12938,"BO":12939,"omys":12940,"eta":12941,"ĠHanc":12942,"ĠPoll":12943,"Ġmissile":12944,"Ġwishes":12945,"ĠCome":12946,"ĠNept":12947,"Ġextraordin":12948,"ĠCool":12949,"otilla":12950,"Ġclan":12951,"Ġovercome":12952,"Ġinvolve":12953,"ĠMarcus":12954,"ĠBarrett":12955,"Ġgallery":12956,"ĠCombat":12957,"Ġdiscipline":12958,"Ġfrog":12959,"Ġcounsel":12960,"ĠCapital":12961,"Ġmistake":12962,"Ġtactical":12963,"Ġetc":12964,"ĠEssex":12965,"Ġsacrifice":12966,"ouch":12967,"utonium":12968,"opol":12969,"Ġincred":12970,"ugs":12971,"arma":12972,"Ġthickness":12973,"Ġdisliked":12974,"ĠFellow":12975,"ĠRomans":12976,"Ġquantities":12977,"ĠPlymouth":12978,"edar":12979,"ĠLamb":12980,"Ġinterference":12981,"Ġsubd":12982,"ĠSpencer":12983,"ĠMovement":12984,"Ġmathematics":12985,"ulk":12986,"otto":12987,"Ġathletic":12988,"ĠAbraham":12989,"yan":12990,"ĠPrison":12991,"ĠâĢ²":12992,"Ġmodest":12993,"ĠMadrid":12994,"Ġcultures":12995,"ĠGameSpot":12996,"utter":12997,"Ġshirt":12998,"Ġrepaired":12999,"ĠScreen":13000,"Ġtransit":13001,"Ġjoins":13002,"ungle":13003,"Ġrulers":13004,"Ġshopping":13005,"cht":13006,"ĠLead":13007,"Ġmachinery":13008,"Ġnomine":13009,"oric":13010,"Ġhung":13011,"bery":13012,"Ġexpense":13013,"Ġ141":13014,"Ġpanels":13015,"Ġsupporter":13016,"Ġproceeds":13017,"Ġrifle":13018,"ĠGonz":13019,"ĠCM":13020,"ĠFur":13021,"ĠBlake":13022,"Ġcircles":13023,"Ġnicknamed":13024,"Ġsyndrome":13025,"ĠVienna":13026,"ni":13027,"ĠNL":13028,"aku":13029,"heads":13030,"ĠResident":13031,"Ġhunt":13032,"ĠView":13033,"ĠShan":13034,"Ġfights":13035,"Ġcaliber":13036,"ĠContemporary":13037,"uits":13038,"Ġassign":13039,"ebe":13040,"ĠBrigadier":13041,"ht":13042,"yc":13043,"Ġimported":13044,"ĠBurger":13045,"ĠBosnia":13046,"ĠHancock":13047,"Ġmigration":13048,"elia":13049,"ĠKerr":13050,"ĠAdrian":13051,"Ġcommentators":13052,"ĠAviation":13053,"ĠDaniels":13054,"ĠFlorence":13055,"itects":13056,"Ġwashed":13057,"Ġspores":13058,"ĠSche":13059,"ramid":13060,"Ġcontinent":13061,"ĠRelations":13062,"dam":13063,"Ġfare":13064,"ĠNorse":13065,"Ġinterviewed":13066,"ĠAdmiralty":13067,"Ġfatal":13068,"Ġlocomotive":13069,"RC":13070,"Ġresur":13071,"Ġcustody":13072,"Ġgaming":13073,"ĠRight":13074,"Ġproximity":13075,"Ġjoke":13076,"ĠSpit":13077,"Ġfinger":13078,"ĠHond":13079,"Ġunaware":13080,"ĠSponge":13081,"ĠFergus":13082,"ĠTales":13083,"imer":13084,"Ġbankrupt":13085,"Ġpronounced":13086,"ĠPublishing":13087,"pect":13088,"Ġfir":13089,"ĠMC":13090,"ĠHeath":13091,"Ġcontested":13092,"Ġmolecules":13093,"Ġcurrency":13094,"yd":13095,"urers":13096,"ĠAgricult":13097,"ĠJeremy":13098,"Ġfluid":13099,"Ġredesign":13100,"igo":13101,"Ġshar":13102,"ĠGarc":13103,"kinson":13104,"ĠArchitect":13105,"ĠJennifer":13106,"ĠBaldwin":13107,"ĠTasman":13108,"Ġweld":13109,"ĠRah":13110,"Ġundergo":13111,"Ġzones":13112,"ĠMetal":13113,"ĠNobel":13114,"Ġmaneuver":13115,"ĠKes":13116,"Ġsuccessive":13117,"Ġcurves":13118,"Ġacquire":13119,"ĠContin":13120,"Ġmes":13121,"olith":13122,"agi":13123,"Ġriot":13124,"Ġallocated":13125,"ĠFlood":13126,"Ġaviation":13127,"ĠDrum":13128,"ĠUsher":13129,"ĠArkansas":13130,"ĠLtd":13131,"cock":13132,"Ġpuzz":13133,"ĠTask":13134,"Ġbeer":13135,"ĠReading":13136,"Ġpopulated":13137,"Ġdemanding":13138,"Ġknowing":13139,"ĠArticle":13140,"ĠTwenty":13141,"Ġsect":13142,"athetic":13143,"Ġhect":13144,"ĠDj":13145,"Ġbetray":13146,"ĠHergÃ©":13147,"ĠManning":13148,"ĠPreston":13149,"isor":13150,"ĠLeban":13151,"elfth":13152,"Ġseparately":13153,"ĠRomania":13154,"Ġmemories":13155,"Ġgathering":13156,"ĠLie":13157,"istle":13158,"ĠStories":13159,"Ġrelay":13160,"Ġfloors":13161,"cious":13162,"ĠMom":13163,"urbs":13164,"Ġpreliminary":13165,"Ġpublish":13166,"Ġcease":13167,"ĠBanksia":13168,"Ġinterrupted":13169,"Ġ1879":13170,"rint":13171,"xide":13172,"Ġhatch":13173,"Ġregardless":13174,"Ġreef":13175,"ĠChin":13176,"Ġdisgu":13177,"Ġdiscussions":13178,"nal":13179,"Ġfunk":13180,"Ġmim":13181,"Ġdawn":13182,"Ġally":13183,"ĠGaz":13184,"Ġwoods":13185,"Ġscrapped":13186,"ĠMcDonald":13187,"ĠSans":13188,"ĠWool":13189,"ĠKem":13190,"ĠAllmusic":13191,"ĠBrew":13192,"ĠPent":13193,"agons":13194,"Ġadvances":13195,"Ġmassacre":13196,"Ġscreening":13197,"Ġcomparable":13198,"Ġdeployment":13199,"Ġnineteenth":13200,"alid":13201,"iden":13202,"Ġproud":13203,"ĠNewfound":13204,"Ġnorthwestern":13205,"Ġfarms":13206,"Ġdemonstrate":13207,"Ġdiscontinued":13208,"Ġdamages":13209,"ĠMinogue":13210,"Ġtourism":13211,"Ġgolf":13212,"ĠOrthodox":13213,"Ġphotographer":13214,"ĠElectronic":13215,"ĠIndustrial":13216,"Ġinstallation":13217,"Ġcylinder":13218,"ĠJG":13219,"esses":13220,"Ġbills":13221,"icular":13222,"star":13223,"ashing":13224,"ĠAdri":13225,"Ġediting":13226,"ĠEdmonton":13227,"ĠMcCain":13228,"ĠIdol":13229,"Ġhalted":13230,"lings":13231,"Ġtong":13232,"Ġchlor":13233,"ĠChase":13234,"ĠStarr":13235,"ĠBowie":13236,"Ġdynamic":13237,"Ġeditorial":13238,"ĠWa":13239,"Ġperpet":13240,"ĠPerth":13241,"ĠBengal":13242,"ĠSkinner":13243,"eward":13244,"arted":13245,"Ġsubtle":13246,"ĠHawaiian":13247,"Ġbol":13248,"Ġpaved":13249,"Ġprotecting":13250,"ĠCapitol":13251,"ĠEqu":13252,"ĠCharacter":13253,"Ġseemingly":13254,"Ġsubsidi":13255,"ĠSuff":13256,"ĠWald":13257,"Ġunrest":13258,"Ġregained":13259,"ĠKoreans":13260,"Ġharbor":13261,"ĠLancaster":13262,"Ġadministered":13263,"Ġsew":13264,"Ġmisc":13265,"stand":13266,"ologically":13267,"Ġopenly":13268,"Ġprojected":13269,"Ġcylind":13270,"ĠTall":13271,"Ġanger":13272,"ĠEsp":13273,"Ġchord":13274,"iang":13275,"ĠShar":13276,"ĠTurks":13277,"Ġsporting":13278,"Ġdescendants":13279,"ĠNewfoundland":13280,"wind":13281,"ĠFab":13282,"osity":13283,"istence":13284,"Ġgravity":13285,"Ġtherapy":13286,"nut":13287,"Ġuprising":13288,"Ġsubsc":13289,"ĠSingle":13290,"Ġcontracted":13291,"Ġcitizen":13292,"Ġlicensed":13293,"Ġneighbouring":13294,"ĠLogan":13295,"Ġgrain":13296,"Ġcreates":13297,"Ġinstruction":13298,"Ġlessons":13299,"ĠSenior":13300,"Ġopted":13301,"Ġbarely":13302,"ĠBeautiful":13303,"ĠSuz":13304,"ĠPorts":13305,"ĠShadow":13306,"Ġtrem":13307,"Ġprivately":13308,"Ġfunctional":13309,"Ġcrowned":13310,"Ġaccomplish":13311,"vor":13312,"ĠMounted":13313,"urse":13314,"ĠPlaza":13315,"Ġbusy":13316,"Ġmasses":13317,"Ġdisputes":13318,"ĠMotor":13319,"Ġdescended":13320,"Ġdelegation":13321,"Ġjumping":13322,"Ġlip":13323,"aston":13324,"Ġcoloured":13325,"Ġregist":13326,"Ġcorridor":13327,"Ġsymmet":13328,"Ġnorthwestward":13329,"Ġtotally":13330,"lia":13331,"ĠBent":13332,"Ġoverh":13333,"Ġvolcano":13334,"ĠHat":13335,"Ġconting":13336,"Ġcaptivity":13337,"ĠProtection":13338,"ĠCircuit":13339,"wig":13340,"Ġoak":13341,"ĠWinc":13342,"Ġdeeper":13343,"Ġinvented":13344,"Ġgenerals":13345,"Ġplanes":13346,"Ã¶r":13347,"Ġcooperation":13348,"ĠBuddhist":13349,"blem":13350,"ĠSenators":13351,"aceous":13352,"Ġcoalition":13353,"Ġatmospheric":13354,"pit":13355,"Ġgran":13356,"Ġhonest":13357,"guard":13358,"Ġsteady":13359,"Ġoutdoor":13360,"ervers":13361,"ovsky":13362,"Ġdelays":13363,"Ġlacks":13364,"Ġfluor":13365,"Ġfile":13366,"Ġ270":13367,"Ġcollision":13368,"ĠLouise":13369,"ĠCaroline":13370,"Ġnecessarily":13371,"ĠJanet":13372,"edge":13373,"Ġreiss":13374,"ĠLaf":13375,"Ġsuburb":13376,"ĠAirborne":13377,"Ġfarming":13378,"onnell":13379,"front":13380,"ĠTiger":13381,"Ġlux":13382,"Ġgamb":13383,"ogs":13384,"Ġrapper":13385,"ĠMotion":13386,"Ġcalm":13387,"Ġambitious":13388,"Ġorient":13389,"isphere":13390,"Ġibn":13391,"Ġchess":13392,"ĠSierra":13393,"Ġnests":13394,"ĠMol":13395,"Ġtracking":13396,"Ġexcessive":13397,"zac":13398,"ripp":13399,"Ġquit":13400,"rosse":13401,"ĠParachute":13402,"ĠGeneration":13403,"Ġfatalities":13404,"ĠAdventures":13405,"Ġeject":13406,"ĠMake":13407,"Ġgreet":13408,"Ġpresum":13409,"ikh":13410,"AL":13411,"icity":13412,"Ġmembr":13413,"ĠTrad":13414,"ĠCrom":13415,"imir":13416,"Ġshadow":13417,"Ġjokes":13418,"Ġdeveloper":13419,"Ġroller":13420,"Ġmutual":13421,"ĠNashville":13422,"ĠProductions":13423,"ĠSpongeB":13424,"how":13425,"ĠChop":13426,"Ġcream":13427,"Ġkeen":13428,"Ġtrophy":13429,"ĠBuch":13430,"ĠNum":13431,"ĠStore":13432,"Ġjoy":13433,"issa":13434,"ĠConsequently":13435,"Ġsixty":13436,"Ġdeclaring":13437,"ĠCommissioner":13438,"achelor":13439,"tage":13440,"ĠBot":13441,"ĠBear":13442,"ĠPut":13443,"Ġshops":13444,"Ġcopyr":13445,"ĠSib":13446,"ĠSep":13447,"Ġlava":13448,"ĠAllMusic":13449,"Ġ146":13450,"Ġteammates":13451,"ĠTab":13452,"ĠOnline":13453,"ĠLynch":13454,"eria":13455,"rez":13456,"ĠHous":13457,"Ġprohibited":13458,"Ġinject":13459,"lend":13460,"ĠHoff":13461,"ĠApart":13462,"ĠGlass":13463,"Ġrecognize":13464,"Ġstruggling":13465,"ĠObserv":13466,"ĠYet":13467,"ĠEmily":13468,"ĠPalmer":13469,"Ġkitchen":13470,"ĠDrama":13471,"ĠShank":13472,"Ġrealizes":13473,"ficial":13474,"ĠRegard":13475,"Ġputs":13476,"Ġdivine":13477,"Ġstreams":13478,"Ġpine":13479,"ĠBri":13480,"Ġgains":13481,"ĠKens":13482,"Ġgenerate":13483,"Ġoperator":13484,"ĠParamount":13485,"ĠDamage":13486,"ĠMaurice":13487,"tz":13488,"Ġdecomp":13489,"Ġhonours":13490,"ĠBusch":13491,"graduate":13492,"isans":13493,"Ġnam":13494,"ĠChall":13495,"Ġunemploy":13496,"ĠSpin":13497,"ĠHarper":13498,"Ġeliminate":13499,"Ġcabin":13500,"Ġaggregate":13501,"Ġdug":13502,"Ġbackup":13503,"Ġedges":13504,"opsis":13505,"Ġattractive":13506,"Ġruins":13507,"Ġpregnancy":13508,"Pa":13509,"entric":13510,"ĠNothing":13511,"oths":13512,"Ġstorylines":13513,"Ġfindings":13514,"ĠGarfield":13515,"ĠMaxim":13516,"Ġremarkable":13517,"Ġauction":13518,"ĠKub":13519,"Ġdisappear":13520,"Ġmerchants":13521,"Ġincomplete":13522,"hand":13523,"ĠMk":13524,"ĠFM":13525,"Ġreserved":13526,"ĠDevon":13527,"ĠPall":13528,"anto":13529,"Ġtrigg":13530,"Ġarbit":13531,"ĠGuatem":13532,"Ġexperts":13533,"lessly":13534,"Ġdraws":13535,"Ġunusually":13536,"Ġreversed":13537,"ãĤ":13538,"ĠCC":13539,"ĠCN":13540,"ĠBod":13541,"ĠHait":13542,"Ġfreed":13543,"ĠChairman":13544,"Ġmuzzle":13545,"ĠPi":13546,"ĠRams":13547,"ĠChancellor":13548,"elfare":13549,"Ġ149":13550,"nolds":13551,"yers":13552,"Ġoperas":13553,"legiate":13554,"Ġacquisition":13555,"ĠLarge":13556,"Ġproceedings":13557,"ĠRhodesia":13558,"Ġconjunction":13559,"oning":13560,"ĠCann":13561,"ĠArctic":13562,"Ġgrants":13563,"Ġimpress":13564,"Ġmetap":13565,"Ġ1874":13566,"Ġsurfaces":13567,"Ġadaptations":13568,"Ġscenario":13569,"ĠJen":13570,"letcher":13571,"ĠSurvey":13572,"ĠPanama":13573,"Ġcaution":13574,"Ġmemorable":13575,"Ġhur":13576,"ayette":13577,"Ġminim":13578,"Ġkeeps":13579,"ĠFranco":13580,"Ġ1848":13581,"Ġlifestyle":13582,"Ġloading":13583,"ĠGriffin":13584,"very":13585,"ĠMyst":13586,"Ġpackage":13587,"Ġridic":13588,"Ġunpop":13589,"Ġperfectly":13590,"ĠRandy":13591,"ĠJunction":13592,"Ġsufficiently":13593,"Ġrestaurants":13594,"Ġsketch":13595,"Ġsubstance":13596,"list":13597,"Ġtennis":13598,"ĠGust":13599,"Ġchances":13600,"Ġsecular":13601,"Ġdecomm":13602,"ĠMoz":13603,"uxili":13604,"Ġfloating":13605,"ĠStarting":13606,"Ġresort":13607,"Ġelectro":13608,"Ġprogression":13609,"ĠArmenia":13610,"raid":13611,"Ġmetropolitan":13612,"aurus":13613,"Ġerosion":13614,"ĠSolomon":13615,"Ġemphasized":13616,"ushes":13617,"ĠKy":13618,"ophical":13619,"Ġtunnels":13620,"Ġallegedly":13621,"ĠFinnish":13622,"Ġveterans":13623,"Ġlobby":13624,"Ġclay":13625,"Ġsoap":13626,"ĠEdwin":13627,"ĠHolmes":13628,"abet":13629,"Ġassessed":13630,"Ġdetached":13631,"ĠValent":13632,"Ġmotorway":13633,"ĠMichelle":13634,"Ġpedest":13635,"Ġshed":13636,"ndum":13637,"Ġhiding":13638,"Ġprinc":13639,"Ġworried":13640,"ĠWindsor":13641,"ĠBott":13642,"Ġconsul":13643,"Ġpray":13644,"Ġmodes":13645,"ĠCarr":13646,"ĠSerbs":13647,"ĠBelle":13648,"ĠJacques":13649,"rolling":13650,"Ġdiving":13651,"ĠNumber":13652,"Ġspo":13653,"ĠHeat":13654,"Ġmonitor":13655,"Ġtransp":13656,"ĠSpongeBob":13657,"Ġincorporates":13658,"ĠLindwall":13659,"Ġclimbing":13660,"ĠTunnel":13661,"Ġfestivals":13662,"rozen":13663,"Ġoverth":13664,"Ġtopic":13665,"Ġ210":13666,"Ġnights":13667,"ĠSoft":13668,"Ġdemonstration":13669,"ĠFormula":13670,"ĠAdvance":13671,"taining":13672,"Ġtum":13673,"ĠJur":13674,"ĠToo":13675,"Ġescal":13676,"ĠArabic":13677,"ĠTrip":13678,"Ġmanifest":13679,"iti":13680,"Ġdors":13681,"ĠBron":13682,"ĠKiss":13683,"Ġtransc":13684,"Ġinvestigated":13685,"ĠÏ":13686,"Ġcentres":13687,"Ġspeeches":13688,"Ġcounteratt":13689,"Ġappreciated":13690,"ho":13691,"pow":13692,"ĠDian":13693,"ocene":13694,"ĠAugustus":13695,"ĠÂµ":13696,"Ġflee":13697,"Ġfloods":13698,"Ġtended":13699,"Ġmobil":13700,"Ġhamlet":13701,"Ġsupplement":13702,"ĠMonday":13703,"olades":13704,"agic":13705,"Ġplutonium":13706,"Ġattachment":13707,"ĠDoug":13708,"Ġranged":13709,"Ġerrors":13710,"ĠClaire":13711,"ĠGerald":13712,"ĠBerkeley":13713,"Ġprosecut":13714,"ĠPierce":13715,"Ġtrap":13716,"ĠSpiel":13717,"ĠPhant":13718,"Ġparam":13719,"ĠBooth":13720,"ĠStanford":13721,"bus":13722,"pes":13723,"imination":13724,"ĠHip":13725,"Ġstance":13726,"Ġrays":13727,"Ġamendment":13728,"ĠSpy":13729,"ĠGuards":13730,"ylum":13731,"ĠPresley":13732,"ĠSold":13733,"ĠMartha":13734,"Ġmodifications":13735,"Ġinternet":13736,"ĠSuperman":13737,"ĠLuis":13738,"ĠLegion":13739,"Ġpleasure":13740,"inguished":13741,"Ġfilter":13742,"Ġdiagnosed":13743,"irk":13744,"ivic":13745,"Ġoverd":13746,"ĠReform":13747,"Ġwarrant":13748,"enne":13749,"Ġqualify":13750,"Ġupgrade":13751,"iability":13752,"Ġease":13753,"ĠMam":13754,"ĠHM":13755,"Ġnotion":13756,"Ġintroducing":13757,"Ġinhabited":13758,"orus":13759,"Ġhaul":13760,"Ġnaked":13761,"Ġsty":13762,"Ġsecuring":13763,"Ġconsent":13764,"Ã¨re":13765,"Ġstrengthening":13766,"Ġmaintains":13767,"ĠBulgaria":13768,"ĠBast":13769,"Ġunst":13770,"Ġgenerations":13771,"Ġconfined":13772,"ĠCuban":13773,"ĠCommercial":13774,"rators":13775,"Ġpushing":13776,"ĠWake":13777,"umar":13778,"ĠEU":13779,"Ġnearest":13780,"Ġ144":13781,"Ġthoughts":13782,"Ġlineup":13783,"Ġcrust":13784,"Ġmerger":13785,"Ġcameras":13786,"ĠSoundtrack":13787,"ĠGy":13788,"ĠYok":13789,"Ġreads":13790,"Ġcomfortable":13791,"Ġfox":13792,"Ġenable":13793,"official":13794,"ĠFinals":13795,"Ġthrust":13796,"ĠBroadcasting":13797,"ĠGabriel":13798,"iche":13799,"Ġincons":13800,"ĠManor":13801,"ĠRecre":13802,"ĠJennings":13803,"pat":13804,"ĠAur":13805,"ĠHoll":13806,"ema":13807,"Ġouts":13808,"ugu":13809,"ĠPrice":13810,"Ġsynth":13811,"ocaust":13812,"Ġbonds":13813,"ĠSue":13814,"Ġstripped":13815,"ĠIllust":13816,"penter":13817,"mate":13818,"Ãª":13819,"Ġinver":13820,"ĠSr":13821,"Ġorgans":13822,"overning":13823,"ĠCollect":13824,"Ġ1851":13825,"iop":13826,"nan":13827,"asi":13828,"ĠCec":13829,"otus":13830,"Ġmetab":13831,"Ġwaterline":13832,"ĠIrving":13833,"ĠChapman":13834,"Ġcolleges":13835,"Ġrevel":13836,"Ġitem":13837,"Ġelectoral":13838,"Ġgrandson":13839,"ĠDelhi":13840,"Ġelderly":13841,"di":13842,"Ġartif":13843,"Ġspeaker":13844,"canal":13845,"ĠHawk":13846,"ĠTurnpike":13847,"ĠWid":13848,"ĠWarwick":13849,"Ġembarr":13850,"ĠAnti":13851,"Ġensemble":13852,"ĠSubsequently":13853,"birds":13854,"zo":13855,"stad":13856,"ichi":13857,"uchi":13858,"Ġdoubles":13859,"mill":13860,"raine":13861,"Ġphyl":13862,"Ġmuscle":13863,"Ġmonkey":13864,"ĠGlenn":13865,"Ġdarkness":13866,"ĠHopkins":13867,"houses":13868,"aude":13869,"erek":13870,"Ġcompat":13871,"veloped":13872,"ĠPrepar":13873,"ĠMirror":13874,"iots":13875,"nor":13876,"inus":13877,"Ġampl":13878,"Ġcarefully":13879,"Ġgraduating":13880,"ĠBerry":13881,"Ġlegitimate":13882,"Ġbrigades":13883,"Ġenthusiastic":13884,"ĠCos":13885,"Ġbutt":13886,"ĠThings":13887,"Ġflags":13888,"Ġsacred":13889,"ĠHayes":13890,"ĠGuadalcanal":13891,"bing":13892,"atoes":13893,"ĠIC":13894,"istically":13895,"Ġmonks":13896,"Ġpreval":13897,"ĠGran":13898,"Ġfrontier":13899,"ĠCrime":13900,"ĠJeffrey":13901,"Ġsuccesses":13902,"Ġbarrier":13903,"Ġlaying":13904,"ĠGoeb":13905,"Ġknock":13906,"Ġsexually":13907,"odon":13908,"ĠMarath":13909,"Ġhonored":13910,"Ġsatir":13911,"ĠBorough":13912,"ĠSpielberg":13913,"hero":13914,"Ġpromising":13915,"Ġdefeats":13916,"Ġconsequently":13917,"icus":13918,"ĠFletcher":13919,"ĠEdgar":13920,"Ġcourage":13921,"Ġmidnight":13922,"Ġstepped":13923,"Ġcere":13924,"lew":13925,"ĠTyr":13926,"ĠLakes":13927,"Ġexceeded":13928,"Ġrestr":13929,"ĠSword":13930,"ĠKenny":13931,"Ġincorporate":13932,"ĠReviews":13933,"ĠBolton":13934,"Ġrookie":13935,"Ġwounds":13936,"anan":13937,"asse":13938,"Ġtool":13939,"avour":13940,"ĠKath":13941,"Ġeleventh":13942,"ĠManager":13943,"ĠSchw":13944,"Ġescapes":13945,"Ġlayout":13946,"Ġexhaust":13947,"Ġspawned":13948,"Ġentertaining":13949,"osystem":13950,"SA":13951,"Ġsus":13952,"ĠRugby":13953,"ĠESP":13954,"Ġschem":13955,"Ġinfected":13956,"ĠSouthampton":13957,"holm":13958,"enhower":13959,
[...]
